[PAD]	0
[UNK]	0
[BOS]	0
[EOS]	0
[unused0]	0
[unused1]	0
[unused2]	0
[unused3]	0
[unused4]	0
[unused5]	0
[unused6]	0
[unused7]	0
[unused8]	0
[unused9]	0
[SEP]	0
[SEPT]	0
[MASK]	0
▁.	-3.33462
▁이	-3.6574
▁는	-3.80732
▁을	-4.0836
▁하	-4.11132
▁에	-4.186
▁다	-4.24538
▁고	-4.25006
▁가	-4.34161
▁은	-4.48753
▁의	-4.53294
▁있	-4.64994
▁를	-4.72918
▁,	-4.74876
▁도	-4.7782
▁	-4.81118
▁?	-4.90597
▁한	-4.91029
▁어	-4.96098
▁들	-4.99823
▁#	-5.04012
▁지	-5.16493
▁게	-5.26529
▁그	-5.29008
▁아	-5.30464
▁나	-5.31793
▁것	-5.34209
▁으로	-5.36682
▁에서	-5.40047
▁거	-5.44468
▁~	-5.53357
▁했	-5.53961
▁로	-5.54404
▁었	-5.55416
▁기	-5.60706
▁해	-5.60955
▁수	-5.61764
▁되	-5.61773
▁적	-5.67077
▁면	-5.68692
▁네	-5.70594
▁보	-5.78571
▁안	-5.79509
▁ᄏᄏᄏᄏ	-5.81414
▁과	-5.86346
▁는데	-5.86956
▁일	-5.89354
▁만	-5.90437
▁"	-5.94701
▁없	-5.95903
▁할	-5.95916
▁!	-6.01249
▁내	-6.01788
▁말	-6.02355
▁같	-6.03289
▁않	-6.05279
▁인	-6.056
▁겠	-6.08469
▁)	-6.09766
▁시	-6.11518
▁야	-6.11593
▁주	-6.1368
▁(	-6.13749
▁와	-6.13928
▁좋	-6.15458
▁아니	-6.18959
▁뭐	-6.20267
▁'	-6.20509
▁먹	-6.20918
▁습니다	-6.26692
▁예	-6.29977
▁자	-6.3068
▁사람	-6.33248
▁서	-6.36653
▁때	-6.37567
▁우리	-6.4315
▁던	-6.44167
▁오	-6.44329
▁았	-6.48001
▁어요	-6.56137
▁생각	-6.56641
▁라고	-6.57491
▁년	-6.57563
▁더	-6.59929
▁잘	-6.60135
▁음	-6.60849
▁라	-6.63793
▁죠	-6.6515
▁1	-6.65273
▁지금	-6.65706
▁좀	-6.66318
▁까지	-6.66887
▁근데	-6.67095
▁저	-6.68367
▁사	-6.70326
▁이제	-6.70851
▁지만	-6.71472
▁또	-6.71763
▁..	-6.73123
▁전	-6.73572
▁받	-6.73883
▁...	-6.75441
지	-6.75444
▁대	-6.75693
▁그런	-6.75922
▁등	-6.78536
▁알	-6.81254
▁다고	-6.81766
▁면서	-6.8202
▁ᄏᄏᄏ	-6.82111
▁한다	-6.82519
▁2	-6.82903
▁원	-6.84563
▁두	-6.86586
▁에게	-6.86873
▁이런	-6.87384
▁여	-6.87457
▁해서	-6.87833
▁제	-6.88162
이	-6.88528
▁싶	-6.88948
▁많	-6.89654
▁된	-6.9021
리	-6.90248
▁번	-6.91108
▁중	-6.91305
▁니	-6.91909
기	-6.92932
▁너무	-6.9337
▁ᄏᄏ	-6.9425
▁가지	-6.94834
▁그래서	-6.96055
▁때문	-6.96888
▁분	-6.97017
▁성	-6.9739
▁님	-6.97442
▁며	-6.97698
자	-6.97927
▁3	-6.98878
▁개	-6.99648
▁라는	-6.99682
▁진짜	-6.99979
▁요	-7.00064
▁집	-7.00681
▁그렇	-7.0233
▁많이	-7.02759
▁다는	-7.03931
▁맞	-7.05992
▁어서	-7.06928
▁이렇게	-7.08212
▁니까	-7.09107
▁데	-7.09257
▁ᅲᅲ	-7.09601
▁구	-7.13029
▁시간	-7.14158
▁오늘	-7.14203
▁왜	-7.14246
▁그리고	-7.15798
▁못	-7.16747
▁ᄏ	-7.19862
▁였	-7.19924
▁살	-7.20056
▁그냥	-7.20179
▁그러	-7.22038
▁#@	-7.23185
서	-7.23995
스	-7.2411
사	-7.24357
▁너	-7.24425
▁명	-7.24452
도	-7.24794
▁보다	-7.24879
▁으면	-7.25213
▁해야	-7.25736
가	-7.26344
▁-	-7.26582
▁화	-7.26603
▁신	-7.26611
▁부터	-7.29309
▁하나	-7.32113
▁사실	-7.34336
▁월	-7.34911
▁애	-7.35377
▁난	-7.37231
▁4	-7.37654
▁정도	-7.3826
▁건	-7.39155
▁될	-7.39254
▁문제	-7.39543
▁십	-7.39635
▁막	-7.40112
▁다른	-7.4036
▁얘기	-7.40375
▁어떤	-7.4062
▁대한	-7.40861
수	-7.4241
다	-7.4269
▁친구	-7.4318
▁입니다	-7.43475
▁이름	-7.43868
인	-7.44055
▁랑	-7.44633
▁5	-7.45014
▁이나	-7.46407
▁씨	-7.46514
▁비	-7.47804
▁‘	-7.48324
▁다가	-7.49172
▁줄	-7.50181
▁“	-7.50271
▁”	-7.50728
장	-7.51533
▁그거	-7.53303
▁차	-7.53313
▁’	-7.53451
▁그램	-7.53549
▁됐	-7.53696
대	-7.53981
▁남	-7.54251
▁아요	-7.54489
▁응	-7.55489
시	-7.5564
▁돈	-7.55705
▁물	-7.55873
▁세	-7.56807
▁날	-7.57106
▁걸	-7.57578
▁경우	-7.58137
진	-7.5816
▁타	-7.6009
▁합니다	-7.60343
라	-7.60641
▁처럼	-7.60658
▁된다	-7.60682
치	-7.60767
▁앞	-7.60783
▁아이	-7.61141
▁정말	-7.61442
▁함	-7.61544
▁어떻게	-7.61859
▁달	-7.6242
▁위	-7.62612
▁:	-7.6279
요	-7.63056
▁셨	-7.63127
▁다음	-7.63195
▁다시	-7.63711
▁네요	-7.64009
▁후	-7.64033
▁삼	-7.64273
▁자신	-7.6436
하	-7.64895
▁만들	-7.65146
▁냐	-7.65164
▁길	-7.65234
▁같이	-7.65468
▁쓰	-7.6617
어	-7.66646
▁한테	-7.66672
▁봤	-7.66918
▁듯	-7.66938
▁점	-7.68259
▁여기	-7.68456
▁입	-7.6868
▁장	-7.69171
▁모르	-7.69288
▁ᅲ	-7.69372
▁인데	-7.69599
▁자기	-7.71414
▁당	-7.7143
▁마음	-7.71594
▁간	-7.71991
▁이번	-7.72238
▁넘	-7.72263
▁그럼	-7.72847
▁속	-7.7286
▁사진	-7.73327
▁천	-7.75002
▁아서	-7.75068
▁조	-7.75219
▁시작	-7.75628
▁이상	-7.75804
▁부	-7.76448
▁볼	-7.76454
▁나오	-7.7652
▁거기	-7.7729
▁마	-7.77699
동	-7.77906
▁한국	-7.78451
▁긴	-7.78574
주	-7.79173
▁·	-7.79193
아	-7.79335
▁엄마	-7.79425
▁돼	-7.79611
▁불	-7.79943
▁필요	-7.80053
▁10	-7.80411
구	-7.80556
▁맛	-7.80674
▁가능	-7.81018
야	-7.81044
성	-7.81583
▁이거	-7.81612
▁6	-7.81641
고	-7.82041
▁맛있	-7.82176
▁그것	-7.82239
▁곳	-7.82461
▁세요	-7.8298
▁그래	-7.83612
▁이게	-7.8376
▁함께	-7.84043
▁계속	-7.844
▁미	-7.85151
▁바로	-7.85289
비	-7.85589
▁팔	-7.8571
▁잖아	-7.86028
부	-7.86387
▁열	-7.86662
상	-7.87153
나	-7.87269
▁진	-7.87275
▁봐	-7.87505
▁왔	-7.88332
▁눈	-7.88484
▁상황	-7.88615
▁스타	-7.88744
▁무	-7.89651
▁큰	-7.89657
원	-7.89844
▁상	-7.90574
▁이야기	-7.90905
▁영화	-7.91063
로	-7.9134
▁인제	-7.91649
▁는지	-7.9167
▁위해	-7.91718
▁김	-7.91809
▁사회	-7.9202
▁치	-7.92911
▁바	-7.93044
▁배	-7.93127
▁권	-7.93236
▁백	-7.93243
▁가장	-7.93505
▁아직	-7.93785
미	-7.94006
▁소	-7.94417
우	-7.94555
▁놓	-7.94891
▁그런데	-7.95245
▁반	-7.95429
▁뒤	-7.95961
▁그게	-7.96194
드	-7.96515
전	-7.96587
▁어디	-7.9711
▁`	-7.9729
▁은데	-7.97379
▁갔	-7.97886
▁손	-7.97923
▁몇	-7.9865
정	-7.98941
▁실	-7.99127
▁찾	-7.99656
▁정	-8.00146
▁참	-8.00886
▁7	-8.0158
▁박	-8.01806
▁엔	-8.02142
▁갈	-8.02239
▁도록	-8.02316
▁유	-8.02421
선	-8.02622
▁무슨	-8.02866
▁%	-8.03013
▁그때	-8.03047
▁사용	-8.03082
▁부분	-8.03294
▁본	-8.03783
그렇게	-8.03813
▁크	-8.03968
▁잡	-8.04998
▁어야	-8.05012
▁예요	-8.05092
▁책	-8.05534
▁처음	-8.05698
▁그러나	-8.06569
▁형	-8.07053
▁보이	-8.07214
▁밥	-8.07282
▁끝	-8.07708
▁8	-8.08366
▁학교	-8.08568
보	-8.0857
▁/	-8.0869
▁ᄒᄒ	-8.08898
▁단	-8.09119
▁지역	-8.09182
▁조금	-8.09206
▁미국	-8.09326
히	-8.0944
▁거든요	-8.09652
▁러	-8.09655
▁방	-8.0998
▁이러	-8.10018
▁선	-8.10337
▁이랑	-8.10668
마	-8.10755
식	-8.10881
▁운동	-8.11074
▁사랑	-8.11399
▁모든	-8.11875
▁중요	-8.11902
▁잇	-8.11964
▁거나	-8.12162
▁갖	-8.12628
▁양	-8.12835
제	-8.1306
▁대표	-8.13083
오	-8.13231
▁요즘	-8.13381
▁에요	-8.13567
▁피	-8.13793
▁대통령	-8.14298
▁재	-8.14925
세	-8.15414
▁세계	-8.15595
▁회사	-8.15846
▁호	-8.15855
▁산	-8.15874
니	-8.15997
▁노	-8.16336
▁뿐	-8.16555
▁군요	-8.16688
일	-8.16975
▁나라	-8.16977
▁말씀	-8.17028
소	-8.17114
▁일단	-8.17925
▁그래도	-8.18024
▁임	-8.18297
▁여자	-8.18499
▁인가	-8.18731
▁모두	-8.18733
▁정부	-8.18841
▁기업	-8.18881
▁넣	-8.1964
▁약간	-8.19659
▁시장	-8.19801
화	-8.20151
▁몸	-8.20401
▁스	-8.20895
▁만나	-8.2108
▁준비	-8.21086
▁하지만	-8.2139
▁면은	-8.21505
▁온	-8.22283
▁죽	-8.22306
▁나가	-8.22309
▁언니	-8.22799
▁시스템	-8.23114
트	-8.23219
▁문	-8.23654
▁서울	-8.24177
▁일본	-8.24248
산	-8.24403
▁9	-8.24834
▁높	-8.25076
▁억	-8.25188
▁ᆞ	-8.25447
▁따라	-8.25559
▁동안	-8.26771
▁리	-8.26831
▁방법	-8.27137
▁그니까	-8.2715
▁여행	-8.27176
▁경제	-8.27378
▁쪽	-8.27419
▁모	-8.27492
▁우	-8.27523
▁해도	-8.27838
▁정치	-8.27947
▁군	-8.28298
▁소리	-8.28469
▁괜찮	-8.28617
▁파	-8.28688
▁해요	-8.28891
▁감	-8.29025
▁통해	-8.29043
▁느낌	-8.29269
▁ᅮᅮ	-8.29566
▁name	-8.29851
▁그러니까	-8.30283
▁들어가	-8.303
▁려고	-8.30645
▁이유	-8.30656
▁거든	-8.30659
▁을까	-8.30791
▁드	-8.3093
▁찍	-8.31001
▁글	-8.31312
영	-8.31321
▁대해서	-8.31471
▁남자	-8.31519
▁관련	-8.31585
▁용	-8.31991
▁없이	-8.32428
▁강	-8.32515
물	-8.32865
▁모습	-8.32985
▁관계	-8.33155
르	-8.33377
▁발	-8.33632
▁교육	-8.3379
▁중국	-8.34039
▁식	-8.34048
▁힘들	-8.34139
▁씩	-8.34501
▁건강	-8.34565
▁....	-8.34793
▁<	-8.34795
▁초	-8.34877
▁는데요	-8.35367
신	-8.35443
▁아주	-8.35445
▁새	-8.35596
▁법	-8.35647
▁고요	-8.3573
▁다면	-8.36153
▁인간	-8.37272
▁국민	-8.37466
문	-8.37509
▁공	-8.37742
▁내용	-8.37952
▁작	-8.38047
▁딱	-8.3812
▁사업	-8.38308
▁으니까	-8.38506
▁자리	-8.38592
▁위한	-8.38699
▁는다	-8.3895
▁째	-8.39241
관	-8.39354
▁든	-8.39376
▁란	-8.3938
▁여러	-8.39468
▁20	-8.39603
▁보내	-8.39709
▁>	-8.39787
▁결과	-8.4033
▁굉장히	-8.40406
조	-8.40411
▁특히	-8.40436
단	-8.40607
▁시키	-8.40998
▁라도	-8.4109
▁역시	-8.41751
▁거의	-8.41958
▁다니	-8.42103
▁의원	-8.42613
▁인지	-8.43469
▁싫	-8.43555
▁먼저	-8.43782
만	-8.43783
▁가족	-8.44068
▁힘	-8.44499
▁지난	-8.44517
▁머리	-8.44932
▁담	-8.451
▁대해	-8.45136
▁별	-8.45182
▁습니까	-8.45189
경	-8.45535
▁국가	-8.4556
▁더니	-8.45579
▁뭔가	-8.45619
▁엄청	-8.45904
▁사이	-8.46018
▁얼굴	-8.46157
▁이것	-8.46382
방	-8.46408
▁생	-8.46445
▁이후	-8.46626
데	-8.46648
▁및	-8.46688
▁걱정	-8.4671
▁영	-8.4671
▁듣	-8.46739
▁못하	-8.46756
호	-8.46821
▁약	-8.46893
질	-8.47161
▁기분	-8.4734
감	-8.47362
▁편	-8.47476
면	-8.4751
린	-8.47568
▁잖아요	-8.4758
▁공부	-8.47602
▁연	-8.4767
▁그랬	-8.47674
▁어느	-8.4768
▁의미	-8.47864
▁아침	-8.47959
▁꼭	-8.48315
▁학생	-8.48334
▁관리	-8.48668
▁둘	-8.4876
▁문화	-8.49129
▁과정	-8.49133
▁나요	-8.49292
▁생활	-8.49389
▁술	-8.49554
차	-8.49637
▁이미	-8.4979
▁어제	-8.50014
▁30	-8.50173
▁ᄒ	-8.50255
▁결국	-8.50291
▁선생	-8.50341
▁물론	-8.50419
▁읽	-8.50741
력	-8.50743
▁되게	-8.50762
▁올	-8.5148
▁북한	-8.51615
민	-8.51626
석	-8.51791
모	-8.51855
국	-8.51997
▁전화	-8.52109
▁하루	-8.5241
▁언제	-8.52634
▁회	-8.52701
▁나왔	-8.53128
▁누구	-8.53287
▁혼자	-8.53357
▁12	-8.53773
▁질	-8.53912
▁보여	-8.53939
▁내일	-8.5407
▁위해서	-8.54142
▁활동	-8.54218
▁원래	-8.54243
▁지원	-8.54327
▁머	-8.54482
▁현재	-8.54767
▁무엇	-8.54809
당	-8.54812
▁그녀	-8.5497
연	-8.55257
▁마다	-8.55418
▁외	-8.5559
▁이해	-8.55797
의	-8.5611
한	-8.56285
▁_	-8.56316
▁웅	-8.56526
려	-8.56668
▁대로	-8.56796
해	-8.56871
▁코	-8.56881
실	-8.57258
▁으며	-8.5729
▁저희	-8.57551
▁계획	-8.57568
▁구요	-8.57654
▁^^	-8.58113
▁세상	-8.58298
재	-8.58335
▁준	-8.5851
두	-8.58612
▁기억	-8.5866
▁저녁	-8.58738
▁맛집	-8.58806
▁밖에	-8.58861
▁더라	-8.58887
▁정보	-8.58936
심	-8.58991
디	-8.59393
▁사건	-8.59412
▁상태	-8.59491
▁첫	-8.59908
▁구나	-8.60065
군	-8.6015
▁직접	-8.60179
렇게	-8.60199
타	-8.60339
▁``	-8.60787
▁설명	-8.60788
▁새로운	-8.61011
▁당신	-8.61075
▁다양	-8.61293
▁라면	-8.61551
▁여성	-8.61741
▁채	-8.62015
금	-8.62046
▁경	-8.62082
▁11	-8.6246
▁ᅮ	-8.62655
▁결정	-8.62661
▁케	-8.62664
▁만큼	-8.62702
법	-8.62746
▁가격	-8.62928
안	-8.63062
▁동	-8.6307
래	-8.63127
▁그러면	-8.63438
회	-8.63545
▁육	-8.63721
▁대학	-8.63924
▁갑자기	-8.64011
▁놀	-8.64041
▁제품	-8.64043
▁밖	-8.64157
▁조사	-8.64208
▁헐	-8.64247
학	-8.64567
▁써	-8.6458
▁쉽	-8.64735
▁빨리	-8.64735
▁당시	-8.64814
파	-8.64816
▁한다는	-8.64817
▁늘	-8.64924
▁;	-8.65289
▁디	-8.65405
▁고민	-8.65825
▁진행	-8.66171
거	-8.66243
▁밤	-8.66263
러	-8.6643
용	-8.66831
▁그건	-8.66871
▁개인	-8.66931
▁겟	-8.67428
▁자체	-8.67773
▁삶	-8.6834
▁최근	-8.68591
▁최고	-8.68862
s	-8.69132
▁따	-8.69294
▁아들	-8.69495
▁아빠	-8.69546
크	-8.69557
프	-8.69664
역	-8.69709
▁돌	-8.69714
▁걔	-8.70131
▁기술	-8.70382
▁입장	-8.7041
▁이용	-8.7054
▁투자	-8.70829
▁완전	-8.71112
▁금	-8.71127
여	-8.71142
▁최	-8.71497
▁교수	-8.71539
▁얼마	-8.71548
▁확인	-8.71604
▁한다고	-8.71698
▁풀	-8.71701
▁햇	-8.71745
▁19	-8.71817
▁감사	-8.71829
▁후보	-8.71918
▁쉬	-8.72007
레	-8.72155
▁계	-8.72171
▁심	-8.72265
무	-8.72272
유	-8.72525
위	-8.72865
▁연구	-8.72978
▁얼마나	-8.73199
▁울	-8.7328
▁옷	-8.73438
▁역사	-8.73529
▁까	-8.73576
▁티	-8.73639
▁아야	-8.73713
▁노래	-8.73748
▁결혼	-8.73761
현	-8.73939
▁카페	-8.74068
▁으	-8.74489
▁병원	-8.74779
▁관심	-8.74916
▁믿	-8.74969
명	-8.75059
▁총	-8.7518
바	-8.75183
▁서로	-8.75239
▁추천	-8.75691
▁카	-8.757
▁허	-8.75772
▁어도	-8.75813
▁ᄋᄋ	-8.75877
▁행복	-8.7596
▁마지막	-8.76116
양	-8.76443
▁칠	-8.76457
운	-8.76678
▁앉	-8.76678
▁ᄀ	-8.76859
▁개발	-8.7691
▁또한	-8.76917
▁평가	-8.76992
▁기대	-8.77451
▁음식	-8.77619
▁정책	-8.77777
▁꺼	-8.7794
▁아닌	-8.77987
▁정신	-8.7804
▁병	-8.78099
▁키	-8.78182
림	-8.78269
병	-8.78419
▁시대	-8.78816
▁제일	-8.79281
▁오빠	-8.79288
종	-8.7939
▁순	-8.79418
내	-8.79578
은	-8.79586
▁각	-8.79601
▁나이	-8.79898
▁오래	-8.80101
간	-8.80123
▁왕	-8.80134
▁게임	-8.80257
▁효과	-8.80384
▁주장	-8.80386
점	-8.80646
▁얻	-8.80704
▁남편	-8.80999
▁잠	-8.81293
▁자연	-8.81379
▁매	-8.81467
▁한데	-8.81504
▁노력	-8.81541
▁부모	-8.81581
▁아무	-8.8166
루	-8.81782
▁옆	-8.82103
▁포	-8.82138
▁을까요	-8.82142
▁일상	-8.82236
▁귀	-8.82309
▁선택	-8.8268
▁자유	-8.83119
▁늦	-8.83122
▁쯤	-8.83198
천	-8.83383
▁A	-8.83514
▁경기	-8.83716
▁방송	-8.83893
▁팀	-8.83894
카	-8.84322
▁잘못	-8.84385
임	-8.84675
▁열심히	-8.85129
▁해결	-8.85465
▁별로	-8.85831
까	-8.85937
▁그럴	-8.8615
들	-8.86217
▁15	-8.86265
▁아버지	-8.86281
▁그걸	-8.86522
▁」	-8.86557
▁아까	-8.86606
▁아마	-8.86965
▁성공	-8.87015
계	-8.87062
▁됩니다	-8.87271
▁으니	-8.87411
▁맘	-8.87414
▁변화	-8.87821
▁관	-8.87854
▁대상	-8.87997
▁「	-8.88103
▁기록	-8.88164
포	-8.88308
▁와서	-8.8834
▁올해	-8.88413
▁딸	-8.88432
▁일반	-8.88494
▁존재	-8.88675
▁줬	-8.88914
▁층	-8.8926
즈	-8.89489
공	-8.89583
▁봐야	-8.89769
체	-8.89827
희	-8.89942
중	-8.90271
▁선수	-8.90549
노	-8.90777
▁건데	-8.90861
▁전체	-8.90886
▁표현	-8.91217
▁트	-8.91237
▁『	-8.91271
▁드리	-8.91392
▁테	-8.91449
▁피부	-8.91592
▁기본	-8.91598
▁통	-8.91662
▁국내	-8.91934
▁싸	-8.92365
▁목	-8.92383
▁낮	-8.92395
▁현실	-8.92407
티	-8.92686
▁빵	-8.93004
피	-8.93011
▁꿈	-8.9328
▁빼	-8.93607
▁잖	-8.93748
▁도움	-8.93755
▁선물	-8.93816
생	-8.93845
▁항상	-8.9396
▁는가	-8.94147
▁께서	-8.94152
▁벌	-8.94182
▁버리	-8.94311
▁토	-8.94421
▁로서	-8.94449
▁웃	-8.94464
▁작품	-8.94899
태	-8.94996
▁재밌	-8.95039
▁제대로	-8.95065
▁!!	-8.95338
▁쫌	-8.95391
발	-8.95621
▁어머니	-8.95997
▁지요	-8.9615
▁던데	-8.96192
▁인정	-8.96427
▁도시	-8.96526
▁스럽	-8.96577
음	-8.96641
▁또는	-8.96657
▁나중	-8.9666
▁급	-8.96683
▁사고	-8.9669
▁더라고	-8.96836
▁0	-8.97123
통	-8.97384
▁참여	-8.97566
▁뜻	-8.97744
게	-8.97801
색	-8.9787
▁지방	-8.98129
▁18	-8.98337
▁누가	-8.98467
▁커피	-8.98478
키	-8.9861
▁산업	-8.98926
▁시켜	-8.98996
▁밝혔	-8.99207
▁기준	-8.99209
▁대화	-8.99412
▁겁니다	-8.99499
▁네네	-8.99559
▁루	-8.99811
▁S	-8.99913
▁더라구요	-9.00194
▁청	-9.00223
▁가운데	-9.00666
▁100	-9.00677
▁감독	-9.00751
▁느끼	-9.0082
져	-9.00927
▁따라서	-9.00943
형	-9.0108
교	-9.01472
네	-9.01476
▁께	-9.01529
▁B	-9.01592
▁운영	-9.01631
▁현	-9.01762
판	-9.0178
▁종	-9.01933
량	-9.01964
적	-9.01967
▁했었	-9.01996
▁행동	-9.02014
▁부산	-9.02115
▁고기	-9.02263
▁순간	-9.02402
▁엇	-9.02534
▁끼	-9.02619
릴	-9.028
▁안녕	-9.02929
▁래	-9.031
▁경험	-9.03109
▁중심	-9.03125
▁느냐	-9.03168
렸	-9.03274
▁마시	-9.03455
토	-9.03504
▁시험	-9.03615
▁국	-9.03639
▁주변	-9.03645
▁오히려	-9.0365
▁환경	-9.03735
▁나온	-9.03804
▁라서	-9.03969
▁발생	-9.04169
▁유지	-9.04326
▁이건	-9.04538
▁어떻	-9.04697
▁인사	-9.04826
▁C	-9.04896
▁기간	-9.04978
▁즉	-9.05038
▁차이	-9.05102
▁서비스	-9.05122
▁역할	-9.05153
▁걍	-9.05156
▁배우	-9.05225
▁능력	-9.05278
길	-9.05308
울	-9.05367
▁다르	-9.05766
는	-9.05942
▁발표	-9.06265
▁북	-9.06388
▁프로	-9.06405
약	-9.0648
▁역	-9.06683
▁거리	-9.06871
▁일어나	-9.07023
▁방식	-9.07037
▁봄	-9.07102
▁엉	-9.07295
▁민	-9.0757
▁주문	-9.07627
▁경찰	-9.07721
코	-9.07975
▁다이어트	-9.07994
▁줘	-9.0808
▁m	-9.08181
과	-9.08231
▁더라도	-9.08306
▁어렵	-9.08595
▁분위기	-9.08667
청	-9.08767
▁분석	-9.08832
▁대부분	-9.08833
랑	-9.08945
▁점심	-9.09005
▁낼	-9.09008
터	-9.09013
집	-9.09068
▁발전	-9.09106
▁버	-9.09124
▁수준	-9.09184
▁개월	-9.09211
▁구조	-9.0922
▁자꾸	-9.09244
▁만약	-9.09508
▁연락	-9.09655
▁본인	-9.09901
▁비슷	-9.09994
▁곧	-9.10101
▁지나	-9.10104
▁친	-9.10459
▁요구	-9.10522
난	-9.10595
▁상대	-9.10679
그	-9.10685
▁자주	-9.10758
▁보통	-9.10794
란	-9.11034
▁주말	-9.11086
준	-9.11108
▁레	-9.11378
▁구성	-9.11413
▁전혀	-9.11481
▁인생	-9.11491
▁못했	-9.11725
▁누	-9.11728
▁직원	-9.11759
▁아내	-9.11872
▁️	-9.11879
▁이모티콘	-9.1195
▁홍	-9.12079
▁성장	-9.12099
▁그대로	-9.12206
▁투	-9.12237
▁제공	-9.12339
에	-9.12651
▁났	-9.12727
▁시민	-9.12779
▁냐고	-9.12942
▁교	-9.12981
▁사장	-9.13142
▁포함	-9.13143
▁기관	-9.13145
▁대신	-9.13308
▁더욱	-9.13354
▁선거	-9.13473
행	-9.1358
▁D	-9.13949
▁책임	-9.14024
분	-9.14099
▁음악	-9.14311
▁송	-9.14421
▁ᄒᄒᄒ	-9.14424
강	-9.14437
▁만든	-9.14475
▁베	-9.14593
▁꽃	-9.14647
▁뭘	-9.14698
▁졌	-9.14711
▁황	-9.14711
▁조직	-9.14728
▁나와	-9.14841
개	-9.15075
▁제도	-9.15136
▁국제	-9.15214
▁향	-9.15427
▁메	-9.15914
▁우선	-9.1597
락	-9.16026
▁조선	-9.16051
▁혹시	-9.16182
▁예정	-9.16328
▁50	-9.16773
▁숨	-9.16782
▁기자	-9.16898
▁유명	-9.17011
▁답	-9.17192
▁기회	-9.17199
▁기능	-9.17323
▁잔	-9.17515
▁지난해	-9.17541
온	-9.17647
▁그림	-9.17653
▁바람	-9.1788
▁공간	-9.17953
▁회장	-9.17988
▁신경	-9.18046
▁으시	-9.18111
▁+	-9.1821
▁생산	-9.18284
▁행사	-9.18331
▁스스로	-9.18456
▁아냐	-9.185
▁금융	-9.18807
류	-9.19119
▁존	-9.19138
더	-9.1926
▁땅	-9.19299
승	-9.1939
직	-9.19448
증	-9.19613
▁마련	-9.20181
▁업체	-9.20221
▁ᄋ	-9.20228
▁영향	-9.20345
▁프로그램	-9.20402
▁가치	-9.20455
▁몰라	-9.20573
▁정상	-9.20577
▁그치	-9.20617
▁판	-9.20754
▁여러분	-9.20755
박	-9.2084
작	-9.20879
▁매일	-9.20961
▁정리	-9.21063
졌	-9.21362
근	-9.21375
▁소통	-9.21448
▁그리	-9.21587
▁예전	-9.21613
창	-9.21649
▁존나	-9.21765
▁궁금	-9.21772
▁짜	-9.21805
▁미래	-9.21911
설	-9.22056
▁윤	-9.22142
▁절	-9.22188
▁질문	-9.22502
▁발견	-9.22536
▁동생	-9.22536
주의	-9.22599
▁감정	-9.22761
▁소개	-9.22909
▁텐데	-9.22923
▁표	-9.23059
론	-9.23109
▁P	-9.2315
▁과거	-9.23402
▁목소리	-9.23406
▁맡	-9.23518
▁벌써	-9.23611
▁부족	-9.23613
▁작가	-9.23627
▁도착	-9.23696
▁전쟁	-9.23825
▁』	-9.23837
▁맨날	-9.23891
남	-9.23908
▁메뉴	-9.23935
▁추가	-9.2408
▁고객	-9.24251
▁듯이	-9.2442
▁따르	-9.24476
▁일부	-9.24531
▁매우	-9.24613
▁암	-9.24711
▁승	-9.24753
▁여름	-9.25282
▁단계	-9.25301
▁수사	-9.25402
▁규모	-9.25425
▁버스	-9.25553
▁과학	-9.2562
▁부담	-9.25622
▁국회	-9.25625
▁태	-9.25744
▁위험	-9.25927
▁전략	-9.25931
어지	-9.26221
▁전문	-9.26237
▁쓸	-9.26254
▁판단	-9.26336
▁알려	-9.26383
복	-9.26523
▁판매	-9.26704
▁은행	-9.26779
▁반대	-9.26783
▁평	-9.26902
▁실제로	-9.26933
▁목표	-9.27126
▁처	-9.27253
업	-9.27344
철	-9.27433
▁이루	-9.27546
▁활용	-9.276
▁으로써	-9.27729
▁으면서	-9.27756
▁더라고요	-9.27774
▁려는	-9.27816
다는	-9.27937
▁붙	-9.27966
▁밀	-9.28021
저	-9.28028
▁16	-9.28134
각	-9.28144
▁M	-9.28775
▁카드	-9.28781
▁넌	-9.28984
▁옛날	-9.29032
▁생기	-9.29071
▁라며	-9.29261
▁짓	-9.29347
▁@	-9.29612
▁직	-9.29885
매	-9.30023
▁영어	-9.30178
▁마치	-9.30372
▁로부터	-9.30384
▁체	-9.30436
▁회의	-9.3047
▁치료	-9.30559
거리	-9.30608
▁현대	-9.30723
▁옹	-9.30789
▁추진	-9.31235
▁으로서	-9.31322
▁절대	-9.31369
▁뽑	-9.31392
▁하고	-9.31414
▁17	-9.3151
▁업무	-9.31587
▁바라	-9.31668
▁방문	-9.3177
▁만드	-9.31801
▁공개	-9.31804
▁대박	-9.31921
▁아닌가	-9.31939
▁그래요	-9.31996
▁상품	-9.32069
▁영상	-9.32117
▁저기	-9.32137
▁단체	-9.32165
목	-9.3217
▁복	-9.32179
▁몰	-9.3222
▁요리	-9.32248
▁인터넷	-9.32357
▁덜	-9.32433
▁커	-9.32461
▁터	-9.32532
▁위치	-9.32563
▁13	-9.32653
버	-9.32769
▁지적	-9.3282
▁추	-9.32971
▁져	-9.33081
▁석	-9.33219
▁겨울	-9.33317
▁의식	-9.33495
▁플	-9.33509
▁수업	-9.33609
망	-9.33634
▁오후	-9.33784
▁비교	-9.34014
▁분야	-9.34056
▁기사	-9.34154
▁s	-9.34162
▁]	-9.34192
덕	-9.34245
▁설	-9.34254
▁악	-9.34421
▁봐요	-9.34462
름	-9.34537
▁신청	-9.34639
▁셔서	-9.34669
▁특별	-9.34691
▁앗	-9.34815
▁의사	-9.34864
▁육아	-9.35007
▁짐	-9.35085
▁다행	-9.35239
▁부르	-9.35274
▁독	-9.35476
▁얼	-9.356
▁창	-9.35886
▁론	-9.36013
▁문학	-9.3612
▁달리	-9.36128
▁40	-9.36235
권	-9.36479
▁센터	-9.3653
▁작업	-9.36608
▁훨씬	-9.36618
▁[	-9.3665
▁미안	-9.3706
▁대회	-9.37415
▁봉	-9.37459
▁주민	-9.37673
했	-9.37694
▁상당히	-9.3773
▁행위	-9.3776
추	-9.37858
▁검	-9.37996
▁검찰	-9.38022
▁크림	-9.38073
▁위원회	-9.38085
열	-9.38279
▁젊	-9.38346
▁얘	-9.38453
▁측	-9.38496
▁14	-9.38502
▁집중	-9.3862
▁기다리	-9.3865
▁아기	-9.38696
▁대구	-9.38817
▁현장	-9.3882
반	-9.38846
▁25	-9.38982
▁한편	-9.39074
▁색	-9.39414
▁깨	-9.39499
▁강조	-9.39539
속	-9.3957
▁예상	-9.396
다고	-9.39603
▁관계자	-9.39767
▁밑	-9.39803
▁G	-9.39926
초	-9.39963
▁끊	-9.40025
▁걸로	-9.40026
▁마을	-9.40072
▁이날	-9.40302
▁통해서	-9.40314
▁홈	-9.4054
▁먹스	-9.4063
▁골	-9.40641
▁퍼	-9.40662
달	-9.40694
▁낫	-9.40826
▁K	-9.40916
▁피해	-9.41228
▁일찍	-9.41286
▁약속	-9.4136
와	-9.41376
▁의견	-9.41427
언	-9.4164
▁아프	-9.41811
▁탈	-9.42011
건	-9.42091
▁따로	-9.42171
▁인식	-9.42269
▁시기	-9.42291
살	-9.42353
▁려	-9.42356
▁전국	-9.42524
▁검사	-9.42568
▁시설	-9.42627
▁돌아가	-9.42811
▁직장	-9.42829
▁깊	-9.42846
▁동시	-9.42885
출	-9.42991
▁려면	-9.4323
령	-9.43311
▁아파트	-9.43326
▁넹	-9.43357
▁증가	-9.43526
봉	-9.43534
▁아래	-9.4357
▁안전	-9.43623
▁비판	-9.43646
▁묻	-9.4384
▁꼬	-9.43862
▁제주	-9.43907
▁보험	-9.43986
할	-9.44144
▁저거	-9.4417
▁맨	-9.44278
▁자료	-9.44279
▁하늘	-9.44384
불	-9.44425
▁행	-9.44447
▁미리	-9.4474
▁똑같	-9.45009
▁된다고	-9.4525
▁강화	-9.45305
▁소설	-9.45338
▁아예	-9.45348
▁못한	-9.4535
▁처리	-9.45511
▁률	-9.45584
▁연결	-9.45689
▁업	-9.45753
▁팬	-9.45938
▁잠깐	-9.45946
▁날씨	-9.46001
▁공격	-9.4622
▁경쟁	-9.46232
▁덕	-9.46262
▁해당	-9.46443
▁어려운	-9.46524
▁틀	-9.46749
▁광	-9.46794
▁곤	-9.46797
▁기존	-9.46985
▁스트레스	-9.47095
▁식사	-9.47117
▁솔직히	-9.472
▁불안	-9.47211
▁보였	-9.47224
급	-9.47258
▁만족	-9.4774
▁운	-9.47742
▁목적	-9.47776
▁해외	-9.47838
▁관한	-9.47873
▁놈	-9.48045
▁비싸	-9.48058
배	-9.48096
▁일정	-9.48183
담	-9.48207
▁샀	-9.48279
날	-9.48304
▁광고	-9.48373
▁스타일	-9.484
▁중간	-9.48413
▁곡	-9.48428
▁모양	-9.48469
▁인물	-9.48473
브	-9.48554
▁잃	-9.48593
▁방향	-9.48654
▁비용	-9.4875
▁보호	-9.48771
▁닭	-9.48795
▁치킨	-9.4881
▁장관	-9.4899
▁나무	-9.49022
▁가슴	-9.49088
▁주택	-9.49117
▁내년	-9.49156
▁미친	-9.4919
▁달러	-9.49364
▁칼	-9.49375
▁언론	-9.49415
▁떠	-9.49466
▁형태	-9.49486
▁보인다	-9.49572
▁F	-9.49656
▁드라마	-9.4977
▁한다면	-9.49877
▁떠나	-9.49937
y	-9.49944
▁올리	-9.4999
▁근	-9.49998
▁성격	-9.5007
▁눈물	-9.50202
▁패	-9.50293
▁짱	-9.50437
▁철	-9.50464
▁이라고	-9.50637
▁학년	-9.50683
▁삼성	-9.50788
웠	-9.50805
▁보도	-9.5094
스트	-9.5106
▁적용	-9.51248
함	-9.51311
▁항	-9.51463
▁개념	-9.51476
▁버렸	-9.51562
▁돼요	-9.51654
▁확대	-9.5201
▁교회	-9.52051
▁개선	-9.52066
▁유럽	-9.52132
▁위원장	-9.52142
▁시절	-9.52167
er	-9.52412
▁경영	-9.52561
▁T	-9.52626
▁징	-9.52675
▁자식	-9.52699
절	-9.52884
▁성적	-9.53023
▁등장	-9.53049
▁연기	-9.53062
▁나올	-9.53095
▁안정	-9.53099
▁그룹	-9.53099
▁분명	-9.53123
▁들어오	-9.53234
순	-9.53235
평	-9.53359
▁아님	-9.53424
▁퍼센트	-9.53553
▁냄새	-9.53554
▁빈	-9.53636
▁썼	-9.5368
▁율	-9.53732
▁중앙	-9.53737
al	-9.53884
광	-9.53885
▁인기	-9.53934
▁뉴스	-9.54107
▁자고	-9.54182
표	-9.54332
▁자동차	-9.54348
왕	-9.54507
▁적극	-9.54571
▁저번	-9.54572
▁계약	-9.54664
▁끌	-9.54687
▁뜨	-9.54805
▁위기	-9.54842
▁답니다	-9.54968
▁생겼	-9.54982
▁멀	-9.55017
▁p	-9.55054
▁건물	-9.55107
▁넓	-9.55151
▁쓴	-9.55209
독	-9.55252
▁공연	-9.55283
▁스러운	-9.55476
▁실제	-9.55487
▁지속	-9.55502
▁아도	-9.55666
▁접	-9.55706
▁어쨌든	-9.55872
▁신기	-9.55904
▁변	-9.55934
▁그만	-9.55959
너	-9.56053
▁구매	-9.56053
▁아하	-9.56121
▁브랜드	-9.56161
▁폭	-9.56166
▁가정	-9.56177
▁현상	-9.56237
▁고려	-9.5628
▁예술	-9.56326
▁치즈	-9.56446
▁잠시	-9.56484
▁가득	-9.5654
쳐	-9.56558
▁할까	-9.56603
▁챙겨	-9.56604
▁땐	-9.56609
▁24	-9.56695
▁바다	-9.56705
▁이전	-9.56828
▁아무리	-9.56933
▁짧	-9.56966
▁한번	-9.57245
▁21	-9.57316
▁됨	-9.57362
▁쳐	-9.57433
▁혹은	-9.57465
▁캐	-9.5758
▁마찬가지	-9.57679
친	-9.57728
갈	-9.57769
▁취업	-9.57951
▁민주당	-9.57971
▁당연히	-9.58038
품	-9.58051
▁가진	-9.58116
▁ᄒᄒᄒᄒ	-9.58173
▁으러	-9.58224
놓	-9.58325
▁포기	-9.5866
▁주제	-9.5868
▁앙	-9.587
채	-9.58835
▁전문가	-9.58882
▁망	-9.58893
▁이걸	-9.58907
▁몰랐	-9.59113
▁대답	-9.59157
▁자마자	-9.59305
▁해야지	-9.59338
년	-9.59405
▁핵	-9.59425
▁학원	-9.59454
▁극	-9.59516
곡	-9.59662
▁견	-9.59751
▁아니면	-9.59752
▁불편	-9.59829
환	-9.59835
처	-9.59837
▁도와	-9.60048
긴	-9.60129
▁소식	-9.60199
▁줘야	-9.602
▁영국	-9.6022
▁웅웅	-9.60227
워	-9.60439
▁정당	-9.60451
▁다섯	-9.60464
▁조건	-9.60638
▁인데요	-9.60664
▁민주	-9.60683
▁젤	-9.60741
▁반응	-9.60755
▁대비	-9.60827
▁구체	-9.61167
▁E	-9.61299
▁계시	-9.61351
▁주식	-9.61413
▁롭	-9.61458
▁증	-9.61555
료	-9.6175
▁끝나	-9.6175
▁내부	-9.6177
▁바뀌	-9.61832
▁된다는	-9.6189
▁거래	-9.61932
▁새로	-9.61998
▁할머니	-9.62039
▁비롯	-9.62073
▁=	-9.62103
본	-9.62179
▁꾸	-9.62209
▁동네	-9.62266
▁제시	-9.6227
▁슈	-9.62323
른	-9.62427
▁검색	-9.62641
▁상담	-9.62644
▁조심	-9.62656
▁환자	-9.6267
▁바꾸	-9.62743
▁이익	-9.62766
찬	-9.6282
▁전통	-9.62849
▁규정	-9.62865
▁따른	-9.62897
었	-9.63017
▁살짝	-9.63021
▁점점	-9.63139
▁돼서	-9.63252
▁부부	-9.63254
▁공사	-9.63288
▁설치	-9.63303
▁체험	-9.63569
훈	-9.63578
투	-9.6361
▁이르	-9.63698
▁할지	-9.63795
▁수익	-9.63834
▁아무래도	-9.63849
▁올려	-9.63914
▁식단	-9.63974
▁호텔	-9.64004
▁~~	-9.64043
▁갓	-9.64108
▁*	-9.64121
▁공동	-9.64187
▁시켰	-9.64206
▁올라가	-9.64316
▁다리	-9.64366
▁행정	-9.64419
▁모델	-9.64426
▁어차피	-9.64458
▁000	-9.64477
퍼	-9.64534
▁혼	-9.64612
▁씻	-9.64695
▁I	-9.64779
▁작년	-9.64781
▁짜증	-9.64787
▁과연	-9.64832
▁떡	-9.64843
▁가끔	-9.64901
▁알바	-9.64903
▁전망	-9.64904
▁최대	-9.64979
▁충분히	-9.65018
▁출근	-9.65067
▁떨어지	-9.65149
후	-9.65272
▁디자인	-9.65378
▁지구	-9.65416
▁자세	-9.65513
▁퇴근	-9.65516
▁꽤	-9.656
츠	-9.65708
▁H	-9.65726
▁이렇	-9.65736
▁건설	-9.65749
▁건가	-9.65754
▁그런가	-9.65837
향	-9.65886
백	-9.6589
▁단지	-9.65923
▁신문	-9.66008
▁저런	-9.66123
▁독일	-9.66128
▁이래	-9.66248
▁겪	-9.66379
겨	-9.6638
▁표정	-9.66496
▁평소	-9.66653
▁주요	-9.66654
▁학	-9.66756
▁주일	-9.66807
▁이곳	-9.66855
▁걷	-9.66875
▁빛	-9.66902
▁고자	-9.67095
▁으나	-9.67178
▁의해	-9.67214
▁인상	-9.67302
▁동물	-9.67313
탄	-9.67432
▁에선	-9.67447
▁찌	-9.67471
▁L	-9.67486
▁척	-9.67497
▁불구	-9.67556
칠	-9.67597
▁세대	-9.67624
▁부탁	-9.67647
▁완전히	-9.67719
▁희망	-9.6783
▁핵심	-9.67945
▁조정	-9.67948
▁욕	-9.68076
▁내리	-9.68218
말	-9.68242
▁광주	-9.68287
▁히	-9.68334
▁부정	-9.68359
▁편하	-9.68386
▁언어	-9.68592
▁부인	-9.68596
▁오랜만	-9.68621
입	-9.68627
▁출발	-9.68689
▁건지	-9.68743
▁사과	-9.68813
l	-9.68931
▁실패	-9.68963
▁장면	-9.68986
▁누리	-9.69102
▁나타나	-9.69153
▁마리	-9.69411
▁고생	-9.69426
▁따뜻	-9.69437
▁청와대	-9.69503
▁자금	-9.69637
▁먼	-9.69707
▁대단	-9.69778
▁문자	-9.69779
▁합	-9.69847
▁다만	-9.69929
▁주로	-9.70011
▁나누	-9.70044
숙	-9.70053
▁새벽	-9.70103
▁죽음	-9.70105
▁남성	-9.70155
애	-9.70261
▁하나님	-9.7037
▁22	-9.70386
▁지식	-9.70398
▁인천	-9.70464
▁에너지	-9.7051
▁ᅳᅳ	-9.70615
▁생명	-9.7062
▁근처	-9.7063
▁오전	-9.70669
▁평화	-9.7074
▁헤	-9.70748
▁종류	-9.7077
▁시원	-9.70809
▁는군요	-9.70852
▁느껴	-9.70866
▁든지	-9.70984
▁잊	-9.71057
ᆞ	-9.71099
▁십니까	-9.71221
술	-9.7125
▁세기	-9.71269
등	-9.7132
▁시즌	-9.71381
▁W	-9.71447
▁전자	-9.71462
막	-9.71567
▁맥주	-9.71593
▁이벤트	-9.71654
▁체제	-9.71683
▁길래	-9.71695
▁민족	-9.7173
▁프랑스	-9.71793
▁소스	-9.71815
▁정확	-9.71848
▁앞서	-9.71914
▁박근혜	-9.71944
▁낸	-9.71981
▁해석	-9.71992
탈	-9.72211
▁피곤	-9.72278
ar	-9.72314
▁으로부터	-9.72328
▁고맙	-9.72335
결	-9.72343
▁반드시	-9.72466
▁녹	-9.72562
▁이미지	-9.72595
▁수술	-9.7267
▁바라보	-9.72725
▁식당	-9.72744
▁제작	-9.72841
▁제기	-9.72863
▁워	-9.72869
▁기타	-9.72925
범	-9.72935
▁원인	-9.72949
▁힘든	-9.72989
▁출신	-9.73104
▁니깐	-9.73144
▁푸	-9.73187
m	-9.73222
▁뛰	-9.73292
예	-9.73326
▁당연	-9.73329
▁논의	-9.73559
▁홀	-9.73586
▁여전히	-9.73665
변	-9.73671
▁변호사	-9.73686
,	-9.73879
▁그동안	-9.73962
▁환	-9.73997
▁요새	-9.74055
▁빠져	-9.74188
▁평균	-9.74242
▁대체	-9.74295
▁예쁘	-9.74316
2	-9.74319
▁휴	-9.74448
▁개혁	-9.74502
▁푸드	-9.74733
▁쥐	-9.74743
▁준다	-9.74873
▁&	-9.75012
▁대전	-9.7504
▁합의	-9.75088
▁으신	-9.75095
▁왜냐하면	-9.75179
례	-9.75289
▁충격	-9.75309
▁f	-9.7534
▁내려	-9.75385
c	-9.75422
▁걸리	-9.75491
▁티비	-9.75507
송	-9.75575
▁폰	-9.75661
▁사상	-9.75672
▁각각	-9.75789
▁팩	-9.75823
▁완	-9.75852
▁차원	-9.75883
▁르	-9.75909
책	-9.7593
▁장소	-9.76068
▁결	-9.76133
▁위원	-9.76227
▁탄	-9.76385
▁할인	-9.76423
▁종교	-9.76557
▁풍	-9.7656
▁뭔	-9.76573
녀	-9.76742
▁데일리	-9.76876
▁당장	-9.77006
▁권력	-9.77026
▁R	-9.77118
▁신고	-9.77224
▁전부	-9.77224
▁아닌데	-9.77261
▁공장	-9.77269
▁셈	-9.77338
악	-9.77343
▁엥	-9.77348
▁지도	-9.77367
걸	-9.77378
▁쿠	-9.77433
▁무조건	-9.77456
▁예약	-9.77472
▁희	-9.77675
▁불러	-9.7771
▁노동	-9.77738
▁고양이	-9.77776
u	-9.77815
▁사례	-9.77817
▁재미	-9.77845
▁값	-9.77919
합	-9.77954
▁떼	-9.77998
▁운전	-9.78134
▁쇼	-9.78159
▁확보	-9.78168
▁그날	-9.782
▁진정	-9.782
▁훈련	-9.78237
▁정권	-9.78237
▁어쩔	-9.78302
d	-9.78492
쳤	-9.78567
▁누나	-9.78611
▁종합	-9.78664
▁이론	-9.78723
▁23	-9.7878
▁논	-9.78789
▁그까	-9.79165
격	-9.79232
▁브	-9.79246
▁전달	-9.79276
ing	-9.79277
▁통합	-9.79314
▁차지	-9.79392
▁강아지	-9.79401
줄	-9.7941
▁당하	-9.7949
▁청년	-9.79579
▁상처	-9.79601
an	-9.79647
▁고통	-9.79715
▁귀찮	-9.79726
새	-9.79919
▁찬	-9.79986
▁나갈	-9.80024
▁나름	-9.80031
▁맛스타	-9.80194
▁측면	-9.80217
▁간단	-9.80258
▁페	-9.80292
▁낳	-9.80449
▁김치	-9.80602
▁냈	-9.8061
니다	-9.80611
▁높이	-9.80656
▁공급	-9.80943
▁욜	-9.8096
▁피자	-9.81021
▁냐면	-9.81056
n	-9.81212
▁둔	-9.81245
규	-9.81319
▁확실	-9.81322
ᄏ	-9.81344
▁예산	-9.81465
빈	-9.81517
▁흑	-9.81544
▁생일	-9.81565
▁품	-9.81706
▁간다	-9.8172
▁포인트	-9.8176
▁시도	-9.81764
▁도전	-9.81766
▁묵	-9.81782
▁나와서	-9.81822
▁형성	-9.81897
▁에스	-9.81947
▁복지	-9.81998
▁류	-9.8203
▁물건	-9.8215
를	-9.82154
▁영업	-9.82266
▁잉	-9.82307
▁인스타	-9.82387
▁파악	-9.82387
테	-9.82425
▁봅니다	-9.82437
▁시킬	-9.82477
▁태도	-9.82511
▁옥	-9.82623
▁고개	-9.82683
▁상승	-9.82785
▁등급	-9.82809
▁번호	-9.82832
▁언	-9.8284
▁졸업	-9.82876
▁출	-9.8297
▁the	-9.8299
▁차례	-9.83015
▁주인	-9.83032
▁으셨	-9.83073
▁요소	-9.83108
▁확실히	-9.83244
▁주인공	-9.83262
▁필	-9.83305
▁진심	-9.83363
든	-9.8341
▁죄	-9.83549
액	-9.83607
▁대한민국	-9.83608
▁집단	-9.83725
▁야지	-9.83878
▁이동	-9.83894
▁군대	-9.83927
먹	-9.83948
▁장애	-9.83955
▁이때	-9.84001
돌	-9.84005
▁굿	-9.84055
▁군사	-9.84236
▁오르	-9.84301
▁60	-9.84348
▁끼리	-9.84359
▁반면	-9.84391
▁조차	-9.84402
▁체계	-9.8447
▁심각	-9.84578
▁짜리	-9.84579
▁마무리	-9.84663
▁빠지	-9.84691
▁우려	-9.84718
▁당황	-9.84739
▁보수	-9.84758
▁노인	-9.84899
▁공원	-9.84909
▁회복	-9.84925
▁봐도	-9.85089
▁뎅	-9.85194
▁어찌	-9.85322
▁나머지	-9.85326
▁도로	-9.85339
▁궁	-9.85358
▁세력	-9.85541
▁지내	-9.85551
▁N	-9.85665
편	-9.8567
▁빠르	-9.85689
을	-9.85715
▁논란	-9.8581
▁직업	-9.85859
커	-9.86068
▁회담	-9.86197
▁금방	-9.86394
▁어린	-9.86413
메	-9.86452
▁들어갔	-9.86469
▁협력	-9.86567
▁소비자	-9.8659
▁간식	-9.86653
▁심지어	-9.86681
▁컴퓨터	-9.86726
▁부동산	-9.86752
▁털	-9.86826
▁느	-9.86882
▁상상	-9.86885
▁외국	-9.8689
머	-9.86895
▁공식	-9.86973
▁세트	-9.86994
▁촬영	-9.87019
▁쏘	-9.87024
▁과제	-9.87141
▁가요	-9.87184
▁갈등	-9.87226
▁여유	-9.87385
▁ᄂ	-9.87432
슬	-9.8747
없이	-9.87497
▁엄	-9.87545
▁아무것	-9.87557
염	-9.87576
▁흠	-9.8794
암	-9.88236
▁쌓	-9.88267
▁of	-9.8832
▁비해	-9.88338
)	-9.88399
▁규	-9.88444
▁이사	-9.8845
▁엠	-9.88628
▁무대	-9.8869
▁완성	-9.8876
▁교사	-9.88774
▁인해	-9.88909
▁대책	-9.8894
▁굳이	-9.89141
▁최초	-9.89276
▁b	-9.89318
▁가을	-9.89337
▁셔	-9.8934
▁면접	-9.89375
족	-9.89384
▁g	-9.89421
습	-9.89496
▁느라	-9.89562
록	-9.89587
▁떨	-9.89628
▁성과	-9.89688
▁!!!	-9.89734
▁침	-9.89786
▁지키	-9.89885
▁휘	-9.89934
▁기초	-9.8996
▁선정	-9.90063
▁작용	-9.90094
▁익	-9.90095
▁쟈	-9.90189
▁유리	-9.9027
▁전환	-9.90278
▁속도	-9.90385
씨	-9.90435
▁학습	-9.90446
▁헉	-9.90459
▁응응	-9.90507
볼	-9.90512
▁통일	-9.90541
▁미치	-9.90646
▁전하	-9.90679
▁대출	-9.90708
▁소속	-9.90858
▁주목	-9.90879
▁굴	-9.90947
골	-9.91156
였	-9.9122
▁벽	-9.91255
▁가게	-9.91335
▁무리	-9.91345
▁자녀	-9.91527
▁빠	-9.91538
▁일까	-9.91638
▁장기	-9.91676
ᄏᄏ	-9.91732
▁수학	-9.91741
▁옴	-9.91759
▁O	-9.91915
▁수입	-9.9205
▁왜냐면	-9.92095
▁수행	-9.92283
▁엘	-9.92305
▁조치	-9.92501
▁앤	-9.92516
▁을지	-9.92648
▁힘드	-9.92683
월	-9.92739
▁계산	-9.92747
▁샤	-9.92892
▁모임	-9.92899
▁27	-9.92921
▁기획	-9.92962
▁어떠	-9.9317
▁실시	-9.93207
▁프	-9.93225
▁뻔	-9.93236
▁분명히	-9.93238
▁어린이	-9.93397
▁재료	-9.93402
▁영역	-9.93407
▁전기	-9.9343
▁나갔	-9.93499
▁보장	-9.93508
▁특징	-9.93583
▁원칙	-9.93671
▁너무나	-9.9389
▁애요	-9.94014
▁아아	-9.94022
▁겨	-9.94025
▁캐릭터	-9.94105
▁다며	-9.9414
▁대하	-9.94158
▁독립	-9.9416
▁매력	-9.94167
▁지지	-9.94173
▁격	-9.9421
▁28	-9.94267
▁축구	-9.94388
▁냉	-9.94468
▁애기	-9.94504
it	-9.94596
축	-9.94682
▁ᅳ	-9.94721
▁자극	-9.94774
ᄏᄏᄏ	-9.94833
린다	-9.94837
▁각종	-9.95054
▁섬	-9.95094
항	-9.95098
링	-9.95127
▁근무	-9.95205
▁임금	-9.95275
▁재산	-9.95291
▁여야	-9.95366
▁비밀	-9.95391
▁만났	-9.9541
▁이끌	-9.95422
▁강력	-9.95592
립	-9.95601
벌	-9.95608
옥	-9.95627
▁자면	-9.95695
▁우주	-9.95779
▁보고	-9.9578
▁반영	-9.95806
▁어떡	-9.95891
▁탕	-9.95907
▁놀라	-9.96035
▁밝	-9.96177
▁전형	-9.96231
▁가입	-9.96256
▁26	-9.96284
▁므로	-9.96355
▁대응	-9.96464
▁차량	-9.96609
▁깔끔	-9.96709
▁키우	-9.96715
▁사항	-9.96842
▁TV	-9.96848
▁러시아	-9.96902
▁공항	-9.96926
▁특	-9.96943
▁혁명	-9.97064
e	-9.97081
▁의료	-9.97149
으면	-9.97174
슨	-9.9726
▁움직이	-9.97287
▁수도	-9.97326
▁범	-9.97383
▁특정	-9.97498
던	-9.97507
▁무시	-9.97585
받	-9.97677
▁시각	-9.97705
▁나쁜	-9.97753
▁스포츠	-9.97772
▁귀엽	-9.97887
▁ᄀᄀ	-9.97966
▁∼	-9.9801
k	-9.98079
▁신뢰	-9.98109
▁연습	-9.98111
▁후기	-9.98153
▁자랑	-9.98163
침	-9.98181
▁충	-9.98198
▁떡볶이	-9.98247
▁테이블	-9.98367
▁왓	-9.98394
▁아저씨	-9.98447
▁통화	-9.98526
▁의지	-9.98534
▁통신	-9.98595
▁라니	-9.98619
▁먹방	-9.98625
▁c	-9.9867
▁대학교	-9.98677
▁불과	-9.98687
▁그분	-9.98691
▁수출	-9.98696
▁매장	-9.987
니까	-9.98749
▁가방	-9.98789
▁졸	-9.98832
▁덕분	-9.98864
▁도입	-9.9888
▁쥬	-9.98943
움	-9.98989
▁전해	-9.99004
▁봐서	-9.99009
▁냥	-9.99014
▁생긴	-9.99072
▁숙	-9.9911
▁어른	-9.99167
▁혁신	-9.99173
▁방금	-9.99276
렁	-9.99294
▁선배	-9.99349
▁예쁜	-9.9935
▁t	-9.99366
▁성분	-9.99414
▁제한	-9.99452
▁빌	-9.9946
케	-9.99534
▁공무원	-9.9963
▁남북	-9.99636
▁조성	-9.99654
▁지배	-9.99686
▁J	-9.9971
▁공기	-9.99713
▁💕	-9.99722
▁주의	-9.99814
▁범죄	-9.99825
▁눈치	-9.99832
▁낙	-9.99861
▁누군가	-9.99903
▁발언	-9.99997
글	-10.0011
▁즐기	-10.0012
▁인도	-10.0012
▁요청	-10.0015
▁핫	-10.0033
▁언급	-10.0042
▁%)	-10.0046
▁바닥	-10.0049
▁야당	-10.0054
▁공공	-10.006
▁링	-10.0072
▁화장품	-10.0076
▁투표	-10.0087
▁방안	-10.0087
▁소득	-10.009
▁ᅡ	-10.0093
▁셀	-10.01
▁참석	-10.0103
▁염	-10.0106
▁대중	-10.0108
풍	-10.0116
▁맥	-10.0117
▁500	-10.0127
▁세월	-10.0128
▁실수	-10.0134
▁샐러드	-10.0139
▁카톡	-10.0158
▁맞춰	-10.0165
▁로운	-10.0168
▁그만큼	-10.0177
▁스러워	-10.019
▁며칠	-10.0196
▁벗어나	-10.0202
익	-10.0204
▁등록	-10.0207
▁고등학교	-10.0207
▁슬	-10.0214
▁블	-10.0219
▁자는	-10.022
▁돌려	-10.0225
▁무료	-10.0228
▁화장실	-10.0229
▁조아	-10.0233
▁쇼핑	-10.0234
▁긍정	-10.0239
▁웃음	-10.024
▁물질	-10.0242
▁박사	-10.0243
▁구경	-10.0245
▁금액	-10.0253
▁본격	-10.0261
en	-10.0264
▁단어	-10.0269
▁볼까	-10.0275
▁담당	-10.0276
▁어야지	-10.0279
▁관광	-10.0282
▁셋	-10.0283
▁동기	-10.0284
t	-10.0289
▁데리	-10.0296
▁이케	-10.0302
▁마저	-10.0302
▁법원	-10.0313
▁이럴	-10.0316
in	-10.0323
▁반복	-10.0328
▁가까운	-10.033
▁근거	-10.033
재미있	-10.0339
▁재정	-10.0346
▁살펴보	-10.035
▁식품	-10.0353
▁소비	-10.0358
▁29	-10.0359
귀	-10.0365
▁편지	-10.0368
B	-10.038
▁멀리	-10.0381
▁조합	-10.0383
▁첨	-10.0396
좋아하	-10.0404
▁알아보	-10.041
▁주도	-10.0412
▁완벽	-10.0412
▁나눠	-10.0415
▁평생	-10.0416
▁움	-10.0425
필	-10.0426
▁뇌	-10.0448
▁나타났	-10.045
▁철학	-10.045
▁모아	-10.0457
택	-10.046
▁열린	-10.0465
▁갑	-10.0465
▁의심	-10.0476
▁롯데	-10.0477
▁폭력	-10.0484
▁담배	-10.0486
▁심리	-10.0488
▁드디어	-10.0488
▁기계	-10.0492
▁소재	-10.0496
▁이쁘	-10.0505
▁보냈	-10.0506
▁정의	-10.0509
▁빨	-10.0514
▁초등	-10.0518
▁원장	-10.0523
▁아닙니다	-10.0527
▁꿀	-10.0528
▁제외	-10.0529
▁뿌리	-10.054
▁뷰티	-10.0542
혀	-10.055
궁	-10.056
▁포장	-10.0561
▁설정	-10.0562
▁단순	-10.0563
▁협상	-10.0563
▁승리	-10.0576
▁깔	-10.0587
▁특성	-10.0596
충	-10.0597
▁출연	-10.0618
▁뒷	-10.0618
▁조절	-10.0622
▁축하	-10.0622
▁작성	-10.0632
▁l	-10.0633
▁버린	-10.0636
▁흐	-10.0636
▁택시	-10.0636
.	-10.0641
▁여론	-10.0641
▁여부	-10.0643
▁배경	-10.0643
▁본다	-10.0645
▁뉴	-10.065
▁낭	-10.0654
▁킹	-10.0654
▁농	-10.0656
▁공유	-10.0662
▁만난	-10.0673
▁창조	-10.0684
a	-10.0688
▁연애	-10.0692
▁200	-10.0692
o	-10.0695
▁둘째	-10.07
▁돼지	-10.071
▁어깨	-10.0711
f	-10.0711
▁드렸	-10.0711
▁장난	-10.0717
▁대선	-10.0725
▁가구	-10.0725
▁탓	-10.0726
▁달려	-10.073
외	-10.073
▁사전	-10.0731
▁증거	-10.0741
▁마자	-10.0756
▁차별	-10.0766
▁폐	-10.0766
▁바르	-10.0768
M	-10.0775
▁그려	-10.0775
▁외국인	-10.0779
▁문재인	-10.0781
▁접근	-10.0787
▁강의	-10.0788
▁강한	-10.0795
C	-10.0801
▁논리	-10.0804
▁ᄆ	-10.0805
▁꺼내	-10.0816
▁능	-10.0816
▁딴	-10.0819
▁새끼	-10.083
▁지하철	-10.0831
▁70	-10.0833
▁차라리	-10.084
▁자원	-10.0851
▁기름	-10.0852
밀	-10.0852
▁던지	-10.0868
▁얼른	-10.0883
▁제안	-10.0893
▁게다가	-10.09
▁쌤	-10.0903
▁비율	-10.0904
▁△	-10.0907
▁만날	-10.0911
▁아닙니까	-10.0913
▁싸우	-10.0914
▁❤	-10.0916
▁끄	-10.0921
▁이란	-10.0925
▁우유	-10.0932
▁웃겨	-10.0936
▁교통	-10.0942
▁확	-10.0943
▁2000	-10.0947
or	-10.0947
▁마스크	-10.0954
▁취소	-10.0958
▁구입	-10.0964
▁지급	-10.0968
▁제주도	-10.0969
▁상당	-10.0973
▁난리	-10.0975
▁프로젝트	-10.098
▁거부	-10.0983
▁축제	-10.0988
▁놀이	-10.1004
▁연합	-10.1014
▁콩	-10.1018
▁화면	-10.1021
▁휴가	-10.1022
▁청소	-10.1029
▁축	-10.1032
▁더불	-10.1034
▁ᄉᄇ	-10.1035
▁검토	-10.1035
▁형식	-10.1035
▁맺	-10.1036
▁어쩌	-10.1041
▁굳	-10.1042
▁전시	-10.1046
▁클	-10.1047
▁오픈	-10.1056
▁재판	-10.1069
▁참고	-10.1073
▁응원	-10.1088
힌	-10.109
▁자산	-10.1092
▁제발	-10.1094
▁실험	-10.1097
▁닫	-10.1104
▁수능	-10.111
▁펀드	-10.1111
션	-10.1113
▁언제나	-10.1122
▁홍보	-10.1125
▁80	-10.1126
려서	-10.1136
▁기반	-10.1142
▁시선	-10.1145
▁a	-10.1149
▁크기	-10.1153
▁V	-10.1156
▁제목	-10.116
▁울산	-10.1165
▁절차	-10.1166
▁충분	-10.1186
클	-10.1186
▁도대체	-10.1186
▁답답	-10.1188
▁국물	-10.1189
▁결론	-10.1198
련	-10.1208
▁올라	-10.1211
▁글로벌	-10.1219
▁동일	-10.1225
▁무기	-10.1231
▁일자리	-10.1233
▁향해	-10.1235
▁라인	-10.1238
▁어때	-10.1243
▁혐의	-10.1244
▁선언	-10.1246
▁ᄃ	-10.1248
▁아니야	-10.1264
▁편안	-10.1264
▁여섯	-10.1268
▁올림픽	-10.1276
▁싸움	-10.1284
층	-10.1289
▁제거	-10.1291
▁배달	-10.1291
▁는다는	-10.1298
▁가까이	-10.1307
▁동의	-10.1312
▁동료	-10.1313
▁벗	-10.1314
▁는다고	-10.1319
el	-10.1335
▁에다가	-10.1336
▁아닐까	-10.134
▁허리	-10.1342
▁후회	-10.1354
▁빡	-10.1368
▁시킨	-10.1369
▁카메라	-10.1376
▁권리	-10.1377
▁코스	-10.1379
▁쌀	-10.1384
밥	-10.1391
▁극복	-10.1393
▁진실	-10.1393
▁구속	-10.1398
▁in	-10.1399
▁최종	-10.1406
▁강남	-10.1412
▁나온다	-10.1418
▁대형	-10.1426
▁유일	-10.1426
▁감동	-10.143
▁.?	-10.1444
▁넘어가	-10.1451
▁인터뷰	-10.1465
et	-10.1477
▁ᄅ	-10.148
▁줘서	-10.1483
▁겁나	-10.1486
▁워낙	-10.1495
황	-10.1499
촌	-10.1517
▁고용	-10.1526
▁새우	-10.153
북	-10.1536
ed	-10.1545
▁의혹	-10.1547
▁죄송	-10.1547
칭	-10.155
▁통과	-10.1557
▁복잡	-10.1559
▁사정	-10.1561
▁습관	-10.1563
겼	-10.1575
▁구만	-10.1577
▁사태	-10.1578
▁외부	-10.1584
▁시행	-10.1594
견	-10.1595
▁나쁘	-10.1602
올	-10.1603
▁구분	-10.1604
▁초기	-10.1634
▁자본	-10.1637
▁맞추	-10.1641
▁겸	-10.1648
▁점수	-10.1653
▁아쉽	-10.1666
▁고서	-10.1668
▁강하	-10.1681
왔	-10.1681
▁독자	-10.1682
▁감소	-10.1682
▁리그	-10.1697
▁주위	-10.1697
별	-10.1703
▁피해자	-10.1703
▁불리	-10.1707
▁규제	-10.1709
▁연금	-10.1711
on	-10.1716
▁공감	-10.1723
▁그곳	-10.1737
▁실천	-10.1747
▁즈	-10.1758
▁현지	-10.1764
▁헌법	-10.1764
▁토요일	-10.1765
▁콘	-10.1772
▁인구	-10.1772
▁and	-10.1776
▁계기	-10.1778
▁아시아	-10.1782
▁집안	-10.1788
▁족	-10.1796
i	-10.1801
▁필수	-10.1802
▁땀	-10.1813
▁아파	-10.1826
▁줌	-10.1827
▁시점	-10.1829
▁추억	-10.1831
▁매출	-10.1835
▁학기	-10.1847
▁헌	-10.1849
완	-10.186
▁LG	-10.1867
g	-10.1882
▁의한	-10.1885
극	-10.1888
▁아름다운	-10.1893
진다	-10.1896
▁부장	-10.1898
T	-10.1902
▁십시오	-10.1905
▁는디	-10.1919
▁상징	-10.1919
▁퇴	-10.1933
▁시청	-10.1941
▁산책	-10.1946
▁d	-10.1955
▁건가요	-10.1957
▁회원	-10.1969
▁핸드폰	-10.1971
▁본부	-10.1974
속상하	-10.1978
▁거짓말	-10.1983
손	-10.1995
▁심하	-10.1995
▁이어	-10.1998
▁우린	-10.2
플	-10.2003
▁고급	-10.2014
▁무섭	-10.2017
▁수원	-10.2022
탕	-10.2037
혔	-10.2053
▁깨끗	-10.2062
▁31	-10.2067
▁지켜	-10.2069
▁놔	-10.207
▁결코	-10.2072
▁녀석	-10.2074
▁비행기	-10.2075
알	-10.2077
▁액	-10.2083
블	-10.209
▁그저	-10.2099
▁마케팅	-10.2105
*	-10.2107
윤	-10.2119
▁닮	-10.2122
▁엄청난	-10.2123
P	-10.2125
▁경기도	-10.2126
▁혜	-10.2128
▁혀	-10.2128
▁바꿔	-10.2132
▁어울리	-10.2134
▁뿌	-10.2139
▁비싼	-10.215
▁들어간	-10.215
▁끝내	-10.2152
▁통한	-10.2154
▁사망	-10.2161
▁취	-10.2165
▁흐름	-10.2167
돌아오	-10.2168
▁수상	-10.2177
▁계란	-10.2181
▁숲	-10.2192
▁소송	-10.2204
▁파티	-10.2214
▁민간	-10.222
▁과일	-10.2223
▁천천히	-10.2224
▁그린	-10.2234
▁금지	-10.2244
▁ᅦ	-10.2252
▁저렴	-10.2261
▁활성	-10.2262
I	-10.2265
▁띠	-10.2265
is	-10.2266
▁천만	-10.2271
▁그런지	-10.2271
▁부여	-10.2272
▁똥	-10.2277
▁구축	-10.2289
▁빚	-10.2309
▁아픈	-10.2309
▁대충	-10.2314
▁닦	-10.2319
▁는구나	-10.232
▁전공	-10.2326
▁해졌	-10.2328
▁수요	-10.2338
▁종이	-10.2354
▁괜히	-10.236
▁홍대	-10.2368
▁꾼	-10.2375
▁자세히	-10.2382
▁혼란	-10.2384
▁반찬	-10.2387
▁지나가	-10.2392
▁업계	-10.2394
▁구하	-10.2394
▁바탕	-10.24
▁편의점	-10.2404
▁자라	-10.2407
es	-10.2421
▁웃기	-10.2425
▁기념	-10.2425
▁한계	-10.2425
▁부자	-10.2426
▁부문	-10.243
▁꾸준히	-10.2435
으며	-10.2436
아가	-10.2438
▁패션	-10.2442
▁얌	-10.2443
▁토론	-10.2449
▁엿	-10.2451
▁화장	-10.2453
▁할아버지	-10.2456
▁총리	-10.2459
▁컵	-10.2464
▁불법	-10.2473
▁톡	-10.2473
런	-10.2486
▁랭	-10.2486
▁연속	-10.249
▁진출	-10.2495
▁제출	-10.2495
▁돌리	-10.2502
▁찾아보	-10.2509
▁소유	-10.2509
F	-10.2509
▁예방	-10.2514
▁우수	-10.252
▁그래야	-10.2532
▁바쁘	-10.2534
▁ᄋᄏ	-10.2536
▁전반	-10.2537
▁유통	-10.2538
▁봉사	-10.2541
▁폴	-10.2549
▁데이트	-10.2551
▁뼈	-10.2561
ᄏᄏᄏᄏ	-10.2562
▁위하	-10.2575
먼	-10.2586
▁출시	-10.2587
▁드라	-10.259
▁국정	-10.26
▁법률	-10.2605
다면	-10.2606
▁의무	-10.2608
▁침대	-10.2616
혜	-10.2617
▁케이	-10.2632
▁금요일	-10.2633
▁깜짝	-10.2641
▁헤어	-10.2642
▁블랙	-10.2651
▁쭉	-10.2655
▁이젠	-10.266
▁아닐	-10.2668
▁박스	-10.2676
▁그쪽	-10.2682
p	-10.2684
▁분양	-10.2685
▁돌아	-10.2689
▁사이트	-10.2694
▁금리	-10.2696
▁팀장	-10.2696
렌	-10.27
▁아무튼	-10.2701
▁트럼프	-10.271
▁긴장	-10.2715
▁실력	-10.2717
▁확정	-10.2718
으	-10.2722
▁ᄉ	-10.2725
▁자전거	-10.2726
▁으세요	-10.2738
▁인가요	-10.2742
▁노동자	-10.2742
▁사이즈	-10.2746
▁수많	-10.2751
h	-10.2757
▁으려고	-10.2761
▁관점	-10.2766
▁결제	-10.2777
▁셔야	-10.2779
▁메시지	-10.2788
▁몽	-10.2794
▁처벌	-10.28
척	-10.2801
▁실망	-10.2804
▁글쎄	-10.2806
▁훌륭	-10.2808
▁효율	-10.281
▁들어왔	-10.2815
▁설립	-10.2826
▁양념	-10.2828
▁노후	-10.2834
누	-10.2836
▁기에	-10.2838
▁과장	-10.2838
▁외교	-10.2844
▁상호	-10.2847
at	-10.2856
▁청소년	-10.2868
취	-10.2869
▁쪼	-10.2871
▁빠른	-10.2873
▁신발	-10.2884
▁갈까	-10.2887
▁일요일	-10.2893
▁○	-10.2902
▁효	-10.2903
▁젖	-10.2903
패	-10.2912
▁대사	-10.2912
▁자네	-10.2918
▁일기	-10.292
▁특수	-10.2927
홍	-10.2932
r	-10.2935
▁주체	-10.2936
▁U	-10.2936
쿠	-10.2939
▁프리	-10.2942
▁수단	-10.2943
▁느꼈	-10.2944
▁개최	-10.2947
▁타임	-10.2949
▁여서	-10.2964
▁실장	-10.2967
▁올랐	-10.2973
▁ᄅᄋ	-10.2978
▁스토리	-10.2978
▁~~~	-10.2981
▁너희	-10.2989
▁아우	-10.2989
▁합리	-10.299
▁어려움	-10.2993
▁고소	-10.2999
틀	-10.2999
으니	-10.3
▁보상	-10.3
착	-10.3006
▁설계	-10.3015
▁해라	-10.3016
▁첫째	-10.3019
▁우울	-10.3021
스타	-10.3024
▁파스타	-10.3024
S	-10.3025
▁그릇	-10.3027
▁의회	-10.3034
▁통하	-10.3035
▁의도	-10.3041
총	-10.3045
▁감기	-10.3046
▁ᄌ	-10.3049
▁예수	-10.3057
▁심장	-10.3057
▁수석	-10.3066
▁판결	-10.3068
▁내려가	-10.3069
▁멍	-10.3069
▁대기	-10.3072
▁굽	-10.3085
▁색깔	-10.3088
▁롤	-10.3099
▁초코	-10.31
▁덮	-10.3107
▁소중	-10.3111
▁장점	-10.3113
▁사무실	-10.3119
▁세금	-10.3128
▁근대	-10.3131
▁모른다	-10.3141
▁건조	-10.3143
▁솔	-10.3156
▁한참	-10.3159
▁인증	-10.316
▁보유	-10.3164
▁표시	-10.3166
R	-10.3175
▁일어났	-10.3183
▁근육	-10.3185
▁잼	-10.3193
▁느낄	-10.3196
▁이혼	-10.3199
▁널	-10.3201
▁센	-10.3203
▁맹	-10.3208
쉬	-10.321
▁용기	-10.3211
▁콜	-10.3219
▁달라	-10.3222
▁좌	-10.3224
▁상대방	-10.3226
▁앱	-10.3227
흥	-10.3227
김	-10.3227
나무	-10.323
▁월요일	-10.3233
▁온라인	-10.3235
▁희생	-10.3235
▁댓글	-10.3245
▁',	-10.3245
▁믄	-10.3245
롱	-10.3251
▁야구	-10.3263
▁라구	-10.3265
▁미디어	-10.3277
▁입니까	-10.3278
▁연출	-10.3287
▁부대	-10.329
▁창업	-10.3291
▁최대한	-10.3296
▁김정은	-10.3297
▁될지	-10.3309
▁내게	-10.3309
▁추구	-10.3317
▁노조	-10.3321
▁요인	-10.3324
▁겉	-10.3334
▁그쵸	-10.3336
▁착	-10.3337
▁뚫	-10.3338
▁혜택	-10.3339
▁칭	-10.3339
▁그나마	-10.3343
베	-10.3344
▁월급	-10.3345
▁미소	-10.3345
▁흥	-10.3348
O	-10.3349
▁시발	-10.3358
le	-10.3366
▁내내	-10.3367
▁발라	-10.3373
돈	-10.3376
▁무역	-10.3376
▁기도	-10.3386
D	-10.339
님	-10.3391
▁지난달	-10.3402
ur	-10.3419
▁통제	-10.3426
▁춤	-10.3446
▁무릎	-10.3448
▁뭔지	-10.3458
▁일곱	-10.346
▁템	-10.346
▁흔들	-10.347
▁모자	-10.3475
▁수정	-10.348
균	-10.3484
▁선발	-10.3485
▁SK	-10.3485
▁90	-10.3485
▁잤	-10.349
▁심사	-10.3491
▁떨어져	-10.3497
▁청구	-10.3498
▁베트남	-10.3498
▁백화점	-10.3506
▁상관	-10.3534
▁던가	-10.3538
▁탐	-10.3543
▁정체	-10.355
▁이틀	-10.3553
▁디저트	-10.3556
▁꼴	-10.3557
▁샷	-10.3564
▁공포	-10.3572
▁음료	-10.3572
▁오른쪽	-10.3581
▁이하	-10.3584
▁섞	-10.3585
▁써야	-10.3586
▁빌려	-10.3586
▁춥	-10.3598
효	-10.36
▁변경	-10.3601
▁우승	-10.3603
▁《	-10.3605
▁♥	-10.3608
▁땜	-10.3624
▁생각나	-10.3629
▁좁	-10.3631
▁투어	-10.3645
▁영양	-10.3645
re	-10.3645
▁서울시	-10.3647
▁300	-10.3653
▁지정	-10.3656
▁미니	-10.366
▁의하	-10.3664
▁이분	-10.3667
▁걸려	-10.3672
▁소문	-10.3675
▁기구	-10.3678
▁진단	-10.3686
▁미쳤	-10.3689
▁전투	-10.3698
▁보낸	-10.3702
▁단위	-10.3704
삼	-10.3705
▁가볍	-10.3712
▁늘어나	-10.3713
▁맛나	-10.3718
▁익숙	-10.3726
▁모여	-10.3728
▁닿	-10.3731
▁으면은	-10.3732
▁강제	-10.3734
▁주가	-10.3747
▁줄게	-10.3747
▁톤	-10.3754
▁켜	-10.3758
🏻	-10.3759
▁은데요	-10.3767
▁새롭	-10.3767
▁참가	-10.3768
▁쪼끔	-10.3772
▁다닐	-10.3779
▁라이	-10.3785
▁부럽	-10.3786
▁시인	-10.3788
▁방학	-10.3795
▁😍	-10.3799
람	-10.3807
▁케이크	-10.3815
▁화학	-10.3818
▁흥미	-10.382
▁실질	-10.382
▁초반	-10.3825
▁감성	-10.3828
▁👍	-10.3832
▁룸	-10.3835
면은	-10.3835
▁세우	-10.3837
▁각자	-10.3838
▁daily	-10.3852
▁왼쪽	-10.3852
▁연장	-10.3854
▁레이	-10.3855
▁h	-10.3856
▁거쳐	-10.3863
▁관객	-10.3867
▁%,	-10.3867
us	-10.3878
▁합격	-10.3885
▁알리	-10.3886
▁최선	-10.3887
▁마주	-10.3892
▁암튼	-10.3898
▁경남	-10.3898
▁찾아가	-10.3898
▁도서관	-10.3902
▁배치	-10.3903
▁사기	-10.3906
▁적절	-10.3909
▁수분	-10.3916
▁케이스	-10.3922
혁	-10.3923
▁칭찬	-10.3934
▁싱	-10.3938
▁칸	-10.3948
▁아무런	-10.3948
▁우와	-10.3956
▁몬	-10.3957
▁소장	-10.3959
▁마늘	-10.3965
▁수용	-10.397
▁데이터	-10.397
▁종일	-10.3973
▁연대	-10.3973
닥	-10.3975
G	-10.3976
▁봣	-10.3976
ic	-10.3982
▁띄	-10.3986
▁현금	-10.3993
ol	-10.4016
▁스마트폰	-10.4018
짐	-10.4026
▁기다려	-10.4027
▁짤	-10.4039
▁실현	-10.404
▁The	-10.4042
▁전개	-10.4045
▁지하	-10.4045
죄	-10.4049
▁어려워	-10.4049
▁소화	-10.4051
▁요거	-10.4052
▁오키	-10.4053
▁명령	-10.4053
룡	-10.4053
▁아마도	-10.4058
▁ᅥ	-10.4068
▁오랜	-10.407
▁지점	-10.4073
L	-10.4077
▁조각	-10.4081
▁협회	-10.4084
▁인권	-10.4087
▁한국인	-10.4089
▁옳	-10.4089
▁억울	-10.409
▁취향	-10.4091
▁꼽	-10.4104
▁k	-10.411
▁고향	-10.4113
▁삐	-10.4114
▁나아가	-10.4119
▁갠	-10.4119
▁지사	-10.4123
▁근본	-10.4126
▁짝	-10.4126
▁촉촉	-10.413
▁숫자	-10.4135
▁쉬운	-10.414
▁다루	-10.4141
▁요렇게	-10.4142
▁이랬	-10.4142
▁이슈	-10.4144
▁붉	-10.4162
▁했으며	-10.4163
▁범위	-10.4171
▁km	-10.4172
▁드릴	-10.4176
▁공주	-10.4181
▁달성	-10.4183
▁건축	-10.4184
▁깊이	-10.4186
▁떨어졌	-10.419
▁고마워	-10.4193
▁편집	-10.4193
▁기여	-10.4198
▁슬프	-10.4206
▁백만	-10.4211
▁찜	-10.4214
▁라디오	-10.4225
▁연주	-10.4234
▁위협	-10.4234
▁유아	-10.4244
▁감자	-10.4247
▁런	-10.425
▁아이디어	-10.4257
▁비타민	-10.4258
▁폼	-10.4261
▁묘	-10.4262
다니	-10.4274
▁유치	-10.4275
▁ᅲᅮ	-10.4277
셔	-10.4279
▁경쟁력	-10.428
▁파리	-10.4282
▁실적	-10.4284
K	-10.4284
▁후반	-10.4295
▁미술	-10.4295
▁하락	-10.4296
▁세워	-10.4299
냐	-10.4299
끼	-10.4302
갔	-10.4305
득	-10.4308
▁분노	-10.4309
▁옮겨	-10.4313
▁진보	-10.4315
▁겨우	-10.4315
아들이	-10.432
▁당했	-10.4324
▁들어갈	-10.4325
E	-10.4326
▁난다	-10.4334
▁롱	-10.4335
▁큐	-10.4339
▁늙	-10.4356
▁시리즈	-10.4361
▁플레이	-10.4362
▁튀	-10.4365
▁친절	-10.4368
▁이따	-10.4375
▁어머	-10.4379
▁어우	-10.4381
▁경향	-10.4382
▁자동	-10.4394
▁공정	-10.4399
▁안내	-10.4401
▁서류	-10.4405
▁푹	-10.441
빙	-10.4412
▁빅	-10.4419
▁돼야	-10.4422
▁장사	-10.4426
▁비중	-10.4434
▁상사	-10.4436
▁펴	-10.4445
▁그렇지만	-10.4449
낼	-10.4455
▁비록	-10.446
▁마트	-10.4467
▁순위	-10.4468
혈	-10.447
▁항공	-10.4474
이드	-10.4482
율	-10.4488
▁일종	-10.4489
힐	-10.4492
▁▲	-10.4496
▁지시	-10.4502
▁중단	-10.4504
▁다녀	-10.4505
▁균형	-10.4505
▁정확히	-10.4506
▁동영상	-10.4508
▁컴	-10.4513
▁분기	-10.4515
▁개봉	-10.4515
▁유형	-10.4516
▁못해	-10.4523
▁밝혀	-10.4524
갑	-10.4525
▁e	-10.4526
▁학자	-10.4531
▁씹	-10.4532
▁이웃	-10.454
▁큰일	-10.4541
▁손가락	-10.4549
▁국회의원	-10.4567
▁바이	-10.4567
▁그러므로	-10.4581
▁에게서	-10.4581
▁당한	-10.4584
▁만화	-10.4588
맥	-10.4591
▁썰	-10.4594
▁택배	-10.4594
▁구워	-10.4595
▁자치	-10.4596
▁붙여	-10.4598
▁밝히	-10.4599
▁질환	-10.46
!	-10.4603
▁은퇴	-10.4605
▁드립니다	-10.4606
▁초밥	-10.461
▁살인	-10.4617
▁방지	-10.4623
▁com	-10.4624
▁뉴욕	-10.4625
▁옛	-10.463
▁혈	-10.4631
▁바른	-10.4637
▁최소	-10.4638
▁야채	-10.4648
▁랫	-10.4657
▁진지	-10.4659
▁연구소	-10.4666
잡	-10.4666
▁바지	-10.4667
▁연구원	-10.4669
▁도덕	-10.4681
▁괴	-10.4681
ch	-10.4683
▁컬러	-10.4683
▁손님	-10.4693
▁손해	-10.4694
▁적어도	-10.4696
▁00	-10.4699
▁주소	-10.47
▁올렸	-10.4704
▁소녀	-10.4704
▁본질	-10.4704
▁35	-10.4705
▁민주주의	-10.4711
▁펼쳐	-10.4711
▁감각	-10.4712
▁홈페이지	-10.4718
▁한가	-10.472
죽	-10.4723
▁어릴	-10.4724
▁마이	-10.4728
▁마니	-10.4735
▁●	-10.4741
한다	-10.4744
▁남겨	-10.4744
육	-10.4747
▁기독교	-10.4747
▁예비	-10.475
▁운명	-10.4755
un	-10.4757
▁삼겹살	-10.4757
▁바보	-10.4759
▁가수	-10.4759
▁부드럽	-10.4764
▁맑	-10.4766
▁오해	-10.4766
▁분리	-10.4767
▁으므로	-10.4772
▁갖추	-10.4782
▁탑	-10.4784
▁한반도	-10.4785
▁성인	-10.4791
킹	-10.4796
▁중학교	-10.4803
▁못할	-10.4803
▁갈비	-10.4804
▁오늘날	-10.4808
▁왠지	-10.4812
▁인테리어	-10.4813
▁.....	-10.4817
▁w	-10.4824
▁신용	-10.4827
▁턱	-10.4831
▁대요	-10.4837
▁한마디	-10.4837
룩	-10.484
▁투쟁	-10.4841
▁누워	-10.4843
욕	-10.4848
▁끈	-10.4848
▁싼	-10.485
▁파괴	-10.4855
▁매운	-10.4855
페	-10.4862
▁흔히	-10.4863
▁최저	-10.4872
▁́	-10.4876
▁도시락	-10.4882
▁해소	-10.4887
▁과목	-10.4895
▁딩	-10.4904
▁건너	-10.4905
▁커플	-10.4916
▁샵	-10.492
▁예측	-10.4921
▁져서	-10.4926
▁사라지	-10.4931
▁묶	-10.4933
▁공동체	-10.4936
▁다운	-10.4937
▁체크	-10.495
▁문장	-10.4953
▁찐	-10.4954
▁》	-10.4956
▁인력	-10.4959
▁사무	-10.4962
▁기운	-10.4973
▁크리스마스	-10.4975
▁나섰	-10.4992
▁순수	-10.4992
N	-10.5
▁일부러	-10.5004
▁간장	-10.5008
▁소금	-10.5011
▁유행	-10.5017
▁딸기	-10.5021
V	-10.5025
▁오랫동안	-10.503
▁취하	-10.5033
▁안심	-10.5034
▁정하	-10.5037
팔	-10.5039
▁죽이	-10.5047
▁논문	-10.5053
▁◆	-10.5054
ri	-10.5054
▁가난	-10.5057
▁피하	-10.5058
▁이모	-10.5059
▁토지	-10.5059
▁교체	-10.5064
▁인류	-10.5066
▁증권	-10.5067
욱	-10.5069
▁입맛	-10.5069
▁소년	-10.507
▁중소기업	-10.5072
웅	-10.5074
▁수영	-10.5075
▁배송	-10.5078
▁유튜브	-10.5083
▁볶	-10.5091
▁딱히	-10.5092
▁와인	-10.5094
▁무서워	-10.5098
▁귀여워	-10.5111
3	-10.5115
▁독서	-10.5116
▁챙기	-10.5116
▁까진	-10.512
▁신나	-10.5121
▁내렸	-10.5121
려고	-10.5124
검	-10.5125
났	-10.5126
▁놨	-10.5128
▁다이어터	-10.5129
▁인한	-10.5131
▁니까요	-10.5131
▁아라	-10.5141
▁데이	-10.5142
는데	-10.5144
▁흑흑	-10.5151
▁얇	-10.516
▁가만히	-10.5161
▁자격	-10.5162
▁ᅵ	-10.5164
▁떨어진	-10.5167
▁조용	-10.5175
▁부서	-10.5185
▁매년	-10.5187
▁n	-10.5191
▁초대	-10.5195
▁진다	-10.5196
▁밟	-10.5196
▁활	-10.5201
▁화이트	-10.521
잔	-10.5217
▁멋있	-10.5219
▁전했	-10.5224
▁흐르	-10.5225
▁신선	-10.524
▁열정	-10.5241
▁클럽	-10.5242
▁어여	-10.5251
▁소위	-10.5255
▁체력	-10.5255
▁비난	-10.5263
▁빠진	-10.5263
▁다구	-10.5267
▁적응	-10.5268
렀	-10.527
U	-10.5273
▁결혼식	-10.5288
▁목숨	-10.5296
▁경계	-10.53
져서	-10.5303
▁원리	-10.531
▁화려	-10.5316
▁똑같이	-10.5324
만두	-10.5324
▁멋진	-10.5329
7	-10.533
▁위반	-10.5332
▁대장	-10.5333
▁윤리	-10.5335
▁계신	-10.5342
▁절반	-10.5342
▁흰	-10.5344
▁귀여운	-10.5347
▁장비	-10.5354
▁보관	-10.5365
▁질서	-10.5366
▁신체	-10.5366
▁해진	-10.5369
?	-10.5374
▁인수	-10.5378
▁발달	-10.5379
▁당국	-10.538
▁보단	-10.538
▁향상	-10.5382
am	-10.5397
▁to	-10.5401
폐	-10.5401
▁버려	-10.5404
▁전주	-10.5405
▁지수	-10.5413
▁김밥	-10.5419
▁경주	-10.5423
▁아이스크림	-10.5426
▁만남	-10.5427
▁과자	-10.5427
▁안보	-10.5432
▁1000	-10.5435
▁네이버	-10.5437
▁아녀	-10.544
▁근까	-10.5442
렬	-10.545
잉	-10.5452
▁즐길	-10.5458
▁스테이크	-10.5461
▁아이폰	-10.5461
▁보고서	-10.5464
▁■	-10.5468
객	-10.5473
▁불만	-10.5479
▁쌈	-10.5482
슈	-10.5483
▁알려졌	-10.5491
▁거대	-10.5497
▁』,	-10.55
▁겁	-10.5507
▁헬	-10.5509
▁뒤집	-10.5514
▁신랑	-10.5517
▁여인	-10.5523
▁구역	-10.5523
▁욕심	-10.5528
▁갚	-10.554
▁달달	-10.5548
▁의문	-10.5549
따	-10.555
▁유사	-10.5551
▁움직임	-10.5561
▁정해	-10.5562
▁바랍니다	-10.5568
▁안철수	-10.5568
찰	-10.5569
▁할게요	-10.5578
▁이른바	-10.5581
▁숙소	-10.5582
없	-10.5588
▁모집	-10.559
▁사내	-10.5594
▁된다면	-10.5596
▁붙이	-10.5605
▁상관없	-10.5608
▁주차	-10.561
ᄏᄏᄏᄏᄏ	-10.5613
▁취미	-10.5614
▁에다	-10.5614
▁식물	-10.5615
▁국어	-10.5623
▁돕	-10.563
▁투명	-10.563
b	-10.5632
▁총선	-10.5632
▁애매	-10.5639
▁대리	-10.5642
▁베이비	-10.5645
▁협	-10.5647
▁둘러	-10.5649
▁미세먼지	-10.5652
▁탁	-10.5662
▁불렀	-10.5665
▁뽀	-10.5667
▁싹	-10.5671
▁교환	-10.5672
▁전용	-10.5672
리아	-10.5687
▁주부	-10.5687
▁힘내	-10.5687
▁가져가	-10.569
▁지도자	-10.5697
▁증상	-10.5697
▁봐야지	-10.5699
▁변하	-10.57
▁장치	-10.5701
▁어용	-10.5701
▁의해서	-10.5702
랐	-10.5704
▁쏟	-10.5709
▁들려	-10.571
모으	-10.572
▁쓰레기	-10.5731
맛	-10.5739
▁소주	-10.5742
▁X	-10.5745
▁'(	-10.5751
▁발휘	-10.5754
라고	-10.5759
▁자율	-10.576
▁경북	-10.576
▁연어	-10.5761
▁탔	-10.5761
▁풍경	-10.5768
▁신혼	-10.5769
▁컷	-10.5775
▁할까요	-10.5781
▁정식	-10.5782
▁꽉	-10.5783
▁확장	-10.5786
▁걸렸	-10.5788
▁개정	-10.5788
▁골라	-10.5792
▁매체	-10.5794
▁황제	-10.5798
▁그럼에도	-10.5799
▁창출	-10.58
릭	-10.58
▁오른	-10.5806
▁원하	-10.5807
▁방어	-10.5823
늘	-10.5825
▁협의	-10.583
▁걸음	-10.5834
▁어머님	-10.5835
소리	-10.5837
▁펜	-10.584
▁선팔	-10.584
▁습	-10.5842
▁체육	-10.5845
▁채용	-10.5845
▁연말	-10.5846
▁마감	-10.5848
▁지니	-10.585
▁겁니까	-10.5859
▁방침	-10.5861
려오	-10.5872
수록	-10.5876
▁델	-10.5877
▁결합	-10.5882
▁완료	-10.5882
▁적당	-10.5883
폭	-10.5883
▁사유	-10.5891
▁덥	-10.5903
▁집행	-10.5906
▁즐겁	-10.5912
▁만두	-10.5913
▁제조	-10.5919
▁입학	-10.592
▁즐거운	-10.5921
▁형사	-10.5924
▁니다	-10.5929
▁아홉	-10.5932
▁향후	-10.5938
▁추석	-10.5939
▁한두	-10.5948
▁태양	-10.5953
▁쳐다보	-10.596
나라	-10.5963
춘	-10.5966
짝	-10.5966
▁어쩌면	-10.5978
협	-10.5985
▁출산	-10.5987
▁놀랐	-10.5989
▁탄생	-10.599
▁입술	-10.5992
▁동원	-10.5997
▁45	-10.6002
▁아유	-10.6005
▁..?	-10.6012
허	-10.6012
▁연극	-10.602
▁랍니다	-10.602
▁디지털	-10.6026
▁채권	-10.6026
▁규칙	-10.603
▁단순히	-10.6031
om	-10.6033
▁여덟	-10.6037
ad	-10.6039
▁폭발	-10.6048
▁모바일	-10.6063
▁무려	-10.6068
▁모를	-10.607
▁2018	-10.6075
▁했으나	-10.6078
▁연예인	-10.608
▁개입	-10.6082
▁소고기	-10.6093
▁추정	-10.6099
ation	-10.6101
▁상하	-10.611
▁핑크	-10.6114
▁연계	-10.6117
▁형제	-10.6118
▁투자자	-10.6122
th	-10.6129
▁독특	-10.613
▁듀	-10.6132
▁써서	-10.6133
▁앨범	-10.6138
▁시골	-10.6148
▁쟤	-10.6149
um	-10.6156
▁없애	-10.6162
▁심심	-10.6168
곤	-10.6176
▁♡	-10.6177
▁유학	-10.6179
▁전력	-10.6182
▁물리	-10.6184
▁아이템	-10.6185
▁여당	-10.6185
▁총장	-10.6191
▁튼	-10.6192
▁2010	-10.6192
▁틈	-10.621
▁용어	-10.6213
▁ᄐᄐ	-10.6216
틴	-10.622
▁오일	-10.6222
▁기차	-10.6222
▁융	-10.6222
▁취재	-10.6223
▁촌	-10.6224
▁아동	-10.6224
▁고추	-10.6227
대로	-10.6231
▁입구	-10.6237
▁시내	-10.6239
스터	-10.624
▁흡수	-10.6244
▁룩	-10.6245
▁허용	-10.6246
▁온다	-10.6248
올라오	-10.6253
▁비상	-10.6258
▁영혼	-10.6259
▁헬스	-10.626
▁땡	-10.6261
▁모시	-10.6261
▁여보	-10.6265
섭	-10.6265
께	-10.6267
▁경력	-10.6267
줘	-10.6272
▁시계	-10.6274
▁확산	-10.6275
▁대만	-10.6277
▁채워	-10.6277
▁인근	-10.6278
▁뜯	-10.6279
▁터지	-10.6285
▁저자	-10.6285
▁바랄게	-10.6287
v	-10.6293
▁졸라	-10.6303
머리	-10.6306
▁양파	-10.6306
▁양식	-10.6307
라이	-10.6309
▁***	-10.6311
▁평일	-10.6316
▁전제	-10.6317
▁고구마	-10.6317
▁이쪽	-10.6318
▁무서운	-10.632
▁빙	-10.6332
▁계정	-10.6336
▁재단	-10.6336
▁이명박	-10.6336
▁채널	-10.6341
▁대안	-10.6345
▁곱창	-10.6346
▁2012	-10.6348
▁특이	-10.635
▁냉장고	-10.6351
▁고르	-10.6352
▁2017	-10.6356
▁점검	-10.6362
해서	-10.6368
▁멤버	-10.6372
낸	-10.6377
▁개별	-10.6379
▁태어나	-10.6384
▁위주	-10.6384
꼬	-10.6393
▁권한	-10.64
이트	-10.6401
▁곁	-10.6407
ra	-10.6408
▁확신	-10.6409
압	-10.6425
▁학과	-10.6427
▁다행히	-10.6431
▁슬퍼	-10.6437
▁한쪽	-10.6438
▁콘텐츠	-10.6441
▁캬	-10.6448
▁쿡	-10.645
▁남기	-10.6454
▁번역	-10.646
▁환영	-10.6463
▁케어	-10.6477
▁부상	-10.648
▁부처	-10.648
▁골프	-10.6482
▁커다란	-10.6488
▁로써	-10.6488
▁오리	-10.6488
▁린	-10.6495
▁선호	-10.6497
▁친한	-10.65
▁력	-10.6501
▁리뷰	-10.6509
▁예뻐	-10.6514
▁신화	-10.6517
▁다소	-10.6521
▁블로그	-10.6525
▁키워	-10.6527
▁날짜	-10.6531
▁진로	-10.6531
▁솔직	-10.6538
능	-10.654
▁한잔	-10.654
▁언젠가	-10.6544
▁교과	-10.6544
▁끝난	-10.6544
▁락	-10.6546
▁어라	-10.6549
ro	-10.6549
▁먼지	-10.6554
▁백성	-10.6556
▁방해	-10.6559
▁지켜보	-10.6561
▁회식	-10.6561
▁욕망	-10.6564
▁어렸	-10.6568
w	-10.6568
▁해방	-10.6576
▁줄어들	-10.6577
▁사연	-10.658
▁삼성전자	-10.6583
▁차단	-10.6585
▁투입	-10.659
▁쌍	-10.6591
▁뮤	-10.6591
▁풍부	-10.6594
▁관찰	-10.6594
▁옮	-10.6595
▁곱	-10.6597
▁임신	-10.6603
▁ᄂᄂ	-10.6605
▁들어와	-10.6607
▁충전	-10.6608
▁플러스	-10.6611
▁마셔	-10.6612
▁인재	-10.6617
▁얘길	-10.6626
▁무척	-10.6638
▁분류	-10.6639
▁콘서트	-10.6642
▁슈퍼	-10.6644
▁마디	-10.6644
▁장르	-10.6654
▁뷰	-10.6659
십	-10.6664
▁설마	-10.6667
▁만일	-10.6668
▁버거	-10.6668
▁안경	-10.667
ᄋ	-10.6677
▁홍콩	-10.6686
▁!!!!	-10.6686
▁막상	-10.6689
▁고정	-10.6691
▁거절	-10.6694
튼	-10.6698
▁가시	-10.6702
킨	-10.6702
▁생존	-10.6707
▁이외	-10.6711
팅	-10.6712
▁벨	-10.6714
▁넷	-10.6719
▁립	-10.672
▁천연	-10.6721
▁종목	-10.6722
▁신규	-10.6724
▁짚	-10.6725
▁드릴게요	-10.6725
▁가깝	-10.6726
▁측정	-10.6727
▁뜨거운	-10.6735
엘	-10.6736
▁빗	-10.6736
ent	-10.6736
▁벌이	-10.6737
▁보일	-10.6738
▁주방	-10.6742
▁|	-10.6742
^^	-10.6751
_	-10.6751
▁계절	-10.6754
▁😭	-10.6755
▁정기	-10.6756
▁심한	-10.6762
▁진술	-10.6763
▁2015	-10.677
▁배려	-10.677
▁에서부터	-10.6773
▁대처	-10.6773
▁자살	-10.6777
▁마라	-10.6777
▁당첨	-10.6778
▁든다	-10.6788
▁복합	-10.6789
엽	-10.6797
▁아줌마	-10.6799
▁쿠폰	-10.6799
▁중독	-10.6799
▁성향	-10.6801
풀	-10.6803
▁학문	-10.6815
▁튀김	-10.6817
▁교류	-10.6821
▁설득	-10.6828
▁조명	-10.6828
▁발행	-10.6834
▁붓	-10.6837
▁버릴	-10.685
▁여긴	-10.6853
▁지닌	-10.6873
탁	-10.6879
맨	-10.688
▁압박	-10.688
▁서울대	-10.6883
▁정답	-10.6891
▁샘	-10.69
▁2014	-10.6906
리스	-10.6908
▁엽	-10.6915
▁x	-10.6918
!!	-10.692
▁로마	-10.6921
▁까먹	-10.6923
▁닝	-10.6924
▁정말로	-10.6929
번	-10.6934
▁저게	-10.6936
▁티켓	-10.6936
▁연관	-10.6938
▁랴	-10.694
▁올린	-10.6941
▁드러나	-10.6948
▁정원	-10.6951
▁어떨까	-10.6954
▁실내	-10.6958
▁직전	-10.6964
▁답변	-10.6967
녀왔	-10.6967
▁될까	-10.6969
▁누르	-10.6969
뜨	-10.6981
▁팅	-10.6993
다리	-10.7001
▁핏	-10.7003
아지	-10.701
▁신호	-10.701
▁드러내	-10.7016
▁공천	-10.7021
▁따지	-10.7022
▁―	-10.7022
큼	-10.703
▁엄청나	-10.7034
▁전남	-10.7037
▁걸쳐	-10.7044
▁한지	-10.7044
▁준다고	-10.7052
il	-10.7054
▁조작	-10.7056
▁자아	-10.7064
▁인원	-10.7081
▁걸까	-10.7087
▁저항	-10.7089
▁쳤	-10.7092
▁수고	-10.7096
짓	-10.7105
▁개성	-10.711
▁듭니다	-10.7113
▁댕	-10.7114
▁순서	-10.7114
▁법인	-10.7114
▁임대	-10.7129
▁채소	-10.7136
j	-10.7137
▁가량	-10.7145
▁시위	-10.7145
▁ᅮᅲ	-10.7146
▁선고	-10.7149
▁옵	-10.7151
얼	-10.7152
▁바디	-10.7153
▁셀카	-10.7153
▁부위	-10.7165
▁했잖아	-10.7165
▁수치	-10.7169
▁추워	-10.717
▁조용히	-10.7185
▁스님	-10.7186
▁두부	-10.7186
▁뭔데	-10.7189
▁등등	-10.7198
▁요건	-10.7204
▁으려	-10.7206
▁조언	-10.721
▁평범	-10.7213
▁2016	-10.7216
떡	-10.7218
▁하우스	-10.722
값	-10.7223
▁이성	-10.7226
▁체결	-10.7228
▁32	-10.723
▁교과서	-10.7237
▁가졌	-10.7241
▁책상	-10.7242
▁서양	-10.7244
▁군데	-10.7251
▁철저	-10.7255
헌	-10.7259
징	-10.7263
▁판사	-10.7264
▁착한	-10.7272
▁검증	-10.7273
▁들리	-10.7281
▁랩	-10.7283
▁까스	-10.7284
▁샴푸	-10.7286
▁빠졌	-10.7286
▁반려	-10.7286
▁전날	-10.7287
▁신학	-10.7288
▁지향	-10.7289
▁에겐	-10.729
▁그죠	-10.7291
▁후배	-10.7299
꽃	-10.7303
▁녀	-10.7307
▁접수	-10.7313
▁미터	-10.7321
벽	-10.7328
▁살려	-10.733
▁임명	-10.7331
▁완화	-10.7333
▁생태	-10.7334
▁장군	-10.7346
z	-10.7357
▁경비	-10.7364
▁허락	-10.7369
▁주년	-10.7372
쓰	-10.7384
▁진리	-10.7396
▁두려워	-10.7398
▁이념	-10.7398
▁온도	-10.74
▁와야	-10.7405
▁역량	-10.7407
▁뛰어	-10.7407
▁학부모	-10.7414
▁타인	-10.7416
▁증명	-10.7419
▁호흡	-10.742
▁food	-10.7424
럭	-10.7426
▁실행	-10.7432
▁신앙	-10.7435
▁으라고	-10.7438
im	-10.7441
▁목사	-10.7441
▁명예	-10.7445
▁조국	-10.745
▁종종	-10.7453
W	-10.7457
▁정비	-10.7457
▁떠오르	-10.7464
▁www	-10.7466
▁인하	-10.7467
▁2013	-10.7467
▁멈추	-10.7468
▁리더	-10.7474
엉	-10.7482
▁마세요	-10.749
▁곳곳	-10.7495
앙	-10.7497
▁조화	-10.7508
▁2011	-10.7508
▁무게	-10.7511
▁의자	-10.7511
▁풀리	-10.7513
▁33	-10.7524
▁계단	-10.753
▁"(	-10.7531
▁버터	-10.7532
엄	-10.7536
▁위로	-10.7542
젠	-10.7544
▁갔었	-10.7552
▁~~~~	-10.7556
la	-10.7556
▁애초	-10.7559
▁매콤	-10.7561
▁입주	-10.7564
▁히히	-10.7574
▁r	-10.7576
▁일까요	-10.7576
▁별도	-10.7581
죠	-10.7585
▁몰래	-10.7585
▁라든지	-10.7589
▁신분	-10.759
몰	-10.7591
▁이탈리아	-10.7597
▁단일	-10.7606
▁사원	-10.7607
▁줍니다	-10.7608
▁반갑	-10.7613
▁믿음	-10.7613
▁갈라	-10.7615
념	-10.7617
▁간다고	-10.762
se	-10.7621
▁극장	-10.7621
▁못한다	-10.7631
▁사물	-10.7632
▁뛰어난	-10.7637
▁심해	-10.7638
▁요금	-10.7641
▁유치원	-10.7642
▁기쁨	-10.7642
▁스페인	-10.7645
▁인형	-10.7647
끔	-10.7647
▁거듭	-10.7652
혹	-10.7652
▁눌러	-10.7657
▁2009	-10.7659
▁출마	-10.7661
as	-10.7664
▁2008	-10.7666
▁평등	-10.7667
▁국립	-10.7674
▁견해	-10.7677
▁세포	-10.7686
▁적당히	-10.7686
▁걸린	-10.7691
▁취지	-10.7693
▁大	-10.7695
셨	-10.7695
▁최소한	-10.7696
▁정치인	-10.7698
▁반발	-10.7714
흐	-10.772
▁용서	-10.772
▁이내	-10.7727
찌	-10.7729
▁제재	-10.7729
▁무한	-10.7733
▁그대	-10.7738
▁작전	-10.7746
▁의존	-10.7747
▁스마트	-10.7761
▁군인	-10.7761
▁트리	-10.7762
▁탈출	-10.7764
▁특별히	-10.7765
▁너무너무	-10.7765
▁더군요	-10.7779
000	-10.7781
▁텐	-10.7785
▁썩	-10.7787
▁쪼금	-10.7788
▁멋	-10.7795
▁강사	-10.7796
▁패딩	-10.7799
▁려나	-10.78
▁지난번	-10.7805
▁강원도	-10.7807
▁출판	-10.781
▁타이	-10.7811
우스	-10.7813
▁욤	-10.7814
▁대학생	-10.7818
▁계급	-10.7822
▁끊임없이	-10.7832
▁다니까	-10.7833
▁저축	-10.7834
▁쉴	-10.7836
▁폐지	-10.7839
▁껴	-10.7841
▁둥	-10.7849
ter	-10.7851
▁국장	-10.7856
▁당근	-10.7858
▁이래서	-10.786
▁객관	-10.7873
▁캔	-10.7874
▁들어온	-10.7875
▁압	-10.7876
핑	-10.7879
센	-10.7879
▁이쁜	-10.788
▁주사	-10.7883
50	-10.7884
▁욕구	-10.7886
▁화제	-10.7888
▁는다면	-10.7889
▁버섯	-10.7893
▁힐링	-10.7894
▁운용	-10.7898
▁볶음밥	-10.7901
▁처분	-10.7908
▁지혜	-10.7908
▁곰	-10.7909
▁개방	-10.791
푸	-10.7913
응	-10.7915
▁전세	-10.7924
큐	-10.7924
▁살리	-10.7925
▁미군	-10.7926
껏	-10.7929
▁남녀	-10.7929
▁포스팅	-10.793
▁보낼	-10.7935
▁깎	-10.7942
▁통계	-10.7944
▁나옴	-10.7953
▁반성	-10.7953
ly	-10.7958
참	-10.7958
느	-10.7962
▁아버님	-10.7966
▁벤	-10.7967
▁5000	-10.7973
돌아다니	-10.7973
▁평양	-10.7973
몽	-10.7976
▁노출	-10.7977
▁일으	-10.7978
▁국수	-10.7984
▁창문	-10.7986
▁삿	-10.7988
빛	-10.7991
▁거울	-10.7993
▁박물관	-10.8002
▁오호	-10.8004
▁매달	-10.8008
▁더라구	-10.801
▁시청자	-10.8014
▁의장	-10.8017
▁사귀	-10.8017
▁담주	-10.8017
▁위대	-10.8019
▁월드컵	-10.8035
▁대우	-10.8037
▁정성	-10.804
▁점차	-10.8041
▁빨간	-10.8042
▁가르쳐	-10.8046
▁그리스	-10.805
▁네트워크	-10.8051
▁마당	-10.8055
▁입시	-10.8057
▁여기저기	-10.8065
▁정서	-10.8068
▁도망	-10.807
▁헤헤	-10.8072
랄	-10.8073
▁었었	-10.8074
▁라든가	-10.8076
▁민감	-10.8077
▁할려고	-10.8079
▁보조	-10.8087
▁컨	-10.8096
▁맵	-10.8097
▁기부	-10.81
▁냐는	-10.8103
▁가져	-10.8104
▁부채	-10.8107
▁유도	-10.8107
▁마침내	-10.8107
▁토마토	-10.811
▁량	-10.8111
▁파일	-10.8111
봐	-10.8112
▁문제점	-10.8114
▁가루	-10.8115
▁광장	-10.8117
▁인연	-10.8119
▁애플	-10.8122
▁지인	-10.8125
▁마르	-10.8126
▁나타내	-10.8126
▁주차장	-10.8127
▁코로나	-10.8129
▁찢	-10.8133
▁미사일	-10.8136
▁육성	-10.8136
끈	-10.8138
▁부리	-10.8139
▁잘라	-10.8141
▁불교	-10.8142
st	-10.8142
▁황금	-10.8147
▁공약	-10.8153
▁인용	-10.8156
▁스물	-10.8157
▁농업	-10.8163
▁근로자	-10.8165
▁골목	-10.8168
▁생리	-10.8168
▁바쁜	-10.8177
▁생선	-10.8179
▁서구	-10.8179
▁얼음	-10.8182
▁밋	-10.8184
흘리	-10.8186
▁다를	-10.8194
딩	-10.8195
▁록	-10.8208
▁친해	-10.8209
▁개웃	-10.8211
▁묘사	-10.8212
▁될까요	-10.8214
▁흙	-10.8221
▁식감	-10.8223
▁회계	-10.8223
"	-10.8224
둥	-10.8225
릉	-10.8233
놈	-10.8239
▁이뤄	-10.824
▁찰	-10.8242
▁닥	-10.8243
▁엑스	-10.8244
▁사안	-10.8245
▁레드	-10.8251
▁상자	-10.8256
▁드린	-10.8259
▁문명	-10.8262
▁공단	-10.8264
(	-10.8266
▁그야말로	-10.8267
▁햄	-10.827
▁시사	-10.8272
벌어지	-10.8274
▁꽂	-10.8284
▁아이고	-10.8285
▁가르치	-10.8287
▁순환	-10.8288
▁결심	-10.8291
▁당일	-10.8293
id	-10.8299
▁발사	-10.8305
버스	-10.8307
▁http	-10.8311
▁부드러운	-10.8313
▁춘	-10.8313
▁생길	-10.8314
li	-10.8315
ᄀ	-10.8322
▁매번	-10.8326
▁그걸로	-10.833
▁표준	-10.8332
▁눈길	-10.8333
▁동아리	-10.8333
▁영웅	-10.8335
▁멜	-10.8338
▁뮤지컬	-10.8339
▁수십	-10.8342
▁노무현	-10.8343
▁해양	-10.8348
▁무렵	-10.8355
▁대가	-10.8355
럼	-10.8355
▁코드	-10.8357
▁팔로우	-10.836
▁뚜	-10.8361
-	-10.8364
▁돌아왔	-10.8367
▁휴대	-10.8368
▁구멍	-10.837
▁먹이	-10.8373
▁유엔	-10.8376
▁ᄁ	-10.8384
싱	-10.8387
▁헛	-10.8388
▁때로	-10.84
▁회견	-10.8406
빵	-10.841
▁에어컨	-10.8414
A	-10.8421
▁애정	-10.8426
▁혹	-10.8432
▁섭취	-10.8433
▁테러	-10.8442
▁붙잡	-10.8445
▁전면	-10.8446
▁렌즈	-10.8448
▁택	-10.8452
▁유기	-10.8455
▁알려져	-10.8456
▁co	-10.846
▁메인	-10.846
▁다는데	-10.846
▁병사	-10.8465
▁주관	-10.8466
▁안주	-10.8468
▁쿠키	-10.8471
▁당사자	-10.8473
▁염색	-10.8475
칙	-10.8478
▁올리브	-10.849
H	-10.8501
▁그리스도	-10.8502
▁갈래	-10.8511
▁라떼	-10.8511
▁임시	-10.8512
▁남친	-10.8512
▁흔적	-10.8513
▁36	-10.8514
▁천안	-10.8514
ce	-10.8515
▁대립	-10.8517
▁오직	-10.852
▁젊은이	-10.8525
▁멘	-10.8526
▁법안	-10.8527
▁나간	-10.8536
▁셋째	-10.8537
▁법정	-10.8542
▁??	-10.855
▁신부	-10.855
▁휴대폰	-10.8553
▁아웃	-10.8557
▁뿌려	-10.8563
▁갑니다	-10.8564
▁관광객	-10.8566
▁이겨	-10.8566
▁와중	-10.8567
▁채우	-10.8574
▁치열	-10.8579
▁끓	-10.8581
▁불행	-10.8583
▁무언가	-10.8584
▁자본주의	-10.8586
▁대학원	-10.8589
▁웨	-10.859
▁지위	-10.8595
▁수립	-10.8595
▁저장	-10.8595
▁국토	-10.8601
▁국당	-10.8603
▁맞이	-10.8608
▁오오	-10.8609
▁럼	-10.8612
짜	-10.8614
▁보편	-10.8617
▁데뷔	-10.8617
▁^	-10.8622
▁초점	-10.8629
▁여수	-10.8629
▁적합	-10.863
▁’,	-10.8636
▁38	-10.8642
▁짬뽕	-10.8644
널	-10.865
▁불쌍	-10.8652
▁샌드위치	-10.8654
▁샤워	-10.8655
▁감안	-10.8658
▁트위터	-10.8671
잖	-10.8673
▁노트북	-10.8676
▁2007	-10.8676
▁전원	-10.8678
▁랏	-10.868
▁다시피	-10.8685
▁확률	-10.8688
▁명절	-10.8688
▁깨달	-10.8699
▁해질	-10.87
▁바꿀	-10.8701
▁환상	-10.8714
▁겹	-10.8716
▁re	-10.8724
▁파워	-10.8728
▁34	-10.8728
▁품질	-10.8732
굴	-10.8737
▁닼	-10.8741
률	-10.8743
▁진입	-10.8748
▁덧붙였	-10.8753
▁섭	-10.8757
▁노트	-10.8761
▁편한	-10.8762
▁이뻐	-10.8765
▁근로	-10.8768
▁호주	-10.8771
▁보안	-10.8779
▁신상	-10.8782
▁족발	-10.8782
▁균	-10.8783
▁Y	-10.8786
▁사업자	-10.8793
▁한숨	-10.8795
▁일어난	-10.8795
▁밴드	-10.8796
닝	-10.8799
▁와우	-10.8801
▁계좌	-10.8808
▁배출	-10.8812
▁바란다	-10.8812
칼	-10.8814
▁추세	-10.8817
▁물가	-10.882
▁재능	-10.8822
1	-10.8824
▁끓여	-10.8826
▁든든	-10.8828
▁직후	-10.8832
▁댜	-10.8832
▁핀	-10.8833
▁신라	-10.8838
▁션	-10.8844
▁취급	-10.8845
▁이것저것	-10.8846
▁구해	-10.8859
▁자격증	-10.8862
▁매매	-10.8863
▁탱	-10.887
▁벼	-10.8876
▁페이	-10.8877
▁들어서	-10.888
▁2002	-10.8898
다가	-10.8899
▁공학	-10.8904
▁쓰이	-10.8905
▁ᄃᄃ	-10.8907
▁타자	-10.8914
▁비즈니스	-10.8915
좌	-10.8917
▁당선	-10.8918
▁존중	-10.8929
▁비전	-10.8932
▁파이	-10.8944
▁좌우	-10.8946
▁접촉	-10.8947
▁철도	-10.8948
ᄏᄏᄏᄏᄏᄏ	-10.895
▁명확	-10.8958
▁네네네	-10.896
▁아트	-10.8962
▁기다렸	-10.8964
▁어플	-10.8969
▁한나라당	-10.8969
▁오징어	-10.8972
▁비리	-10.8976
▁😆	-10.8977
▁일치	-10.8977
▁틱	-10.8983
▁깨닫	-10.8984
▁질병	-10.8993
▁배제	-10.8996
▁테스트	-10.8997
▁알려진	-10.8998
▁계층	-10.9
▁갈수록	-10.9001
▁넘겨	-10.9001
▁온갖	-10.9006
▁으실	-10.9018
▁가질	-10.9018
▁박수	-10.9021
▁대개	-10.9023
▁흥분	-10.9026
▁생겨	-10.9026
▁세제	-10.9028
▁뻗	-10.903
▁소수	-10.9032
▁ᄋᄉᄋ	-10.9036
▁목요일	-10.9036
▁조기	-10.9038
다녀오	-10.904
▁손실	-10.9041
▁경고	-10.9048
▁매수	-10.9049
▁리얼	-10.905
ss	-10.9058
▁용품	-10.906
▁차려	-10.9063
▁때리	-10.9064
쳐서	-10.9067
▁팝	-10.9067
둔	-10.9071
▁배고파	-10.9072
▁집회	-10.9076
▁짠	-10.9077
▁고백	-10.9078
▁연수	-10.9078
▁존경	-10.9078
▁호남	-10.9084
▁도쿄	-10.9085
▁하얀	-10.9088
▁지났	-10.9092
ne	-10.9095
▁한정	-10.9104
▁강요	-10.9104
▁글자	-10.9108
▁저렇	-10.9109
턴	-10.9109
멸	-10.9109
▁시티	-10.9111
▁패턴	-10.9112
▁신입	-10.9117
▁어색	-10.9118
ᅲ	-10.9119
▁통장	-10.9121
▁활발	-10.9121
▁검진	-10.9122
▁달래	-10.9125
▁등산	-10.9132
▁승부	-10.9137
▁긁	-10.9143
▁담겨	-10.9144
▁수요일	-10.9145
▁쩌	-10.9146
te	-10.9147
친다	-10.9149
▁통증	-10.9152
▁400	-10.9156
▁비서	-10.9157
▁부러	-10.9159
▁코리아	-10.916
▁모이	-10.9164
▁스러우	-10.9165
어서	-10.9165
▁힐	-10.9167
▁슬픔	-10.9167
Y	-10.9169
▁허가	-10.9176
▁맞춤	-10.9177
ᄉ	-10.9185
▁편해	-10.9185
▁바람직	-10.9188
▁센스	-10.9193
▁즐겨	-10.9193
▁마사지	-10.9194
▁달콤	-10.9197
▁쿨	-10.9198
▁심판	-10.9201
▁제국	-10.9202
▁빼앗	-10.9203
ut	-10.9207
▁사자	-10.9207
▁원내대표	-10.9213
▁쿠션	-10.9214
▁의학	-10.9223
▁교육청	-10.9225
▁동양	-10.9226
▁카레	-10.9227
▁화재	-10.9229
▁논쟁	-10.9231
▁설탕	-10.9235
ie	-10.9235
▁김영	-10.9238
▁지휘	-10.9238
▁내면	-10.9238
▁줘요	-10.9243
▁편리	-10.9243
▁여지	-10.9249
▁아끼	-10.9258
▁폭행	-10.9266
▁마셨	-10.9266
▁복수	-10.9275
▁바깥	-10.9277
▁도저히	-10.9285
▁가슴살	-10.9285
▁으론	-10.9285
▁상실	-10.929
붙	-10.9293
▁볼까요	-10.9296
▁instafood	-10.9297
▁마실	-10.9298
▁퓨	-10.9301
▁마침	-10.9301
려야	-10.9305
▁코트	-10.9305
▁j	-10.9306
▁로봇	-10.9306
▁충돌	-10.9306
▁xx	-10.9308
...	-10.9309
▁단독	-10.9309
▁잠들	-10.9311
▁단기	-10.9312
▁시집	-10.9312
▁두려움	-10.9315
▁탄핵	-10.9315
랭	-10.9316
으나	-10.9318
▁입원	-10.9319
▁진화	-10.9335
▁외출	-10.9337
lo	-10.9341
▁접시	-10.9351
▁핑	-10.936
?????	-10.9365
혼	-10.9366
▁양쪽	-10.9366
묘	-10.9367
▁메이크업	-10.9369
▁아야지	-10.937
▁하여튼	-10.9375
ir	-10.9378
▁참치	-10.938
▁국정원	-10.9384
▁v	-10.9384
▁지출	-10.9386
▁감시	-10.9396
▁영향력	-10.9396
▁화이팅	-10.9408
▁랄	-10.9415
▁진료	-10.9417
▁kg	-10.9421
▁→	-10.9421
▁kr	-10.9421
▁어둠	-10.9428
▁스런	-10.9429
▁보완	-10.9432
▁휴식	-10.9439
▁법칙	-10.9439
▁향기	-10.9443
눈	-10.9452
농	-10.9453
▁연간	-10.9454
▁얹	-10.9455
▁노선	-10.9455
▁서민	-10.9456
▁제자	-10.9458
▁승진	-10.9464
▁참조	-10.9476
▁오염	-10.9486
때	-10.9489
▁상식	-10.9491
▁기소	-10.9494
▁보습	-10.9495
▁악화	-10.95
▁프리미엄	-10.9502
▁ᄋᄌ	-10.9505
▁Ch	-10.9505
르르	-10.9507
▁구이	-10.9513
▁청주	-10.9515
▁버티	-10.9516
▁필자	-10.9517
▁승인	-10.9518
▁심정	-10.9521
▁커지	-10.9523
▁흘러	-10.9525
▁150	-10.9526
0	-10.9527
▁도구	-10.9527
▁구원	-10.9528
▁한글	-10.9535
▁잔뜩	-10.9537
▁2004	-10.9537
▁빨래	-10.9538
▁배운	-10.9539
▁대단히	-10.9539
▁키즈	-10.954
▁쇠	-10.9541
▁협정	-10.9546
▁절대로	-10.9559
빠	-10.9562
▁포항	-10.9564
찮	-10.9566
▁럽	-10.9567
둘	-10.9567
▁개편	-10.9569
▁피로	-10.957
▁알아	-10.9575
▁가리	-10.9576
▁수록	-10.9582
▁스러웠	-10.9584
ma	-10.9586
▁예민	-10.9586
▁액션	-10.9587
▁세일	-10.9588
▁중대	-10.9588
▁Re	-10.9591
인다	-10.9599
▁之	-10.9602
▁뺏	-10.9602
▁나빠	-10.9611
▁일제	-10.9613
▁넉넉	-10.9618
▁정작	-10.9619
기쁘	-10.9625
▁不	-10.9625
벨	-10.9627
▁인디	-10.9631
▁통상	-10.9634
▁이불	-10.9635
▁페이지	-10.9638
▁한강	-10.9639
▁관념	-10.9646
▁볶음	-10.9649
▁마크	-10.9651
▁강릉	-10.9653
▁인민	-10.9653
▁비하	-10.9656
퇴	-10.9665
!!!	-10.9665
▁읍	-10.9671
▁시킨다	-10.9672
▁어려울	-10.9674
▁하나하나	-10.9679
▁놓치	-10.968
▁가려	-10.9688
▁요런	-10.9695
▁정지	-10.9696
▁낯	-10.9697
▁포도	-10.9697
▁2003	-10.9702
▁특유	-10.9707
까봐	-10.9708
▁극단	-10.9709
▁앵	-10.9712
▁엉엉	-10.9713
▁똑똑	-10.9725
▁제약	-10.9732
▁매트	-10.9734
▁아름답	-10.9738
▁지상	-10.9744
▁득	-10.9745
▁In	-10.9747
▁응답	-10.9747
▁동화	-10.9748
▁호소	-10.975
▁문서	-10.9751
▁았었	-10.9756
▁서운	-10.9758
▁주름	-10.9765
▁대결	-10.9767
▁촉	-10.9774
▁1990	-10.9774
▁IT	-10.9783
▁부품	-10.9785
▁돋	-10.9785
▁뿜	-10.9789
▁계열	-10.9793
▁이라든지	-10.9797
▁상업	-10.9798
▁안타깝	-10.98
▁대북	-10.9805
▁들여	-10.9805
▁해명	-10.9806
▁캠프	-10.9806
▁인분	-10.9809
▁양성	-10.9815
▁식구	-10.9827
▁간편	-10.983
▁영장	-10.9831
▁단백질	-10.9835
▁배터리	-10.9838
존	-10.9847
▁밀려	-10.9851
30	-10.9852
▁55	-10.9853
▁랄까	-10.9856
▁라면서	-10.987
▁리스트	-10.987
▁모래	-10.9872
▁그서	-10.9876
▁불가	-10.9881
탑	-10.9883
▁프레	-10.9886
▁조리	-10.9888
▁집권	-10.9892
▁프라	-10.9899
▁37	-10.9901
▁바퀴	-10.9907
▁채택	-10.9908
▁민중	-10.9915
집니다	-10.9915
▁용돈	-10.9916
▁렷	-10.9917
▁배웠	-10.9924
▁코너	-10.9927
▁선보	-10.9929
▁변동	-10.9931
▁%),	-10.9934
▁장식	-10.9935
꾸	-10.9935
▁😂	-10.9936
▁농민	-10.9941
▁신중	-10.9942
▁조카	-10.9945
▁전년	-10.9948
▁인친	-10.9952
▁주거	-10.9958
▁리더십	-10.9958
잘	-10.9963
♀	-10.9963
▁타입	-10.9965
▁곤란	-10.9965
▁거주	-10.9968
▁구름	-10.9971
▁돌아온	-10.9973
▁가까워	-10.998
▁바위	-10.9981
▁찬성	-10.9985
▁양심	-10.999
띠	-10.9993
▁웹	-10.9997
샤	-10.9999
'	-10.9999
▁마이크	-10.9999
▁잎	-11.0002
엔	-11.0007
▁복귀	-11.0009
▁대변인	-11.0011
어져	-11.0011
▁배워	-11.0014
럽	-11.0018
▁육체	-11.0021
▁눈앞	-11.0026
▁2005	-11.0027
▁보건	-11.003
▁수면	-11.003
▁지각	-11.0034
▁굶	-11.0035
▁쑥	-11.0036
▁술집	-11.0037
▁2019	-11.0041
▁오만	-11.0042
▁대목	-11.0047
▁혈압	-11.0049
▁배고프	-11.0051
▁2001	-11.0052
▁음성	-11.0052
▁2006	-11.0063
▁교실	-11.0064
▁눈빛	-11.0064
▁사라졌	-11.0074
▁스킨	-11.0075
▁셔도	-11.0075
릿	-11.0081
▁태국	-11.0085
▁나타난	-11.0086
▁멋지	-11.009
▁천재	-11.0091
▁아프리카	-11.0096
삭	-11.0098
▁시켜서	-11.0099
▁st	-11.0104
ay	-11.0109
▁아파서	-11.0109
▁실업	-11.0111
▁푸짐	-11.0116
▁동작	-11.0129
▁스키	-11.0131
며	-11.0132
all	-11.0133
▁내린	-11.0136
깨	-11.0142
▁갖춘	-11.015
▁cm	-11.0166
활	-11.0182
▁텔레비전	-11.0182
▁컬	-11.0182
▁몇몇	-11.0182
▁드려요	-11.0183
▁패스	-11.0184
▁맛난	-11.0184
▁시켜야	-11.0187
▁꺾	-11.0191
▁지지율	-11.0192
▁섬유	-11.0192
▁츠	-11.0193
▁향수	-11.0195
▁월드	-11.0202
▁블루	-11.0209
▁버튼	-11.0212
그러	-11.0212
▁터져	-11.0212
▁거두	-11.0212
▁연설	-11.022
▁건데요	-11.0222
▁부지	-11.0222
▁구간	-11.0224
▁홀로	-11.0229
▁관람	-11.023
▁3000	-11.023
▁마약	-11.0231
▁바뀐	-11.0233
▁마마	-11.0233
man	-11.0233
▁훈	-11.0234
▁들으	-11.0235
▁칼국수	-11.0244
X	-11.0252
▁걸어가	-11.0253
▁커버	-11.0254
▁으흠	-11.0256
▁면허	-11.0264
▁친환경	-11.0267
▁카카오	-11.0272
▁즉시	-11.0273
▁지분	-11.0274
▁후원	-11.0277
답	-11.0279
ot	-11.028
▁푸른	-11.0283
▁......	-11.0284
▁앓	-11.0284
▁연령	-11.0285
▁막내	-11.0285
▁태풍	-11.0289
▁따위	-11.0292
▁급여	-11.0296
▁당당	-11.0297
▁창작	-11.0297
▁안쪽	-11.0299
▁감상	-11.0302
레이	-11.0303
▁바나나	-11.0315
▁연휴	-11.0322
▁우리나라	-11.0323
▁키로	-11.0327
▁힝	-11.0327
▁단점	-11.0329
▁토대	-11.0332
▁껄	-11.0336
▁긍까	-11.0341
▁아나운서	-11.0346
▁장수	-11.0348
▁아깝	-11.035
▁출전	-11.0355
▁자르	-11.0356
솔	-11.0356
▁수제	-11.0357
럴	-11.036
▁▶	-11.0362
ᄒ	-11.0362
▁특검	-11.0373
▁바이오	-11.038
▁부당	-11.0383
▁39	-11.0386
▁세종	-11.0387
▁머릿속	-11.0389
▁기기	-11.039
▁서른	-11.0404
▁출입	-11.0405
▁통치	-11.0407
▁수리	-11.0413
▁하여금	-11.0418
▁명품	-11.0419
▁네여	-11.0423
▁중반	-11.0423
▁냠냠	-11.0429
▁like	-11.0432
밭	-11.0439
▁아픔	-11.044
▁오이	-11.0443
▁석유	-11.0444
ge	-11.0446
▁우산	-11.0449
▁런던	-11.0453
▁돌파	-11.0456
▁보리	-11.0457
▁부회장	-11.0458
▁침묵	-11.0458
▁탄력	-11.0459
▁한대	-11.046
▁미루	-11.0462
▁면적	-11.0466
▁노예	-11.0468
▁우동	-11.047
▁냉면	-11.0476
▁커뮤니케이션	-11.0478
▁취직	-11.048
▁웬만	-11.0483
ᄂ	-11.0492
▁입증	-11.0493
▁***-****-****	-11.0495
▁취득	-11.0496
▁지대	-11.0498
▁청문회	-11.0498
맞	-11.0501
▁요기	-11.0505
▁발굴	-11.051
▁지자체	-11.051
▁몰려	-11.0511
▁샌	-11.0511
▁라이프	-11.0513
▁리라	-11.0518
▁몰라서	-11.052
▁지갑	-11.0521
art	-11.0524
▁48	-11.0529
▁구별	-11.0532
▁한때	-11.0533
렉	-11.0537
▁댐	-11.0545
▁댔	-11.0546
ow	-11.0548
▁’(	-11.0549
▁껍질	-11.0551
▁토끼	-11.0556
즘	-11.0558
▁뭉	-11.0561
▁이마트	-11.0562
▁상인	-11.0565
▁주간	-11.0565
▁퀴즈	-11.0566
▁취임	-11.0574
▁시급	-11.0575
▁아이돌	-11.0576
▁개국	-11.0578
▁가스	-11.0581
▁일어날	-11.0583
▁담긴	-11.0584
▁수수료	-11.0586
▁산다	-11.059
▁예매	-11.0592
▁맛없	-11.0592
▁99	-11.0594
10	-11.0597
▁업종	-11.0599
▁렌	-11.0605
▁은근	-11.0606
▁여겨	-11.0606
▁쎄	-11.0608
▁이야	-11.061
▁협조	-11.0616
▁URL	-11.0618
▁구성원	-11.062
▁슬픈	-11.0621
▁셀프	-11.0622
▁비로소	-11.0624
▁딜	-11.0625
▁아가씨	-11.0627
▁드림	-11.0627
op	-11.063
▁칩	-11.0636
▁공통	-11.0638
▁파크	-11.0639
▁상가	-11.064
▁부하	-11.0646
and	-11.0648
펜	-11.0656
▁여건	-11.0656
▁프라이	-11.0658
▁태어난	-11.0659
▁재수	-11.0661
▁진영	-11.0663
▁떠난	-11.0664
▁색상	-11.0664
▁거치	-11.0666
▁매입	-11.0671
▁상위	-11.0676
▁수집	-11.068
▁유발	-11.068
▁구래	-11.068
▁어르신	-11.0683
▁느낀	-11.0686
▁신비	-11.0689
▁흉	-11.0692
▁참으로	-11.0692
▁베이	-11.0693
20	-11.0694
▁츄	-11.0696
▁애인	-11.0699
▁은지	-11.0701
▁해져	-11.0703
▁의외	-11.0703
▁레몬	-11.0704
▁연봉	-11.0717
▁가사	-11.0717
▁소원	-11.0719
▁보존	-11.0725
▁피아노	-11.0727
▁학점	-11.0727
어요	-11.0729
▁김정	-11.0731
▁내지	-11.0733
▁빛나	-11.0739
▁경선	-11.0741
▁한창	-11.0742
▁객	-11.0742
▁꼬리	-11.0748
▁때려	-11.0748
▁일방	-11.075
납	-11.0752
▁검정	-11.0754
▁할래	-11.0755
냥	-11.0755
▁더워	-11.0758
▁받아들여	-11.0759
▁성취	-11.0762
▁합니까	-11.0764
잇	-11.0766
▁양상	-11.0766
▁곧바로	-11.0768
▁조만간	-11.0768
▁치우	-11.0769
▁전후	-11.077
▁찾아	-11.077
▁오지	-11.0771
▁드셔	-11.0773
▁주기	-11.0774
랜	-11.0775
▁떠났	-11.0776
▁푼	-11.0776
▁마켓	-11.0778
▁활약	-11.0782
▁직장인	-11.0784
▁워터	-11.0784
▁햄버거	-11.0786
▁St	-11.0789
▁침해	-11.0789
시다	-11.0789
하여	-11.0792
▁한동안	-11.0792
▁영원	-11.0806
▁아가	-11.0811
▁그니깐	-11.0814
▁호수	-11.0818
▁끌어	-11.0819
▁수백	-11.0825
▁실무	-11.0828
‍	-11.0829
▁즐거움	-11.0831
▁축소	-11.0835
▁권위	-11.0837
▁사퇴	-11.0839
▁사회주의	-11.0839
▁패키지	-11.084
▁구도	-11.0841
▁사면	-11.0848
▁대체로	-11.0848
▁매주	-11.0849
▁싯	-11.085
▁작동	-11.0851
▁던져	-11.0859
지나치	-11.086
▁레스토랑	-11.0861
▁범인	-11.0864
▁킨	-11.0864
▁ᄇ	-11.0865
▁진짜로	-11.0866
▁연인	-11.0874
▁요번	-11.0874
▁유연	-11.0878
▁떠올	-11.0883
▁녹음	-11.0887
▁사법	-11.0891
▁맞춰서	-11.0893
▁왤케	-11.0894
▁이스라엘	-11.0894
▁크리스	-11.0898
▁걸릴	-11.0906
▁끔찍	-11.0906
밍	-11.091
맹	-11.0913
▁공중	-11.0917
▁간부	-11.0917
▁짐작	-11.0921
▁칼로리	-11.0924
▁픽	-11.0926
▁뚜렷	-11.093
▁만만	-11.0933
▁그르	-11.0939
▁함유	-11.0946
▁임원	-11.0949
▁외모	-11.0952
벅	-11.0953
▁평창	-11.0954
▁◇	-11.0955
▁충족	-11.0956
▁들어와서	-11.0956
▁문재	-11.0957
▁커서	-11.096
▁장난감	-11.096
▁파견	-11.0961
▁빌리	-11.0961
▁직무	-11.0961
▁가로	-11.0963
▁타격	-11.0963
▁마구	-11.0965
▁드라고	-11.0974
▁놓여	-11.0977
▁정착	-11.0983
▁주먹	-11.0987
▁가벼운	-11.0988
▁출장	-11.0992
▁야식	-11.0996
▁귤	-11.1005
▁재생	-11.1007
▁초콜릿	-11.1012
▁밝힌	-11.1013
▁착용	-11.1016
야겠어	-11.1019
▁영광	-11.1019
▁스벅	-11.1027
▁ᅭ	-11.103
▁』(	-11.1032
▁웃긴	-11.1041
▁살림	-11.1042
▁덤	-11.1043
둥이	-11.1045
젓	-11.1045
▁본사	-11.1049
▁재벌	-11.1052
▁follow	-11.1055
▁잡지	-11.1056
▁래요	-11.1058
▁특허	-11.1059
▁십니다	-11.1059
▁기억나	-11.1061
쩍	-11.1065
80	-11.1066
▁국방	-11.1068
▁획득	-11.107
ell	-11.107
▁사냥	-11.107
▁따라가	-11.1072
▁살아남	-11.1079
▁볼게요	-11.1083
▁매각	-11.1085
▁나선	-11.1088
▁동반	-11.1089
▁어이없	-11.109
▁험	-11.1093
▁PC	-11.1095
라도	-11.11
ate	-11.1101
▁입법	-11.1103
▁이달	-11.1107
측	-11.1108
▁탐구	-11.1109
니아	-11.1111
▁메뉴판	-11.1112
▁진주	-11.1113
▁팟	-11.1117
▁진상	-11.1117
▁영감	-11.1124
▁협약	-11.1124
▁글씨	-11.1124
▁1980	-11.1127
로우	-11.1129
▁42	-11.1133
▁체포	-11.1134
▁캐나다	-11.1138
▁어딜	-11.1142
▁자국	-11.1143
▁갤럭시	-11.115
▁人	-11.115
▁부활	-11.1152
▁주주	-11.1158
쟁이	-11.1163
펼치	-11.1166
▁주머니	-11.1167
라든가	-11.1172
▁✔	-11.1176
▁농담	-11.1177
ill	-11.1179
▁오케이	-11.1179
▁람	-11.1179
▁갸	-11.1181
▁독재	-11.1183
▁마카롱	-11.1184
▁클렌징	-11.1184
▁밭	-11.1186
▁밥상	-11.1195
▁강연	-11.1197
▁배신	-11.1198
▁향한	-11.1199
▁당해	-11.1203
녕	-11.1203
▁착각	-11.1205
▁성실	-11.121
der	-11.121
▁물량	-11.1211
▁용인	-11.1212
▁서술	-11.1214
▁단다	-11.1214
▁엉덩이	-11.1216
▁미용실	-11.1216
▁마냥	-11.1216
▁떴	-11.1218
ul	-11.1218
▁몰아	-11.122
▁동맹	-11.1226
▁긔	-11.123
▁자신감	-11.1233
▁북미	-11.1234
▁봐라	-11.1235
▁가짜	-11.1236
▁고전	-11.1239
ity	-11.1242
▁쫄	-11.1243
▁쇼핑몰	-11.1244
▁야근	-11.1245
▁윈	-11.1249
접	-11.1253
▁배상	-11.1253
▁따져	-11.1256
▁소련	-11.1256
▁댁	-11.1256
▁슬슬	-11.126
▁일시	-11.1263
▁졋	-11.1266
ap	-11.1267
▁be	-11.1268
▁가져다	-11.127
▁유용	-11.1271
▁겡	-11.1273
▁스튜디오	-11.1277
▁질투	-11.1283
▁제정	-11.1288
▁이중	-11.1293
▁的	-11.1298
▁초청	-11.1299
▁거실	-11.1299
▁음음	-11.1302
▁촉진	-11.1302
륜	-11.1305
▁이어서	-11.1306
들이	-11.1307
▁놀라운	-11.1307
▁구두	-11.1309
▁긴급	-11.1315
▁한화	-11.1316
▁KT	-11.1317
▁ᅩ	-11.1318
▁거론	-11.1319
▁슴	-11.1321
▁버전	-11.1323
▁귀신	-11.1323
▁몰라도	-11.1326
▁마는	-11.1327
▁삭	-11.1334
▁마법	-11.1334
▁😊	-11.1338
▁담보	-11.1341
닉	-11.1343
▁모순	-11.1343
▁아이스	-11.1349
▁강도	-11.1349
▁덴	-11.1349
▁새해	-11.1355
▁메일	-11.1357
▁출석	-11.136
▁온몸	-11.1366
몬	-11.1367
▁스승	-11.1372
▁감당	-11.1374
▁혈액	-11.1379
뇌	-11.1383
▁총회	-11.1383
▁기뻐	-11.1386
▁아이디	-11.1386
▁ᄀᄎ	-11.1389
▁비평	-11.139
▁메이	-11.1393
▁첫날	-11.1394
▁맥락	-11.1394
▁몫	-11.1394
▁비비	-11.1397
▁엄격	-11.1402
6	-11.1404
▁라니까	-11.1409
▁케익	-11.1409
▁세부	-11.1412
▁처지	-11.1413
▁고대	-11.1414
▁성립	-11.1414
▁de	-11.1418
▁홈런	-11.1418
▁역대	-11.142
▁들으면	-11.1421
▁모기	-11.1426
▁원작	-11.1429
▁전복	-11.143
▁아울러	-11.1432
▁교정	-11.1434
ine	-11.1441
▁분과	-11.1442
▁꿈꾸	-11.1443
읍	-11.1444
▁최악	-11.1445
▁출구	-11.1447
▁편의	-11.1448
▁생겨서	-11.1454
▁일관	-11.1454
▁원전	-11.1457
▁음식점	-11.1457
▁농촌	-11.1458
▁미술관	-11.1459
지르	-11.1459
▁된대	-11.1462
▁랬	-11.1472
▁깡	-11.1473
어들	-11.1473
ment	-11.1477
▁지루	-11.1477
찾아오	-11.1477
▁불고기	-11.148
▁항목	-11.1481
▁출범	-11.1482
▁엔진	-11.1483
▁자존심	-11.1484
▁간접	-11.1497
▁고유	-11.1502
▁문의	-11.1502
▁기울	-11.1504
▁케이블	-11.1509
▁며느리	-11.1514
▁쿠리	-11.1517
▁더러	-11.1523
▁통보	-11.1528
▁뱅	-11.1531
▁농사	-11.1532
▁촉구	-11.1536
▁아쉬운	-11.1537
▁선임	-11.1539
▁려구	-11.1541
▁1997	-11.1544
▁기원	-11.1547
▁차리	-11.155
워서	-11.1552
▁가르	-11.1555
▁랜	-11.1559
▁추적	-11.1564
▁원피스	-11.1566
▁화요일	-11.1566
▁팁	-11.1566
▁변신	-11.1568
▁적혀	-11.1569
▁부과	-11.1574
▁왕자	-11.1576
콜	-11.1582
▁아닌지	-11.1585
▁1998	-11.1586
▁변수	-11.1589
톤	-11.159
▁룰	-11.1592
▁비해서	-11.1604
▁즐	-11.1605
x	-11.1609
▁뚜껑	-11.1611
▁치매	-11.1615
▁줄까	-11.1628
▁지난주	-11.1628
▁비주얼	-11.1631
▁ᅢ	-11.1631
▁김태	-11.1632
▁신다	-11.1635
가져오	-11.1635
▁여권	-11.1641
▁무지	-11.1644
드리	-11.1647
▁딱딱	-11.1649
▁1999	-11.1655
▁???	-11.1659
▁흔들리	-11.166
▁집착	-11.1665
▁부딪	-11.1666
▁널리	-11.167
▁고발	-11.167
▁본래	-11.1674
▁해물	-11.1674
▁남부	-11.1676
▁상장	-11.1677
▁잠재	-11.1681
▁솟	-11.1681
mo	-11.1695
▁화해	-11.1703
▁一	-11.1705
▁배당	-11.1709
▁첨단	-11.1713
▁길이	-11.1714
▁녹차	-11.1714
▁앰	-11.1715
▁스테	-11.1717
▁중도	-11.1723
▁준다는	-11.1726
헤	-11.1731
▁압력	-11.1732
▁고집	-11.1732
▁65	-11.1733
▁농구	-11.1734
▁연상	-11.1738
▁국무	-11.1742
▁우연히	-11.1748
▁배울	-11.1748
▁호박	-11.1759
ia	-11.1759
▁편성	-11.1762
▁징역	-11.1763
▁부실	-11.1766
시아	-11.1771
▁퇴직	-11.1772
▁남쪽	-11.1779
▁600	-11.1781
os	-11.1782
▁막히	-11.1782
▁찔	-11.1784
▁입사	-11.1786
▁은가	-11.1786
공사	-11.1787
▁달하	-11.1789
▁원고	-11.1792
텔	-11.1793
▁절망	-11.1794
▁본다면	-11.1796
▁비행	-11.1801
뢰	-11.1802
▁친하	-11.1803
▁다면서	-11.1804
▁≫	-11.1812
▁윗	-11.1814
▁으니깐	-11.1819
▁녹색	-11.1819
▁일지	-11.182
▁취약	-11.182
▁링크	-11.1823
▁거품	-11.1824
▁경매	-11.1826
est	-11.183
▁실시간	-11.1832
ang	-11.1837
▁듬뿍	-11.1844
▁조지	-11.1844
▁최순	-11.1846
▁•	-11.1846
▁까닭	-11.1848
▁예외	-11.1849
▁기적	-11.1857
▁더블	-11.1867
핀	-11.1867
▁컨셉	-11.1867
▁철저히	-11.1872
▁진학	-11.1872
▁촛불	-11.1874
롭	-11.1876
▁보증	-11.1876
▁폭탄	-11.1877
▁소외	-11.1881
ig	-11.1881
▁초과	-11.1886
▁내밀	-11.1888
▁젤리	-11.1889
▁훼손	-11.189
▁억제	-11.1892
▁댄	-11.1895
▁드셨	-11.1897
▁추운	-11.1901
▁로션	-11.1904
▁소방	-11.1905
▁브라	-11.1907
▁필름	-11.191
▁수비	-11.1913
▁당분간	-11.1917
▁자제	-11.1918
▁보여서	-11.1918
▁날개	-11.192
▁KBS	-11.192
~	-11.1924
▁골드	-11.1927
▁왕국	-11.1929
▁더구나	-11.1933
켓	-11.1936
▁성질	-11.1938
ea	-11.1939
랜드	-11.1944
▁전시회	-11.1946
▁이행	-11.1946
▁말투	-11.195
▁숭	-11.1952
닌	-11.1954
▁생물	-11.1955
▁예의	-11.1956
▁살해	-11.1958
▁쭈	-11.1961
▁고구려	-11.1961
▁임기	-11.1962
려왔	-11.1964
▁모드	-11.1965
▁고문	-11.1967
낭	-11.1967
▁MBC	-11.1968
▁메리	-11.1969
▁손상	-11.197
▁전설	-11.1972
▁≪	-11.1972
▁빨라	-11.1973
▁여의도	-11.1974
500	-11.1974
05	-11.1975
▁선진국	-11.1979
▁저러	-11.198
▁서방	-11.1982
▁보입니다	-11.1987
▁썬	-11.1987
▁유혹	-11.1989
웃	-11.1989
▁브이	-11.1989
끄	-11.1989
▁웹툰	-11.1991
▁반지	-11.1995
▁우정	-11.1996
▁계셨	-11.1996
▁지표	-11.1998
▁혈관	-11.2005
▁치과	-11.2007
▁선전	-11.2013
비아	-11.2016
▁으니까요	-11.2016
된	-11.2017
▁소름	-11.202
▁야권	-11.2024
▁화성	-11.2026
▁세탁	-11.2027
▁양반	-11.2029
25	-11.2031
▁미만	-11.2031
▁막걸리	-11.2034
▁예능	-11.2039
져야	-11.2043
▁이라도	-11.2044
깃	-11.2046
▁매니저	-11.2048
해야	-11.205
이크	-11.2056
▁육수	-11.2057
▁부추	-11.2057
▁물고기	-11.2061
▁지옥	-11.2071
▁ᄐ	-11.2071
졸	-11.2073
솥	-11.2082
▁🤣	-11.2082
▁약한	-11.2084
▁여사	-11.2085
▁이른	-11.2085
▁문득	-11.2087
▁랜드	-11.2092
▁꺄	-11.2092
▁타당	-11.2092
▁라기	-11.2092
▁대륙	-11.2096
▁들여다보	-11.2097
▁버림	-11.2098
▁됩니까	-11.2099
▁소환	-11.2099
▁더운	-11.2101
po	-11.2107
▁도달	-11.2109
ho	-11.2111
▁44	-11.2114
▁튼튼	-11.2119
▁소음	-11.2122
▁김성	-11.2123
▁설비	-11.2124
▁성능	-11.2125
▁비유	-11.2125
▁일자	-11.2129
▁中	-11.2132
▁씀	-11.2138
ᄏᄏᄏᄏᄏᄏᄏ	-11.2138
▁왜곡	-11.2142
ry	-11.2143
▁신가요	-11.2143
▁베리	-11.2146
▁임무	-11.2149
▁램	-11.215
▁삭제	-11.2153
▁비디오	-11.2153
▁부러워	-11.2154
빌	-11.2155
▁양보	-11.2162
▁심의	-11.2163
웨이	-11.2165
▁증언	-11.2167
▁예고	-11.2169
▁분쟁	-11.217
▁개헌	-11.2171
▁감옥	-11.2172
옹	-11.2173
▁생생	-11.2174
▁머물	-11.2176
▁잡혀	-11.2177
▁신속	-11.2179
▁좌절	-11.2179
▁닷	-11.2182
▁곽	-11.2185
▁수다	-11.2187
▁한꺼번에	-11.2187
▁지워	-11.2189
▁베이스	-11.2189
▁감염	-11.219
▁졸려	-11.2196
▁도둑	-11.2198
▁그래두	-11.2204
▁저작	-11.2208
▁환율	-11.2209
▁유전자	-11.2209
▁엑	-11.2212
긴다	-11.2215
▁구글	-11.2218
▁이태원	-11.2223
▁과도	-11.223
레스	-11.2231
닐	-11.2231
▁그리구	-11.2232
▁해진다	-11.2234
▁문구	-11.2236
em	-11.2238
▁지성	-11.224
▁대접	-11.2241
▁투수	-11.2242
▁영원히	-11.2242
▁노리	-11.2244
둬	-11.2245
40	-11.2246
▁바꿨	-11.2247
▁그림자	-11.2248
▁분당	-11.2254
▁지연	-11.2254
켰	-11.2257
▁드러	-11.2258
▁올릴	-11.2258
▁관료	-11.226
▁😘	-11.226
▁간호사	-11.2261
▁외식	-11.2261
▁들어올	-11.2261
냈	-11.2263
▁자나	-11.2266
▁껀	-11.227
▁구상	-11.2271
잖아	-11.2279
▁든가	-11.2287
어졌	-11.2288
▁고쳐	-11.2289
▁머리카락	-11.2291
▁청장	-11.2296
▁75	-11.2299
▁공인	-11.2304
▁밍	-11.2309
▁교양	-11.231
▁세웠	-11.2313
▁어마어마	-11.2315
▁살까	-11.2318
▁어두운	-11.2318
▁분열	-11.2319
▁모색	-11.2322
▁pp	-11.2323
▁단속	-11.2324
▁물어봐	-11.2325
립니다	-11.2327
▁지냈	-11.2327
▁인격	-11.2328
▁실체	-11.2329
▁논술	-11.2335
️	-11.2336
에스	-11.2341
▁발목	-11.2345
▁부작용	-11.2346
▁43	-11.235
▁굵	-11.2353
더라	-11.2355
▁신세계	-11.2358
▁신촌	-11.236
▁여태	-11.236
▁캣	-11.236
▁사라진	-11.2362
▁52	-11.2367
묵	-11.237
데이	-11.2371
▁장미	-11.2372
▁설레	-11.2375
옷	-11.2375
▁재무	-11.2378
첩	-11.2379
▁상반기	-11.2381
▁유해	-11.2382
▁올라갔	-11.2382
▁49	-11.2382
ong	-11.2384
▁Q	-11.2387
▁ch	-11.2387
▁범행	-11.2388
^	-11.2389
▁줄여	-11.2395
▁i	-11.2397
▁나눌	-11.2398
▁하반기	-11.24
▁보스	-11.24
▁어딨	-11.24
▁창의	-11.2406
▁잠실	-11.2406
스코	-11.2407
▁사로잡	-11.2409
▁처방	-11.241
▁",	-11.2413
▁캠페인	-11.2416
▁꼬치	-11.2418
▁붕괴	-11.242
▁선사	-11.242
▁무거운	-11.242
▁신사	-11.2421
▁이득	-11.2422
▁41	-11.2422
▁무선	-11.2424
▁콩나물	-11.2427
▁눈썹	-11.2427
▁펌	-11.2429
▁회전	-11.2429
▁구현	-11.243
▁용량	-11.2431
▁이사장	-11.2432
▁므	-11.2433
▁충남	-11.2434
▁외면	-11.2439
컬	-11.244
▁마땅	-11.2442
▁쪄	-11.2442
▁120	-11.2446
▁클래식	-11.2448
▁동부	-11.2451
▁폐쇄	-11.2455
싸	-11.2455
▁장악	-11.2457
▁땡기	-11.2458
▁부림	-11.2466
▁가라앉	-11.2469
▁밤새	-11.2469
▁전당	-11.2475
▁쏙	-11.2476
▁애니메이션	-11.2483
▁피우	-11.2487
▁하필	-11.249
>	-11.2492
▁형상	-11.2492
▁높여	-11.2495
▁청약	-11.2497
▁유출	-11.2499
▁쉐	-11.25
▁어땠	-11.2502
▁보급	-11.2506
▁광역	-11.2507
▁키워드	-11.251
/	-11.2513
▁or	-11.2513
▁펄	-11.2516
▁CEO	-11.2518
▁다수	-11.2519
▁학회	-11.252
▁46	-11.252
▁어쩌다	-11.2529
▁어린이집	-11.2533
▁주력	-11.2534
▁겄	-11.2536
▁흡	-11.2537
▁스타벅스	-11.2539
▁식탁	-11.254
▁관측	-11.2548
▁해고	-11.2549
▁거트	-11.255
▁비벼	-11.255
▁라이브	-11.2552
쁠	-11.2554
▁세운	-11.2555
▁800	-11.2557
▁점유	-11.2565
▁쫓아	-11.2565
▁하느님	-11.2568
▁나타난다	-11.2569
▁천사	-11.2569
▁월세	-11.257
▁민정	-11.2573
더니	-11.2574
▁스무	-11.2576
▁지르	-11.2578
▁차장	-11.258
▁귀족	-11.2581
딱	-11.2581
▁친척	-11.2582
▁열차	-11.2582
▁인공	-11.2586
▁뜬	-11.2587
▁조항	-11.2591
찾	-11.2592
▁덧	-11.2593
▁쩔	-11.2598
▁박정희	-11.2598
08	-11.2604
▁악마	-11.2606
▁야간	-11.2613
per	-11.2613
▁였으며	-11.2617
▁넵	-11.2619
▁창원	-11.262
토리	-11.262
▁사라져	-11.2621
게요	-11.2623
▁>,	-11.2625
▁무난	-11.2625
▁이야말로	-11.2625
▁패배	-11.2626
▁시트	-11.2626
▁지불	-11.2636
▁게끔	-11.2638
겁	-11.2638
▁보충	-11.2641
▁셧	-11.2641
▁김대중	-11.2643
▁강원	-11.2644
▁팩트	-11.2651
▁화나	-11.2654
▁햇빛	-11.2656
▁충실	-11.2658
쪽	-11.2658
▁비핵화	-11.2661
둑	-11.2664
▁열렸	-11.2664
▁망고	-11.2664
▁부천	-11.267
▁한데요	-11.2672
▁주자	-11.268
▁재미없	-11.268
▁흔	-11.2681
▁공작	-11.2682
▁無	-11.2686
▁웰	-11.2688
▁춘천	-11.2688
od	-11.2689
▁스티커	-11.269
▁라운드	-11.269
은행	-11.269
▁뿌듯	-11.2694
▁부를	-11.2697
릇	-11.2704
▁빠질	-11.2705
▁바꾼	-11.2713
거렸	-11.2713
▁부각	-11.2713
▁02	-11.2725
▁어려웠	-11.2726
▁연방	-11.2727
▁!!!!!	-11.2727
▁이루어진	-11.2728
▁주스	-11.2731
▁지우	-11.2733
▁느껴졌	-11.2734
▁경찰서	-11.2738
털	-11.2739
▁납	-11.2739
▁목욕	-11.2739
▁붕	-11.2741
學	-11.2747
▁김현	-11.2752
▁일반인	-11.2753
▁나간다	-11.2753
▁페이스북	-11.2759
▁급식	-11.2759
▁어느새	-11.276
▁들렸	-11.2766
▁비극	-11.2768
뉴	-11.2769
▁예컨대	-11.2769
▁지경	-11.2771
꺼	-11.2776
▁개막	-11.2776
▁보여준다	-11.278
▁일행	-11.2784
▁일본인	-11.2785
▁신가	-11.2785
▁젠	-11.2786
▁청산	-11.2788
▁벌어진	-11.2788
ight	-11.2791
▁덩	-11.2796
▁法	-11.2796
▁물러	-11.2799
▁핸	-11.28
▁염려	-11.2809
▁드려	-11.281
▁러브	-11.281
▁토익	-11.281
▁한입	-11.2813
▁김종	-11.2814
▁에프	-11.2814
▁종로	-11.2815
▁퇴사	-11.2816
▁낚시	-11.2816
▁선진	-11.2816
▁정시	-11.2829
▁테마	-11.283
▁치르	-11.2832
▁나와요	-11.2839
▁협박	-11.2841
▁웬	-11.2843
▁기법	-11.2844
▁실화	-11.2846
이어	-11.2847
▁브라질	-11.2848
▁제이	-11.2854
억	-11.2854
▁호기심	-11.286
bo	-11.287
▁찾아볼	-11.2883
▁국방부	-11.2891
▁했잖아요	-11.2891
▁져야	-11.2892
▁이대로	-11.2894
▁늘어난	-11.2894
다든지	-11.2899
략	-11.2901
▁간판	-11.2903
▁전신	-11.2905
▁밀리	-11.2912
간다	-11.2914
▁미쳐	-11.2914
▁된장	-11.2916
시장	-11.2917
▁간단히	-11.2918
▁결의	-11.2921
▁텍스트	-11.2921
놀	-11.2921
▁×	-11.2922
▁오류	-11.2923
궁극	-11.2936
▁사단	-11.2937
▁헤드	-11.2938
▁속상해	-11.294
▁47	-11.2944
▁니당	-11.2951
▁교육감	-11.2952
▁신설	-11.2952
▁文	-11.2954
▁흰색	-11.2955
▁우연	-11.2956
▁초래	-11.2956
▁서서히	-11.2957
ist	-11.2959
▁무장	-11.296
▁기저귀	-11.2964
▁운행	-11.2967
▁올바른	-11.2967
▁무겁	-11.2967
▁유산균	-11.2968
▁고속	-11.2968
▁깐	-11.297
답니다	-11.2975
▁반사	-11.2981
▁중고	-11.2981
▁인프라	-11.2982
▁선박	-11.2984
▁발음	-11.2988
▁상무	-11.2993
▁foodstagram	-11.2993
▁으라	-11.3
▁ᅣ	-11.3
▁SNS	-11.3001
▁떨어질	-11.3001
▁저건	-11.3004
▁김정일	-11.3004
렛	-11.3007
▁체중	-11.3007
▁돼지고기	-11.3008
▁형편	-11.3008
▁콤	-11.301
▁서명	-11.3011
▁오가	-11.3011
▁조개	-11.3011
▁공짜	-11.3012
11	-11.3012
▁고교	-11.3017
촉	-11.3018
▁심리학	-11.3022
달리	-11.3022
▁의뢰	-11.3025
▁숙제	-11.3026
▁나눔	-11.3031
▁거짓	-11.3033
궐	-11.3034
▁과학자	-11.3038
▁타워	-11.3061
▁요약	-11.3064
▁용산	-11.3067
▁벚꽃	-11.3075
래요	-11.3077
▁마인드	-11.3083
▁사소	-11.3084
ac	-11.309
▁야외	-11.3094
▁포스트	-11.3097
▁아메리카노	-11.3099
▁다가가	-11.31
▁불가피	-11.3103
▁창고	-11.3103
son	-11.3109
▁타이밍	-11.3109
륙	-11.3112
▁오바	-11.3114
▁농장	-11.3116
▁金	-11.3119
▁비치	-11.312
▁바빠	-11.3122
▁사이버	-11.3123
스키	-11.3123
▁보험료	-11.3125
▁59	-11.3128
▁랍	-11.3131
▁낸다	-11.3131
▁리스	-11.3131
세우	-11.3131
▁나옵니다	-11.3131
co	-11.3138
▁맛보	-11.3143
▁압도	-11.3144
▁아뇨	-11.3144
▁미칠	-11.3144
▁억지로	-11.3151
▁이어폰	-11.3151
▁몰라요	-11.3152
人	-11.3158
▁호르몬	-11.3158
▁섰	-11.3158
▁공제	-11.316
▁전역	-11.3161
▁한우	-11.3161
▁뷔페	-11.3162
▁👍🏻	-11.3163
▁빵집	-11.3163
▁달랐	-11.3165
▁강점	-11.3165
ca	-11.3168
▁쌓여	-11.3171
험	-11.3172
▁개설	-11.3175
▁야겠다	-11.3177
▁기재	-11.3177
▁달걀	-11.3181
▁명분	-11.3182
▁콜라	-11.3183
▁오로지	-11.3185
▁무관	-11.3185
▁낭비	-11.3187
▁식민지	-11.3189
▁><	-11.3191
▁추측	-11.3193
CC	-11.3194
▁사료	-11.3195
▁을걸	-11.3195
▁치유	-11.3195
▁레벨	-11.3197
괴롭히	-11.3198
▁남한	-11.3203
▁약해	-11.3203
▁무력	-11.3204
▁아닌가요	-11.3206
▁동해	-11.321
짱	-11.3214
▁어때요	-11.3219
▁민원	-11.322
▁공모	-11.3226
▁드러났	-11.3226
▁구단	-11.3228
▁아름다움	-11.323
▁수강	-11.3232
▁자취	-11.3232
▁폐하	-11.3235
바람	-11.3237
▁부패	-11.3238
▁표면	-11.3239
▁썸	-11.3241
것	-11.3242
▁ᄒᄉᄒ	-11.3249
▁마비	-11.3251
▁사드	-11.3253
▁으려면	-11.3254
▁비추	-11.3254
ag	-11.3255
▁벤처	-11.3258
▁무용	-11.3259
▁몹시	-11.3261
▁입지	-11.3268
▁좌석	-11.327
▁우웅	-11.3274
트리	-11.3276
▁현대차	-11.3276
아들	-11.3276
▁기호	-11.3278
▁당원	-11.3278
▁건대	-11.3283
▁파업	-11.3284
▁그랬었	-11.3284
▁1995	-11.3284
▁융합	-11.3285
▁간지	-11.3286
특	-11.3287
▁선출	-11.3288
▁수시	-11.3297
쇼	-11.3297
가지	-11.3302
▁옥수수	-11.3306
▁성명	-11.3307
▁성경	-11.3308
스티	-11.3312
▁기숙사	-11.3318
▁유권자	-11.3322
▁브로	-11.3325
프트	-11.3331
▁노릇	-11.3332
▁외환	-11.3344
▁주어진	-11.3346
▁⠀	-11.3347
▁경영자	-11.3347
▁대외	-11.3347
▁호두	-11.3347
<	-11.3348
▁종료	-11.3352
▁유대	-11.3352
70	-11.3353
??	-11.3356
ve	-11.3361
▁거긴	-11.3364
▁전북	-11.3368
▁말리	-11.3373
▁한심	-11.3375
▁청춘	-11.3378
로스	-11.3385
▁원가	-11.3386
▁울리	-11.3388
▁for	-11.339
▁기지	-11.3391
▁낡	-11.3391
▁양자	-11.3397
▁위장	-11.3398
▁베스트	-11.3398
▁유전	-11.3402
▁뵙	-11.3402
mi	-11.3403
▁당초	-11.3403
▁라이트	-11.3405
▁비오	-11.3406
▁selfie	-11.3407
▁닭발	-11.3407
▁언덕	-11.3411
▁키스	-11.3413
▁빌딩	-11.3415
▁내말이	-11.3418
▁코치	-11.3419
▁대인	-11.3421
▁혐오	-11.3424
▁반전	-11.3426
쁨	-11.3428
▁반도체	-11.343
▁돌렸	-11.3431
▁이따가	-11.3432
▁외치	-11.3435
▁도중	-11.3437
▁채무	-11.3443
▁죽여	-11.3445
▁휴일	-11.3448
▁소지	-11.3452
▁사인	-11.3453
▁벌어졌	-11.3455
▁닉	-11.3455
▁무덤	-11.3456
▁낯선	-11.3458
▁플라	-11.3461
▁정돈	-11.3462
▁재난	-11.3465
▁나왓	-11.3465
▁탁월	-11.3466
▁정규	-11.3468
▁농협	-11.3477
▁차분	-11.3478
▁턴	-11.3479
▁댓	-11.348
▁목격	-11.3483
어오	-11.3483
엠	-11.3485
▁순식간	-11.3488
▁댄스	-11.3489
▁떄	-11.3489
▁인해서	-11.3492
▁해체	-11.3493
▁닥터	-11.3494
▁인스타그램	-11.3496
▁격차	-11.3497
▁지도부	-11.35
▁잊어버	-11.35
▁대변	-11.3502
▁눌	-11.3503
▁수지	-11.3504
▁지마는	-11.3504
▁손목	-11.3506
▁양말	-11.3512
▁뒀	-11.3513
▁존맛탱	-11.3516
▁걸까요	-11.3517
▁제법	-11.3518
▁수당	-11.352
▁아니면은	-11.3524
▁약하	-11.3534
▁건립	-11.3536
60	-11.3539
▁트럭	-11.3542
듬	-11.3545
▁제사	-11.3547
▁협의회	-11.3551
▁원내	-11.3551
▁유산	-11.3553
섰	-11.3556
▁천국	-11.3561
어야	-11.3561
덩이	-11.3561
▁규명	-11.3566
▁구미	-11.3569
▁🏻	-11.3569
▁감히	-11.3569
▁격려	-11.357
▁입력	-11.357
▁먼가	-11.3571
▁아쉬움	-11.3574
ive	-11.3577
up	-11.3579
▁대략	-11.3579
▁햐	-11.3581
▁정면	-11.3582
▁국면	-11.3584
▁계곡	-11.3584
▁비례	-11.3587
▁겜	-11.3587
▁오렌지	-11.359
▁열려	-11.3592
▁터미널	-11.3594
▁침체	-11.3596
▁겠다	-11.3603
▁세여	-11.3604
▁유료	-11.3605
▁라멘	-11.3608
▁파트너	-11.361
▁북쪽	-11.3611
▁쓰여	-11.3614
▁현명	-11.3615
▁대법원	-11.3616
▁잔소리	-11.362
▁노래방	-11.3623
른다	-11.3629
▁일대	-11.3631
▁인성	-11.3631
▁ᄌᄂ	-11.3638
▁모른	-11.3645
▁감수	-11.365
ᅮ	-11.3651
▁다름	-11.3653
▁모닝	-11.3654
지않	-11.3654
▁포스코	-11.3656
▁씬	-11.3656
▁자발	-11.3656
▁ᄆᄎ	-11.3662
▁모았	-11.3663
▁긋	-11.3664
▁그레이	-11.3664
▁상큼	-11.3665
▁비닐	-11.3668
▁리조트	-11.3669
▁함부로	-11.3669
▁발명	-11.367
▁도심	-11.3672
폴	-11.3673
▁디자이너	-11.3673
▁친정	-11.3674
▁인턴	-11.3674
▁대량	-11.3675
▁✨	-11.3675
▁치아	-11.3675
▁둘러싼	-11.3677
▁캠핑	-11.3677
▁여쭤	-11.3681
▁뇌물	-11.3682
ᄅ	-11.3689
▁베르	-11.3696
▁무너지	-11.3697
▁으리라	-11.3697
▁대행	-11.37
▁소요	-11.37
▁놀란	-11.3702
▁요가	-11.3702
▁애국	-11.3704
▁꼼꼼	-11.3706
▁접속	-11.3706
▁순대	-11.3706
▁렴	-11.3712
▁공고	-11.3712
▁단장	-11.3712
▁장학금	-11.3714
▁산소	-11.3717
▁어울려	-11.3717
▁아닝	-11.3718
▁사도	-11.372
▁장인	-11.3721
▁막대	-11.3722
▁억압	-11.373
▁감탄	-11.3735
▁구석	-11.3736
▁취해	-11.3737
▁스위스	-11.3737
듯	-11.3737
춰	-11.3739
▁장성	-11.3745
▁쓴다	-11.3746
▁상해	-11.3749
▁마신	-11.3751
900	-11.3752
▁닭갈비	-11.3753
▁ml	-11.3767
▁발효	-11.3768
▁호랑이	-11.3769
▁맡겨	-11.3774
▁멀쩡	-11.3777
▁900	-11.3778
▁예배	-11.3779
▁상의	-11.3781
▁입금	-11.3784
▁위안	-11.3785
▁운전자	-11.379
▁찾아내	-11.3791
▁맞서	-11.3791
트라	-11.3795
▁펫	-11.3797
▁시나리오	-11.3797
▁레시피	-11.3797
▁한국어	-11.38
▁쌀국수	-11.3805
~~	-11.3808
▁무사	-11.3811
▁할라	-11.3814
▁놔야	-11.3814
▁me	-11.3815
▁삼촌	-11.3818
▁👉	-11.3819
▁세용	-11.3822
섬	-11.3822
▁절감	-11.3823
▁내신	-11.3824
▁대강	-11.3825
▁순천	-11.3829
▁관여	-11.383
▁간주	-11.3831
▁스프	-11.3833
▁네일	-11.3834
▁놀랍	-11.3834
▁대원	-11.3835
▁현안	-11.3837
▁손자	-11.3844
▁돌아와	-11.3845
▁매도	-11.3853
▁경기장	-11.3854
▁드려야	-11.3854
▁강경	-11.3855
▁노사	-11.3855
▁무상	-11.3855
01	-11.3855
▁막혀	-11.3857
▁뛰어나	-11.3859
▁가계	-11.3859
▁이어졌	-11.3861
벙	-11.3862
▁줫	-11.3863
▁움직여	-11.3866
▁감싸	-11.3873
4	-11.3878
▁쳣	-11.3881
▁기한	-11.3882
▁벌금	-11.3883
▁전이	-11.3887
▁쟁	-11.3887
▁오브	-11.3893
▁흑인	-11.3898
▁구리	-11.39
▁두피	-11.3902
▁청취자	-11.3902
▁마스터	-11.3903
▁인자	-11.3904
밤	-11.3904
▁두산	-11.3905
▁교장	-11.3905
▁어딘가	-11.3907
▁슨	-11.3907
▁내장	-11.3907
▁건전	-11.3909
▁겻	-11.3912
▁거친	-11.3913
▁찡	-11.3916
▁바삭	-11.392
▁버린다	-11.3927
▁고령	-11.3928
▁초월	-11.3929
달라지	-11.393
▁설거지	-11.3931
▁방치	-11.3932
▁싸이	-11.3933
▁서면	-11.3933
▁천하	-11.3937
▁지명	-11.394
▁사리	-11.3941
▁예금	-11.3942
깁	-11.3943
▁즉각	-11.3945
▁독점	-11.3955
▁숙박	-11.3955
▁남겼	-11.3957
▁전선	-11.396
스크	-11.3961
▁자문	-11.3962
to	-11.3962
▁했으니	-11.3963
▁김무성	-11.3964
▁황당	-11.397
▁소형	-11.3973
▁중시	-11.3976
▁부진	-11.3979
▁자매	-11.398
▁현행	-11.3983
▁국밥	-11.3984
▁일산	-11.3984
▁중국인	-11.3985
▁명성	-11.3991
▁동서	-11.3991
▁스파	-11.3992
▁픈	-11.3992
▁컨디션	-11.3992
▁플랫	-11.3995
▁셀피	-11.3998
▁주류	-11.3998
▁아르	-11.3999
▁당할	-11.4003
▁드레스	-11.4004
▁쫙	-11.4005
▁솜	-11.4005
겐	-11.4009
▁담당자	-11.4012
▁캠	-11.4016
▁재고	-11.4017
▁😋	-11.4017
▁메모	-11.4018
▁치약	-11.4026
▁지진	-11.4026
▁으루	-11.403
▁정통	-11.403
▁저쪽	-11.4031
▁적금	-11.4033
뒀	-11.4037
▁탈락	-11.4037
ard	-11.4038
▁웨이	-11.404
르크	-11.4044
▁영화제	-11.4046
▁잦	-11.405
▁냉동	-11.4054
롬	-11.4058
라스	-11.4058
합니다	-11.4058
▁1996	-11.4059
▁가해자	-11.406
▁상영	-11.4065
▁싸워	-11.4067
▁롬	-11.4067
▁끓이	-11.4068
▁으음	-11.4068
▁괜	-11.4069
▁핑계	-11.4069
▁망설	-11.4073
▁진한	-11.4074
▁햇살	-11.4074
▁트렌드	-11.4075
▁스카이	-11.4078
▁쉰	-11.4079
▁95	-11.4081
▁씌	-11.4082
▁평론가	-11.4083
▁손톱	-11.4085
he	-11.4085
▁반박	-11.409
▁틴	-11.409
▁강해	-11.4091
▁유독	-11.4091
▁외롭	-11.4094
여서	-11.4095
▁날라	-11.4098
▁열쇠	-11.4098
▁우울증	-11.4099
▁비빔밥	-11.41
▁공익	-11.41
▁모아서	-11.4102
▁태어났	-11.4104
▁한복	-11.4105
▁파도	-11.411
▁전파	-11.4112
▁체질	-11.4113
▁들어야	-11.4117
▁브리	-11.4118
▁적자	-11.412
▁영양제	-11.412
ers	-11.412
▁떠올랐	-11.4121
▁달린	-11.4122
qu	-11.4122
▁가죽	-11.4124
▁비서관	-11.4124
▁李	-11.4125
▁용도	-11.4126
▁김동	-11.4127
툴	-11.4129
▁꾸며	-11.413
▁53	-11.4134
▁텐데요	-11.4134
▁느껴져	-11.4136
▁명칭	-11.4137
▁필터	-11.4138
▁고립	-11.4139
▁틀림없	-11.4139
▁공략	-11.4144
▁본능	-11.4144
▁였을	-11.4145
▁者	-11.4145
▁물품	-11.4149
▁쑤	-11.4149
▁이슬람	-11.415
켜	-11.4151
▁붐	-11.4152
▁걸어서	-11.4154
▁꾸미	-11.4154
▁부른	-11.4157
▁각오	-11.4169
▁다고요	-11.417
캐	-11.417
▁상세	-11.4174
▁됐었	-11.4177
▁뱀	-11.4178
▁51	-11.4179
▁최애	-11.418
▁합시다	-11.418
▁실용	-11.4185
ᄐ	-11.4185
▁둘러싸	-11.4187
▁아팠	-11.4188
▁판정	-11.4189
▁안타까운	-11.4196
▁신념	-11.4196
22	-11.4201
04	-11.4204
▁의정부	-11.4204
▁대왕	-11.4204
▁후후	-11.4207
▁맞아	-11.4207
▁강렬	-11.421
▁가져왔	-11.421
▁다짐	-11.4212
▁합병	-11.4216
▁두루	-11.4216
▁출판사	-11.4217
▁사촌	-11.4218
▁경제학	-11.4219
▁주행	-11.4227
▁셔츠	-11.4228
▁저것	-11.423
▁성서	-11.4231
▁화폐	-11.4233
▁김일성	-11.4238
▁복원	-11.4238
▁올라왔	-11.4239
▁y	-11.4239
▁서둘러	-11.4242
▁폐기	-11.4243
▁양국	-11.4245
▁욱	-11.4247
▁브라운	-11.4248
▁뒤늦	-11.4251
09	-11.4251
ci	-11.4254
뿌	-11.4255
▁내주	-11.4261
▁초조	-11.4261
BC	-11.4262
▁인종	-11.4264
▁쿤	-11.4264
▁부스	-11.4266
▁해운대	-11.4267
▁행보	-11.4268
ta	-11.4269
12	-11.427
▁모은	-11.4273
▁망했	-11.4277
▁내릴	-11.4283
28	-11.4286
릅니다	-11.4286
55	-11.4287
거나	-11.4289
라면	-11.4291
컴	-11.4297
▁낙지	-11.4297
▁돋보	-11.43
▁겠어	-11.4309
낙	-11.4309
▁절실	-11.431
21	-11.4315
▁당뇨	-11.4316
▁클린	-11.4318
▁남긴	-11.4324
▁광화문	-11.4326
▁속하	-11.4327
▁실습	-11.4333
▁시체	-11.4334
▁보여준	-11.4335
쥐	-11.4344
▁수영장	-11.4345
ue	-11.4345
▁바이러스	-11.4348
▁700	-11.4348
▁차관	-11.4348
▁1970	-11.4349
▁귀국	-11.4349
▁허위	-11.4349
``	-11.435
▁을래	-11.4354
▁아주머니	-11.4359
▁불꽃	-11.436
▁성숙	-11.4362
▁전적	-11.4365
▁할라고	-11.4365
▁봉투	-11.4365
▁재판부	-11.4366
▁다룬	-11.4366
▁〈	-11.4367
▁그다지	-11.4368
▁〉	-11.437
▁봤었	-11.4371
▁동력	-11.4377
▁간담회	-11.4377
ᅡ	-11.4378
▁유로	-11.438
▁초보	-11.4381
▁료	-11.4381
▁시바	-11.4382
틸	-11.4382
▁기르	-11.4382
age	-11.4385
▁치마	-11.4392
▁민심	-11.4393
▁근원	-11.4394
▁단단	-11.4395
▁미세	-11.4395
▁안양	-11.4395
▁엎	-11.4396
▁변해	-11.4398
▁diet	-11.4398
▁현황	-11.4399
#	-11.44
▁가공	-11.4407
▁떨어뜨	-11.4411
줌	-11.4415
▁싸웠	-11.4416
▁꽁	-11.4419
▁터치	-11.4422
18	-11.4423
려놓	-11.4423
▁사라	-11.4425
▁냄	-11.4427
▁폭풍	-11.4427
▁Z	-11.443
▁교육부	-11.4432
긋	-11.4433
▁성당	-11.4439
▁준대	-11.4445
▁쓸데없	-11.4446
▁둬	-11.4446
▁탈모	-11.4448
▁남매	-11.4452
▁프사	-11.4453
14	-11.4455
▁설사	-11.4456
낸다	-11.4457
▁벌레	-11.4459
▁정한	-11.4462
di	-11.4467
▁유력	-11.4468
▁물음	-11.4469
▁짙	-11.4472
▁1994	-11.4473
▁대폭	-11.4477
▁충청	-11.4481
껄	-11.4482
▁보람	-11.4483
▁개정안	-11.4484
▁서점	-11.4485
▁고위	-11.4486
▁삽	-11.4493
▁심화	-11.4496
▁다녀야	-11.4504
▁갈게	-11.4505
▁설문	-11.4512
▁위생	-11.4514
을까	-11.4515
▁왔었	-11.4516
▁재개	-11.4518
▁사이드	-11.4519
書	-11.4519
▁편견	-11.4522
▁데려가	-11.4523
▁선도	-11.4525
▁모여서	-11.4525
▁증인	-11.4526
덤	-11.4527
▁영화관	-11.4527
▁유동	-11.4529
▁최상	-11.4529
▁해피	-11.4529
▁물티슈	-11.4532
▁팥	-11.4533
▁경로	-11.4533
▁양산	-11.4537
▁수천	-11.4543
▁필리핀	-11.4545
▁과세	-11.4545
카드	-11.455
▁줘야지	-11.4552
▁결승	-11.4555
▁해봐야	-11.4555
▁철수	-11.4556
ST	-11.4563
▁시신	-11.4568
15	-11.457
▁잔인	-11.4572
▁과외	-11.4574
▁아르바이트	-11.4575
ip	-11.4576
▁56	-11.4581
▁떨리	-11.4588
▁코디	-11.4591
▁최적	-11.4594
▁틀리	-11.4596
▁김해	-11.4596
▁담백	-11.4597
▁숨겨	-11.4598
었잖	-11.4599
▁조약	-11.4601
▁뭡니까	-11.4602
뇨	-11.4604
▁즙	-11.4605
▁득점	-11.4608
놀이	-11.4609
▁주고	-11.4609
▁개척	-11.4609
▁조상	-11.461
▁해산물	-11.4611
▁클릭	-11.4611
▁에어	-11.4612
▁뚝	-11.4612
비스	-11.4613
▁중년	-11.4613
▁중계	-11.4615
▁관해서	-11.4616
▁드세요	-11.4619
▁행운	-11.4624
▁실은	-11.4625
▁시중	-11.4625
▁대대	-11.4627
▁라고요	-11.4627
▁天	-11.4631
셀	-11.4631
▁오바마	-11.4631
▁림	-11.4632
▁그지	-11.4632
스턴	-11.4633
▁비누	-11.4633
▁다던데	-11.4633
▁요원	-11.4634
▁한식	-11.4636
▁예예예	-11.4641
▁수시로	-11.4641
▁조선일보	-11.4646
두르	-11.4646
▁결단	-11.4649
▁품목	-11.465
▁도발	-11.465
ab	-11.4651
▁익히	-11.4651
▁on	-11.4653
▁스크린	-11.4654
vi	-11.4655
▁신장	-11.4657
▁o	-11.4661
춤	-11.4663
▁재현	-11.4663
▁자칫	-11.4664
▁실정	-11.4665
▁발급	-11.4667
라인	-11.467
▁주최	-11.4675
▁듬	-11.4676
▁얍	-11.4677
▁씨발	-11.468
▁아휴	-11.4684
▁혹시나	-11.4687
▁전사	-11.4689
▁수박	-11.4689
▁날리	-11.4691
▁은혜	-11.4693
▁58	-11.4695
▁명단	-11.4695
▁어휴	-11.4695
▁신성	-11.4699
▁조달	-11.4701
▁복음	-11.4705
▁마른	-11.4706
착하	-11.4711
딸	-11.4711
▁벅	-11.4713
▁불량	-11.4714
▁그럴까	-11.4719
▁정해진	-11.4721
▁멕시코	-11.4729
▁핸드	-11.4729
▁징계	-11.473
▁당면	-11.4733
▁열매	-11.4736
▁고모	-11.474
▁실종	-11.4743
▁별거	-11.4746
▁시술	-11.4751
▁you	-11.4751
▁톡톡	-11.4751
▁망가	-11.4756
▁속성	-11.476
스레	-11.4761
▁57	-11.4764
▁트레	-11.4764
괴	-11.4766
▁치러	-11.4766
똥	-11.4769
▁냐구	-11.477
▁클라	-11.4771
▁한층	-11.4772
▁항의	-11.4773
▁중동	-11.4776
▁장어	-11.4777
▁세이	-11.478
▁마친	-11.4782
되	-11.4782
▁환불	-11.4787
▁만성	-11.4788
▁스터디	-11.4791
칸	-11.4791
▁크리	-11.4798
▁소프트웨어	-11.48
▁취한	-11.4805
▁54	-11.4806
폰	-11.4807
▁극대	-11.4817
▁주석	-11.4818
▁나란히	-11.4818
▁천장	-11.4818
▁보인	-11.482
▁연료	-11.4827
▁國	-11.4827
▁선두	-11.4828
▁달려가	-11.4828
▁mm	-11.4833
▁중국어	-11.4835
니스	-11.4839
▁th	-11.484
치기	-11.4845
▁이용자	-11.4853
▁라구요	-11.4855
▁원천	-11.4856
▁갖춰	-11.4861
ph	-11.4864
▁으려는	-11.4865
▁85	-11.4866
ᄒᄒ	-11.4867
▁엘리	-11.4868
▁포토	-11.4871
▁공방	-11.4873
▁상속	-11.4874
▁요양	-11.4875
▁관절	-11.4876
▁파주	-11.4878
▁일체	-11.488
▁레알	-11.488
▁킬	-11.488
▁아베	-11.4882
콘	-11.4882
▁할수록	-11.4885
▁여신	-11.489
iv	-11.4896
슴	-11.4896
▁피디	-11.4897
▁민생	-11.4899
▁물어볼	-11.4903
▁답장	-11.4903
▁강추	-11.4905
ung	-11.4907
헤어지	-11.4913
▁하트	-11.4914
▁해변	-11.4916
▁해안	-11.4916
▁스쿨	-11.4917
▁톱	-11.492
▁아껴	-11.4924
▁상환	-11.4927
☆	-11.493
▁4000	-11.493
▁밀가루	-11.493
▁탄산	-11.4931
ee	-11.4947
리키	-11.4947
▁악기	-11.4949
▁시범	-11.495
▁180	-11.4954
31	-11.4956
▁그치만	-11.4956
▁졸리	-11.4956
▁이놈	-11.496
▁지침	-11.4965
▁정황	-11.4965
▁허리케인	-11.497
▁72	-11.4971
▁베개	-11.4972
;;	-11.4973
▁구할	-11.4974
▁여왕	-11.4975
▁뽕	-11.4977
35	-11.4977
▁학력	-11.4979
▁배부르	-11.4979
▁포럼	-11.4982
▁학위	-11.4985
▁원료	-11.4985
▁합성	-11.4986
▁관세	-11.4987
▁염두	-11.4988
▁더라면	-11.4988
▁몸무게	-11.4988
난다	-11.4992
▁점포	-11.4992
▁운송	-11.4993
▁웨딩	-11.4993
▁콧	-11.4996
▁아랫	-11.4997
▁쟁점	-11.4999
▁인쇄	-11.4999
▁대여	-11.4999
▁입찰	-11.5
▁나눈	-11.5001
▁지랄	-11.5002
▁나와야	-11.5004
▁스피	-11.5007
▁뜰	-11.5007
▁놀러	-11.5018
렵	-11.5022
▁한텐	-11.5024
쾌	-11.5026
▁❣	-11.5027
▁덩어리	-11.5027
▁다녀와	-11.5027
ᄎ	-11.5027
▁연차	-11.503
홀	-11.5031
▁파트	-11.5032
▁퐁	-11.5032
▁명동	-11.5033
▁떨어져서	-11.5038
▁몽골	-11.504
▁회수	-11.504
▁단편	-11.5045
▁해군	-11.5046
▁유효	-11.5049
▁역전	-11.5051
▁차가운	-11.5052
▁초딩	-11.5052
▁예술가	-11.5054
▁횡	-11.5059
▁화물	-11.5069
▁민망	-11.5071
▁편입	-11.5074
▁텍	-11.5075
▁보여요	-11.5077
▁조례	-11.5077
▁미팅	-11.5079
▁다구요	-11.5082
끝	-11.5082
▁복숭아	-11.5084
▁선명	-11.5086
▁신다고	-11.5088
▁히트	-11.5089
▁미스	-11.5089
룰	-11.509
ud	-11.5094
사리	-11.5095
▁배추	-11.5096
▁습니당	-11.5099
▁추상	-11.5099
▁농가	-11.51
▁수습	-11.51
▁새겨	-11.5103
논	-11.5104
▁라는데	-11.5107
▁김지	-11.5107
▁금메달	-11.5112
▁진작	-11.5113
23	-11.5116
▁괴물	-11.5118
▁오사카	-11.5126
▁도박	-11.5127
룬	-11.5131
▁혼인	-11.5131
▁새삼	-11.5133
▁수령	-11.5133
▁아오	-11.5133
▁공구	-11.5134
▁정수	-11.5136
▁세련	-11.5146
▁령	-11.5149
▁국내외	-11.5149
▁생김	-11.5151
▁수험	-11.5151
ant	-11.5153
▁원조	-11.5155
▁로드	-11.5156
▁뒷받침	-11.5158
▁쩐	-11.516
▁성남	-11.5161
▁낭만	-11.5167
▁갤러리	-11.5167
리안	-11.517
▁64	-11.517
▁ᄋᄒ	-11.5173
▁해설	-11.5174
▁워싱턴	-11.5176
▁토스	-11.5177
▁살피	-11.5178
▁최후	-11.5182
▁당부	-11.5185
▁포착	-11.5186
▁줄기	-11.5187
▁증시	-11.5188
▁리모	-11.5192
▁사찰	-11.5194
급하	-11.5196
▁시세	-11.5201
▁누군지	-11.5204
▁노란	-11.5206
▁온다고	-11.5208
▁들으면서	-11.521
ff	-11.5211
▁가이드	-11.5212
▁재배	-11.5212
▁뜨겁	-11.5214
▁펜션	-11.5214
▁합류	-11.5215
國	-11.5222
▁이데올로기	-11.5222
▁쫓	-11.5224
▁계열사	-11.5225
▁염증	-11.5227
▁그라	-11.5229
▁찾아왔	-11.523
▁샹	-11.523
▁FTA	-11.5232
▁약국	-11.5232
▁마블	-11.5233
▁릭	-11.5234
▁뮤직	-11.5234
▁비정규직	-11.5236
▁대다수	-11.5237
▁이집트	-11.5237
▁건네	-11.5237
▁가져와	-11.5238
▁한단	-11.5239
▁해제	-11.524
▁허허	-11.524
▁멍청	-11.524
▁거라	-11.5244
어내	-11.5245
▁식량	-11.5247
▁을수록	-11.5248
▁버블	-11.525
min	-11.5252
릅	-11.5254
▁스케줄	-11.5255
▁축적	-11.5255
텐	-11.5256
ᄏᄏᄏᄏᄏᄏᄏᄏ	-11.5257
▁혁	-11.5259
▁공시	-11.5263
▁모험	-11.5267
▁박람회	-11.5269
▁국경	-11.5272
▁New	-11.5274
▁영남	-11.5276
▁측근	-11.5277
▁소모	-11.5279
▁온천	-11.5281
▁꿀맛	-11.5284
롤	-11.5292
▁노하우	-11.5292
어드	-11.5294
▁보증금	-11.5295
▁동참	-11.5301
▁유가	-11.531
▁돌보	-11.5312
♡	-11.5315
29	-11.5316
▁고장	-11.5317
▁소멸	-11.5318
▁스테이지	-11.532
▁수련	-11.5323
▁점프	-11.5323
▁미워	-11.5326
▁드실	-11.5326
▁으응	-11.5328
▁플라스틱	-11.533
▁합쳐	-11.5332
▁코코	-11.5333
▁피할	-11.5335
▁끝날	-11.5335
▁~!	-11.5335
▁부른다	-11.5336
▁불안감	-11.5337
▁자구	-11.5338
▁초등학생	-11.5339
흔	-11.5342
▁캡	-11.5346
▁려니	-11.5351
▁연맹	-11.5352
▁파란	-11.5352
▁변했	-11.5355
▁브런치	-11.5358
▁표지	-11.536
▁획	-11.5363
▁안타	-11.5363
pl	-11.5364
▁무죄	-11.5365
▁더위	-11.5367
▁부시	-11.5369
▁느냐고	-11.5369
▁해결책	-11.5371
▁불러일으	-11.5372
딴	-11.5372
me	-11.5373
가요	-11.5374
ew	-11.5377
▁사형	-11.5378
▁최신	-11.5378
▁교대	-11.5379
▁페스티벌	-11.5381
▁멀티	-11.5382
▁😁	-11.5382
▁물류	-11.5384
de	-11.5384
▁무침	-11.5385
▁따돌림	-11.5387
▁늘려	-11.5389
버그	-11.5391
▁이걸로	-11.5398
▁비결	-11.5416
▁스포	-11.5426
▁대항	-11.5429
▁트랙	-11.543
▁쓰리	-11.5432
▁동창	-11.5433
▁쳐서	-11.5433
88	-11.5436
▁%(	-11.5445
▁구절	-11.5446
ber	-11.5451
▁되돌아	-11.5453
잠	-11.5453
▁볼래	-11.5456
▁소홀	-11.5456
▁충성	-11.5457
▁기대감	-11.5458
▁김장	-11.5458
▁길거리	-11.5459
▁출간	-11.5461
▁거북	-11.5463
▁뉘	-11.5464
▁김진	-11.5466
▁은근히	-11.5467
▁관행	-11.5468
▁단골	-11.5468
▁소매	-11.5472
▁주연	-11.5475
▁흥행	-11.5475
▁분산	-11.5477
▁문건	-11.5479
▁벗겨	-11.5484
▁풍성	-11.5486
▁대해선	-11.5486
▁;;	-11.5487
▁갱	-11.5489
▁오월	-11.5489
▁영토	-11.5493
▁상한	-11.5494
▁오를	-11.5494
▁안팎	-11.55
▁틀린	-11.55
▁거꾸로	-11.551
▁단정	-11.5511
▁그간	-11.5512
▁써도	-11.5513
▁긍	-11.5514
쟁	-11.5514
▁소서	-11.5515
ec	-11.5516
▁점령	-11.5519
▁욥	-11.5521
▁미용	-11.5524
▁너머	-11.5524
▁퍼지	-11.5524
▁빙수	-11.5525
▁서부	-11.5526
▁모자라	-11.5527
▁급한	-11.5535
▁초록	-11.5535
▁꾀	-11.5536
▁출동	-11.5538
▁김포	-11.5543
▁싱글	-11.5545
▁견제	-11.5545
▁미국인	-11.5546
▁추위	-11.5548
▁김치찌개	-11.5553
▁상품권	-11.5556
▁토크	-11.5556
▁컨설팅	-11.5557
▁소소	-11.5558
▁원망	-11.5559
▁크레	-11.5561
▁돌아갈	-11.5565
49	-11.5567
▁실감	-11.5569
갓	-11.5569
▁변형	-11.5571
콩	-11.5572
▁물러나	-11.5572
▁1992	-11.5577
▁전술	-11.5579
▁대상자	-11.558
▁청사	-11.5581
▁천억	-11.5582
▁흡입	-11.5582
▁한결	-11.5584
▁이제야	-11.5584
▁섹스	-11.5587
▁01	-11.5588
▁💛	-11.559
▁⠀⠀⠀⠀	-11.5593
▁담임	-11.5594
▁해져서	-11.5596
▁메이저	-11.5597
▁누워서	-11.5599
▁보석	-11.56
▁상공	-11.5601
▁시어머니	-11.5601
엣	-11.5606
▁지능	-11.561
▁일수록	-11.561
gram	-11.5611
▁북부	-11.5613
▁영입	-11.5614
▁고수	-11.5616
▁관해	-11.5621
▁집계	-11.5622
▁‍	-11.5623
▁어쩐지	-11.5625
▁1960	-11.5626
▁교훈	-11.5628
▁유머	-11.5628
▁넴	-11.5628
▁충동	-11.5631
▁꾸준	-11.5634
▁포괄	-11.5636
▁태워	-11.5639
▁몸매	-11.5641
▁더욱이	-11.5643
생활	-11.5643
▁생애	-11.5643
▁데려다	-11.565
▁찾아온	-11.5651
▁메이드	-11.5653
▁애서	-11.5656
▁三	-11.5666
▁명의	-11.5666
▁다녀온	-11.5672
▁풋	-11.5672
▁식빵	-11.5673
▁확립	-11.5675
▁왱	-11.5676
▁.......	-11.5678
▁잣	-11.5679
▁소품	-11.568
▁확고	-11.5681
▁규범	-11.5681
▁우아	-11.5682
▁포스터	-11.5683
▁귀한	-11.5683
27	-11.5686
▁무인	-11.5687
▁가져야	-11.5687
▁늘어났	-11.5688
덩	-11.5688
▁63	-11.5691
▁고마	-11.5694
▁간다는	-11.5695
▁뜸	-11.5695
▁명시	-11.5697
▁클래스	-11.5698
▁공헌	-11.5698
▁중순	-11.5701
▁GS	-11.5701
▁어쩜	-11.5704
▁신데	-11.5704
our	-11.5707
▁겐	-11.5709
▁챔피언	-11.5712
▁못해서	-11.5714
▁is	-11.5715
▁싱가포르	-11.5717
▁일일이	-11.5718
▁탕수육	-11.5722
▁목록	-11.5724
sh	-11.5725
▁고등학생	-11.5727
뭇	-11.5731
▁공자	-11.5733
쁘	-11.5735
▁별다른	-11.5737
▁日	-11.5738
▁역설	-11.5739
▁김재	-11.574
▁멈춰	-11.5742
▁코미디	-11.5742
▁옵션	-11.5743
▁저걸	-11.5743
▁란다	-11.5744
케이	-11.5747
▁1993	-11.5748
nd	-11.5751
▁교통사고	-11.5751
▁비단	-11.5753
뛰어넘	-11.5754
▁스콘	-11.5754
▁넥	-11.5756
▁모범	-11.5758
▁별루	-11.576
▁탄탄	-11.576
▁다닌	-11.576
▁통로	-11.5764
▁텅	-11.5765
▁퀸	-11.5768
▁구제	-11.577
▁신인	-11.5774
▁대서	-11.5777
▁84	-11.5779
학교	-11.5784
▁급증	-11.5785
▁서부터	-11.5787
▁식이	-11.579
▁증말	-11.579
▁양배추	-11.5791
▁영구	-11.5793
▁예언	-11.5794
▁각질	-11.5795
▁나아질	-11.5796
▁쟁이	-11.5796
▁외우	-11.5799
▁기후	-11.58
▁중점	-11.58
▁쵸	-11.58
▁번지	-11.5806
▁바꿔야	-11.5806
▁별명	-11.5807
▁학업	-11.5807
▁냅	-11.5809
▁막막	-11.581
cy	-11.5813
▁허브	-11.5813
▁백제	-11.5813
▁위상	-11.5814
▁죄책감	-11.5815
▁소망	-11.5819
▁학부	-11.582
▁홍준표	-11.582
▁독도	-11.5821
지만	-11.5822
▁기어	-11.5824
▁일각	-11.5825
▁權	-11.5825
▁상관없이	-11.5825
▁부엌	-11.5828
▁바빠서	-11.5829
갑니다	-11.5831
▁명백	-11.5831
▁배우자	-11.5831
▁투기	-11.5835
▁출현	-11.5839
▁사월	-11.5839
▁어쨌	-11.5841
▁송도	-11.5842
day	-11.5843
▁첩	-11.5844
▁대조	-11.5845
▁중구	-11.5846
▁터키	-11.5847
털어놓	-11.5848
▁필라테스	-11.585
▁비틀	-11.585
▁가져온	-11.5852
oo	-11.5855
▁냐며	-11.5858
아이	-11.5861
▁보쌈	-11.5864
▁금속	-11.5864
▁생활비	-11.5865
▁부끄럽	-11.5866
▁허벅지	-11.5869
어리석	-11.5872
브리	-11.5878
▁올라온	-11.5884
▁일본어	-11.5886
▁울음	-11.5887
▁행정부	-11.5887
▁현관	-11.5889
▁정복	-11.5894
▁봉지	-11.5894
fe	-11.5894
▁꼬마	-11.59
▁가치관	-11.5901
▁들어간다	-11.5902
▁면세점	-11.5904
▁상상력	-11.5906
대요	-11.5906
pe	-11.5906
▁유교	-11.5907
家	-11.5909
▁절약	-11.5912
▁보복	-11.5914
▁똑	-11.5916
▁자니	-11.5917
▁먄	-11.5918
▁공화	-11.592
▁아플	-11.5921
▁첨가	-11.5922
▁후식	-11.5924
▁동남아	-11.5926
▁저하	-11.5929
▁오페라	-11.5934
▁아항	-11.5936
▁만져	-11.5943
▁학술	-11.5943
▁생계	-11.5946
▁신세	-11.5947
▁by	-11.5947
▁불신	-11.5948
▁원정	-11.5949
▁그늘	-11.595
▁길러	-11.5956
▁모니터	-11.5959
17	-11.5959
▁군수	-11.5961
▁증대	-11.5962
▁속초	-11.5964
픈	-11.5964
▁웡	-11.5965
▁낮잠	-11.597
▁장착	-11.5971
▁올라갈	-11.5972
▁드라이	-11.5972
▁깜빡	-11.5974
▁떠들	-11.5976
▁정직	-11.5976
ver	-11.5983
▁😅	-11.5984
66	-11.5985
▁장벽	-11.5985
▁덮밥	-11.5985
▁.!	-11.5995
▁버릇	-11.5996
▁바바	-11.5998
▁단호	-11.5998
▁워크	-11.6
▁리필	-11.6002
▁동구	-11.6003
▁지낸	-11.6003
▁원활	-11.6003
▁전문점	-11.6004
▁아쉬워	-11.6005
▁쾌	-11.6006
▁안다	-11.6007
▁고파	-11.6008
▁비트	-11.6008
▁사방	-11.601
▁손바닥	-11.6012
▁리터	-11.6017
▁분식	-11.6018
▁대금	-11.6018
아먹	-11.6019
▁날아가	-11.6019
▁모발	-11.602
▁타이틀	-11.602
▁패드	-11.6022
▁훔쳐	-11.6024
▁단호박	-11.6025
▁참사	-11.6028
▁파스	-11.6029
▁헌신	-11.6029
▁네덜란드	-11.6029
****************	-11.6029
▁즘	-11.6031
▁기금	-11.6033
▁들러	-11.6033
▁뛰어들	-11.6033
▁종전	-11.6035
▁트윗	-11.6035
one	-11.604
▁차기	-11.604
▁김경	-11.6042
▁보물	-11.6044
▁받아들일	-11.6044
▁글구	-11.6046
▁유입	-11.6046
▁고추장	-11.6049
▁분할	-11.605
▁즁	-11.6052
▁만점	-11.6054
▁유기농	-11.6055
▁상당수	-11.6056
ice	-11.6056
▁요정	-11.6059
▁정밀	-11.6062
▁타협	-11.6063
▁천지	-11.6066
▁뻥	-11.6069
▁호호	-11.607
ak	-11.6072
▁풀려	-11.6072
▁휴학	-11.6076
▁스토어	-11.6078
本	-11.608
▁오버	-11.608
▁분량	-11.6082
▁드물	-11.6085
▁놀랬	-11.6086
▁음반	-11.6087
랬	-11.6087
▁합정	-11.6087
▁삼각	-11.6088
윈	-11.609
▁진정한	-11.6097
▁말라	-11.6097
▁진동	-11.6097
▁약점	-11.6099
▁교황	-11.61
▁들어도	-11.6102
pr	-11.6102
▁그러니깐	-11.6104
▁냐면은	-11.6104
▁인체	-11.6104
▁단원	-11.6107
▁유진	-11.6113
子	-11.6117
▁시공	-11.6119
▁한미	-11.6119
▁유승민	-11.612
▁내려와	-11.612
▁여도	-11.6122
▁용역	-11.6125
▁몰리	-11.6127
▁했어요	-11.6127
킷	-11.6127
▁계세요	-11.613
쏟아지	-11.6131
▁쉬워	-11.6131
▁구운	-11.6135
▁비법	-11.614
▁방울	-11.6141
▁법무부	-11.6143
▁찾아와	-11.6147
▁지붕	-11.615
▁참가자	-11.6152
▁터졌	-11.6156
▁위축	-11.6156
▁간섭	-11.6158
▁쫄깃	-11.6161
▁합동	-11.6164
▁팡	-11.6167
▁벌였	-11.6168
89	-11.6168
틱	-11.617
▁개꿀	-11.6171
▁처녀	-11.6172
▁치밀	-11.6172
ect	-11.6172
▁글쓰기	-11.6176
▁백인	-11.6178
▁관장	-11.6178
▁시정	-11.6179
▁임산부	-11.6181
▁기둥	-11.6185
▁다네	-11.6185
▁>(	-11.6186
▁행태	-11.6188
▁서해	-11.6188
▁병행	-11.6189
▁병력	-11.619
▁옮긴	-11.6191
사람	-11.6191
깔	-11.6192
▁CJ	-11.6193
▁구월	-11.6194
▁나뉘	-11.6196
▁6000	-11.6196
▁연남동	-11.6197
▁탄소	-11.6199
▁잭	-11.62
▁con	-11.6202
▁▷	-11.6203
▁톰	-11.6204
▁열기	-11.6205
▁띵	-11.6207
▁이어질	-11.6209
▁모인	-11.621
58	-11.6212
듣	-11.6214
▁발전소	-11.6216
▁였으나	-11.6217
▁솔로	-11.622
▁감지	-11.6221
▁납부	-11.6223
▁필기	-11.6224
펠	-11.6225
셋	-11.623
▁느리	-11.623
if	-11.6236
▁분배	-11.6241
▁마쳤	-11.6249
▁누적	-11.6252
▁아무렇	-11.6253
▁정했	-11.6254
▁총괄	-11.6254
멘	-11.6258
會	-11.6258
▁조종	-11.6259
▁믹스	-11.626
어놓	-11.6261
▁결말	-11.6262
▁범주	-11.6264
▁느니	-11.6264
▁부도	-11.6266
▁사막	-11.6269
집어넣	-11.6269
어먹	-11.627
▁죵	-11.627
쭉	-11.6271
▁체인	-11.6281
▁아쉬웠	-11.6284
▁사립	-11.6286
딘	-11.6287
▁더욱더	-11.6291
▁디스	-11.6293
▁모름	-11.6298
▁풀이	-11.6302
▁피지	-11.6302
▁담론	-11.6302
▁-)	-11.6303
▁구려	-11.6304
▁팜	-11.6305
▁기상	-11.6306
▁생긴다	-11.6306
▁괴롭	-11.6306
▁와요	-11.6309
▁he	-11.6309
▁사용자	-11.6311
▁텐트	-11.6311
16	-11.6314
뤘	-11.6315
▁변명	-11.6317
▁권유	-11.6318
▁먹거리	-11.6319
▁무사히	-11.6319
▁그쳤	-11.632
▁250	-11.6321
▁바리	-11.6322
▁싱싱	-11.6326
▁거칠	-11.6327
▁유래	-11.6327
▁치명	-11.6328
▁화가	-11.6328
▁자외선	-11.6331
▁떠날	-11.6332
▁체육관	-11.6332
으니까	-11.6332
▁미션	-11.6333
IS	-11.6333
셈	-11.6334
▁모형	-11.6334
▁생강	-11.6335
▁여드름	-11.6336
▁화살	-11.6337
▁불쾌	-11.634
▁에센스	-11.6341
▁걸려서	-11.6343
궈	-11.6345
▁김수	-11.6347
▁펠	-11.6354
▁응시	-11.6355
▁옵니다	-11.6355
▁66	-11.6355
▁뚱	-11.6356
▁간격	-11.6358
닛	-11.6362
▁미스터	-11.6363
▁신임	-11.6365
pa	-11.6367
▁괴로워	-11.6367
▁공직	-11.6368
▁조그만	-11.6377
▁집값	-11.6379
▁데요	-11.6379
▁만지	-11.6382
56	-11.6382
▁노노	-11.6385
ies	-11.6386
▁아이패드	-11.6388
▁오잉	-11.6388
▁크로	-11.6388
▁위성	-11.6389
▁올라와	-11.6395
⠀	-11.6401
▁는겨	-11.6401
▁우위	-11.6403
▁반해	-11.6405
99	-11.6406
▁선행	-11.6409
▁페이스	-11.6409
▁손질	-11.6411
▁땡겨	-11.6416
▁크로스	-11.6416
▁양도	-11.6421
▁어허	-11.6422
▁간호	-11.6424
▁추첨	-11.6425
▁홍삼	-11.6428
▁벗어날	-11.643
24	-11.643
▁유월	-11.6432
▁팔리	-11.6434
▁휴무	-11.6435
▁신다면	-11.6435
▁쿵	-11.6436
▁소파	-11.6437
▁68	-11.6438
da	-11.6441
▁돌아갔	-11.6441
▁동쪽	-11.6443
▁진하	-11.6443
▁출생	-11.6443
▁렉	-11.6443
▁른	-11.6443
stagram	-11.6445
▁마라톤	-11.6446
▁베이징	-11.6446
▁짜장면	-11.6452
▁바닷가	-11.6456
▁공화국	-11.6458
ich	-11.6462
▁문화재	-11.6463
▁애견	-11.6463
▁스틱	-11.6464
▁청소기	-11.6464
▁비자	-11.6466
▁스러움	-11.6466
▁동지	-11.6468
▁느라고	-11.647
26	-11.6471
▁폴리	-11.6471
▁무서워서	-11.6473
▁기온	-11.6473
800	-11.6473
▁흘	-11.6474
▁열린다	-11.6475
▁추워서	-11.6475
▁자란	-11.6475
▁느낀다	-11.6476
일보	-11.6477
▁그릴	-11.6487
▁브레이크	-11.6487
▁브리핑	-11.6488
▁어찌나	-11.6489
▁산하	-11.6496
▁기다릴	-11.6497
▁발레	-11.6498
▁생성	-11.65
▁수명	-11.65
다며	-11.6501
걱	-11.6502
▁앜ᄏᄏᄏ	-11.6502
▁책임자	-11.6505
▁한방	-11.6509
▁모야	-11.6515
▁사무소	-11.6523
▁선교	-11.6523
▁불러서	-11.6523
▁더럽	-11.6524
▁냄비	-11.6524
▁매직	-11.6526
▁던졌	-11.6526
▁인문	-11.6529
▁엔딩	-11.6532
▁東	-11.6538
▁등록금	-11.6539
▁피의자	-11.654
▁적립	-11.6542
▁대구시	-11.6543
▁뒤쪽	-11.6545
▁으셔서	-11.6551
▁냉정	-11.6553
39	-11.6554
▁건국	-11.6554
▁깔려	-11.6554
▁망하	-11.6557
▁매출액	-11.6558
▁든데	-11.6559
▁사후	-11.6562
▁과잉	-11.6563
▁시킴	-11.6563
▁탈당	-11.6564
▁집사	-11.6564
▁개시	-11.6564
가루	-11.6564
▁우물	-11.6569
▁회색	-11.6569
▁겨냥	-11.6573
▁식초	-11.6574
▁서사	-11.6574
▁텔	-11.6576
▁골고루	-11.6577
▁性	-11.6577
▁67	-11.6578
▁창피	-11.658
▁~~~~~	-11.6581
▁행하	-11.6584
▁뺀	-11.6584
▁시비	-11.6585
▁닌	-11.6586
▁my	-11.6588
▁🤗	-11.6589
▁타이어	-11.6591
▁제보	-11.6594
▁달라졌	-11.6597
▁dog	-11.66
na	-11.6601
▁권고	-11.6603
▁계약서	-11.6604
랗	-11.6604
▁섭섭	-11.6604
▁가만	-11.6605
▁이별	-11.6606
▁현역	-11.6606
▁하루하루	-11.6609
▁동행	-11.661
59	-11.6612
▁김상	-11.6612
ti	-11.6617
▁승객	-11.6618
드라	-11.6618
▁내외	-11.662
▁릴	-11.6621
▁맞춘	-11.6623
▁전직	-11.6625
▁하하하	-11.6625
떨	-11.6626
ty	-11.6627
▁멸치	-11.6629
▁활력	-11.6632
▁음주	-11.6633
▁광명	-11.6634
▁official	-11.6636
▁그나저나	-11.6636
▁증세	-11.6637
▁표명	-11.6638
J	-11.6645
ER	-11.6648
▁프레임	-11.6649
▁축복	-11.6651
▁날려	-11.6651
▁로또	-11.6652
탐	-11.6652
▁넘쳐	-11.6653
▁고도	-11.6653
▁정규직	-11.6653
▁김용	-11.6654
▁안산	-11.6655
▁리듬	-11.6656
▁줘도	-11.6659
▁익혀	-11.666
▁포스	-11.666
▁테크	-11.6661
▁공업	-11.6661
▁최강	-11.6662
▁로비	-11.6665
▁온통	-11.667
▁씨앗	-11.6677
▁굴러	-11.6678
▁소극	-11.6678
▁움직일	-11.6679
▁추락	-11.6679
▁표기	-11.6682
▁딥	-11.6687
▁빡세	-11.6692
▁평택	-11.6694
▁정세	-11.6699
봄	-11.67
▁중공업	-11.67
▁정국	-11.6703
▁조심히	-11.6708
델	-11.6715
렴	-11.6716
땐	-11.6718
▁이끄	-11.6721
▁타운	-11.6721
▁갈색	-11.6722
▁임직원	-11.6722
▁약자	-11.6725
▁헝	-11.6726
▁눕	-11.6726
▁가속	-11.6728
▁복사	-11.6736
hi	-11.6738
▁꿇	-11.6738
▁오우	-11.674
ion	-11.6742
▁각도	-11.6744
▁저지	-11.6747
▁동굴	-11.6747
zz	-11.6748
▁중립	-11.6749
▁공지	-11.6749
▁두유	-11.6751
▁올려서	-11.6753
64	-11.6753
▁8000	-11.6753
47	-11.6754
▁가령	-11.6758
▁실물	-11.6758
▁서기	-11.6758
▁서쪽	-11.6759
▁62	-11.6761
▁부끄러워	-11.6765
▁낀	-11.6766
▁앨	-11.6767
렇	-11.6767
▁기침	-11.6768
▁미뤄	-11.6769
▁현직	-11.6769
▁나이트	-11.677
▁물려	-11.6776
▁와이프	-11.6776
▁나설	-11.6779
▁스카	-11.6781
44	-11.6781
못	-11.6784
▁머신	-11.6786
▁과감	-11.6787
▁고스란히	-11.6787
▁일으킨	-11.6787
▁갈지	-11.6788
▁달렸	-11.679
▁냇	-11.6792
▁깃	-11.6794
▁바래	-11.6797
▁지식인	-11.6798
ke	-11.6799
▁불빛	-11.6802
▁꿰	-11.6803
▁는데도	-11.6804
▁저래	-11.6807
▁기절	-11.681
▁밀접	-11.681
▁끄덕	-11.6812
▁교차	-11.6813
▁토너	-11.6814
겹	-11.6814
▁깻잎	-11.6819
▁당내	-11.6821
13	-11.6822
▁불금	-11.6824
▁잃어버린	-11.6825
▁왕조	-11.6827
▁08	-11.6829
▁련	-11.6829
▁수건	-11.683
▁디즈니	-11.683
잡이	-11.6832
▁그놈	-11.6835
▁옮겼	-11.6837
▁진흥	-11.684
▁더더욱	-11.6841
▁카카오톡	-11.6841
▁두렵	-11.6843
▁벨트	-11.6844
▁전담	-11.6844
▁그래픽	-11.6849
▁먹여	-11.685
▁개통	-11.6852
▁종업원	-11.6852
려면	-11.6852
▁암시	-11.6855
▁!!!!!!	-11.6857
ᄃ	-11.6858
▁내려서	-11.6858
@	-11.6861
▁그토록	-11.6863
▁삼월	-11.6863
▁함정	-11.6865
▁캠퍼스	-11.6868
▁면역력	-11.6869
ng	-11.6871
▁시야	-11.6872
▁부재	-11.6875
▁구청	-11.6877
▁회화	-11.6878
▁귀여	-11.6879
▁싣	-11.6885
▁제임스	-11.6885
▁게시판	-11.6885
▁팽	-11.6887
19	-11.6889
▁숟가락	-11.689
▁줄어든	-11.689
▁이윤	-11.6892
샘	-11.6893
▁솜씨	-11.6897
▁가르침	-11.6897
▁러닝	-11.6897
▁문법	-11.6898
▁추출물	-11.6898
▁제조업	-11.691
▁보육	-11.6911
▁청원	-11.6912
▁세무	-11.6913
▁교재	-11.6915
ust	-11.6916
▁정해져	-11.6917
▁얄	-11.6917
▁소용	-11.6921
▁自	-11.6925
pic	-11.6931
댔	-11.6932
▁갈아입	-11.6934
▁두세	-11.6934
▁세미나	-11.6934
▁77	-11.6935
▁기다려야	-11.6938
울이	-11.6939
▁엘리베이터	-11.694
▁와도	-11.694
▁퍼져	-11.6941
IC	-11.6942
짖	-11.6943
▁수급	-11.6943
are	-11.6944
▁公	-11.6944
ct	-11.6944
▁목포	-11.6946
62	-11.6947
ᄊ	-11.6951
▁개미	-11.6951
▁드라이브	-11.6952
▁경호	-11.6952
▁98	-11.6952
▁놔두	-11.6954
▁철강	-11.6955
▁쭈꾸미	-11.6956
▁05	-11.6957
ha	-11.6957
tion	-11.6967
▁성령	-11.6969
▁의류	-11.697
▁긴장감	-11.6971
▁전철	-11.6974
ni	-11.6976
▁티셔츠	-11.6979
▁공산주의	-11.6979
▁저리	-11.6986
▁업자	-11.6987
▁진전	-11.6987
▁끝났	-11.6989
▁인공지능	-11.699
버리	-11.699
▁1991	-11.6991
▁An	-11.6993
▁엔터	-11.6995
▁설교	-11.6997
▁피트	-11.6997
▁퀄리티	-11.7001
▁캐리어	-11.7001
스럽	-11.7002
̈	-11.7006
▁회피	-11.701
▁변한	-11.7012
▁ootd	-11.7012
▁pomeranian	-11.7017
▁사명	-11.7018
▁작정	-11.7021
▁앞둔	-11.7023
▁스페셜	-11.7023
▁이마	-11.7027
▁외국어	-11.703
▁납득	-11.7034
▁마루	-11.7036
▁뒤지	-11.7036
▁니트	-11.7038
▁심상	-11.7042
▁모른다는	-11.7043
▁트러블	-11.7045
▁구호	-11.7047
▁줄일	-11.7049
▁단식	-11.7056
▁훔	-11.7057
▁태우	-11.7058
▁山	-11.706
▁허무	-11.7065
▁저절로	-11.7067
▁려구요	-11.707
63	-11.7071
心	-11.7073
▁증정	-11.7078
렐	-11.7079
▁7000	-11.7081
ess	-11.7081
▁토론회	-11.7081
잎	-11.7082
▁봅시다	-11.7084
▁육군	-11.7085
▁단축	-11.7085
03	-11.7086
▁전무	-11.7087
▁보임	-11.7087
▁살펴	-11.709
▁돌아올	-11.7091
▁철회	-11.7095
▁88	-11.7095
▁직면	-11.7096
ts	-11.7098
▁한눈	-11.7101
▁몰입	-11.7102
▁왜냐면은	-11.7105
▁계실	-11.7105
▁질렀	-11.7107
▁제로	-11.7108
▁입양	-11.7109
▁연예	-11.711
▁와이파이	-11.7118
▁업적	-11.7118
▁대세	-11.7118
▁무심	-11.7123
▁부사장	-11.7124
io	-11.7124
au	-11.7124
▁토스트	-11.7133
▁ᄑ	-11.7134
▁비씨	-11.7136
▁모공	-11.7138
왁	-11.714
▁학대	-11.7142
▁앜ᄏᄏᄏᄏ	-11.7144
▁간직	-11.7145
▁마이너스	-11.7146
38	-11.7147
▁국적	-11.7152
▁껌	-11.7153
36	-11.7155
▁정화	-11.7156
▁오토바이	-11.7157
▁정자	-11.716
▁조조	-11.7162
▁비명	-11.7165
▁헤이	-11.7166
▁각지	-11.717
▁넨	-11.7172
▁철거	-11.7173
▁소유자	-11.7174
▁해야죠	-11.7175
▁뿔	-11.7176
싹	-11.7182
▁단절	-11.7184
▁이메일	-11.7186
휴	-11.7188
▁행진	-11.719
▁방송사	-11.7191
▁우스	-11.7191
▁오락	-11.7193
해졌	-11.7197
▁중개	-11.7198
▁셔요	-11.7198
▁대거	-11.7199
▁가입자	-11.72
젤	-11.7202
▁Le	-11.7207
▁끼워	-11.7207
▁뤼	-11.7207
▁상임	-11.7209
▁어째	-11.721
쇠	-11.7215
▁뵈	-11.7217
▁적정	-11.7221
▁스펙	-11.7221
▁포털	-11.7227
▁1987	-11.7231
▁안겨	-11.7233
▁계십니다	-11.7236
▁특집	-11.7237
▁간절	-11.7239
▁Ma	-11.7239
▁운동장	-11.7241
스리	-11.7244
ru	-11.7245
▁계승	-11.7246
▁대지	-11.7248
▁지켜야	-11.7249
▁려다가	-11.7249
▁겅	-11.7251
▁당기	-11.7251
▁더워서	-11.7257
34	-11.7257
▁켄	-11.7259
▁신한	-11.7263
▁필연	-11.7266
▁정교	-11.7269
▁해준다	-11.727
멜	-11.7271
▁☺	-11.7273
▁급히	-11.7273
▁지나갔	-11.7278
▁장례식	-11.7278
▁릿	-11.728
벼	-11.728
▁브루	-11.7281
▁사격	-11.7285
▁도망가	-11.7288
▁조세	-11.7291
▁화합	-11.7291
▁부턴	-11.7291
▁디스크	-11.7292
첼	-11.7293
▁나타날	-11.7293
▁막창	-11.7294
▁윙	-11.7297
▁백수	-11.7297
▁약물	-11.7299
▁안개	-11.73
이치	-11.7301
▁효력	-11.7302
▁내각	-11.7302
▁회관	-11.7303
▁구먼	-11.7305
▁증진	-11.7307
▁훌쩍	-11.731
▁자영업	-11.731
아냈	-11.7312
▁걸친	-11.7313
▁업그레이드	-11.7316
▁오피스텔	-11.7316
▁씨씨	-11.7317
▁섞여	-11.7318
▁충북	-11.7318
▁합법	-11.7318
51	-11.7324
▁휴지	-11.7324
칫	-11.7326
▁국산	-11.7327
▁출퇴근	-11.7328
?!	-11.7328
▁몬스터	-11.7329
ok	-11.7329
그라	-11.733
▁철학자	-11.7331
▁거지	-11.7332
스테	-11.7336
▁실태	-11.7336
▁복구	-11.7338
▁일련	-11.7339
그룹	-11.734
▁옆집	-11.7342
▁이승만	-11.7345
▁엉뚱	-11.7346
▁파우더	-11.7346
▁나마	-11.7351
▁침략	-11.7351
▁2020	-11.7352
봤	-11.7353
▁무효	-11.7354
▁묻혀	-11.7355
▁향했	-11.7356
▁마롱	-11.7356
▁적발	-11.7356
▁페어	-11.7359
ep	-11.736
▁서버	-11.7366
▁김민	-11.7366
▁웟	-11.7369
▁장갑	-11.7373
▁오프	-11.7374
▁루이	-11.7375
▁1989	-11.7375
▁위안부	-11.7379
▁dogstagram	-11.7379
▁조회	-11.7382
▁갤	-11.7382
▁머금	-11.7383
톡	-11.7384
▁더군다나	-11.7385
▁리스크	-11.7386
▁61	-11.7388
▁각기	-11.7389
▁문어	-11.7389
업자	-11.739
▁섬세	-11.7391
▁착수	-11.7392
▁잠자	-11.7395
▁달라진	-11.7395
▁매치	-11.7395
▁갑작	-11.7396
▁샤브샤브	-11.7397
▁일으켰	-11.7397
▁추리	-11.7398
▁노려	-11.7399
▁탱크	-11.7401
▁다름없	-11.7401
멍	-11.7402
▁사운드	-11.7402
41	-11.7405
▁有	-11.7405
에이	-11.7405
▁모셔	-11.7406
▁침입	-11.7406
데요	-11.7406
▁끌려	-11.7408
▁쓸쓸	-11.7408
▁Con	-11.7409
▁카트	-11.7409
탱	-11.7409
다든가	-11.741
▁배정	-11.7414
si	-11.7414
▁재판소	-11.7417
▁사나이	-11.742
▁납치	-11.7422
37	-11.7422
▁외로움	-11.7425
▁황교안	-11.7425
▁마이클	-11.7427
▁척하	-11.7434
▁짐승	-11.7437
義	-11.7437
▁음료수	-11.7437
▁어유	-11.7439
▁반반	-11.7445
▁자몽	-11.7449
▁부양	-11.745
▁빈곤	-11.7451
▁지원금	-11.7452
▁모금	-11.7454
▁테이프	-11.7454
▁차트	-11.7455
냄	-11.7456
PS	-11.7457
▁음모	-11.7458
▁수색	-11.7461
빗	-11.7462
ism	-11.7466
▁바둑	-11.7466
▁립스틱	-11.7466
▁터질	-11.7467
▁이유식	-11.7468
▁오디	-11.7469
ex	-11.747
▁관리자	-11.747
▁영주	-11.7471
▁중세	-11.7471
▁다투	-11.7472
▁팍	-11.7472
▁로워	-11.7476
▁사탕	-11.7477
▁해외여행	-11.7478
▁텔레콤	-11.7478
▁일으켜	-11.7478
▁중소	-11.7479
▁쿄	-11.7479
▁상생	-11.7481
▁붙였	-11.7483
▁재질	-11.7484
▁또래	-11.7485
▁약화	-11.7486
▁유저	-11.7487
32	-11.7487
러스	-11.7488
▁而	-11.749
▁1988	-11.7492
▁브레	-11.7494
▁납품	-11.7496
▁부근	-11.7496
▁지만은	-11.7497
▁현미	-11.7498
▁힙	-11.7502
▁방위	-11.7504
▁컨텐츠	-11.7513
Q	-11.7515
▁언론사	-11.7515
▁상추	-11.7517
▁의결	-11.7518
▁느냐는	-11.7519
▁????	-11.7521
▁살펴볼	-11.7525
휘	-11.7525
ain	-11.7526
▁복용	-11.7526
▁발걸음	-11.753
▁숙성	-11.753
▁관심사	-11.753
▁아시안	-11.7531
▁요법	-11.7538
▁잌	-11.7539
史	-11.7542
▁작곡	-11.7543
▁딘	-11.7544
▁........	-11.7545
▁수렴	-11.7546
▁활기	-11.7552
▁어묵	-11.7554
▁공룡	-11.7557
▁영등포	-11.7559
▁선크림	-11.7559
▁당혹	-11.756
▁복도	-11.7564
뤄	-11.7566
▁끌어들	-11.7568
▁멘토	-11.7568
▁일월	-11.757
▁양치	-11.7573
롯	-11.7574
▁세수	-11.7575
▁중재	-11.7577
▁잔치	-11.7577
▁놨는데	-11.7578
▁노벨	-11.7583
eat	-11.7584
▁KB	-11.7586
▁우편	-11.7588
▁번쩍	-11.759
▁복제	-11.7591
▁03	-11.7593
▁농산물	-11.7595
▁빤	-11.7598
▁고독	-11.76
▁내역	-11.7601
▁공세	-11.7602
▁앞뒤	-11.7602
▁두께	-11.7603
▁고등어	-11.7606
▁지극히	-11.7607
▁로즈	-11.7607
▁EU	-11.7609
▁보름	-11.7611
▁발매	-11.7611
얌	-11.7616
▁시퍼	-11.7617
베르	-11.7619
▁ad	-11.762
▁지나친	-11.762
▁공통점	-11.7627
▁윌	-11.763
▁어린아이	-11.7631
▁불거	-11.7632
▁영문	-11.7633
▁알아봐	-11.7636
▁플로	-11.7639
▁그립	-11.7639
▁선비	-11.7644
▁탐라	-11.7644
AT	-11.7652
▁다이소	-11.7653
▁선포	-11.7655
▁적성	-11.7657
▁육회	-11.7658
▁되풀이	-11.7659
▁cafe	-11.766
▁물어봐야	-11.7661
▁제의	-11.7662
▁IMF	-11.7666
▁공기업	-11.7667
메이	-11.767
▁유쾌	-11.767
ᅳ	-11.767
300	-11.7671
▁뻐	-11.7671
▁파운드	-11.7671
ance	-11.7672
▁뱉	-11.7675
▁꼼꼼히	-11.7676
▁청양	-11.7678
▁원자력	-11.768
und	-11.7683
ub	-11.7686
54	-11.7689
▁사무총장	-11.7689
45	-11.7691
▁패널	-11.7691
▁세균	-11.7693
그리	-11.7693
옴	-11.7697
▁이닝	-11.7702
▁즐거워	-11.7703
찔	-11.7705
▁물리학	-11.7707
쌌	-11.7707
▁일원	-11.7708
▁De	-11.7715
▁된장찌개	-11.7719
▁찼	-11.7719
넘	-11.7719
▁샘플	-11.772
▁Co	-11.772
▁PD	-11.7724
ᄏᄏᄏᄏᄏᄏᄏᄏᄏ	-11.7724
▁69	-11.7728
문화	-11.7729
▁밀착	-11.7729
▁보전	-11.773
▁식욕	-11.7734
▁흡연	-11.7734
▁명문	-11.7736
▁인도네시아	-11.7737
▁재테크	-11.7737
▁아몬드	-11.7737
▁고등	-11.774
본다	-11.774
▁버려야	-11.7741
▁에피소드	-11.7743
▁주한	-11.7743
▁살살	-11.7745
다니까	-11.7746
▁마흔	-11.7748
▁키울	-11.7754
▁부수	-11.7755
▁똑바로	-11.7755
▁사령관	-11.7755
▁얀	-11.7756
▁스탠	-11.7758
▁유인	-11.776
▁히어로	-11.7761
57	-11.7761
▁부가	-11.7761
▁자유주의	-11.7762
▁발상	-11.7764
킬	-11.7766
▁괜춘	-11.7767
▁라라	-11.7767
▁커리	-11.7769
▁비대	-11.777
▁지목	-11.777
▁차림	-11.7771
▁경찰청	-11.7772
▁셰	-11.7773
▁재원	-11.7773
▁주권	-11.7773
▁구사	-11.7777
▁임상	-11.7778
▁밑반찬	-11.7779
▁뺐	-11.778
▁살아온	-11.7785
IN	-11.7785
!!!!	-11.7787
▁스킬	-11.7788
▁세탁기	-11.779
▁지문	-11.7791
▁정유	-11.7795
▁선풍기	-11.7797
▁진자	-11.78
▁나을	-11.7801
▁프랑	-11.7803
▁세계관	-11.7803
랴	-11.7808
▁보드	-11.7812
▁유니	-11.7812
▁앞머리	-11.7812
▁후드	-11.7814
건설	-11.7818
▁기조	-11.782
▁보조금	-11.782
▁판타지	-11.7821
▁드러난	-11.7827
▁피터	-11.7828
▁아이구	-11.7829
▁아용	-11.783
▁금전	-11.7835
▁내려갔	-11.7836
▁그러고	-11.7837
▁두꺼운	-11.7839
르트	-11.7841
▁군주	-11.7842
▁上	-11.7843
▁참모	-11.7846
엌	-11.785
75	-11.7851
▁foodporn	-11.7851
납니다	-11.7851
▁자부심	-11.7851
▁하얗	-11.7853
▁겹치	-11.7854
▁판교	-11.7855
▁개그	-11.7856
▁횟수	-11.7857
▁근디	-11.7857
▁쿠팡	-11.7857
▁탐방	-11.786
▁집니다	-11.7863
▁본성	-11.7869
▁여대	-11.7876
▁동대문	-11.7881
뼈	-11.7886
뛰	-11.7887
▁면제	-11.7888
▁으셨어요	-11.7888
▁조립	-11.7889
▁82	-11.789
팬	-11.7893
▁용지	-11.7893
AN	-11.7902
▁왈	-11.7903
▁지역구	-11.7903
▁동아시아	-11.7906
▁호응	-11.7907
▁퇴직금	-11.7909
▁펀	-11.791
▁혼합	-11.791
▁분단	-11.7911
▁별개	-11.7911
▁아닐까요	-11.7912
▁인문학	-11.7914
▁고마운	-11.7914
600	-11.7916
▁부평	-11.7916
port	-11.7916
▁양육	-11.7916
교육	-11.7922
▁더만	-11.7923
▁좌파	-11.7925
▁툭	-11.7927
▁칫솔	-11.793
▁클로	-11.793
▁with	-11.7936
▁따님	-11.7937
▁외쳤	-11.7938
▁어울릴	-11.7939
▁원주	-11.7943
du	-11.7943
▁사흘	-11.7944
▁빵빵	-11.7945
▁좆	-11.7949
▁탄수화물	-11.7954
▁유익	-11.7955
tt	-11.7956
hy	-11.7958
▁관광지	-11.7959
▁마음껏	-11.796
▁장교	-11.7961
▁질러	-11.7962
▁불닭	-11.7963
su	-11.7972
▁크림치즈	-11.7972
▁춤추	-11.7982
▁여친	-11.7987
▁정무	-11.7989
▁편히	-11.799
▁말려	-11.7995
▁애스타	-11.7995
▁군부	-11.7997
ans	-11.7998
▁블록	-11.8
▁빨간색	-11.8
어질	-11.8001
스탄	-11.8005
▁확충	-11.8005
▁이라크	-11.8006
각국	-11.8007
▁추모	-11.8008
▁송이	-11.8008
▁솔루션	-11.8009
▁넷째	-11.8009
▁납니다	-11.8011
▁기쁜	-11.8012
흑	-11.8013
;	-11.8015
▁vs	-11.8016
mon	-11.8018
살이	-11.8019
▁장마	-11.8019
▁공존	-11.802
▁베이컨	-11.8021
▁성찰	-11.8023
▁원자	-11.8026
▁호감	-11.8028
▁빠져나가	-11.8034
베이	-11.8034
▁王	-11.8036
▁팀원	-11.8037
▁망치	-11.8038
▁부적	-11.8039
▁자질	-11.8045
▁커졌	-11.8046
sion	-11.8046
♡♡	-11.8052
▁메르스	-11.8052
▁여동생	-11.8052
▁됬	-11.8053
▁피부과	-11.8054
▁트레이	-11.8054
▁..!	-11.8055
out	-11.8055
▁군산	-11.8055
▁건의	-11.8055
▁지킬	-11.8055
▁노화	-11.8057
43	-11.806
▁카라	-11.8063
▁벌인	-11.8063
▁박지원	-11.8065
▁저지른	-11.8069
ast	-11.8071
▁78	-11.8073
▁푸르	-11.8073
▁파이터	-11.8073
▁엌ᄏᄏᄏ	-11.8074
앜	-11.8074
▁연세대	-11.8074
ai	-11.8076
▁고마워요	-11.8077
▁미역국	-11.8078
▁궈	-11.8079
▁댈	-11.808
▁액수	-11.8082
ood	-11.8088
숭	-11.809
mer	-11.8092
▁터진	-11.8094
▁컨트롤	-11.8095
▁면담	-11.81
▁화상	-11.81
▁^_^	-11.8102
▁무산	-11.8102
MC	-11.8109
ore	-11.8109
▁성폭행	-11.8114
▁치워	-11.8114
▁느긋	-11.8115
▁매개	-11.8117
▁스피드	-11.8119
▁평상시	-11.812
▁방콕	-11.8121
덜	-11.8126
▁갇혀	-11.8126
찻	-11.8126
앤	-11.8127
▁롯	-11.8128
▁놓인	-11.8129
ᄀᄏ	-11.8131
▁셨잖아요	-11.8133
說	-11.8133
▁알코올	-11.8133
▁야야	-11.8136
▁신지	-11.8139
▁잘생긴	-11.8139
▁소감	-11.8139
랏	-11.814
▁어째서	-11.814
▁안방	-11.814
▁z	-11.8141
▁머니	-11.8145
▁으아	-11.8148
▁미인	-11.8151
ian	-11.8153
▁so	-11.8154
▁미련	-11.8154
▁흘러나	-11.8154
▁주무	-11.8155
▁심플	-11.8159
▁위탁	-11.816
▁경찰관	-11.8161
▁쓰러지	-11.8164
▁펑	-11.8165
▁루트	-11.8165
▁출국	-11.8166
▁미묘	-11.8167
▁강행	-11.8167
▁출처	-11.8169
▁으려나	-11.8169
▁나바	-11.8171
▁민족주의	-11.8172
▁명함	-11.8173
▁시끄럽	-11.8175
믄	-11.8176
▁코코넛	-11.8176
▁🌸	-11.8177
▁돌입	-11.8178
▁신전	-11.818
▁버텨	-11.8183
▁오뎅	-11.8185
구이	-11.819
..	-11.8191
▁확진	-11.8192
▁영업시간	-11.8195
▁야생	-11.8196
▁워킹	-11.8197
▁반란	-11.8197
▁신하	-11.8198
▁킴	-11.8198
▁취했	-11.8199
▁매진	-11.8203
▁김기	-11.8204
▁모셨	-11.8208
▁빠져서	-11.8209
▁포크	-11.821
▁드립	-11.821
▁훅	-11.821
▁세팅	-11.8211
▁려던	-11.8213
▁명상	-11.8214
▁터널	-11.8216
▁얘긴	-11.8216
▁tr	-11.8218
▁그리워	-11.8219
▁서귀포	-11.822
▁달라질	-11.8223
▁엘리트	-11.8224
▁승용차	-11.8226
▁원형	-11.8226
▁이빨	-11.8227
▁성형	-11.8231
아아아	-11.8231
▁상수	-11.8232
ey	-11.8237
▁품절	-11.8238
▁참기름	-11.8239
▁져요	-11.8241
▁싸울	-11.8241
▁ᄐᄏ	-11.8242
▁SBS	-11.8246
▁모터	-11.8247
▁정산	-11.8251
▁커뮤니티	-11.8251
▁붙인	-11.8252
▁유의	-11.8254
▁파라	-11.8255
▁79	-11.8257
▁아보카도	-11.8258
꼼	-11.8264
▁로맨스	-11.8264
▁뚝딱	-11.8264
▁견딜	-11.8264
▁잔디	-11.8265
▁동향	-11.8267
▁속상	-11.8267
▁파우	-11.8271
oc	-11.8272
▁동아	-11.8273
▁독감	-11.8276
▁셜	-11.8276
▁퀴	-11.8279
▁물결	-11.8281
▁바짝	-11.8282
韓	-11.8283
ction	-11.8283
mp	-11.8284
썩	-11.8291
▁농부	-11.8292
▁神	-11.8293
68	-11.8294
▁모의고사	-11.8295
▁인치	-11.8296
▁프로필	-11.8296
조선	-11.8296
▁뺨	-11.8297
▁목걸이	-11.8308
▁쥬얼	-11.8316
▁No	-11.8316
섹	-11.832
▁밴	-11.8321
▁앜ᄏᄏᄏᄏᄏ	-11.8324
▁태권	-11.8326
▁+_+	-11.8327
▁내놨	-11.8327
▁개운	-11.833
▁조이	-11.833
▁남용	-11.833
▁인과	-11.833
▁모호	-11.8331
▁기울여	-11.8331
▁통통	-11.8331
▁당대	-11.8332
▁요게	-11.8332
▁챠	-11.834
▁여고	-11.834
▁그렸	-11.8344
▁광범위	-11.8352
▁스트레칭	-11.8352
▁포메라니안	-11.8352
▁AI	-11.8353
▁다가왔	-11.8354
▁막연	-11.8355
▁해놨	-11.8356
▁대문	-11.8358
▁꺼냈	-11.8361
▁단맛	-11.8369
▁instadaily	-11.8371
▁개구리	-11.8372
콤	-11.8372
▁챙	-11.8372
▁응용	-11.8373
▁키웠	-11.8374
▁집들이	-11.8377
▁특권	-11.8377
▁아카데미	-11.8378
▁소세지	-11.8378
▁부착	-11.8378
▁97	-11.838
▁두툼	-11.838
▁다듬	-11.8382
▁스웨덴	-11.8384
▁유난히	-11.8384
▁탑승	-11.8388
▁이룰	-11.8388
▁지쳐	-11.8389
~!~!	-11.839
▁모리	-11.839
▁동정	-11.8391
▁키운	-11.8392
▁71	-11.8393
▁유적	-11.8394
▁https	-11.8395
ton	-11.8396
▁재발	-11.8397
▁통영	-11.8398
▁겹쳐	-11.8398
▁주재	-11.8403
▁마산	-11.8404
▁밧	-11.8404
▁환기	-11.8406
▁허니	-11.8407
▁유감	-11.8408
▁틀렸	-11.8416
▁욧	-11.8416
▁부풀	-11.8417
▁II	-11.842
▁맥스	-11.8422
▁디테일	-11.8422
▁동경	-11.8425
▁제작진	-11.8426
▁1500	-11.8428
▁넷플릭스	-11.8429
▁설날	-11.8432
▁합치	-11.8432
딕	-11.8435
▁속옷	-11.8437
法	-11.8438
▁부지런	-11.8439
▁퇴원	-11.8441
▁중복	-11.8444
삐	-11.8445
ail	-11.8446
▁피고인	-11.8448
▁분해	-11.8449
▁레인	-11.8449
▁뱃	-11.8449
▁지나간	-11.845
뱅	-11.8451
▁폭로	-11.8451
▁94	-11.8453
主	-11.8454
▁뺄	-11.8455
▁관할	-11.8457
▁실려	-11.8461
▁집안일	-11.8463
▁태극기	-11.8466
어붙	-11.8466
▁love	-11.8466
▁미미	-11.8467
▁팍팍	-11.8467
▁필드	-11.8467
ack	-11.8468
▁콕	-11.8469
▁노라	-11.847
▁혐	-11.8471
▁애써	-11.8473
▁던데요	-11.8474
▁해용	-11.8479
▁신동	-11.848
▁야말로	-11.848
▁│	-11.8481
구역	-11.8483
▁조율	-11.8485
▁여학생	-11.8486
▁다이어리	-11.8487
▁新	-11.8488
▁총재	-11.8489
끌	-11.849
▁파마	-11.8495
▁Pro	-11.8502
▁온대	-11.8503
▁유물	-11.8506
代	-11.8506
▁간신히	-11.8506
▁73	-11.8509
▁대국	-11.851
▁중화	-11.8515
넛	-11.8517
▁96	-11.8518
▁속눈썹	-11.8519
▁흐흐	-11.852
▁장래	-11.8521
▁상금	-11.8521
▁흘러가	-11.8523
▁수확	-11.8524
▁사야	-11.8525
▁신생아	-11.8525
리어	-11.853
▁공직자	-11.853
DI	-11.8533
▁영리	-11.854
▁멸	-11.8547
▁그래야지	-11.8549
렷	-11.8549
▁드러냈	-11.8551
▁뇨	-11.8552
▁시댁	-11.8555
▁후자	-11.8557
▁박원순	-11.8564
▁노동당	-11.8566
▁단발	-11.8568
ᅮᅮ	-11.8569
▁활짝	-11.8571
▁왠	-11.8577
━	-11.8577
▁가톨릭	-11.8577
▁게스트	-11.8582
▁떠오른	-11.8584
▁극혐	-11.8584
▁이른다	-11.8584
▁알려줘	-11.8587
▁달라서	-11.859
▁진도	-11.8592
▁포즈	-11.8593
▁동전	-11.8593
▁올라간	-11.8594
▁190	-11.8594
▁상주	-11.8595
明	-11.8596
▁인터	-11.8597
▁깨지	-11.8599
▁시월	-11.8604
▁마취	-11.8604
▁땅콩	-11.8604
ᅥ	-11.8608
▁오프라인	-11.861
▁결성	-11.861
▁야징	-11.8613
▁밝혀졌	-11.8613
▁집중력	-11.8614
▁트레이닝	-11.8616
▁찌개	-11.8619
▁ex	-11.8621
▁네티즌	-11.8622
▁젓가락	-11.8622
▁웨이팅	-11.8623
86	-11.8629
▁cu	-11.8633
▁골프장	-11.8634
▁색감	-11.8634
▁미스트	-11.8636
▁언더	-11.8637
▁주저	-11.8638
▁재건축	-11.8642
▁道	-11.8646
▁사신	-11.8655
▁핫도그	-11.8655
▁불길	-11.8658
▁비웃	-11.866
▁쏴	-11.8662
쉽	-11.8663
▁여주	-11.8665
▁화사	-11.8667
▁높였	-11.8667
▁골든	-11.8668
▁노동조합	-11.8668
▁간혹	-11.8668
▁자궁	-11.8669
▁알아볼	-11.8669
▁선조	-11.8673
▁흘려	-11.8674
▁흘렀	-11.8675
▁여우	-11.8676
▁흔한	-11.8678
▁크크	-11.868
▁울려	-11.868
知	-11.8681
▁급격	-11.8682
▁74	-11.8684
▁사마	-11.8685
▁놔서	-11.8686
▁김광	-11.8686
▁애교	-11.8687
▁뻘	-11.8687
▁깼	-11.8688
▁겸손	-11.869
넷	-11.8694
▁토리	-11.8695
▁구독	-11.8697
▁소나무	-11.8698
sa	-11.8698
▁부총리	-11.8701
▁무거워	-11.8704
▁엄지	-11.8705
▁총체	-11.8705
▁이리저리	-11.8708
▁깨우	-11.871
▁광경	-11.8711
▁특화	-11.8713
▁단풍	-11.8714
▁죽인	-11.8715
▁연동	-11.8719
定	-11.8721
▁와사비	-11.8722
▁탑재	-11.8722
▁맘대로	-11.8726
▁풍요	-11.8727
▁패러다임	-11.8727
▁매운맛	-11.8728
▁소개팅	-11.8731
▁부유	-11.8733
▁종사	-11.8735
▁증여	-11.8737
▁굉장	-11.8738
▁스파이	-11.8739
▁오리지널	-11.8741
▁들어선	-11.8742
▁찹쌀	-11.8747
MS	-11.8748
ost	-11.8751
ther	-11.8755
▁교복	-11.8755
▁수필	-11.8761
겨운	-11.8761
▁다툼	-11.8763
▁바닐라	-11.8767
▁아일랜드	-11.8767
▁음식물	-11.8768
▁유죄	-11.8768
▁배분	-11.8768
▁할지라도	-11.8768
▁경사	-11.8769
▁농도	-11.877
▁89	-11.8771
65	-11.8773
▁공산당	-11.8775
▁릉	-11.8776
▁유성	-11.8781
85	-11.8781
▁본점	-11.8783
▁떠서	-11.8784
▁정의당	-11.8786
버렸	-11.8789
ens	-11.8789
▁지친	-11.879
ᄏᄏᄏᄏᄏᄏᄏᄏᄏᄏ	-11.879
int	-11.879
▁시러	-11.879
낌	-11.8793
▁소리쳤	-11.8794
▁모릅니다	-11.8797
랙	-11.8798
아웃	-11.8799
전해졌	-11.88
바닥	-11.8805
▁유부	-11.8806
▁마법사	-11.8808
라구	-11.881
▁들여다	-11.8812
▁기각	-11.8813
▁xxx	-11.8814
▁미끄러	-11.8818
▁재활	-11.882
▁앵커	-11.8821
▁일환	-11.8824
르륵	-11.8824
▁풍기	-11.8827
ory	-11.8831
싸움	-11.8834
▁광복	-11.8837
▁쓱	-11.8841
▁횟집	-11.8847
▁다거나	-11.8848
▁방송국	-11.8848
▁문헌	-11.8848
▁륵	-11.8849
▁정립	-11.8849
▁극히	-11.885
▁로켓	-11.8851
▁아랍	-11.8853
▁노답	-11.8853
95	-11.8855
che	-11.8857
▁교섭	-11.8857
▁정장	-11.8858
▁수위	-11.8859
▁국왕	-11.8859
▁앞선	-11.8859
ary	-11.886
▁슬쩍	-11.8861
▁궤	-11.8862
즙	-11.8866
▁베란다	-11.8867
▁넘어갈	-11.8867
▁사양	-11.8867
▁니께	-11.8868
▁가꾸	-11.8869
▁다면서요	-11.887
▁모욕	-11.887
▁표출	-11.8871
▁체리	-11.8872
▁Tr	-11.8873
▁왕복	-11.8874
▁궁금증	-11.8875
▁외관	-11.8876
▁미처	-11.8878
라던가	-11.888
▁렀다	-11.8881
▁독서실	-11.8881
▁굼	-11.8884
▁스피커	-11.8888
▁옹호	-11.8888
▁리아	-11.8888
rg	-11.8889
▁만세	-11.8891
▁쌍둥이	-11.8894
▁비춰	-11.8896
▁고딩	-11.8897
▁특위	-11.8898
▁윌리엄	-11.89
▁He	-11.8901
▁쳐다	-11.8901
▁美	-11.8902
▁살아갈	-11.8907
▁클레	-11.8908
로운	-11.8909
PA	-11.8912
▁상쾌	-11.8912
▁영수증	-11.8914
▁insta	-11.8914
▁난감	-11.8916
▁종말	-11.8918
42	-11.8919
社	-11.892
곱	-11.8921
▁할꺼	-11.8921
▁민트	-11.8925
OS	-11.8927
▁sh	-11.8927
▁겔	-11.8932
▁껍데기	-11.8934
▁원수	-11.8934
▁04	-11.8938
개인	-11.8941
▁셤	-11.8941
▁본다고	-11.8944
▁as	-11.8944
▁입안	-11.8945
▁이룬	-11.8948
▁교원	-11.8952
▁에휴	-11.8953
▁go	-11.8954
깐	-11.8955
cc	-11.896
▁라온	-11.8962
▁짬	-11.8963
▁잔다	-11.8963
▁130	-11.8964
▁보태	-11.8965
▁피스	-11.8966
▁부디	-11.8967
▁어둡	-11.8968
▁십자가	-11.8968
▁물체	-11.897
▁반장	-11.8979
▁꼼짝	-11.8981
▁재빨리	-11.8981
▁LED	-11.8981
▁분포	-11.8982
▁🥰	-11.8983
▁견과	-11.8986
▁소설가	-11.8986
▁관중	-11.8989
▁92	-11.8989
▁오븐	-11.8989
▁상승세	-11.899
▁옥상	-11.8991
엇	-11.8992
▁고려대	-11.8997
▁단체장	-11.8997
▁헤아	-11.8997
▁마요	-11.8998
78	-11.9
▁법조	-11.9004
▁동계	-11.9005
▁야경	-11.9005
▁상기	-11.9005
▁위해선	-11.9006
tra	-11.9007
ner	-11.9008
▁以	-11.901
ture	-11.901
▁김병	-11.9017
▁할게	-11.9017
▁줍	-11.9021
▁니스	-11.9021
▁단서	-11.9021
▁사위	-11.9023
램	-11.9024
▁불평	-11.9025
▁미드	-11.9025
▁후속	-11.9026
▁충고	-11.9028
ick	-11.9029
▁침착	-11.9031
낄	-11.9035
셉	-11.9035
티브	-11.9035
▁씁쓸	-11.9035
▁le	-11.9037
▁생각났	-11.9039
▁낚	-11.9041
모토	-11.9046
▁발길	-11.9049
윽	-11.9051
▁앞장서	-11.9056
▁하와이	-11.9058
▁서적	-11.9062
▁메밀	-11.9069
▁으셔	-11.9069
▁Th	-11.9071
▁애니	-11.9072
유투	-11.9074
▁섹시	-11.9076
▁보험금	-11.9077
▁막힌	-11.9079
▁>_<	-11.9083
▁선거구	-11.9086
▁연도	-11.9087
物	-11.909
▁중학생	-11.909
▁파이팅	-11.909
▁발리	-11.9094
▁제철	-11.9096
▁플레이어	-11.9096
▁항공기	-11.9097
▁대입	-11.91
▁제고	-11.9101
▁드나	-11.9105
린다고	-11.9107
▁주워	-11.911
팀	-11.911
▁세자	-11.911
▁좀처럼	-11.911
▁킬로미터	-11.911
▁07	-11.9118
▁체감	-11.9118
▁밀크티	-11.9118
48	-11.9123
▁프랜차이즈	-11.9124
dr	-11.9125
▁의사소통	-11.9131
▁사교육	-11.9131
▁멸망	-11.9132
▁아담	-11.9133
▁자소서	-11.9138
▁끄덕였	-11.9138
▁지낼	-11.9141
▁비참	-11.9141
98	-11.9143
▼	-11.9145
▁황후	-11.9148
▁子	-11.9149
▁헤어졌	-11.9151
▁렌트	-11.9151
▁korea	-11.9151
▁travel	-11.9151
▁난민	-11.9152
▁산림	-11.9155
▁클리어	-11.9156
▁노랑	-11.9158
意	-11.9158
▁이어져	-11.9159
▁국사	-11.9161
▁공평	-11.9162
▁소득세	-11.9164
▁무늬	-11.9166
쇄	-11.9169
▁토로	-11.9171
▁색다른	-11.9172
▁마사	-11.9175
ob	-11.9175
▁직관	-11.9176
▁이를테면	-11.9179
▁통신사	-11.9179
▁트친	-11.9179
▁허허허	-11.9179
▁주의자	-11.9181
▁마우스	-11.9185
▁블루베리	-11.9186
▁남산	-11.9186
▁ha	-11.9189
뱉	-11.9189
▁상권	-11.9192
▁뎌	-11.9192
▁킥	-11.9195
▁송파	-11.92
▁스토	-11.92
▁무한리필	-11.9207
▁설득력	-11.9207
▁쏟아져	-11.9207
ome	-11.9212
▁반환	-11.9215
▁파장	-11.9215
#@	-11.9217
▁뱃살	-11.9221
▁쯔	-11.9222
▁엌ᄏᄏᄏᄏ	-11.9223
댕	-11.9224
▁Gr	-11.9225
▁짱짱	-11.9229
▁일생	-11.923
▁완공	-11.9232
가리	-11.9233
▁엉망	-11.9236
▁구용	-11.9237
▁복권	-11.9239
▁소박	-11.9239
▁지지자	-11.9241
▁태평양	-11.9247
cr	-11.9248
▁바게트	-11.9248
▁라네	-11.9248
▁태자	-11.9248
▁pro	-11.9249
▁녹화	-11.9252
▁간만에	-11.9255
▁KIA	-11.9256
▁위력	-11.9257
▁생물학	-11.9259
▁생략	-11.9259
ON	-11.9262
▁정조	-11.9263
▁경과	-11.9265
텍	-11.9266
▁타르트	-11.9268
▁업데이트	-11.9269
▁늘어날	-11.9269
▁스러울	-11.9269
▁거래소	-11.927
▁강변	-11.927
▁일어서	-11.9276
았	-11.9277
br	-11.9279
▁배워야	-11.9279
▁격리	-11.9279
bl	-11.9284
▁신축	-11.9285
400	-11.9286
힘	-11.9287
▁명심	-11.9287
▁잡힌	-11.9289
▁놀이터	-11.929
▁찾아갔	-11.929
▁누굴	-11.9293
▁생겨나	-11.9293
▁항공사	-11.9294
▁생명체	-11.9295
▁쌓인	-11.9296
늑	-11.9297
ling	-11.9298
▁공군	-11.9298
▁순한	-11.9299
▁더듬	-11.93
▁소셜	-11.93
▁인맥	-11.9308
▁몰두	-11.9308
BS	-11.931
ence	-11.9314
▁아아아	-11.9314
▁아악	-11.9316
▁욘	-11.9318
▁추출	-11.9319
SA	-11.9323
AR	-11.9328
▁정전	-11.933
▁화내	-11.9335
▁110	-11.9335
ds	-11.9337
▁이력서	-11.9337
▁전집	-11.9337
▁힘든데	-11.9344
▁👏	-11.9345
▁바치	-11.9345
▁원유	-11.9346
▁짖	-11.9349
▁동백	-11.9349
ide	-11.9356
79	-11.9356
▁죽였	-11.9359
▁공산	-11.9359
▁세안	-11.936
솟	-11.9363
▁오타	-11.9364
▁웬일	-11.9365
의식	-11.9366
▁교감	-11.9366
▁□	-11.9367
▁헿	-11.9368
▁쿠롱	-11.937
산업	-11.937
▁로움	-11.9372
52	-11.9372
▁광주시	-11.9372
▁간대	-11.9372
▁프렌치	-11.9374
▁증권사	-11.9375
▁숙이	-11.9375
▁개소	-11.9376
▁짜장	-11.9376
▁★	-11.9379
딛	-11.9381
▁개이득	-11.9381
▁사춘기	-11.9381
▁황태	-11.9381
▁👀	-11.9381
▁즈음	-11.9381
듀	-11.9386
▁찬양	-11.9387
▁놀리	-11.9388
▁sp	-11.9391
▁쌩	-11.9392
▁모였	-11.9393
▁FC	-11.9398
▁강남역	-11.9398
▁관습	-11.9399
▁재학	-11.9402
▁유비	-11.9402
▁어려우	-11.9403
▁헤매	-11.9403
MA	-11.9404
▁저주	-11.9405
▁내놔	-11.9408
▁이재명	-11.941
▁이재용	-11.941
▁귀걸이	-11.9416
▁여름철	-11.9423
▁캐스팅	-11.9423
▁청바지	-11.9423
▁탄압	-11.9425
준다	-11.9427
▁정문	-11.9428
水	-11.943
▁아까워	-11.9431
겠	-11.9433
▁볼려고	-11.9434
쿵	-11.9436
▁디스플레이	-11.9437
▁상점	-11.9444
▁어휘	-11.9444
▁귓	-11.9445
▁복장	-11.9448
▁감축	-11.9449
▁레이저	-11.9456
▁소신	-11.9459
tu	-11.946
▁훨	-11.9462
▁엇갈	-11.9464
▁펼쳤	-11.9466
뭄	-11.9466
▁넘어갔	-11.9466
▁여의	-11.947
▁레이스	-11.9471
▁실버	-11.9474
dy	-11.9476
▁탐색	-11.9479
▁숏	-11.948
▁어려서	-11.9481
▁유족	-11.9484
대교	-11.9486
氣	-11.9487
▁밀크	-11.9488
▁팬티	-11.9489
▁특혜	-11.9489
▁경관	-11.9493
▁튜	-11.9495
▁강세	-11.9501
▁코엑스	-11.9501
▁코끼리	-11.9501
▁해장국	-11.9502
▁포로	-11.9505
▁벌리	-11.951
▁허물	-11.951
▁foodie	-11.951
▁전송	-11.9511
▁마술	-11.9512
▁연구자	-11.9515
븐	-11.9516
▁기술력	-11.9517
▁흉내	-11.9519
▁시력	-11.952
時	-11.9523
갘	-11.9523
▁76	-11.9523
▁동북아	-11.9525
▁실상	-11.9527
트리트	-11.953
▁추격	-11.953
▁횡단	-11.9533
▁일억	-11.9533
▁다큐멘터리	-11.9537
▁특강	-11.9537
▁주먹밥	-11.9538
▁쾌적	-11.9539
▁9000	-11.9539
▁어지러	-11.9539
▁목살	-11.9539
▁어두워	-11.9548
▁느껴진다	-11.955
???	-11.955
▁막판	-11.9551
▁부합	-11.9553
▁강동	-11.9557
▁압수수색	-11.9558
▁註	-11.9561
▁반짝	-11.9562
▁용이	-11.9563
end	-11.9564
▁열받	-11.9565
▁창립	-11.9565
▁까페	-11.9565
▁어딘지	-11.9566
▁좋아해	-11.9567
▁1950	-11.9567
▁재즈	-11.957
▁질리	-11.9571
▁플랜	-11.9572
▁스파게티	-11.9573
▁생크림	-11.9573
▁박혀	-11.9573
▁엇다	-11.9575
룸	-11.9576
▁매월	-11.9577
▁마리아	-11.9579
經	-11.958
▁Press	-11.958
▁반죽	-11.9581
▁건강식	-11.9582
무실	-11.9583
▁소독	-11.9583
▁분담	-11.9583
SS	-11.9586
끗	-11.9586
gr	-11.959
▁신탁	-11.9598
▁극한	-11.96
같	-11.9601
▁인삼	-11.9601
▁항구	-11.9605
▁원비	-11.9605
▁원했	-11.9605
ᅲᅲ	-11.9607
뜩	-11.9607
▁대중교통	-11.9609
▁햇볕	-11.9609
▁효능	-11.961
▁엄빠	-11.961
▁사당	-11.9611
▁요것	-11.9611
앉	-11.9612
▁뱅크	-11.9612
▁암살	-11.9614
▁이루어져	-11.9614
▁여보세요	-11.9616
▁앞쪽	-11.9618
▁※	-11.9619
▁.........	-11.962
▁벼슬	-11.9624
▁막말	-11.9625
▁사모	-11.9625
▁카이	-11.9628
▁할려면	-11.9628
▁금연	-11.963
▁아세요	-11.9631
▁내재	-11.9634
▁손길	-11.9635
ord	-11.9635
▁행성	-11.9637
▁전두환	-11.9637
▁페북	-11.9641
▁블리	-11.9641
▁윤기	-11.9643
▁공복	-11.9643
▁우회	-11.9644
▁날카로운	-11.9645
▁섞인	-11.9645
▁신년	-11.9647
▁실재	-11.9649
▁잠자리	-11.965
▁휩싸	-11.9652
▁파격	-11.9652
▁사설	-11.9653
떠	-11.9654
ba	-11.9655
곳	-11.9658
▁한다며	-11.9658
▁알아들	-11.9662
라이트	-11.9665
▁캐슬	-11.9665
▁드러낸	-11.9665
▁아메리카	-11.9665
▁괌	-11.9666
▁사제	-11.9668
▁깜	-11.9672
▁미학	-11.9672
▁갈려고	-11.9673
▁심했	-11.9674
▁도무지	-11.9676
▁맞음	-11.9678
▁나눠서	-11.9678
▁복무	-11.9682
▁금호	-11.9685
▁변호인	-11.9685
▁급속	-11.9687
▁주저앉	-11.9688
▁개조	-11.9689
▁떨어진다	-11.9693
▁녜	-11.97
▁윽	-11.97
▁번개	-11.9701
▁내보내	-11.9702
77	-11.9703
▁실까요	-11.9703
▁🤭	-11.9703
▁위쪽	-11.9705
▁나온다고	-11.9706
▁우체국	-11.9717
▁전라도	-11.9717
▁써요	-11.9719
▁늠	-11.9719
스틴	-11.972
▁응급	-11.972
▁싸운	-11.9721
▁냠	-11.9724
▁설화	-11.9726
▁명회	-11.9727
네스	-11.9727
▁환경부	-11.9731
use	-11.9733
▁스쳐	-11.9737
▁워시	-11.9737
▁naver	-11.9739
▁;;;	-11.9741
les	-11.9743
▁청탁	-11.9743
▁쫓겨	-11.9743
▁놀래	-11.9744
▁약정	-11.9748
rist	-11.975
▁제휴	-11.9752
▁클리	-11.9752
▁⠀⠀⠀	-11.9753
▁어떠세요	-11.9754
▁北	-11.9754
+	-11.9754
▁갯	-11.9755
▁키친	-11.9756
▁할걸	-11.9757
▁절로	-11.976
▁드래곤	-11.9761
▁위임	-11.9762
▁no	-11.9762
ite	-11.9765
나물	-11.9767
▁마음속	-11.9768
▁이해관계	-11.9768
▁제자리	-11.9769
▁센서	-11.9769
▁거둔	-11.9769
▁정신없	-11.9772
▁달했	-11.9775
덴	-11.9776
▁검거	-11.9777
▁드루	-11.9782
▁연고	-11.9782
▁당뇨병	-11.9785
ook	-11.9787
▁돔	-11.9788
▁나왔었	-11.9789
ical	-11.9789
▁수납	-11.9792
▁알람	-11.9793
▁풍미	-11.9793
化	-11.9797
▁수년	-11.9798
▁엘지	-11.9798
▁CD	-11.9798
`	-11.9799
▁죽일	-11.98
▁곡선	-11.98
▁수월	-11.9803
▁외교부	-11.9804
▁숯불	-11.9805
▁경위	-11.9807
▁뭘까	-11.9809
▁일러	-11.981
▁也	-11.981
▁상단	-11.981
▁차이점	-11.9811
▁무수	-11.9811
▁버려서	-11.9813
▁척추	-11.9813
▁양주	-11.9814
▁실존	-11.9814
▁연이	-11.9815
▁81	-11.9815
쾅	-11.9819
산동	-11.9822
cal	-11.9823
괄	-11.9826
▁곀ᄏᄏᄏᄏ	-11.9827
▁휴게소	-11.9827
年	-11.9827
▁무서웠	-11.9827
▁지검	-11.9829
▁초록색	-11.9836
ye	-11.9841
▁소프트	-11.9841
▁환승	-11.9844
▁동성	-11.9846
▁산거	-11.9847
시스	-11.9848
▁콜라겐	-11.9849
▁동방	-11.985
▁불타	-11.9851
▁볼륨	-11.9851
ny	-11.9854
▁열풍	-11.9854
▁물놀	-11.9857
▁발령	-11.9857
▁게이트	-11.986
▁뚱뚱	-11.9864
▁캡쳐	-11.9865
찍	-11.9865
OC	-11.9866
▁위법	-11.987
▁처한	-11.9871
▁키보드	-11.9871
▁자켓	-11.9875
▁쌉	-11.9876
▁화두	-11.9879
▁사이다	-11.988
▁87	-11.9885
▁마녀	-11.9887
aw	-11.9887
▁노란색	-11.9888
▁이어진	-11.9888
▁포르	-11.9892
넬	-11.9894
▁낙찰	-11.9895
▁골랐	-11.9897
▁급격히	-11.9897
▁잊혀	-11.9897
▁전액	-11.9899
정부	-11.9899
▁올까	-11.9901
▁노총	-11.9901
be	-11.9902
▁금세	-11.9903
▁혼나	-11.9903
르케	-11.9904
▁부드러워	-11.9908
믹	-11.9908
▁이루어질	-11.9909
▁병역	-11.9913
▁民	-11.9913
▁노잼	-11.9916
▁팔월	-11.9916
▁수염	-11.9916
▁코믹	-11.9917
▁렛	-11.9918
▁차마	-11.9919
▁럴	-11.9919
▁입체	-11.9919
▁조식	-11.9921
▁86	-11.9922
▁06	-11.9922
▁교역	-11.9922
▁애쓰	-11.9923
▁이순신	-11.9924
▁물어본	-11.9924
▁차질	-11.9924
아버지	-11.9929
▁넘나	-11.993
▁청담	-11.9931
▁노년	-11.9932
▁두뇌	-11.9933
▁재직	-11.9933
▁아부지	-11.9934
▁소집	-11.9935
▁공영	-11.9939
▁성별	-11.9943
▁곰돌이	-11.9945
▁횡령	-11.9946
▁배신감	-11.995
▁누릴	-11.995
▁남북한	-11.9952
▁Me	-11.9952
▁배후	-11.9953
▁회상	-11.9955
▁따돌	-11.9958
▁해수욕장	-11.996
▁事	-11.996
▁습득	-11.9961
▁증오	-11.9962
넨	-11.9962
▁처장	-11.9967
life	-11.9969
▁쟝	-11.997
▁배고파서	-11.9974
▁깍	-11.9979
▁원숭이	-11.9982
▁테라	-11.9985
▁넝	-11.9988
꼈	-11.9988
fl	-11.9992
▁예뻐서	-11.9995
▁93	-11.9996
▁패밀리	-11.9997
PT	-11.9998
▁비우	-11.9999
▁발주	-11.9999
▁차갑	-12
▁불황	-12.0001
▁부산시	-12.0002
▁새댁	-12.0005
▁경유	-12.0007
▁태양광	-12.0008
▁**	-12.0009
ure	-12.0009
▁후손	-12.0012
꾼	-12.0012
▁어젯밤	-12.0012
▁🙊	-12.0013
▁유가족	-12.0013
▁히로	-12.0014
▁마일	-12.0017
▁눈동자	-12.002
▁부친	-12.0021
▁혼밥	-12.0024
▁격렬	-12.003
▁카르	-12.003
▁힌	-12.0031
▁준공	-12.0032
▁허구	-12.0032
▁진압	-12.0035
▁즉석	-12.0036
▁여행지	-12.0038
▁취할	-12.004
▁압축	-12.0044
▁1986	-12.0044
▁테니스	-12.0045
▁꺼지	-12.0048
▁대본	-12.0048
▁톨	-12.0052
▁멘탈	-12.0059
▁요한	-12.0062
▁열악	-12.0063
▁폭염	-12.0063
▁청량	-12.0067
▁역학	-12.0068
▁압구정	-12.0073
▁냉전	-12.0077
▁공론	-12.0079
▁한겨레	-12.008
▁달라요	-12.0083
▁모던	-12.0084
▁두껍	-12.0086
▁뷰스타	-12.0089
▁속한	-12.0089
▁빌라	-12.0091
▁칠월	-12.0093
▁둔다	-12.0094
▁중산	-12.0094
▁전락	-12.0095
▁바늘	-12.0095
랩	-12.0098
▁모방	-12.0099
▁유령	-12.01
▁명목	-12.0101
▁댕댕이	-12.0103
ple	-12.0103
▁명확히	-12.0104
ake	-12.0108
▁칵테일	-12.011
▁넘겼	-12.0116
▁왕따	-12.0117
▁원금	-12.0118
▁통행	-12.0119
▁기득	-12.0122
▁instagood	-12.0125
長	-12.0125
▁폭넓	-12.0126
▁마져	-12.0126
▁Mar	-12.0127
▁Li	-12.0129
▁장기간	-12.013
▁입국	-12.0131
▁자회사	-12.0133
▁방영	-12.0135
▁강물	-12.0138
▁사직	-12.0139
▁훗날	-12.0141
▁희미	-12.0144
▁맴	-12.0145
앗	-12.0145
▁파동	-12.0145
▁지상파	-12.0146
콰	-12.0148
ᄆ	-12.0152
▁마차	-12.0152
▁페르	-12.0154
ame	-12.0155
成	-12.0156
▁헷	-12.0156
▁직구	-12.0156
▁구로	-12.0158
▁an	-12.0158
▁진다고	-12.0158
▁동포	-12.0159
▁밸	-12.0161
▁렌지	-12.0163
▁획기	-12.0164
▁풍선	-12.0164
▁dieter	-12.0165
▁구마	-12.0166
bu	-12.0166
▁려다	-12.0169
▁산출	-12.0171
yo	-12.0172
▁의논	-12.0172
▁we	-12.0173
76	-12.0174
▁우드	-12.0175
▁흘러내	-12.0175
▁결과물	-12.0176
▁시너지	-12.0179
▁모른다고	-12.0179
▁유망	-12.018
써	-12.0182
▁친근	-12.0182
▁무튼	-12.0185
▁십이월	-12.0186
▁140	-12.0187
▁장거리	-12.0187
▁합작	-12.0189
▁열흘	-12.0189
▁내버려	-12.0194
▁산다는	-12.02
▁국무총리	-12.0202
▁성폭력	-12.0202
▁순이익	-12.0202
린데	-12.0202
▁금강산	-12.0203
act	-12.0204
▁큐브	-12.0205
▁메세지	-12.0209
▁축산	-12.0209
▁챌	-12.021
▁놧	-12.0211
▁시립	-12.0211
▁드문	-12.0212
▁실로	-12.0213
▁남구	-12.0216
륵	-12.0217
▁반납	-12.0218
▁내쉬	-12.022
▁볼거리	-12.022
▁후퇴	-12.0223
02	-12.0224
▁헨리	-12.0225
▁견뎌	-12.0225
▁챙겼	-12.0225
▁160	-12.0226
▁其	-12.0226
▁연합회	-12.0228
▁생전	-12.023
▁알차	-12.0231
▁큼	-12.0231
▁홍수	-12.0232
ki	-12.0232
▁다니엘	-12.0233
▁방탄	-12.0233
NG	-12.0234
▁83	-12.0238
▁선동	-12.0242
▁현대인	-12.0244
▁알파	-12.0244
▁캡슐	-12.0247
▁수첩	-12.025
▁틀림없이	-12.0251
▁자존	-12.0251
▁양측	-12.0255
딧	-12.0255
▁동갑	-12.0256
▁선제	-12.0257
▁상정	-12.0261
▁아티스트	-12.0263
▁허공	-12.0268
▁Se	-12.0269
▁생후	-12.027
▁마나	-12.027
띤	-12.027
▁단행	-12.0271
▁땡큐	-12.0271
▁Be	-12.0272
▁단단히	-12.0276
▁항암	-12.0277
▁그람	-12.0277
▁잇따라	-12.0278
▁보좌관	-12.0278
▁가늠	-12.0279
▁목회	-12.0279
▁혈당	-12.028
▁파란색	-12.028
▁스푼	-12.0281
▁뭘로	-12.0281
▁김혜	-12.0282
▁품격	-12.0283
▁강좌	-12.0286
▁공대	-12.0286
▁읍니다	-12.0287
▁임용	-12.0288
▁청결	-12.0291
쥬	-12.0291
▁휩쓸	-12.0294
▁유세	-12.0294
▁컴백	-12.0297
old	-12.0297
▁문신	-12.0298
67	-12.03
▁손잡이	-12.03
▁₩	-12.0301
av	-12.0304
▁번갈	-12.0309
▁내려다보	-12.0309
eo	-12.0309
▁커튼	-12.0313
▁우상	-12.0316
▁정정	-12.0317
▁1985	-12.0319
94	-12.0329
려구	-12.033
▁니까는	-12.0333
치우	-12.0335
▁플레이스	-12.0336
南	-12.034
괘	-12.034
▁쌀쌀	-12.034
▁언능	-12.0342
gu	-12.0343
▁유신	-12.0344
▁조현	-12.0344
▁반팔	-12.0348
▁탈퇴	-12.035
69	-12.0355
▁걸린다	-12.0356
▁대담	-12.0357
▁출력	-12.0358
=	-12.0361
▁챌린지	-12.0363
▁화분	-12.0363
▁프로세스	-12.0371
▁유자	-12.0375
▁발간	-12.0377
▁학살	-12.038
▁랭킹	-12.038
DA	-12.0381
▁초고	-12.039
▁욕실	-12.0391
▁토핑	-12.0391
▁꿔	-12.0392
▁아쿠아	-12.0394
▁마포	-12.0395
▁깨끗이	-12.0395
레이션	-12.0395
RT	-12.0396
▁메가	-12.0397
▁응모	-12.0398
▁관건	-12.0398
sy	-12.0398
▁爲	-12.04
so	-12.0408
▁변비	-12.0409
▁외로워	-12.041
▁연재	-12.0413
▁사업장	-12.0414
▁小	-12.0414
▁인싸	-12.0415
▁권하	-12.0417
▁일찍이	-12.0417
記	-12.0418
▁뽀뽀	-12.0418
▁즐거웠	-12.0418
100	-12.042
▁도지사	-12.0421
▁앜ᄏᄏ	-12.0421
▁끌어내	-12.0423
▁선글라스	-12.0425
▁갔다왔	-12.0425
▁들어섰	-12.0426
▁지저분	-12.0426
▁쓰러져	-12.0426
▁셰프	-12.0428
▁학년도	-12.0428
▁09	-12.0428
▁형부	-12.0432
▁정류장	-12.0433
▁🙈	-12.0434
▁나선다	-12.0437
냅니다	-12.0437
꿍	-12.0441
▁비워	-12.0451
▁파산	-12.0451
▁꺼져	-12.0453
▁論	-12.046
▁판매량	-12.046
▁적폐	-12.0462
▁석사	-12.0462
▁경상	-12.0463
▁올게	-12.0463
о	-12.0465
▁전방	-12.0466
▁멋져	-12.0467
또	-12.0471
▁캘	-12.0473
▁쩝	-12.0474
▁세심	-12.0478
▁걸맞	-12.0478
꺽	-12.048
훼	-12.048
▁올라서	-12.0482
린다는	-12.0486
ᅲᅲᅲ	-12.0488
▁스냅	-12.0489
▁원만	-12.0489
▁가벼워	-12.049
▁사생활	-12.0492
▁임의	-12.0493
▁충전기	-12.0495
▁공백	-12.0497
▁노동부	-12.0502
▁분유	-12.0502
ran	-12.0503
ting	-12.0504
▁절제	-12.0506
▁콜레스테롤	-12.0512
▁문인	-12.0517
▁스틸	-12.0517
▁몸살	-12.0518
▁발의	-12.0527
▁라곤	-12.0527
▁넥센	-12.0528
▁실전	-12.0528
▁중견	-12.053
▁직선	-12.0532
▁건축물	-12.0532
▁정년	-12.0535
▁죄인	-12.0542
맷	-12.0543
헹	-12.0543
▁91	-12.0544
▁배불러	-12.0544
▁가로막	-12.0545
▁오줌	-12.0549
▁우월	-12.0549
▁갑질	-12.0551
획	-12.0551
og	-12.0551
구나	-12.0552
▁챙겨야	-12.0552
▁명소	-12.0553
▁냉동실	-12.0555
▁생소	-12.0558
▁알려준	-12.0559
▁기꺼이	-12.0559
▁러쉬	-12.0561
▁산뜻	-12.0561
▁김선	-12.0563
▁역동	-12.0563
▁숨겨진	-12.0568
▁와플	-12.0569
▁요금제	-12.057
▁더러운	-12.0571
▁얼룩	-12.0571
▁자막	-12.0574
▁PR	-12.0575
▁부대찌개	-12.0575
▁태연	-12.0575
▁법령	-12.0576
ning	-12.0578
46	-12.0579
▁어쩌구	-12.058
▁요령	-12.0582
下	-12.0583
▁달력	-12.0585
▁근력	-12.0585
▁믹	-12.0586
▁강정	-12.0588
▁출자	-12.0589
▁소니	-12.059
▁베를린	-12.0591
▁가져올	-12.0593
▁이뤄졌	-12.0594
▁자분	-12.0595
숯	-12.0599
쑤	-12.0599
▁오토	-12.0601
▁머물러	-12.0603
TO	-12.0605
▁괜차나	-12.0607
▁아싸	-12.0607
거든	-12.0608
▁석탄	-12.0609
▁연하	-12.061
▁겨울철	-12.0613
▁자립	-12.0616
▁경전	-12.0618
▁출제	-12.0618
▁까만	-12.0619
▁로버트	-12.0623
▁따름	-12.0624
▁商	-12.0625
섯	-12.0627
▁여겼	-12.0628
봅	-12.063
事	-12.0631
▁😢	-12.0631
con	-12.0631
▁사거리	-12.0633
▁高	-12.0638
▁맞은편	-12.0639
▁동사	-12.0639
▁종족	-12.0641
제서야	-12.0643
▁do	-12.0643
▁청중	-12.0644
▁청정	-12.0645
ah	-12.0646
海	-12.0647
▁늑대	-12.0647
▁양해	-12.0647
▁메디	-12.0648
ree	-12.065
96	-12.0653
▁마르크스	-12.0654
▁달한다	-12.0657
▁극심	-12.066
렘	-12.0662
▁살아왔	-12.0663
▁사업비	-12.0663
▁외곽	-12.0663
▁언서	-12.0665
▁몰락	-12.0671
놓고	-12.0671
▁🌿	-12.0672
▁아래쪽	-12.0672
▁특별법	-12.0674
▁연루	-12.0675
▁민속	-12.0679
▁집합	-12.0679
▁쪼개	-12.0685
▁찰떡	-12.0687
▁힙합	-12.0687
▁코스피	-12.0688
▁센치	-12.0691
셜	-12.0691
▁갱년기	-12.0695
▁퉁	-12.0696
sp	-12.0697
▁!!!!!!!	-12.0697
▁내려왔	-12.07
▁관계없이	-12.07
뚱	-12.0702
▁백악관	-12.0703
▁디엠	-12.0706
▁재주	-12.0708
▁캘리포니아	-12.0711
▁차선	-12.0716
▁둬야	-12.0718
훌	-12.0719
▁시상식	-12.0719
▁레오	-12.0727
▁기원전	-12.0728
▁실컷	-12.0729
▁처형	-12.0731
▁실명	-12.0731
▁알아차	-12.0733
▁캉	-12.0733
▁제왕	-12.0734
制	-12.0735
▁덩치	-12.0738
▁해낼	-12.0741
▁찹	-12.0741
맡	-12.0744
▁잔잔	-12.0748
▁보컬	-12.0748
▁환호	-12.0748
▁아울렛	-12.0751
▁산업단지	-12.0751
▁메이커	-12.0752
▁Pr	-12.0753
▁구슬	-12.0753
▁판례	-12.0753
놨	-12.0755
▁조장	-12.0756
▁국군	-12.0757
▁문단	-12.0757
▁시럽	-12.0758
▁높일	-12.0759
▁창가	-12.0759
▁포트폴리오	-12.0759
▁대사관	-12.0765
▁엑소	-12.0766
▁손잡	-12.0766
▁블로거	-12.0767
▁뒤져	-12.077
▁원단	-12.0773
▁난다고	-12.0774
▁문체	-12.0774
멈	-12.0775
▁텀블러	-12.0775
♥	-12.0776
늬	-12.0778
▁이루어진다	-12.0779
▁生	-12.078
▁찌르	-12.0782
▁자책	-12.0782
▁핵무기	-12.0783
▁목동	-12.0784
▁생리대	-12.0786
▁🐷	-12.0791
▁동아일보	-12.0791
▁선장	-12.0794
▁화질	-12.0796
▁봇	-12.0798
▁접목	-12.0802
700	-12.0804
▁바꿔서	-12.0804
▁LA	-12.0806
▁바빴	-12.0808
▁동성애	-12.0808
▁일제히	-12.0809
▁pet	-12.0813
▁건드리	-12.0815
▁베드	-12.0816
🏼	-12.0816
▁벗어난	-12.0816
▁스팸	-12.0816
▁Mo	-12.082
제품	-12.0821
▁문항	-12.0822
▁인천시	-12.0823
어넣	-12.0824
▁늦잠	-12.0826
▁블레	-12.0829
▁제형	-12.0832
敎	-12.0832
▁유병언	-12.0832
▁아앙	-12.0832
▁반하	-12.0832
▁통째	-12.0833
▁대권	-12.0837
▁Sh	-12.0837
bi	-12.0838
▁동상	-12.0838
▁실리콘	-12.084
▁디제이	-12.084
▁항해	-12.084
▁나눴	-12.0843
▁편할	-12.0845
어설	-12.0846
▁여럿	-12.0848
▁😄	-12.0848
▁제국주의	-12.0851
▁잡아먹	-12.0853
째	-12.0856
▁토록	-12.086
▁오케	-12.086
▁하여간	-12.0865
▁농단	-12.0873
▁앜ᄏᄏᄏᄏᄏᄏ	-12.0879
▁판문점	-12.0881
▁가맹점	-12.0881
▁인건비	-12.0881
▁레저	-12.0883
▁세로	-12.0885
▁교도소	-12.0889
▁효소	-12.089
▁엌ᄏᄏᄏᄏᄏ	-12.0896
tic	-12.0896
▁다가와	-12.0897
▁감격	-12.0897
▁선거법	-12.0899
▁절정	-12.0899
▁배수	-12.0901
▁드린다	-12.0901
ka	-12.0903
▁行	-12.0903
▁;;;;	-12.0903
▁정반대	-12.0905
▁범죄자	-12.0906
▁백신	-12.0907
▁작곡가	-12.0915
찜	-12.0915
▁켈	-12.0917
▁골라서	-12.0921
▁던가요	-12.0921
포트	-12.0922
첸	-12.0922
▁류현진	-12.0922
▁침투	-12.0928
▁왼손	-12.093
▁프란	-12.0932
▁임대료	-12.0933
ou	-12.0934
▁!!!!!!!!!	-12.0936
▁동문	-12.0938
▁베이커리	-12.0946
▁쇄	-12.0948
▁숩	-12.0952
▁서랍	-12.0952
▁재촉	-12.0953
SC	-12.0953
▁광대	-12.0953
style	-12.0955
▁추경	-12.0956
▁리어	-12.0957
▁태그	-12.0957
▁알맞	-12.0961
짭	-12.0963
▁그랜드	-12.0964
▁외워	-12.0964
▁공연장	-12.0965
▁뜯어	-12.0967
▁산물	-12.0971
CO	-12.0974
▁곁들여	-12.0975
▁정우	-12.0975
▁발자국	-12.0979
▁쇄신	-12.0982
▁cat	-12.0983
▁슬림	-12.0983
▁쓸모	-12.0984
▁야야야	-12.0986
▁무거	-12.0987
▁망할	-12.0989
▁셔틀	-12.0991
뚜	-12.0991
▁깨달음	-12.0992
▁용납	-12.0994
▁국한	-12.0995
▁코스닥	-12.0998
▁하이브리드	-12.1004
▁전교조	-12.1004
▁😝	-12.1004
회의	-12.1005
▁NC	-12.1009
▁입점	-12.101
▁동요	-12.1011
▁1984	-12.1012
▁여배우	-12.1013
▁송금	-12.1014
▁토하	-12.1016
▁연락처	-12.1018
▁돌아와서	-12.1019
▁블루투스	-12.1021
▁동호회	-12.1021
▁개강	-12.1022
▁입각	-12.1022
▁조교	-12.1023
▁슬기	-12.1024
▁박정	-12.1026
▁법무	-12.1028
쏜	-12.1029
▁경영진	-12.1029
▁흘렸	-12.1031
▁칼럼	-12.1032
ib	-12.1035
▁침몰	-12.1039
▁내다보	-12.104
▁집필	-12.1042
▁所	-12.1042
▁뭘까요	-12.1043
릴까	-12.1044
▁도깨비	-12.1046
푼	-12.1046
▁GM	-12.1046
▁깃발	-12.1048
▁배포	-12.1052
cle	-12.1053
▁신음	-12.1056
▁잠재력	-12.1059
▁파인애플	-12.1062
▁승무원	-12.1062
▁대법관	-12.1062
▁관람객	-12.1063
▁트라	-12.1072
▁눙	-12.1075
▁배움	-12.1075
▁검색어	-12.1076
q	-12.1078
▁제게	-12.1078
테르	-12.108
겸	-12.1083
▁"......."	-12.1087
▁발송	-12.1087
▁박차	-12.1091
▁환장	-12.1095
▁후쿠오카	-12.1096
▁다닌다	-12.1097
▁이뤄진	-12.1098
▁강남구	-12.1099
▁다는데요	-12.1101
▁궁합	-12.1101
▁불려	-12.1102
▁코팅	-12.1104
▁가로수길	-12.1104
쪘	-12.1104
▁차세대	-12.1104
▁돈가스	-12.1104
페이	-12.1108
▁신문사	-12.111
▁팝콘	-12.1113
▁ᅡᅡ	-12.1113
▁으으	-12.1114
▁공감대	-12.1115
▁올레	-12.1121
▁수육	-12.1122
▁同	-12.1122
▁묘한	-12.1123
▁무능	-12.1128
▁배고픈	-12.1129
▁살펴본	-12.113
▁접종	-12.1132
ade	-12.1132
net	-12.1132
▁메모리	-12.1133
ES	-12.1133
▁理	-12.1134
톰	-12.1134
▁슐	-12.1137
▁폴란드	-12.1137
쩌	-12.1139
▁쾌락	-12.1139
73	-12.1139
▁사법부	-12.114
▁해답	-12.1145
▁개체	-12.1145
▁칼슘	-12.1146
▁커질	-12.1146
▁낮춰	-12.1149
랫	-12.1151
▁잡혔	-12.1151
▁버려진	-12.1154
▁받아들였	-12.1154
▁자각	-12.1158
▁후임	-12.1162
▁처해	-12.1163
▁적절히	-12.1163
▁초라	-12.1164
▁썽	-12.1167
▁합당	-12.1168
▁🙄	-12.1172
닷	-12.1176
ock	-12.1178
▁엊그제	-12.1179
▁구했	-12.1185
▁할까봐	-12.1187
▁움직였	-12.1188
뮬	-12.1188
▁뎈ᄏᄏᄏ	-12.1188
▁인접	-12.1192
▁세븐	-12.1194
▁찬물	-12.1196
▁존버	-12.1196
▁증후군	-12.1196
▁대한항공	-12.1196
▁달빛	-12.1198
보내	-12.1199
▁°	-12.1202
▁으악	-12.1205
▁서브	-12.1207
▁걸러	-12.1211
▁백작	-12.1211
다르	-12.1211
▁남다른	-12.1213
릭스	-12.1213
▁강호	-12.1213
▁왕실	-12.1215
▁각별	-12.1215
▁Br	-12.1217
▁총무	-12.1218
의원	-12.1221
▁이윽고	-12.1222
꿀	-12.1222
▁교시	-12.1223
▁욕설	-12.1225
▁아픈데	-12.1226
▁모듬	-12.1227
▁채팅	-12.1229
世	-12.123
▁petstagram	-12.123
▁챙길	-12.1232
▁정경	-12.1234
쓴	-12.1235
▁팔찌	-12.1237
▁닭강정	-12.1239
▁유니폼	-12.1239
▁체온	-12.1239
▁바울	-12.1239
▁우대	-12.124
▁틈새	-12.1241
▁튀겨	-12.1242
▁온다는	-12.1243
▁파파	-12.1244
▁반항	-12.1244
▁뭉치	-12.1244
▁계몽	-12.1245
▁말레이시아	-12.1247
體	-12.1247
pt	-12.1248
▁산타	-12.1251
▁붙들	-12.1254
▁두근두근	-12.1256
▁육상	-12.126
▁산다고	-12.126
▁엌ᄏᄏ	-12.1261
▁샐	-12.1263
▁라던데	-12.1264
▁알레르기	-12.1273
▁유모차	-12.1273
버린	-12.1273
으므로	-12.1278
▁업소	-12.1279
▁밸런스	-12.1281
▁살아나	-12.1281
▁오름	-12.1285
붓	-12.1286
펙	-12.1287
▁Al	-12.1289
▁귀요미	-12.129
▁난이도	-12.129
▁줘라	-12.1291
▁급등	-12.1295
▁익명	-12.1296
▁느껴질	-12.1296
▁모레	-12.1297
▁뎁	-12.1298
▁클린턴	-12.1298
▁입혀	-12.13
▁포트	-12.1302
▁교토	-12.1305
▁실점	-12.1306
tor	-12.1307
▁*********	-12.1307
名	-12.1307
▁세입자	-12.1307
▁컵라면	-12.1307
▁응급실	-12.1309
▁속삭	-12.1312
▁친화	-12.1312
바르	-12.1312
▁캄	-12.1313
▁닭고기	-12.1315
▁스윙	-12.1316
▁총수	-12.1316
▁Ro	-12.1318
▁월남	-12.1328
▁산행	-12.1329
Z	-12.1329
▁염소	-12.133
▁소아	-12.1331
▁양념장	-12.1332
▁십일월	-12.1332
▁어느덧	-12.1333
▁상향	-12.1333
▁문예	-12.1336
▁놨다	-12.1336
쭈	-12.1338
툰	-12.1341
74	-12.1341
▁졍	-12.1344
▁쩜	-12.1344
▁학계	-12.1349
軍	-12.1349
▁갈아타	-12.1349
▁용감	-12.135
▁조림	-12.1351
▁교리	-12.1352
;;;	-12.1355
눌	-12.1357
▁결핍	-12.1358
▁양복	-12.1359
▁미흡	-12.136
▁경쟁자	-12.1361
빨	-12.1363
▁우우	-12.1363
뜬	-12.1364
OT	-12.1365
▁배낭	-12.1367
▁시간표	-12.1369
싫어하	-12.1369
▁건너편	-12.1369
▁항복	-12.1371
얀	-12.1374
▁알라딘	-12.1375
▁꼬막	-12.1375
▁박탈	-12.1377
▁양극	-12.1379
▁따듯	-12.1379
퉁	-12.1382
▁다시금	-12.1383
▁반가워	-12.1385
평균	-12.1386
▁근접	-12.1386
밀히	-12.1387
▁뭉쳐	-12.1389
▁메달	-12.139
▁본문	-12.1392
▁벌여	-12.1392
▁최우선	-12.1392
▁종북	-12.1393
▁흩어	-12.1393
▁💓	-12.1394
▁쫀득	-12.1401
▁망한	-12.1401
▁으라는	-12.1402
▁갈라고	-12.1406
▁정적	-12.1407
▁나타냈	-12.1409
▁악수	-12.1411
▁☞	-12.1412
▁꾹	-12.1414
▁삼계탕	-12.1418
oy	-12.1423
▁파헤	-12.1425
▁장학	-12.1427
▁오디션	-12.1427
83	-12.1427
▁잠옷	-12.143
▁크으	-12.143
굽	-12.1433
톨	-12.1433
▁재해	-12.1434
▁주유소	-12.1436
▁독립운동	-12.1436
▁요란	-12.1443
▁통역	-12.1443
▁줄거리	-12.1443
rit	-12.1446
닉스	-12.1449
▁보답	-12.1451
▁선착순	-12.1453
듦	-12.1453
▁성추행	-12.1453
▁갬	-12.1453
▁뱃속	-12.1454
▁地	-12.1459
▁놀랄	-12.1459
꿈	-12.146
▁동인	-12.146
▁"...	-12.146
▁구청장	-12.1461
▁바베큐	-12.1461
▁대꾸	-12.1463
ach	-12.1465
쩡	-12.1469
▁묵직	-12.1472
▁감자탕	-12.1472
▁손주	-12.1472
go	-12.1474
▁김준	-12.1476
▁~~~~~~~	-12.1477
▁정형	-12.1477
▁마땅히	-12.1477
▁오스트리아	-12.1479
▁열릴	-12.1479
▁비만	-12.1481
▁볼링	-12.1482
▁응답자	-12.1482
81	-12.1483
낮	-12.1484
벤	-12.1486
달라붙	-12.1486
▁타고난	-12.1487
▁공조	-12.1488
▁후추	-12.1494
▁클라우드	-12.1496
▁계란찜	-12.1496
▁날카	-12.1497
ef	-12.15
▁->	-12.1504
▁온전히	-12.1505
▁소개서	-12.1505
▁사모님	-12.1505
▁배구	-12.1506
▁밀양	-12.1506
▁헌재	-12.1509
▁액정	-12.1511
▁한껏	-12.1515
▁종결	-12.1518
댄	-12.1521
▁프로모션	-12.1522
▁근심	-12.1522
▁正	-12.1523
▁폭포	-12.1523
▁1930	-12.1524
▁환전	-12.1526
▁뜨거워	-12.1531
▁쉐이크	-12.1531
▁재정부	-12.1531
▁앤드	-12.1535
▁낙관	-12.1542
▁매달려	-12.1542
▁제압	-12.1542
나갔	-12.1545
▁政	-12.1546
▁진열	-12.1549
▁액체	-12.1549
▁용병	-12.155
▁어떨	-12.1553
▁왕비	-12.1554
▁김종인	-12.1554
200	-12.1555
▁연세	-12.1559
▁감찰	-12.1561
▁찬스	-12.1562
▁벌떡	-12.1563
▁고속도	-12.1563
▁경지	-12.1566
▁부끄러운	-12.1566
넉	-12.1566
▁야무지	-12.1567
▁실례	-12.1568
BA	-12.1569
▁결함	-12.1574
▁백억	-12.1574
보였	-12.1579
▁입문	-12.158
▁실린	-12.1582
▁차근차근	-12.1583
▁가져갔	-12.1585
▁외로운	-12.1586
▁리코	-12.1588
▁유능	-12.1589
▁망해	-12.159
▁York	-12.1592
▁세례	-12.1597
▁누룽지	-12.1601
▁오메가	-12.1601
ug	-12.1602
▁스타트	-12.1605
▁유대인	-12.1606
▁생산량	-12.1607
▁뉴질랜드	-12.161
▁당선인	-12.1613
IP	-12.1613
▁영하	-12.1616
뻤	-12.1618
▁롯데월드	-12.1618
▁가급적	-12.1619
▁내려온	-12.1621
▁Ar	-12.1622
res	-12.1623
ial	-12.1624
book	-12.1625
쫓	-12.1629
rn	-12.1634
▁오죽	-12.1634
▁—	-12.1636
▁유예	-12.1638
wa	-12.1638
▁바로잡	-12.164
▁방면	-12.1641
▁Un	-12.1643
▁흑자	-12.1644
▁사이클	-12.1644
헐	-12.1645
▁멜론	-12.1649
▁졸업식	-12.1649
▁단추	-12.165
▁틴트	-12.1651
▁절벽	-12.1658
▁산정	-12.1661
▁보일러	-12.1662
▁여객	-12.1662
▁조급	-12.1664
▁실효	-12.1665
▁비켜	-12.1666
▁순례	-12.1671
▁보호자	-12.1673
▁시련	-12.1673
▁미모	-12.1678
▁스티븐	-12.168
▁찝찝	-12.168
▁메이플	-12.1681
▁fff	-12.1681
▁엔지니어	-12.1689
▁태블릿	-12.1689
▁사투리	-12.1689
▁시카고	-12.1689
▁매스	-12.1693
▁여느	-12.1694
▁려는데	-12.1695
▁으까	-12.1697
▁맞췄	-12.1697
▁사옵니다	-12.1698
▁막국수	-12.1698
▁어지럽	-12.1698
▁빔	-12.1698
▁얼큰	-12.1699
▁연유	-12.17
kin	-12.1702
▁까요	-12.1705
ᄏᄏᄏᄏᄏᄏᄏᄏᄏᄏᄏᄏ	-12.1707
▁하룻밤	-12.1707
▁광안리	-12.1707
▁귀여움	-12.1708
▁청정기	-12.1709
▁심층	-12.1711
▁추우	-12.1714
▁기억력	-12.1717
▁휴직	-12.1718
▁스키장	-12.1724
外	-12.1725
▁의약품	-12.1725
▁슛	-12.1728
▁상원	-12.1728
▁풍자	-12.1728
▁해냈	-12.173
AP	-12.173
는지	-12.173
▁능동	-12.1732
▁떠돌	-12.1732
▁벤치	-12.1735
픽	-12.1739
▁더러워	-12.174
▁무너져	-12.1743
▁AD	-12.1747
▁향해서	-12.1749
▁패치	-12.1751
▁스프링	-12.1752
▁날렸	-12.1753
▁유한	-12.1755
▁느려	-12.1756
▁객실	-12.1757
▁외상	-12.1757
集	-12.176
밉	-12.176
▁펼친	-12.1761
▁숙주	-12.1761
▁피티	-12.1764
▁최다	-12.1765
▁언론인	-12.1765
▁노원	-12.1766
▁유언	-12.1767
▁리라고	-12.1768
▁-_-	-12.1769
컵	-12.177
톱	-12.1771
▁장편	-12.1771
마니	-12.1773
▁찔러	-12.1774
▁넬	-12.1776
▁La	-12.1777
▁책정	-12.1778
▁핵실험	-12.1778
▁복학	-12.1782
97	-12.1783
▁으신가	-12.1784
▁로그인	-12.1788
▁열망	-12.179
▁연패	-12.1792
▁🙏	-12.1792
▁텍스	-12.1797
▁정수기	-12.1797
▁항쟁	-12.1797
▁잘라서	-12.1798
▁흐른	-12.18
▁반론	-12.18
▁💚	-12.18
▁죄다	-12.1804
▁고춧가루	-12.1805
▁프린트	-12.1805
ᄑ	-12.1806
▁임종	-12.1807
▁봥	-12.1807
▁모양새	-12.1813
▁빈도	-12.1814
▁석방	-12.1815
▁버틸	-12.1816
CA	-12.182
쿼	-12.1823
갛	-12.1823
▁전격	-12.1824
▁감면	-12.1825
▁장례	-12.1827
▁소변	-12.1828
▁통닭	-12.1833
▁사망자	-12.1834
91	-12.1839
▁열광	-12.1841
▁런닝	-12.1842
▁줄곧	-12.1842
▁추울	-12.1843
▁테라스	-12.1843
▁170	-12.1845
▁첨부	-12.1846
▁상반	-12.1847
센터	-12.1847
▁뒷면	-12.1849
▁눌렀	-12.1851
▁마찰	-12.1853
▁본연	-12.1854
▁폈	-12.1858
▁퍼포먼스	-12.1859
▁튜브	-12.186
▁식민	-12.186
▁친밀	-12.1865
詩	-12.1868
▁사표	-12.1868
▁피츠	-12.1868
▁~~~~~~	-12.187
▁암호	-12.1872
▁꺼야	-12.1872
쌀	-12.1872
▁벽돌	-12.1873
▁사회학	-12.1875
▁카운터	-12.1877
▁크루즈	-12.1878
▁탁자	-12.1878
겟	-12.1878
▁연쇄	-12.188
▁광양	-12.1882
▁곤충	-12.1883
▁이어진다	-12.1884
州	-12.1886
▁통일부	-12.1887
2)	-12.1887
▁바랄	-12.189
▁방과	-12.1891
RA	-12.1892
▁건설사	-12.1893
기아차	-12.1893
▁곤약	-12.1894
▁간과	-12.1895
ー	-12.1895
▁jmt	-12.1895
눅	-12.1895
▁자랐	-12.1897
▁꾸려	-12.19
▁장담	-12.19
▁경성	-12.1901
▁복종	-12.1904
▁지켜봐야	-12.1904
▁페스	-12.1904
▁카페인	-12.1906
▁운반	-12.1908
▁🙆	-12.1909
▁폐기물	-12.1909
do	-12.191
▁목적지	-12.1912
▁궁전	-12.1912
퍽	-12.1913
헥	-12.1913
▁구석구석	-12.1913
▁답니당	-12.1913
▁coffee	-12.1918
▁핳	-12.1919
▁럿	-12.1919
▁청하	-12.192
▁조짐	-12.1921
oul	-12.1922
녘	-12.1922
룽	-12.1922
풋	-12.1924
꿨	-12.1928
▁깅	-12.1928
▁용의자	-12.1931
▁거슬러	-12.1932
eb	-12.1932
▁기념일	-12.1933
▁양면	-12.1933
sc	-12.1936
▁헷갈리	-12.1939
▁맥도날드	-12.194
▁치안	-12.1941
SP	-12.1945
▁고깃집	-12.1949
▁사령부	-12.195
▁북구	-12.195
▁닠ᄏᄏᄏ	-12.1951
▁우호	-12.1956
▁정중	-12.1957
▁비번	-12.1957
▁부들부들	-12.1959
實	-12.1959
벡	-12.1959
▁반가운	-12.1959
▁소명	-12.196
▁선원	-12.196
▁相	-12.1961
▁알뜰	-12.1962
▁피난	-12.1968
▁국세청	-12.1968
▁팽팽	-12.1968
▁놉	-12.1968
▁정관	-12.1971
▁본체	-12.1973
mb	-12.1976
▁애슐리	-12.1977
쬐	-12.1977
▁연두	-12.198
▁뿅	-12.1982
▁방황	-12.1982
▁합쳐서	-12.1984
▁병우	-12.1985
▁총각	-12.1988
▁지리산	-12.1989
▁볼라고	-12.1989
▁악몽	-12.1989
▁MB	-12.1991
▁연산	-12.1991
app	-12.1992
▁🙋	-12.1994
view	-12.1995
▁신약	-12.1999
▁소풍	-12.1999
▁필립	-12.2
▁탐사	-12.2003
▁착공	-12.2004
▁굿모닝	-12.2004
곰	-12.2007
ven	-12.2009
bs	-12.2011
▁특기	-12.2011
beauty	-12.2013
▁드럼	-12.2014
▁타임스	-12.2015
▁前	-12.2016
▁회동	-12.2021
▁피드백	-12.2022
▁팽창	-12.2024
▁미백	-12.2026
▁속속	-12.2031
▁🐶	-12.2032
▁막강	-12.2033
par	-12.2034
行	-12.2034
▁지켰	-12.2035
▁아이유	-12.2036
▁얏	-12.2036
컨	-12.2039
▁우왕	-12.2041
▁소란	-12.2045
▁헤어진	-12.2045
▁엎드려	-12.205
▁숭배	-12.2052
▁추론	-12.2058
바꼈	-12.2061
▁육즙	-12.2062
올랐	-12.2063
▁원룸	-12.2064
▁물리치	-12.2065
五	-12.2068
▁공정위	-12.2069
ren	-12.2069
▁묶여	-12.2069
▁대법원장	-12.2072
▁넼ᄏᄏᄏᄏ	-12.2075
food	-12.2075
對	-12.2078
▁시진핑	-12.2078
▁울타리	-12.2078
▁갈비찜	-12.2078
▁일으킬	-12.2078
▁명란	-12.2078
ign	-12.208
▁세속	-12.208
OR	-12.2081
▁표본	-12.2081
▁시리아	-12.2083
▁뒷모습	-12.2087
四	-12.2087
▁천주교	-12.2087
▁광산	-12.2087
컨대	-12.2089
▁종시	-12.2093
▁특가	-12.2096
▁이듬해	-12.2096
▁질주	-12.21
몸	-12.2103
▁변호	-12.2104
▁베이지	-12.2104
▁영양소	-12.2105
▁손흥민	-12.2105
▁오케스트라	-12.2105
▁파랑	-12.2107
▁질까	-12.2111
▁넼ᄏᄏᄏ	-12.2112
▁꼬집	-12.2114
▁노량진	-12.2115
▁반기문	-12.2115
▁궤도	-12.2115
▁웃겼	-12.2115
▁소액	-12.2116
▁__	-12.2122
▁팸	-12.2125
▁당해서	-12.2129
▁마셔야	-12.2133
▁착취	-12.2135
▁루이스	-12.2135
▁저술	-12.2136
팽	-12.2137
▁헬기	-12.2137
▁젠장	-12.2138
▁압수	-12.2139
⭐	-12.2142
▁가습기	-12.2144
▁밀도	-12.2145
▁성급	-12.2145
▁역임	-12.2148
▁타투	-12.2152
▁차츰	-12.2152
▁安	-12.2153
▁텔레	-12.2153
부딪히	-12.2153
▁쨔	-12.2154
▁쥬스	-12.2156
▁선별	-12.2156
알아주	-12.2157
▁쥔	-12.2159
▁101	-12.2159
▁연탄	-12.2159
▁깬	-12.216
▁곧장	-12.2161
▁항만	-12.2165
▁법관	-12.2166
IT	-12.2167
▁아까운	-12.2168
▁동조	-12.2168
▁우세	-12.2169
▁김윤	-12.2169
🙌	-12.217
메르	-12.2174
ult	-12.2175
▁뎈ᄏᄏᄏᄏ	-12.2175
▁라이언	-12.2175
▁갈릭	-12.2178
▁할텐데	-12.2179
▁순진	-12.2186
▁리드	-12.2186
▁스톤	-12.2187
퀴	-12.2188
▁1982	-12.2189
▁저마다	-12.2189
▁공허	-12.2191
▁돌려서	-12.2191
▁발판	-12.2192
▁변기	-12.2196
▁경상도	-12.2197
▁낙동강	-12.2198
났었	-12.2198
▁노골	-12.2199
▁됐으며	-12.2199
융	-12.2201
확	-12.2202
理	-12.2202
▁김형	-12.2203
▁옷장	-12.2205
ger	-12.2205
▁진다는	-12.2207
▁보너스	-12.2208
▁선보인다	-12.2212
▁텀	-12.2214
▁119	-12.2218
▁가야지	-12.2219
▁동거	-12.2221
썽	-12.2222
▁학사	-12.2226
言	-12.2226
▁색소	-12.2227
▁새콤	-12.223
▁계발	-12.2231
▁☕	-12.2236
▁경치	-12.2236
▁대나무	-12.2239
▁림프	-12.224
켈	-12.224
▁책임감	-12.2243
▁에세이	-12.2244
숫	-12.2245
퀘	-12.2245
ink	-12.2249
▁동탄	-12.2249
▁청취	-12.2254
平	-12.2254
▁동등	-12.2258
▁벤트	-12.2261
▁갈게요	-12.2264
▁히틀러	-12.2264
▁장만	-12.2266
▁학번	-12.2267
▁노숙	-12.2271
▁접대	-12.2273
▁파생	-12.2274
▁흐음	-12.2275
멀	-12.2278
▁포카	-12.2279
▁페리	-12.228
▁호의	-12.2281
▁신흥	-12.2282
킴	-12.2284
▁》,	-12.2286
▁국악	-12.2287
❤	-12.2287
팠	-12.2289
흘	-12.229
뚝	-12.229
▁다이아몬드	-12.2292
▁쐬	-12.2292
▁표상	-12.2292
▁떨려	-12.2294
▁망명	-12.2295
ae	-12.2295
ms	-12.2295
▁타락	-12.2296
▁갱신	-12.2296
ark	-12.2297
젼	-12.2301
▁돌릴	-12.2303
벳	-12.2311
딜	-12.2311
▁귀중	-12.2314
IA	-12.2316
▁얼리	-12.2316
풀이	-12.2317
ᄍ	-12.232
▁결여	-12.2321
▁콧물	-12.2325
▁무당	-12.2325
▁맞출	-12.2328
▁울렸	-12.2331
▁"......	-12.2333
▁문과	-12.2335
▁장남	-12.2336
▁동선	-12.2337
▁비와	-12.2339
▁달라진다	-12.2341
▁볼께	-12.2341
▁날씬	-12.2343
▁산악	-12.2344
▁직권	-12.2346
̆	-12.2348
城	-12.2348
西	-12.2348
▁성매매	-12.2348
▁목욕탕	-12.2349
▁스탈	-12.2352
own	-12.2353
ga	-12.2353
▁피클	-12.2354
암동	-12.2355
內	-12.2358
▁고속도로	-12.2359
▁재물	-12.2359
▁빠뜨	-12.236
▁글램	-12.2361
▁FA	-12.2362
▁존엄	-12.2362
▁올림	-12.2364
▁마음가짐	-12.2367
뿔	-12.2373
▁된답니다	-12.2374
▁쌍용	-12.2376
베리	-12.2376
▁공모전	-12.2376
▁보라색	-12.2377
EN	-12.2384
▁유포	-12.2384
▁동국	-12.2385
▁키트	-12.2385
$	-12.2386
▁괴롭힘	-12.2386
▁좋아할	-12.2386
ral	-12.2389
▁정점	-12.2393
▁NH	-12.2395
훗	-12.2396
▁개그맨	-12.2396
▁시금치	-12.2396
▁1983	-12.2398
▁머무	-12.2399
▁재앙	-12.2399
ps	-12.2403
▁심해서	-12.2406
▁김영삼	-12.2406
벌레	-12.2408
▁엄만	-12.2409
▁홈플러스	-12.2415
德	-12.2415
▁남양주	-12.2415
▁🔥	-12.2416
▁희귀	-12.242
▁함량	-12.2423
▁어김없이	-12.2424
▁남동생	-12.2424
▁포드	-12.2425
▁매너	-12.2427
▁버드	-12.2429
▁민사	-12.243
갔다오	-12.243
い	-12.2434
▁성균관	-12.2434
▁저질렀	-12.2434
▁묘지	-12.2437
▁콜라보	-12.2442
▁얘긴데	-12.2442
▁모처럼	-12.2443
▁마누라	-12.2443
▁모조리	-12.2444
▁뇽	-12.2444
▁1979	-12.2446
▁간첩	-12.2446
▁동결	-12.2447
▁상봉	-12.2448
▁노동력	-12.2448
93	-12.245
▁군것질	-12.2453
▁교부	-12.2453
▁종속	-12.2455
▁못함	-12.2456
▁깨워	-12.2461
月	-12.2463
▁경감	-12.2464
▁커져	-12.2464
▁북경	-12.2466
▁덕질	-12.2468
ish	-12.2468
▁미역	-12.2471
▁묵묵히	-12.2472
▁수차례	-12.2472
▁충만	-12.2474
▁플라워	-12.2474
▁전기차	-12.2474
스케	-12.2476
기업	-12.2477
니깐	-12.2478
OP	-12.248
▁행해	-12.248
君	-12.2482
▁스릴러	-12.2482
▁심부름	-12.2482
▁후유증	-12.2482
▁그제야	-12.2483
▁블럭	-12.2484
▁올려야	-12.2486
▁일본군	-12.2487
▁요리사	-12.2489
덱	-12.2491
ene	-12.2494
▁가져갈	-12.2495
밋	-12.2498
▁아토피	-12.2501
▁받아들인	-12.2501
▁랜덤	-12.2501
▁So	-12.2502
▁슝	-12.2503
갯	-12.2508
기뻐하	-12.2508
▁라벨	-12.251
и	-12.2511
▁학급	-12.2511
▁예산안	-12.2512
▁호칭	-12.2515
▁미혼	-12.2515
▁넓혀	-12.2517
▁드신	-12.2517
▁메신저	-12.252
▁good	-12.2521
▁살찌	-12.2524
▁창구	-12.2524
▁일어난다	-12.2526
▁정제	-12.2526
▁평안	-12.2527
▁쫑	-12.253
▁쿠데타	-12.253
▁반대편	-12.2531
▁데스크	-12.2531
▁소심	-12.2532
송이	-12.2534
▁끼어들	-12.2534
▁해본다	-12.2535
쓱	-12.2536
▁유산소	-12.2537
▁근래	-12.2538
▁흡사	-12.2539
▁미네랄	-12.2539
▁스퀘어	-12.2539
▁땄	-12.254
▁경보	-12.254
오프	-12.2541
▁땨	-12.2542
▁숙취	-12.2543
▁협찬	-12.2543
form	-12.2544
▁생신	-12.2547
▁강간	-12.2548
올라	-12.2548
▁눈여겨	-12.2549
▁깡패	-12.255
▁재혼	-12.255
land	-12.2552
▁부지런히	-12.2554
▁부속	-12.2555
▁파운데이션	-12.2559
▁별일	-12.2559
over	-12.2564
▁삭감	-12.2565
콧	-12.2567
버섯	-12.2567
力	-12.2568
▁크루	-12.2569
▁쥴	-12.257
▁비대위	-12.2571
레나	-12.2573
動	-12.2578
▁껴서	-12.258
▁사귄	-12.2581
分	-12.2588
▁넛	-12.259
▁원주민	-12.2591
▁먼데	-12.2593
팡	-12.2595
붕	-12.2596
用	-12.2598
다봤	-12.2604
▁환원	-12.2605
▁메타	-12.2609
▁오른손	-12.2609
二	-12.2617
利	-12.2617
뀨	-12.2617
웁	-12.2617
▁사고방식	-12.2617
▁곡물	-12.2617
▁침실	-12.2618
▁차익	-12.2618
▁태종	-12.2619
▁옮김	-12.2619
▁헐랭	-12.2624
▁스케일	-12.2627
▁에버랜드	-12.2627
▁장터	-12.2629
▁밀린	-12.2635
▁계집	-12.2636
⠀⠀⠀⠀⠀⠀⠀⠀⠀⠀⠀⠀⠀⠀⠀⠀	-12.264
▁슥	-12.2646
▁편찬	-12.2646
늄	-12.2646
▁드라구요	-12.2646
웨	-12.2647
▁드러난다	-12.2649
▁포켓	-12.265
▁연승	-12.2652
▁경품	-12.2653
▁어린애	-12.2653
▁스위치	-12.2656
▁득템	-12.2656
▁수용자	-12.2658
▁채취	-12.2659
운동	-12.2661
▁데이비드	-12.2666
▁봉건	-12.2671
씹	-12.2674
▁저격	-12.2674
닙	-12.2675
▁아이러니	-12.2676
▁추방	-12.2676
▁패권	-12.2679
핏	-12.2683
갱	-12.2684
▁연회	-12.2685
▁브라우니	-12.2685
治	-12.2685
▁스텝	-12.2686
▁호떡	-12.2689
▁로맨틱	-12.2695
▁바삭바삭	-12.2695
▁뜬금없	-12.2695
▁클리닉	-12.2695
▁DNA	-12.2696
▁큼직	-12.2696
▁효자	-12.2703
▁UN	-12.2704
iz	-12.2705
官	-12.2705
▁세울	-12.2705
▁탐험	-12.2706
▁쎈	-12.2707
▁질려	-12.2714
▁SF	-12.2714
▁감사원	-12.2715
▁어머나	-12.2719
▁둠	-12.2719
흠	-12.2722
▁상표	-12.2722
▁휠	-12.2725
gi	-12.2729
ET	-12.2732
즉	-12.2733
▁무공	-12.2734
▁베스트셀러	-12.2734
▁내세워	-12.274
▁남짓	-12.274
▁술자리	-12.2745
▁띄워	-12.2745
▁정신없이	-12.2745
▁즐겼	-12.2745
▁환멸	-12.2746
TE	-12.2752
▁뻔뻔	-12.2754
▁정거장	-12.2754
▁😚	-12.2754
▁뜻밖	-12.2756
▁모의	-12.276
▁캐시	-12.2765
▁절박	-12.2765
▁1981	-12.2766
▁ᅧ	-12.2766
▁선뜻	-12.2766
▁거래처	-12.2774
▁인절미	-12.2774
▁스팀	-12.2778
▁액자	-12.2778
▁창당	-12.278
EA	-12.2781
ern	-12.2781
▁단군	-12.2786
▁무지개	-12.2787
▁느린	-12.2787
▁사라질	-12.2789
▁열등	-12.2792
古	-12.2794
▁예뻤	-12.2794
▁잇몸	-12.2797
▁다녀서	-12.2799
볶음	-12.2803
▁기생충	-12.2803
▁빡빡	-12.2804
▁그리움	-12.2804
▁알콜	-12.2807
▁매물	-12.2811
▁외화	-12.2817
▁파문	-12.2818
▁운항	-12.2821
▁밤중	-12.2824
▁왕위	-12.2826
▁알아내	-12.2829
▁조롱	-12.2834
▁찰스	-12.2835
▁김명	-12.2837
▁설령	-12.2839
方	-12.2843
▁포용	-12.2848
▁추운데	-12.2849
▁바가지	-12.2853
▁표창	-12.2854
▁존재감	-12.2856
▁심신	-12.2857
▁부류	-12.2857
▁Korea	-12.2859
숲	-12.2863
▁감자튀김	-12.2863
▁공휴일	-12.2863
▁손녀	-12.2865
ev	-12.2866
▁루시	-12.287
宗	-12.2873
故	-12.2873
켠	-12.2873
줍	-12.2874
▁참으	-12.2874
▁강박	-12.2875
▁지지층	-12.2878
▁수영복	-12.2879
췄	-12.2881
뎃	-12.2883
규모	-12.2886
▁갈께	-12.289
▁스타일링	-12.2891
컥	-12.2891
▁터트	-12.2892
▁발병	-12.2893
・	-12.2893
---	-12.2893
▁긴밀	-12.2894
무작정	-12.2896
▁옮길	-12.2899
▁낰ᄏᄏᄏᄏ	-12.29
▁스노우	-12.2903
▁발가락	-12.2903
▁봉사자	-12.2903
dia	-12.2906
no	-12.2908
▁독창	-12.2912
▁깊숙이	-12.2913
▁금감원	-12.2913
▁두려운	-12.2913
▁종아리	-12.2913
▁매운탕	-12.2915
▁씽	-12.2917
▁!!!!!!!!	-12.2919
▁국민은행	-12.2919
▁욕먹	-12.292
門	-12.2923
▁맹세	-12.2924
▁스캔들	-12.2924
▁하버드	-12.2924
ov	-12.2925
▁병실	-12.2926
▁증폭	-12.2927
호텔	-12.293
ten	-12.2932
▁엿보	-12.2933
▁꼭대기	-12.2933
▁아리랑	-12.2934
▁빛깔	-12.2934
맣	-12.2941
▁쉼	-12.2943
後	-12.2943
▁영세	-12.2944
▁삘	-12.2944
▁비박	-12.2946
▁밸리	-12.2947
렁이	-12.2947
▁외무	-12.2951
NA	-12.2951
▁때때로	-12.2953
▁급기야	-12.2953
▁불륜	-12.2956
▁징수	-12.2956
▁경영학	-12.2961
▁이사회	-12.2961
딤	-12.2963
▁재판관	-12.2963
▁여러모로	-12.2963
▁🤩	-12.2963
▁밀집	-12.2966
han	-12.2967
첨	-12.2969
준호	-12.2969
▁최저임금	-12.2973
▁얼핏	-12.2974
▁덜덜	-12.2975
▁2500	-12.2975
AL	-12.2975
▁공문	-12.2977
▁연못	-12.2977
▁렙	-12.298
е	-12.2983
▁색채	-12.2986
▁슴다	-12.2992
ron	-12.2993
傳	-12.2993
▁화끈	-12.2994
▁쭉쭉	-12.2994
▁특사	-12.2994
▁동명	-12.2995
▁몸짓	-12.2997
▁밥집	-12.3
▁허전	-12.3
컷	-12.3001
▁폐업	-12.3002
▁양재	-12.3003
▁잠겨	-12.3004
줬	-12.3005
▁풀렸	-12.3005
▁검출	-12.3008
▁페미니즘	-12.3014
▁밤낮	-12.3016
랍	-12.3017
▁손등	-12.3018
있	-12.302
▁누웠	-12.3021
▁타이거	-12.3022
▁내려갈	-12.3022
▁슬리퍼	-12.3024
▁퍼즐	-12.3024
▁결집	-12.3028
▁들어온다	-12.3031
▁달려갔	-12.3031
▁모텔	-12.3032
▁해리포터	-12.3034
▁꼽힌다	-12.3034
▁매워	-12.3037
▁1920	-12.3037
슷	-12.3038
▁협업	-12.3039
▁악의	-12.304
떼	-12.3043
sch	-12.3043
!?	-12.3043
▁무제한	-12.3044
▁ᄌᄆ	-12.3044
▁머물렀	-12.3045
▁친숙	-12.3049
▁욬ᄏᄏ	-12.3052
▁무너뜨	-12.3054
▁from	-12.3064
▁순두부	-12.3064
▁쌈장	-12.3065
▁한양대	-12.3066
▁삽입	-12.3066
▁발바닥	-12.3068
oll	-12.307
▁필링	-12.307
▁어울린다	-12.307
▁Ex	-12.3077
▁반짝이	-12.3079
▁신곡	-12.3081
▁오키나와	-12.3085
▁항아리	-12.3085
▁국비	-12.3085
▁소시지	-12.3085
▁신용카드	-12.3085
ition	-12.3086
▁솔솔	-12.3086
▁빈번	-12.3088
▁걸쳐서	-12.309
▁양평	-12.3091
▁사슴	-12.3092
▁법학	-12.3095
꽝	-12.3095
💙	-12.3095
▁탈북자	-12.3095
▁뛸	-12.31
▁탁구	-12.3108
▁결산	-12.3108
▁군중	-12.311
▁찾아간	-12.311
TS	-12.311
合	-12.3115
▁어긋나	-12.3115
▁언뜻	-12.3116
ope	-12.3116
▁풀릴	-12.3119
▁현존	-12.312
▁당직	-12.3124
헨	-12.3125
▁카리스마	-12.3126
쒸	-12.3126
▁경희대	-12.3126
▁잡채	-12.3133
묜	-12.3136
힣	-12.3136
▁결재	-12.3139
▁후딱	-12.3139
....	-12.3145
넌	-12.3148
▁애착	-12.3153
▁철판	-12.3156
▁무상급식	-12.3156
▁붕어빵	-12.3167
▁윤곽	-12.3167
▁항산	-12.3169
▁효도	-12.3169
▁창원시	-12.3171
▁생겨난	-12.3172
▁투성이	-12.3177
RI	-12.3177
▁토니	-12.318
▁인디언	-12.318
ank	-12.3183
▁줄줄	-12.3184
▁미녀	-12.3185
▁빨대	-12.3186
멕	-12.3187
▁망원경	-12.3187
▁아마추어	-12.3187
▁that	-12.3189
▁도우미	-12.3189
▁선교사	-12.3191
▁당선자	-12.3195
즌	-12.3196
▁University	-12.3197
原	-12.3197
ys	-12.3197
▁끊임없	-12.3198
언니	-12.32
▁영재	-12.3203
▁회의실	-12.3205
▁쿠바	-12.3207
▁😱	-12.3208
▁흐흑	-12.3208
▁깔깔	-12.3209
▁필사	-12.321
▁간략	-12.321
▁넘어간	-12.3211
〰	-12.3218
太	-12.3218
戰	-12.3218
▁일회용	-12.3218
SE	-12.3219
RE	-12.322
▁소용없	-12.3223
▁잉여	-12.3228
낑	-12.3228
쓰다듬	-12.3229
▁Ho	-12.323
ert	-12.3237
▁훠궈	-12.3239
白	-12.3239
▁쇠고기	-12.3239
▁깨어나	-12.3239
▁단짠	-12.324
▁둘레	-12.3241
ᅦ	-12.3242
▁순조	-12.3243
▁농축	-12.3243
▁계통	-12.3244
▁일괄	-12.3246
▁논평	-12.3248
▁neko	-12.3249
옌	-12.3249
럿	-12.3252
▁관절염	-12.3261
▁얔ᄏᄏᄏ	-12.3263
▁금강	-12.3266
▁어려워서	-12.3266
싼	-12.3267
꿔	-12.3269
與	-12.327
숴	-12.327
▁좋아한다	-12.327
▁암흑	-12.3271
▁벌어질	-12.3272
망치	-12.3277
▁컨테이너	-12.328
▁마카오	-12.328
▁친했	-12.3281
▁중얼거렸	-12.3281
▁접할	-12.3282
▁조류	-12.3285
nt	-12.3287
▁지금껏	-12.3287
▁우파	-12.3288
出	-12.3291
▁나경원	-12.3291
▁혼내	-12.3291
▁증명서	-12.3294
now	-12.3294
▁배그	-12.3297
▁포지션	-12.3301
▁스메	-12.3303
▁드론	-12.3304
▁결실	-12.3305
▁yummy	-12.3311
▁움켜	-12.3313
닫	-12.3314
▁체코	-12.3314
귤	-12.3316
▁~~!!	-12.3316
▁낰ᄏᄏᄏ	-12.332
▁구워서	-12.3321
어맞	-12.3322
▁○.	-12.3326
▁행렬	-12.3327
▁부결	-12.3327
AC	-12.333
▁끝냈	-12.3331
▁는커녕	-12.3332
▁민국	-12.3332
▁농약	-12.3333
▁됫	-12.3333
▁특색	-12.3335
▁학창	-12.3336
▁신분증	-12.3337
ID	-12.3339
▁블러	-12.3339
▁무얼	-12.3341
▁안타까워	-12.3343
▁쌍방	-12.3343
▁반값	-12.335
▁손꼽	-12.3354
▁나이키	-12.3356
▁독스	-12.3356
▁올라와서	-12.3357
▁유무	-12.3357
▁몸통	-12.3358
▁할리우드	-12.3364
作	-12.3364
▁루비	-12.3367
RO	-12.3369
▁프레스	-12.3371
▁병신	-12.3373
ju	-12.3373
京	-12.3374
▁서브웨이	-12.3374
▁계파	-12.3377
▁고양시	-12.3377
山	-12.3378
道	-12.3378
▁오디오	-12.338
▁GDP	-12.3385
▁잃어버렸	-12.3385
▁코스트코	-12.3385
▁할로윈	-12.3385
▁준다면	-12.3385
HA	-12.3388
___	-12.3388
▁퍼스트	-12.3388
air	-12.3389
▁권총	-12.3391
▁종강	-12.3393
▁승려	-12.3394
▁보건소	-12.3395
▁포위	-12.3397
▁뜻대로	-12.3402
▁총액	-12.3404
꽈	-12.3406
▁풍속	-12.3406
▁폼페이	-12.3406
▁둥글	-12.3408
▁짜릿	-12.3409
▁약혼	-12.3414
영희	-12.3415
▁돌이켜	-12.3416
돠	-12.3416
▁꿀잼	-12.3416
▁냐구요	-12.3417
▁오빤	-12.3417
▁동산	-12.342
엥	-12.3421
뱃	-12.3421
▁장애물	-12.3424
▁○○	-12.3425
▁실래요	-12.3426
🎶	-12.3427
▁LH	-12.3427
▁리라는	-12.3431
▁어야죠	-12.3432
▁스무디	-12.3432
▁승계	-12.3437
쌔	-12.3437
▁투썸	-12.3437
레이터	-12.3442
챔	-12.3448
▁스며들	-12.3448
▁350	-12.3448
ᄇ	-12.3452
生	-12.3453
▁토막	-12.3455
▁쓰러졌	-12.3458
▁레이팅	-12.346
어왔	-12.3463
▁간절히	-12.3464
AM	-12.3469
▁백종원	-12.3469
▁튜버	-12.347
주무시	-12.3474
反	-12.348
▁풀렸으면	-12.348
▁그려진	-12.348
▁매실	-12.3481
쿨	-12.3482
미암	-12.3487
흔하	-12.3487
ik	-12.3489
하하하	-12.349
▁포르투갈	-12.349
뎀	-12.349
💪	-12.349
▁닷컴	-12.3501
▁공판	-12.3501
DS	-12.3502
▁반말	-12.3509
▁자리매김	-12.3511
通	-12.3511
部	-12.3511
▁넘어선	-12.3512
SD	-12.3512
쩐	-12.3517
▁넘어섰	-12.3522
全	-12.3522
田	-12.3522
ax	-12.3523
▁주세요	-12.3523
▁스타트업	-12.3523
▁버거킹	-12.3524
▁술잔	-12.3524
▁연초	-12.353
껴	-12.3531
▁간다면	-12.3532
뚤	-12.3533
▁비둘기	-12.3533
▁좆같	-12.3533
▁연안	-12.3533
▁의외로	-12.3536
▁착해	-12.3541
bb	-12.3541
▁봣어	-12.3543
▁저소득층	-12.3543
랠	-12.3543
▁소릴	-12.3545
MI	-12.3547
▁친분	-12.3549
▁치료비	-12.355
ath	-12.3551
닭	-12.3553
킵	-12.3554
▁귀여워서	-12.3556
▁앜ᄏᄏᄏᄏᄏᄏᄏ	-12.3557
▁롯데마트	-12.3565
▁동물원	-12.3565
▁김경수	-12.3567
▁불쑥	-12.3568
▁나온다는	-12.3575
【	-12.3575
▁파고들	-12.3575
▁사다리	-12.3577
▁마틴	-12.3578
▁젊음	-12.3579
▁깨물	-12.3579
▁종사자	-12.358
▁끝없이	-12.358
5000	-12.3581
▁빨강	-12.3586
▁인센티브	-12.3586
▁스미스	-12.3586
정희	-12.3586
▁모음	-12.3587
▁ᄐᄏᄏ	-12.3594
행위	-12.3595
▁리서치	-12.3597
▁360	-12.3598
▁대가리	-12.3599
▁양손	-12.3601
▁추산	-12.3603
▁돌려받	-12.3603
▁프로이트	-12.3603
ina	-12.3605
】	-12.3608
▁봉쇄	-12.3609
▁흉기	-12.361
▁협동	-12.3611
▁힌트	-12.3612
rt	-12.3616
▁공범	-12.3618
▁대용량	-12.3618
주머니	-12.3619
앵	-12.3625
判	-12.3629
낱	-12.3629
▁평점	-12.363
▁속상한	-12.3632
▁빌린	-12.3636
▁킬로	-12.3638
▁공명	-12.3638
▁단말기	-12.364
▁라인업	-12.3649
▁트라우마	-12.3651
▁파프리카	-12.3651
둣	-12.3651
퀄	-12.3651
▁골반	-12.3656
밑	-12.3657
▁흑백	-12.3659
▁곸ᄏᄏᄏ	-12.3659
▁슬로건	-12.3661
▁협동조합	-12.3661
긱	-12.3661
빽	-12.3661
▁상급	-12.3663
▁한국은행	-12.3663
▁도요타	-12.3663
▁발톱	-12.3664
▁기념품	-12.3667
▁관악	-12.3669
▁덴마크	-12.3672
늪	-12.3672
▁라이스	-12.3672
▁합격자	-12.3673
rs	-12.3678
十	-12.3683
於	-12.3683
石	-12.3683
cat	-12.3686
▁전념	-12.3688
▁눈높이	-12.3694
▁서포터	-12.3694
▁피시방	-12.3694
▁정글	-12.3697
낰	-12.3699
▁경복궁	-12.3705
元	-12.3705
▁앞세워	-12.3705
▁잣대	-12.3706
▁흐뭇	-12.3706
▁꿀잠	-12.3706
느리	-12.3706
oon	-12.3711
▁연구실	-12.3711
文	-12.3712
▁끓인	-12.3713
▁원동력	-12.3716
▁보여줘	-12.3716
▁퇴임	-12.3717
▁아마존	-12.3721
▁이루어져야	-12.3722
▁폭격	-12.3725
▁스킨케어	-12.3726
▁교통부	-12.3731
▁노폐물	-12.3737
の	-12.3737
▁임차인	-12.3737
▁랔ᄏᄏᄏ	-12.3741
슬러	-12.3744
士	-12.3748
▁외형	-12.3749
▁바를	-12.3751
ics	-12.3751
▁디젤	-12.3752
▁천문학	-12.3753
▁..........	-12.3757
▁박힌	-12.3758
▁깍두기	-12.3759
늉	-12.3759
▁갑시다	-12.3761
ric	-12.3762
▁금품	-12.3764
창호	-12.3767
깝	-12.3768
▁제때	-12.3769
女	-12.377
ound	-12.3774
▁생명력	-12.3777
▁puppy	-12.3781
業	-12.3781
▁쓰였	-12.3781
▁ᅲᅳᅲ	-12.3788
▁나타낸다	-12.3788
▁찜질방	-12.3792
챈	-12.3792
▁김연아	-12.3792
▁장시간	-12.3792
▁평온	-12.3793
▁비염	-12.3795
▁스티브	-12.3796
킥	-12.38
▁연필	-12.3802
а	-12.3803
可	-12.3803
젝	-12.3803
▁약품	-12.3804
▁한가득	-12.3805
▁픽업	-12.3806
▁세끼	-12.3806
▁퇴진	-12.3815
▁공교육	-12.3818
▁만끽	-12.382
▁돌아간	-12.3824
▁배드민턴	-12.3825
則	-12.3825
▁모니터링	-12.3826
밖	-12.3831
『	-12.3833
立	-12.3836
▁부흥	-12.3836
▁칼칼	-12.3839
▁시행령	-12.3843
깊	-12.3844
▁광어	-12.3844
▁돼지갈비	-12.3847
▁텃밭	-12.3847
▁칙칙	-12.3847
▁꼰대	-12.3847
ana	-12.3848
▁1978	-12.3849
time	-12.3851
▁멀미	-12.3852
녁	-12.3856
▁초콜렛	-12.3858
▁뎈ᄏᄏ	-12.3859
命	-12.3869
▁탈색	-12.3871
▁민법	-12.3874
추웠	-12.3875
▁단기간	-12.3875
▁마요네즈	-12.388
앴	-12.388
▁출발점	-12.388
▁고마움	-12.3881
SI	-12.3884
곡동	-12.3887
▁모스크바	-12.3891
▁일찌감치	-12.3891
숑	-12.3891
▁미생물	-12.3891
▁달아나	-12.3891
red	-12.3894
▁댄다	-12.3896
▁워낙에	-12.3901
똘	-12.3902
▁가디건	-12.3902
▁타율	-12.3903
▁넼ᄏᄏ	-12.3905
vel	-12.3906
▁혼돈	-12.3907
lin	-12.391
▁뚝배기	-12.3913
▁걸어갔	-12.3913
▁대주주	-12.3913
▁아이콘	-12.3914
▁감량	-12.3919
▁십쇼	-12.3919
▁한다거나	-12.3919
▁바라볼	-12.3924
▁dailylook	-12.3924
曰	-12.3924
빳	-12.3924
▁우뚝	-12.3927
▁1945	-12.3927
▁알아본	-12.3933
▁스페이스	-12.3935
▁티라미수	-12.3935
是	-12.3935
禮	-12.3935
▁호불호	-12.3935
▁얼만데	-12.3935
▁발탁	-12.3937
king	-12.3942
봐야	-12.3942
▁완결	-12.3943
▁리본	-12.3944
▁폴리스	-12.3945
▁동남	-12.3951
▁당나라	-12.3951
▁맡겼	-12.3955
▁마니아	-12.3956
플러	-12.3957
▁home	-12.3958
▁훈훈	-12.396
워졌	-12.396
▁클렌	-12.396
▁계셔	-12.3962
▁수제비	-12.3962
▁속한다	-12.3963
▁사회생활	-12.3965
큰	-12.3966
▁손학규	-12.3968
▁어딘데	-12.3968
택하	-12.397
▁물러서	-12.3979
ted	-12.3979
갇	-12.3979
▁CCTV	-12.3979
들였	-12.398
fit	-12.3983
▁악당	-12.3987
▁끈다	-12.3989
▁합계	-12.3989
▁매뉴얼	-12.3991
▁instagram	-12.3992
▁체조	-12.3996
▁선보인	-12.3998
▁국채	-12.3999
▁photo	-12.4002
▁외계인	-12.4002
▁체지방	-12.4002
▁체면	-12.4003
▁꼭꼭	-12.4003
▁망각	-12.4006
cho	-12.4007
▁방북	-12.4008
▁표적	-12.4008
▁Sch	-12.4009
▁육박	-12.4011
·	-12.4011
▁감칠맛	-12.4013
▁나폴레옹	-12.4013
̣	-12.4013
▁릴리	-12.4013
▁했어도	-12.4016
▁토양	-12.4017
▁콜드	-12.4018
▁To	-12.4023
和	-12.4024
▁반품	-12.4027
▁노을	-12.4027
▁공과	-12.4031
▁갖가지	-12.4033
漢	-12.4035
▁태어날	-12.4035
▁일러스트	-12.4037
▁빌려서	-12.4038
▁대리인	-12.404
▁교통비	-12.404
섯째	-12.4042
▁머그	-12.4043
▁세척	-12.4045
▁견고	-12.4045
▁맨투맨	-12.4046
馬	-12.4046
맬	-12.4046
뷔	-12.4049
▁토토	-12.4051
▁변론	-12.4052
ever	-12.4056
좇	-12.4058
▁위헌	-12.4061
ire	-12.4065
▁끌려가	-12.4071
▁1975	-12.4072
▁We	-12.4073
▁접근성	-12.4076
▁치켜	-12.4079
▁줄께	-12.4079
😎	-12.408
▁방사능	-12.408
▁시크릿	-12.408
▁무화과	-12.408
따르	-12.4083
▁농성	-12.4088
쳇	-12.4091
▁깜놀	-12.4092
▁KTX	-12.4092
▁챙긴	-12.4093
▁적립금	-12.4095
▁돌봐	-12.4098
▁생각난다	-12.41
▁줄줄이	-12.4103
뛴	-12.4103
▁못한다는	-12.4104
▁패스트	-12.4104
▁다녀올	-12.4106
▁상임위	-12.4106
▁출근길	-12.411
▁여름휴가	-12.4114
▁울엄마	-12.4114
在	-12.4114
됴	-12.4114
▁뻔한	-12.4114
▁내시경	-12.4115
▁밝혀진	-12.4116
▁흩어져	-12.4117
▁키위	-12.4118
we	-12.4118
▁담담	-12.412
▁벽화	-12.4125
▁공황	-12.4125
▁의구심	-12.4127
▁걸어야	-12.4129
중간	-12.4132
▁John	-12.4137
▁꽂혀	-12.4139
뎅	-12.4143
▁레이더	-12.4144
................	-12.4147
▁블라디	-12.4148
▁과태료	-12.4148
▁좋아했	-12.4148
▁박지성	-12.4148
▁반격	-12.415
▁1200	-12.4151
▁보여집니다	-12.4156
▁곰팡이	-12.4159
▁산부인과	-12.4159
▁세젤예	-12.4159
▁속마음	-12.4159
▁오프닝	-12.416
▁떠올라	-12.4165
▁숙명	-12.4166
▁단련	-12.4167
▁놓쳤	-12.4174
▁신난다	-12.4176
▁포천	-12.4179
맏	-12.4182
▁CGV	-12.4182
善	-12.4182
▁카지노	-12.4182
얻어먹	-12.4183
▁LTE	-12.4183
▁각광	-12.4186
▁조별	-12.4188
▁눈뜨	-12.4192
▁창설	-12.4192
▁천둥	-12.4192
▁야구장	-12.4193
컹	-12.4193
▁걸림돌	-12.4193
▁안희정	-12.4194
▁직책	-12.4195
▁Com	-12.4196
▁북방	-12.4196
▁습기	-12.4198
옼	-12.4205
▁뾰족	-12.4205
▁흑임자	-12.4205
▁예고편	-12.4207
▁법규	-12.4214
▁머릿결	-12.4216
힛	-12.4216
▁계신가	-12.4216
▁헤르	-12.4217
▁1973	-12.4218
▁포근	-12.4219
▁커트	-12.4221
▁순삭	-12.4222
▁살빼	-12.4223
▁...........	-12.4223
▁환급	-12.4227
非	-12.4228
얕	-12.4228
▁입소문	-12.4228
▁얔ᄏᄏᄏᄏ	-12.4228
▁통학	-12.4229
gen	-12.424
PO	-12.4241
▁공예	-12.425
▁blog	-12.4251
▁빅뱅	-12.4251
ft	-12.4253
▁우측	-12.426
▁정품	-12.4262
▁베테랑	-12.4262
꿉	-12.4262
▁존슨	-12.4262
者	-12.4262
▁뒤덮	-12.4263
▁갖췄	-12.4265
TA	-12.4271
▁티브이	-12.4274
▁거니와	-12.4274
▁하소연	-12.4276
▁For	-12.4276
▁변혁	-12.4279
▁골목길	-12.4279
OD	-12.4279
ology	-12.4285
▁바쁠	-12.4285
므	-12.4285
▁mg	-12.429
▁대리점	-12.4295
\	-12.4296
▁성범죄	-12.4296
▁다운로드	-12.4296
▁부르주아	-12.4297
▁쫓기	-12.4298
▁ᄐᄏᄏᄏ	-12.4298
▁미숙	-12.4299
▁치맥	-12.4299
▁루프	-12.4301
▁습니	-12.4305
ull	-12.4309
▁안드로이드	-12.4319
▁신한은행	-12.432
▁양고기	-12.432
▁성적표	-12.4321
머무르	-12.4326
▁창의력	-12.4326
▁존속	-12.4329
승환	-12.433
▁오래오래	-12.4331
▁왕후	-12.4332
▁쓴다고	-12.4334
▁카피	-12.4337
홉	-12.4339
思	-12.4342
▁기울였	-12.4344
▁카츠	-12.4345
▁태평	-12.4347
▁상응	-12.435
▁세종시	-12.4352
▁잠수함	-12.4354
▁무너진	-12.4355
ᅣ	-12.4355
▁벤츠	-12.4357
▁입장료	-12.4359
▁내세운	-12.4366
▁접한	-12.4366
▁배꼽	-12.4367
▁훈장	-12.4377
▁멈췄	-12.4377
▁프렌즈	-12.4377
▁시멘트	-12.4377
▁🙏🏻	-12.4378
▁총알	-12.438
▁검열	-12.4384
work	-12.4391
얄	-12.4391
▁하노이	-12.4394
議	-12.44
▁흉터	-12.4405
▁좋아해서	-12.4412
▁서울특별시	-12.4412
▁사은품	-12.4412
▁녹여	-12.4412
▁kt	-12.4416
▁모을	-12.4423
▁머글	-12.4423
앎	-12.4424
▁라운지	-12.4424
뵙	-12.4425
▁낙담	-12.4432
▁이뤄질	-12.4434
▁비빔	-12.4435
é	-12.4435
▁음주운전	-12.4435
▁습격	-12.4439
▁특급	-12.4444
ン	-12.4447
▁드레싱	-12.4447
쯤	-12.4449
ster	-12.445
▁이태리	-12.4451
ym	-12.4451
적절	-12.4452
▁재킷	-12.4454
▁암것도	-12.4459
▁멜로디	-12.447
▁행적	-12.4471
▁뜨끈	-12.4474
▁글귀	-12.4474
▁단결	-12.4482
朴	-12.4482
웜	-12.4482
▁매트리스	-12.4483
려갔	-12.4493
▁쿼터	-12.4494
▁훈제	-12.4495
쉬울	-12.4495
▁트루	-12.4498
▁환산	-12.4498
▁만화책	-12.4498
GA	-12.45
슬펐	-12.4504
聖	-12.4506
▁에디션	-12.4506
▁관직	-12.4507
▁des	-12.4507
▁잠잠	-12.4509
▁`,	-12.451
▁핸들	-12.451
▁태세	-12.4517
▁동반자	-12.4517
▁빨개	-12.4517
sofinstagram	-12.4517
떤	-12.4518
▁팔뚝	-12.4522
▁엑스포	-12.4524
▁어벤져스	-12.4529
샛	-12.4529
😌	-12.4529
地	-12.4532
맘	-12.4532
wh	-12.4535
uch	-12.4536
▁HD	-12.4537
▁Di	-12.454
ble	-12.4543
▁짜잔	-12.4548
▁직종	-12.4553
▁욕조	-12.4553
▁언닌	-12.4555
▁그라운드	-12.4564
▁중얼거	-12.4567
텀	-12.4567
▁하얀색	-12.457
어냈	-12.4572
▁취해서	-12.4576
▁마십시오	-12.4576
淸	-12.4576
룻	-12.4576
▁365	-12.4576
돔	-12.4579
▁발랐	-12.458
▁지나갈	-12.4585
PC	-12.4585
칵	-12.4588
▁selca	-12.4588
▁진흙	-12.4589
▁레슨	-12.459
▁퇴출	-12.4596
▁짭짤	-12.46
情	-12.46
▁어우러져	-12.46
▁상륙	-12.4612
▁어저께	-12.4612
▁변할	-12.4614
▁낙엽	-12.4614
▁You	-12.4621
▁왕십리	-12.4624
웍	-12.4624
▁카라멜	-12.4624
겔	-12.4627
korea	-12.4627
▁콤플렉스	-12.4636
▁루터	-12.4636
pi	-12.4636
▁섭외	-12.4638
그래	-12.4638
CE	-12.4639
▁초창기	-12.4648
民	-12.4651
▁햌ᄏᄏᄏ	-12.4657
▁치즈케이크	-12.4659
▁껄껄	-12.466
▁당당히	-12.466
뚫	-12.4663
een	-12.4667
▁레깅스	-12.4671
▁옆구리	-12.4671
씹히	-12.4672
▁라이벌	-12.4675
씬	-12.4677
▁파이프	-12.4679
▁경직	-12.4683
▁>.<	-12.4683
▁instadog	-12.4683
語	-12.4683
▁주식회사	-12.4683
▁쪄서	-12.4683
▁dietfood	-12.4683
▁단무지	-12.4683
▁모찌	-12.4685
★	-12.4687
무늬	-12.469
▁무례	-12.4691
▁순찰	-12.4694
▁커피숍	-12.4696
▁시킨다는	-12.4698
▁이룬다	-12.4699
▁들어갑니다	-12.4707
▁날아오	-12.4707
ose	-12.4711
▁출세	-12.4712
▁덧붙여	-12.4719
줭	-12.4719
▁곁들	-12.4725
▁누님	-12.4728
▁바이올린	-12.4731
▁잉글랜드	-12.4731
♂	-12.4731
夫	-12.4731
▁갈매기	-12.4731
▁징후	-12.4731
▁재편	-12.4735
▁홍합	-12.4735
▁몰르	-12.4738
gre	-12.4742
▁dessert	-12.4743
▁농림	-12.4748
CH	-12.4749
nn	-12.475
현종	-12.4751
▁제정신	-12.4752
陽	-12.4755
▁호로록	-12.4755
튀	-12.476
▁기념관	-12.4764
las	-12.4765
▁리포터	-12.4767
▁후계자	-12.4767
▁절친	-12.4773
▁관철	-12.4778
▁후다닥	-12.4779
MP	-12.4781
▁테크노	-12.4782
▁랄까요	-12.4789
▁토해	-12.4791
▁옷차림	-12.4791
▁비린내	-12.4791
▁시리얼	-12.4792
ᄐᄐ	-12.4793
▁둥근	-12.4797
🧡	-12.4804
▁등장인물	-12.4804
▁법인세	-12.4808
ous	-12.4813
▁베베	-12.4814
▁끌어올리	-12.4816
궂	-12.4816
▁갯벌	-12.4816
▁싱어	-12.4817
▁직결	-12.4818
▁표결	-12.4819
▁희한	-12.482
깍	-12.4821
▁관통	-12.4826
▁잖습니까	-12.4828
✌	-12.4828
▁잔액	-12.483
▁왠만	-12.4832
▁푸들	-12.4838
▁이튿날	-12.484
▁뒤통수	-12.484
▁플라톤	-12.484
▁그럴까요	-12.4841
▁에스케이	-12.4842
▁스윗	-12.4843
▁복싱	-12.4845
▁물씬	-12.4845
武	-12.4852
큭	-12.4852
▁젓갈	-12.4852
▁👏🏻	-12.4853
▁ᄐᄏᄏᄏᄏ	-12.4854
▁납작	-12.4855
▁점심때	-12.4857
▁무의식	-12.4859
▁흥원	-12.486
ration	-12.4861
▁까다로운	-12.4864
使	-12.4864
▁블랙홀	-12.4865
▁변함없	-12.4866
▁복판	-12.4869
웰	-12.4869
▁계신데	-12.4873
▁헌데	-12.4876
▁스파이더맨	-12.4876
▁쏙쏙	-12.4876
▁아녜요	-12.4876
▁메시	-12.488
tte	-12.4887
▁텍사스	-12.4889
LO	-12.489
▁부쩍	-12.4893
hen	-12.4896
▁웨이트	-12.4899
▁찰칵	-12.4901
▁웨이브	-12.4903
▁방패	-12.4904
핵	-12.4905
va	-12.4911
칩니다	-12.4911
▁반짝반짝	-12.4913
▁컬렉션	-12.4913
▁터뜨렸	-12.4913
!!!!!!!!!!!!!!!!	-12.4918
▁아까워서	-12.4918
▁급변	-12.4921
▁거래량	-12.4922
훤	-12.4925
▁동북	-12.4928
▁1974	-12.4928
▁스트로	-12.4928
▁다이아	-12.4929
▁어떨지	-12.4929
짤	-12.4932
▁헷갈	-12.4935
󰡔	-12.4938
▁슈팅	-12.4942
▁맞물려	-12.4942
▁공표	-12.4944
▁애플리케이션	-12.495
報	-12.495
줏	-12.495
😉	-12.495
▁환절기	-12.495
드러지	-12.495
▁으냐	-12.495
▁유리창	-12.4951
▁전성기	-12.4951
run	-12.4957
▁떨쳐	-12.4959
死	-12.4962
🍴	-12.4962
쭐	-12.4962
▁흐트러	-12.4962
▁딸아이	-12.4966
▁매끈	-12.497
즤	-12.4974
▁탱탱	-12.4975
▁ᄏᄃ	-12.4979
▁잔혹	-12.498
PP	-12.4986
핥	-12.4987
▁헝가리	-12.4987
OM	-12.4988
▁그래서인지	-12.4988
▁본회의	-12.4992
▁우익	-12.4992
▁봄날	-12.4998
龍	-12.4999
▁택했	-12.5004
▁는구만	-12.5004
냉	-12.5005
벗	-12.5006
긍	-12.5006
옵니다	-12.5007
▁잠든	-12.5008
▁추종	-12.501
▁항생제	-12.5011
▁문화유산	-12.5011
▁청국장	-12.5011
샌	-12.5019
chi	-12.5019
▁브레드	-12.5019
▁기다린	-12.5021
▁코딩	-12.5022
▁귀환	-12.5026
려앉	-12.503
컫	-12.5036
▁not	-12.5037
○	-12.5037
CS	-12.5042
펄	-12.5043
▁특례	-12.5043
▁골짜기	-12.5048
❗	-12.5048
務	-12.5048
間	-12.5048
짊	-12.5048
▁꽁꽁	-12.5049
▁근간	-12.5054
發	-12.5061
떳	-12.5061
▁바랐	-12.5061
CT	-12.5063
▁광채	-12.5063
코프	-12.5067
hu	-12.5072
떵	-12.5073
▁외할머니	-12.5073
터뜨리	-12.5074
ase	-12.5079
▁선관위	-12.5086
!!!!!!	-12.5086
▁미나리	-12.5087
▁캐주얼	-12.5098
▁나아갈	-12.5099
▁깜박	-12.51
▁댕겨	-12.5102
▁뿌린	-12.5107
▁BMW	-12.5111
▁나뭇가지	-12.5111
▁농어촌	-12.5111
▁악순환	-12.5111
▁직위	-12.5113
▁1976	-12.5113
▁규율	-12.5115
▁가부장	-12.5118
뜻	-12.5123
先	-12.5123
▁한바탕	-12.5123
▁반바지	-12.5123
▁찾아다니	-12.5124
corgi	-12.5125
둘렀	-12.5127
▁독려	-12.513
▁폭락	-12.5131
▁충실히	-12.5134
▁올라간다	-12.5134
▁변태	-12.5136
▁LCD	-12.5136
▁콘셉트	-12.5136
▁펼칠	-12.5136
▁성희롱	-12.5136
ECD	-12.5136
▁쿨링	-12.5138
▁돌아간다	-12.5139
끄럽	-12.5147
▁북극	-12.5147
▁퍽퍽	-12.5148
仁	-12.5148
뗘	-12.5148
▁중간고사	-12.5148
▁급속히	-12.5153
▁흐려	-12.5156
볕	-12.5159
▁여하튼	-12.5161
▁변함	-12.5161
▁변환	-12.5161
▁쓰러진	-12.5162
흉	-12.5169
진짜	-12.517
▁복습	-12.5173
▁르네상스	-12.5173
셸	-12.5173
▁까르보	-12.5173
▁살펴봤	-12.5173
fa	-12.5175
▁성수기	-12.5175
▁스탠드	-12.5181
信	-12.5186
▁루머	-12.5191
져다주	-12.5192
▁헤어질	-12.5194
▁웰빙	-12.5199
ort	-12.5201
▁채찍	-12.5202
▁그만둔	-12.5202
▁플랜트	-12.5203
▁계셔서	-12.5206
ze	-12.5208
▁따를	-12.5211
萬	-12.5211
▁아테네	-12.5211
▁찬반	-12.5211
▁혜화	-12.5213
▁품위	-12.5223
밈	-12.5224
▁초음파	-12.5224
▁후라이드	-12.5224
▁백두산	-12.5224
▁코앞	-12.5224
▁터득	-12.5231
ual	-12.5232
▁임대차	-12.5236
▁멈출	-12.5236
▁육개장	-12.5236
▁듀얼	-12.5238
▁역대급	-12.5239
▁계약직	-12.5243
▁비에스	-12.5244
ative	-12.5246
▁ᄋᄆᄋ	-12.5249
▁아르헨티나	-12.5249
몀	-12.5249
▁페인트	-12.5249
▁으휴	-12.5252
▁궁중	-12.5256
뿐	-12.5258
▁리틀	-12.526
▁꼬박꼬박	-12.5262
훑	-12.5262
▁근절	-12.5264
▁존예	-12.5265
뗄	-12.5274
▁벨기에	-12.5274
빼	-12.5275
▁성남시	-12.5276
▁1977	-12.5277
엄두	-12.5279
팥	-12.5284
▁부응	-12.5286
▁헤쳐	-12.5286
▁웨어	-12.5286
🤦	-12.5287
▁꽃다발	-12.5287
▁트레이너	-12.5288
日	-12.5296
sta	-12.5299
▁포켓몬	-12.53
▁동맥	-12.5301
▁줄여야	-12.5302
냔	-12.5312
▁객관적으로	-12.5312
▁낙태	-12.5316
第	-12.5325
샬	-12.5325
왔다갔다	-12.5325
💖	-12.5325
▁망원동	-12.5325
self	-12.5326
▁떠올려	-12.5326
ᄏᄏᄏᄏᄏᄏᄏᄏᄏᄏᄏᄏᄏᄏᄏᄏ	-12.5327
껍	-12.5327
▁1968	-12.5328
▁스톱	-12.5329
:	-12.5335
▁불참	-12.5336
憲	-12.5338
с	-12.5338
▁배고픔	-12.5338
▁펑펑	-12.5338
▁국외	-12.5339
▁메탈	-12.5343
▁슈즈	-12.535
▁낱말	-12.5351
▁생겨났	-12.5352
IF	-12.5355
ste	-12.5359
▁뛰어내	-12.5361
▁프린터	-12.5363
院	-12.5363
킼	-12.5363
▁드릴까요	-12.5363
▁유심히	-12.5363
▁이뤄지지	-12.5363
IG	-12.5366
▁진솔	-12.5368
▁외교관	-12.5372
▁넥타이	-12.5376
▁멍하니	-12.5376
▁현수막	-12.5376
▁이산화	-12.5381
▁쟁여	-12.5381
ness	-12.5383
▁싸늘	-12.5385
▁스태프	-12.5389
병헌	-12.5396
ise	-12.5396
▁공손	-12.54
▁외삼촌	-12.5402
다던데	-12.5405
low	-12.5408
▁엄중	-12.5408
바퀴	-12.5414
▁ᄌᄉ	-12.5416
▁침공	-12.5421
▁터짐	-12.5422
▁시사회	-12.5425
▁계십니까	-12.5428
▁예루살렘	-12.5428
▁몸부림	-12.5428
▁헛소리	-12.5429
동욱	-12.5431
▁찬란	-12.5432
▁교묘	-12.5433
▁매니아	-12.5434
▁중고차	-12.5435
▁소크라테스	-12.544
💦	-12.544
▁조그마	-12.544
▁착오	-12.5441
▁까맣	-12.5443
▁쾌감	-12.5446
▁쏟아졌	-12.5449
ech	-12.5449
▁택한	-12.5453
▁보드게임	-12.5453
꺅	-12.5453
▁상거래	-12.5453
▁원산지	-12.5454
픔	-12.5455
uk	-12.546
▁극찬	-12.5466
▁쫄깃쫄깃	-12.5466
▁리처드	-12.5466
▁그럴듯	-12.5471
▁외침	-12.5478
▁맞벌이	-12.5479
해야겠다	-12.548
▁황홀	-12.5482
꼭	-12.5488
ᄐᄐᄐ	-12.5489
▁콘크리트	-12.5492
▁도라지	-12.5492
자연스레	-12.5497
아프리카	-12.5504
😀	-12.5505
▁아바타	-12.5506
tro	-12.5506
▁심혈	-12.5506
▁태극	-12.5506
ii	-12.5506
▁괴로우	-12.5506
▁이따금	-12.5507
▁트리플	-12.5507
윗	-12.5512
HE	-12.5513
혜진	-12.5517
ox	-12.5518
▁밑바닥	-12.552
▁떠올렸	-12.5523
▁VR	-12.5526
▁워커	-12.5527
▁핀란드	-12.5531
光	-12.5531
▁케이티	-12.5531
▁하이라이트	-12.5531
▁깨뜨	-12.5536
▁마포구	-12.5538
▁성직자	-12.5544
▁봣는데	-12.5547
▁탐욕	-12.5547
▁악취	-12.5553
▁나뭇잎	-12.5557
▁서대문	-12.5558
▁퇴근길	-12.5565
몫	-12.5569
▁1972	-12.557
風	-12.557
▁뛰쳐나	-12.557
▁배불러서	-12.5582
팍	-12.5582
▁빈틈	-12.5584
보냈	-12.5594
rr	-12.5604
꼴	-12.5608
▁반쪽	-12.5609
👩	-12.561
▁궁궐	-12.5611
amp	-12.5614
▁환갑	-12.5614
▁탈취	-12.5617
려받	-12.562
▁추후	-12.5626
▁혹독	-12.5627
▁방문객	-12.5629
産	-12.5636
▁meow	-12.5636
▁쇠퇴	-12.5637
▁처먹	-12.5637
AF	-12.5641
▁기프티콘	-12.5649
▁브로콜리	-12.5649
▁흥국	-12.5654
턱	-12.5659
다구요	-12.566
▁헤어져	-12.5661
▁빨리빨리	-12.5662
▁납입	-12.5664
▁청렴	-12.5665
▁레이디	-12.5665
by	-12.5666
▁통찰	-12.567
權	-12.5675
▁차돌박이	-12.5675
▁래퍼	-12.5685
’	-12.5688
뺑	-12.5689
▁스케치	-12.5689
▁흘린	-12.5693
▁혼났	-12.5694
able	-12.5694
▁비쌀	-12.5697
▁뒹굴	-12.5702
▁뮤지션	-12.5702
▁원한다면	-12.5702
▁체인점	-12.5706
way	-12.5713
핫	-12.5715
▁아슬아슬	-12.5715
▁장바구니	-12.5715
▁휠체어	-12.5715
▁미리미리	-12.5715
▁더라구여	-12.5725
▁아인슈타인	-12.5728
保	-12.5728
▁옄ᄏᄏᄏᄏ	-12.573
▁달라져	-12.573
햌	-12.573
▁좌익	-12.5732
▁계엄	-12.5738
▁블라우스	-12.5742
▁한결같이	-12.5742
▁어짜피	-12.5742
▁DJ	-12.5744
▁펼쳐진다	-12.5745
▁킬러	-12.5749
롸	-12.5755
죤	-12.5755
▁III	-12.5756
▁돌봄	-12.5759
▁벼락	-12.5761
▁소방관	-12.5764
▁eatclean	-12.5768
▁새콤달콤	-12.5768
😳	-12.5768
▁주파수	-12.5769
▁쭈욱	-12.5769
▁출혈	-12.5773
▁익힌	-12.5774
▁아리스토텔레스	-12.5781
得	-12.5781
臣	-12.5781
짰	-12.5781
💜	-12.5781
▁업로드	-12.5781
▁초상화	-12.5782
▁못한다면	-12.5789
▁뜬다	-12.5793
▁딜레마	-12.5795
▁보라카이	-12.5795
귈	-12.5795
PL	-12.5801
▁엔젤	-12.5803
▁곸ᄏᄏᄏᄏ	-12.5804
▁쓰레기통	-12.5804
ier	-12.5806
껑	-12.5808
▁아메리칸	-12.5808
帝	-12.5808
▁식습관	-12.5808
▁항소심	-12.5808
▁스마일	-12.5808
▁기다림	-12.5809
▁좁혀	-12.5812
▁휘말	-12.5817
▁dis	-12.582
▁엄밀	-12.582
▁팔꿈치	-12.5822
江	-12.5822
觀	-12.5822
▁사계절	-12.5822
켄	-12.5822
oh	-12.5824
▁술안주	-12.5835
▁다네요	-12.5837
▁올게요	-12.5837
▁울컥	-12.5837
▁inter	-12.584
LE	-12.584
▁역삼	-12.5846
▁꼼수	-12.5849
▁싹싹	-12.5849
wo	-12.585
▁쉐프	-12.5855
▁필수품	-12.5856
▁민영화	-12.5862
▁괴로운	-12.5862
▁긍데	-12.5868
▁으리라고	-12.5875
▁쿼트	-12.5875
▁병아리	-12.5875
▁일어남	-12.5876
▁블랑	-12.5877
폈	-12.5877
봅니다	-12.5877
▁드라이버	-12.5878
wi	-12.5878
▁Qu	-12.5889
▁이래저래	-12.5889
▁취향저격	-12.5889
륭	-12.5889
▁내세웠	-12.5889
▁캡틴	-12.5889
lt	-12.589
ix	-12.5892
rain	-12.5901
▁갑작스런	-12.5902
▁까다롭	-12.5902
▁피크닉	-12.5902
靑	-12.5902
▁되돌려	-12.5903
[	-12.5904
▁한라산	-12.5905
▁1948	-12.5905
▁엘베	-12.5907
▁즐거	-12.5917
▁꽃잎	-12.5918
▁닥쳐	-12.592
▁김영철	-12.5921
▁짓밟	-12.5929
▁네이처	-12.593
▁다국적	-12.593
▁논증	-12.5933
▁---------	-12.5943
▁토마스	-12.5943
▁찾아봐	-12.5943
▁아아아아아	-12.5944
▁향긋	-12.5946
▁청나라	-12.5952
EF	-12.5956
如	-12.5956
▁neco	-12.5956
▁장모님	-12.5956
▁손수건	-12.5956
▁테두리	-12.5957
▁앨리스	-12.5957
mark	-12.5959
▁페이퍼	-12.596
▁어지간	-12.596
▁ᄋᄂ	-12.5961
▁노르웨이	-12.597
能	-12.597
▁으셔도	-12.597
▁이토록	-12.597
▁칼날	-12.5973
▁이디야	-12.5976
▁과감히	-12.5978
▁끈적	-12.598
▁느닷없이	-12.5984
▁새우튀김	-12.5984
챱	-12.5984
촐	-12.5984
숍	-12.5996
▁baby	-12.5997
깰	-12.5997
텅	-12.6
▁효용	-12.6001
▁균열	-12.6002
▁펌프	-12.6004
▁즉흥	-12.6009
들려주	-12.601
н	-12.6011
▁건넸	-12.6011
▁해병대	-12.6012
EL	-12.6019
EX	-12.6023
▁몽땅	-12.6025
▁스프레이	-12.6025
짚	-12.6027
▁캔디	-12.6036
ein	-12.6037
▁쓸모없	-12.6045
員	-12.6052
▁고위급	-12.6055
▁트로트	-12.6066
▁VIP	-12.6066
빅	-12.6068
▁한정판	-12.6073
PE	-12.6077
▁컨벤션	-12.6079
佛	-12.6079
▁남학생	-12.6079
▁한남동	-12.608
위원회	-12.6089
▁얽매	-12.6093
▁전자레인지	-12.6093
▁떡갈비	-12.6093
▁스폰서	-12.6093
ization	-12.6094
▁katze	-12.6107
▁해바라기	-12.6107
▁굴복	-12.6107
▁가르쳤	-12.611
๑	-12.6121
▁괴로움	-12.6121
▁낄낄	-12.6121
▁빨갱이	-12.6121
▁이산가족	-12.6121
▁쫀쫀	-12.6121
▁큽니다	-12.6121
껐	-12.6121
▁장아찌	-12.6121
▁툭툭	-12.6121
▁일어섰	-12.6121
▁들어옴	-12.6121
▁맡긴	-12.6125
▁퓨전	-12.6125
▁*_*	-12.6135
▁메커니즘	-12.6135
。	-12.6135
▁아웃도어	-12.6135
▁가리킨다	-12.6135
▁가까우	-12.6136
샷	-12.6138
엿	-12.6138
삿	-12.6138
unt	-12.614
훔치	-12.6145
밬	-12.6148
▁메트로	-12.6148
▁요즈음	-12.6148
▁레닌	-12.6153
ᅲᅲᅲᅲᅲ	-12.6154
▁delicious	-12.6162
朝	-12.6162
▁ICT	-12.6163
▁촉발	-12.6169
▁바닷물	-12.6176
▁컴퍼니	-12.6176
重	-12.6176
▁플레인	-12.6176
을지도	-12.6178
뭉	-12.6179
▁멸종	-12.6179
▁매몰	-12.6186
然	-12.619
▁주니어	-12.6191
▁리포트	-12.6195
▁냨ᄏᄏᄏ	-12.6195
▁시뮬레이션	-12.6204
▁어버이날	-12.6204
댱	-12.6204
▁노른자	-12.6204
▁짘ᄏᄏᄏ	-12.6205
▁시끄러워	-12.6209
▁움직인다	-12.6218
▁그저께	-12.6221
▁블링	-12.6224
▁보글보글	-12.6232
我	-12.6232
▁센텀	-12.6232
▁ᄐᄏᄏᄏᄏᄏ	-12.624
▁이쁜데	-12.6245
▁̊̈	-12.6246
▁깜깜	-12.6246
▁땡땡	-12.6246
▁튀긴	-12.6246
▁빼빼	-12.6247
▁추궁	-12.6257
땅	-12.6259
▁뉘앙스	-12.626
期	-12.626
▁패러디	-12.626
꾸러기	-12.6262
▁가즈아	-12.6262
▁통계청	-12.6267
▁명백히	-12.6268
▁침범	-12.6269
▁펀치	-12.6271
▁핸드크림	-12.6274
▁헉헉	-12.6274
▁들어감	-12.6276
밴	-12.6278
▁선입견	-12.6288
▁임진왜란	-12.6288
株	-12.6288
▁시베리아	-12.6288
▁빈티지	-12.6288
▁독수리	-12.6288
▁ᄀᄉ	-12.6296
흡	-12.6299
▁Mi	-12.6301
見	-12.6302
쏭	-12.6302
▁무너졌	-12.6302
•	-12.6306
OO	-12.6307
곶	-12.6316
▁떳떳	-12.6316
▁어처구니	-12.6316
▁팔레스타인	-12.6316
野	-12.6316
챘	-12.6316
▁곸ᄏᄏ	-12.6318
▁트랩	-12.6318
▁으믄	-12.6319
▁언냐	-12.6321
▁숨쉬	-12.6326
▁지휘관	-12.6328
LL	-12.633
▁설렘	-12.6331
뷰	-12.6332
▁능숙	-12.6338
▁향신료	-12.6344
▁전염병	-12.6344
▁사이언스	-12.6344
▁스위트	-12.6344
▁철폐	-12.635
▁레전드	-12.6358
▁장단점	-12.6358
▁셔야죠	-12.636
▁문턱	-12.6361
▁힘겹	-12.6364
▁새싹	-12.6364
▁가져간	-12.6368
췌	-12.6372
▁단숨에	-12.6372
뽁	-12.6372
▁데려와	-12.6372
▁방탄소년단	-12.6386
▁퀘스트	-12.6386
▁로스쿨	-12.6387
▁최일구	-12.6387
▁구제역	-12.6391
▁꺼낸	-12.6397
樂	-12.6401
▁비엔나	-12.6401
▁그리스도교	-12.6408
▁보금자리	-12.6415
옇	-12.6415
▁내정자	-12.6417
릏	-12.6443
빤	-12.6447
林	-12.6458
앨	-12.6479
츄	-12.6492
돋	-12.6493
쑥	-12.6531
둠	-12.654
ᄌ	-12.6578
「	-12.6579
{	-12.6587
ル	-12.6587
뜸	-12.6592
멤	-12.663
옵	-12.6637
解	-12.6645
듕	-12.6659
콥	-12.6659
깄	-12.6674
먀	-12.6689
탠	-12.67
혓	-12.6733
푹	-12.6741
깽	-12.6747
木	-12.6747
ᄈ	-12.6762
칰	-12.6762
뽈	-12.6806
혐	-12.6829
‘	-12.683
웩	-12.6836
닠	-12.6864
將	-12.6866
論	-12.6875
🏃	-12.688
엎	-12.689
市	-12.6895
當	-12.691
身	-12.691
륨	-12.6936
式	-12.694
錄	-12.694
퀵	-12.694
싯	-12.6966
퀀	-12.697
얘	-12.6981
💗	-12.7
캠	-12.7011
處	-12.7015
求	-12.7046
갭	-12.7046
쫀	-12.7061
都	-12.7061
來	-12.7076
司	-12.7076
眞	-12.7076
쒀	-12.7076
셰	-12.7087
р	-12.7106
т	-12.7106
濟	-12.7137
샴	-12.7152
젯	-12.7167
🌟	-12.7167
쁜	-12.717
핍	-12.7213
條	-12.7214
좃	-12.7214
돗	-12.7229
̋	-12.7229
共	-12.7244
多	-12.7244
要	-12.7244
字	-12.726
老	-12.726
욤	-12.7273
좋	-12.7289
샥	-12.7291
잰	-12.7291
쌈	-12.7305
댓	-12.7336
얽	-12.7337
川	-12.7337
親	-12.7337
基	-12.7353
華	-12.7353
흩	-12.7363
슉	-12.7369
ᅢ	-12.7414
쉘	-12.7416
뿜	-12.743
쪙	-12.7431
↓	-12.7431
셍	-12.7447
ᄄ	-12.7463
뻐	-12.7491
🍓	-12.7495
껭	-12.751
族	-12.7526
🖤	-12.7542
뀌	-12.7554
性	-12.7558
府	-12.7558
눔	-12.7589
形	-12.759
슐	-12.7591
쌍	-12.7602
之	-12.7622
펫	-12.7656
圖	-12.767
쮸	-12.767
張	-12.7703
寺	-12.7719
씰	-12.7735
엑	-12.7736
핼	-12.7767
●	-12.7769
開	-12.7784
🤤	-12.7784
넥	-12.7785
뚠	-12.78
뵐	-12.78
뻘	-12.7802
빻	-12.7816
中	-12.7835
멎	-12.7849
닿	-12.7851
運	-12.7866
땀	-12.7868
벵	-12.7898
堂	-12.7932
氏	-12.7948
花	-12.7948
윅	-12.7948
手	-12.7965
펭	-12.7965
캉	-12.7985
}	-12.7998
젭	-12.7998
ᅵ	-12.8035
뱀	-12.8069
春	-12.8082
뮤	-12.8086
周	-12.8098
祖	-12.8098
댑	-12.8132
ᴗ	-12.8132
百	-12.8132
政	-12.8137
옄	-12.8146
師	-12.8166
뎈	-12.817
놋	-12.8183
팰	-12.8183
土	-12.82
黃	-12.8217
앖	-12.8217
兵	-12.8234
퓨	-12.8257
찐	-12.8274
깅	-12.8274
資	-12.8285
쏘	-12.8291
一	-12.8291
統	-12.8302
팩	-12.8308
젛	-12.8319
🎉	-12.8319
入	-12.8337
度	-12.8337
😥	-12.8354
둡	-12.8405
🍫	-12.8406
팻	-12.8423
界	-12.8458
큘	-12.8458
神	-12.8483
댈	-12.8483
受	-12.8493
낵	-12.8493
헙	-12.8493
퐁	-12.8501
異	-12.851
雲	-12.8563
묽	-12.8563
現	-12.8581
굉	-12.8598
◡	-12.8616
튬	-12.8616
表	-12.8634
틋	-12.8634
흰	-12.8643
맙	-12.8651
私	-12.8652
쩨	-12.8669
😃	-12.8669
돼	-12.8679
火	-12.8687
👈	-12.8723
律	-12.8741
ヲ	-12.8759
끓	-12.8769
食	-12.8777
〔	-12.8795
궤	-12.8805
九	-12.8813
例	-12.8813
問	-12.8813
至	-12.8813
덫	-12.8849
甲	-12.8867
왘	-12.8867
𐨛	-12.8885
關	-12.8885
셩	-12.8885
씽	-12.8897
決	-12.8904
믈	-12.8904
곸	-12.8914
趙	-12.8922
읭	-12.8922
핰	-12.8922
〕	-12.894
꙼	-12.894
맸	-12.894
왜	-12.8952
슭	-12.8959
찝	-12.8959
過	-12.8977
空	-12.8977
限	-12.8977
王	-12.8989
任	-12.8995
未	-12.8995
👊	-12.8995
😛	-12.9014
黨	-12.9032
뒤	-12.9058
묻	-12.9061
в	-12.9069
녓	-12.9069
짢	-12.9088
🙂	-12.9088
流	-12.9125
フ	-12.9144
빕	-12.9162
⋅	-12.9162
횡	-12.9176
쨍	-12.9181
河	-12.92
父	-12.92
깻	-12.9219
콸	-12.9219
곽	-12.923
핌	-12.9256
🥄	-12.9256
촤	-12.9256
즐	-12.927
ぬ	-12.9275
넼	-12.928
템	-12.9285
좔	-12.9313
章	-12.9332
깟	-12.9332
꼇	-12.9332
典	-12.9351
志	-12.9351
證	-12.937
令	-12.9389
想	-12.9389
햅	-12.9389
к	-12.9408
修	-12.9408
옶	-12.9408
텁	-12.9408
펍	-12.9408
펑	-12.9424
펀	-12.9424
됨	-12.9425
數	-12.9447
💃	-12.9447
낀	-12.9482
ん	-12.9485
節	-12.9485
請	-12.9505
땡	-12.9522
햇	-12.9522
效	-12.9524
獨	-12.9544
펌	-12.9561
支	-12.9563
正	-12.9581
福	-12.9583
씁	-12.9583
쿰	-12.9583
늦	-12.9636
헛	-12.964
뭐	-12.9719
機	-12.972
엊	-12.972
욘	-12.9739
∙	-12.974
갗	-12.974
🍳	-12.974
告	-12.978
춧	-12.978
母	-12.9799
뮈	-12.9819
숀	-12.9819
六	-12.9839
益	-12.9839
겤	-12.9853
面	-12.9859
뿡	-12.9859
칩	-12.986
뽐	-12.988
깸	-12.988
此	-12.992
뎌	-12.992
썰	-12.9921
탔	-12.9941
👧	-12.9981
듭	-13.0017
島	-13.0021
號	-13.0042
갰	-13.0042
윳	-13.0062
깡	-13.0064
八	-13.0083
歌	-13.0083
因	-13.0103
害	-13.0103
己	-13.0103
🍞	-13.0103
進	-13.0124
켤	-13.0124
↑	-13.0144
常	-13.0144
뫼	-13.0144
뤼	-13.0168
車	-13.0206
𐌅	-13.0227
惡	-13.0248
靈	-13.0248
쌰	-13.0248
굿	-13.0252
쥰	-13.0269
봬	-13.029
됑	-13.0311
쨩	-13.0311
♪	-13.0332
別	-13.0332
땃	-13.0332
뤠	-13.0332
😙	-13.0332
♩	-13.0353
뻑	-13.0373
格	-13.0374
茶	-13.0374
七	-13.0395
色	-13.0416
앳	-13.0416
ღ	-13.0438
千	-13.0438
섣	-13.0438
쨈	-13.0438
宮	-13.0459
廣	-13.0459
쪼	-13.0464
튕	-13.048
퉤	-13.0523
킄	-13.0544
話	-13.0566
🎁	-13.0566
天	-13.0572
쨋	-13.0587
맠	-13.0587
읎	-13.0587
🐽	-13.0587
맑	-13.0594
位	-13.0609
겋	-13.0609
얜	-13.0609
由	-13.0631
왈	-13.0638
場	-13.0652
꽂	-13.066
愛	-13.0674
規	-13.0674
上	-13.0681
숩	-13.0682
申	-13.0696
質	-13.0696
ෆ	-13.0718
目	-13.0718
섀	-13.074
👻	-13.074
省	-13.0762
必	-13.0784
됌	-13.0784
랔	-13.0799
英	-13.0806
容	-13.0828
몄	-13.0828
댘	-13.083
こ	-13.085
崔	-13.0872
玉	-13.0872
훠	-13.0872
얗	-13.0886
л	-13.0894
何	-13.0894
吉	-13.0894
뒈	-13.0894
|	-13.0903
쬬	-13.0916
失	-13.0939
富	-13.0939
永	-13.0939
쉿	-13.0939
윙	-13.0946
캅	-13.0961
🥺	-13.0961
ᄁ	-13.0994
債	-13.1006
뗀	-13.1006
村	-13.1029
엨	-13.1029
홧	-13.1029
起	-13.1051
읏	-13.1051
쫍	-13.1074
섞	-13.1085
넜	-13.1096
洞	-13.1119
聞	-13.1119
訴	-13.1119
類	-13.1119
뒹	-13.1142
と	-13.1142
孫	-13.1142
變	-13.1142
😖	-13.1211
뽕	-13.1223
높	-13.1223
里	-13.1257
댜	-13.1269
솝	-13.128
쫘	-13.128
今	-13.1326
秦	-13.1326
郞	-13.1326
齊	-13.1326
有	-13.1339
象	-13.1349
궜	-13.1349
햏	-13.1349
펼	-13.1367
唐	-13.1373
忠	-13.1373
宋	-13.1396
넙	-13.1396
쐈	-13.1396
取	-13.1419
居	-13.1419
쟌	-13.1419
件	-13.1443
財	-13.1443
路	-13.1443
싀	-13.149
찡	-13.1529
뗐	-13.1537
쿤	-13.1577
精	-13.1585
近	-13.1585
퉈	-13.1585
🍃	-13.1585
쉐	-13.1601
頭	-13.1609
챗	-13.1609
く	-13.1633
뭍	-13.1633
🙇	-13.1633
씩	-13.1649
若	-13.1657
쯔	-13.1697
口	-13.1705
强	-13.1705
짘	-13.1716
튜	-13.1719
좀	-13.1722
🌼	-13.1729
禪	-13.1753
約	-13.1753
總	-13.1753
り	-13.1753
§	-13.1777
엷	-13.1802
縣	-13.1826
良	-13.1826
改	-13.1851
헴	-13.1851
최	-13.1862
諸	-13.1875
싶	-13.1894
題	-13.19
잣	-13.1918
텨	-13.1923
쥘	-13.1949
◈	-13.1974
羅	-13.1999
헿	-13.2018
像	-13.2023
犬	-13.2023
💘	-13.2023
ス	-13.2023
委	-13.2073
草	-13.2073
칡	-13.2073
松	-13.2098
船	-13.2098
볐	-13.2098
썅	-13.2098
덧	-13.2117
▽	-13.2124
틔	-13.2124
잏	-13.2174
～	-13.2174
짠	-13.2192
챙	-13.2196
興	-13.2199
裁	-13.2199
삥	-13.225
좁	-13.2273
헬	-13.2273
易	-13.2276
星	-13.2276
뜰	-13.2287
從	-13.2301
뉸	-13.2301
핡	-13.2301
힉	-13.2301
⊙	-13.2327
音	-13.2327
뫄	-13.2327
儒	-13.2353
補	-13.2353
띔	-13.2353
工	-13.2378
轉	-13.2378
헣	-13.2378
😤	-13.2378
쓸	-13.2401
돛	-13.2404
源	-13.243
꿩	-13.243
젖	-13.2454
썬	-13.2454
덥	-13.2455
셌	-13.2456
次	-13.2482
遺	-13.2482
탤	-13.2482
냇	-13.2507
찼	-13.2507
承	-13.2508
術	-13.2508
뺌	-13.2508
볶	-13.2532
뇽	-13.2533
슘	-13.2534
團	-13.2561
陰	-13.2561
麗	-13.2561
빡	-13.2586
쉰	-13.2586
녹	-13.2586
̶	-13.2587
交	-13.2587
兩	-13.2587
谷	-13.2587
造	-13.2587
뵤	-13.2587
삑	-13.2587
츤	-13.2587
얔	-13.2599
┃	-13.2613
쭘	-13.2613
깠	-13.264
皇	-13.2666
矣	-13.2666
😜	-13.2666
툼	-13.2672
寶	-13.2693
特	-13.2693
秋	-13.2693
罪	-13.2693
孝	-13.272
感	-13.272
酒	-13.272
˂	-13.2746
냠	-13.2747
댐	-13.2747
쀼	-13.2773
샵	-13.2774
잿	-13.28
탉	-13.28
丁	-13.2827
去	-13.2827
守	-13.2827
直	-13.2827
엡	-13.2827
乙	-13.2854
男	-13.2854
識	-13.2854
젬	-13.2854
📍	-13.2854
計	-13.2881
샜	-13.2881
폿	-13.2881
😻	-13.2881
仙	-13.2908
윷	-13.2908
짼	-13.2908
궄	-13.2936
꼐	-13.2936
찧	-13.2936
💋	-13.2936
욬	-13.2975
好	-13.299
齋	-13.299
🌷	-13.299
촥	-13.3018
‧	-13.3045
功	-13.3045
멧	-13.3073
器	-13.3073
윰	-13.3073
톳	-13.3073
🌱	-13.3073
—	-13.3074
止	-13.3101
續	-13.3101
😣	-13.3128
낯	-13.3133
봇	-13.3149
썼	-13.3154
홋	-13.3156
♬	-13.3184
考	-13.3184
꽁	-13.3188
始	-13.3212
念	-13.3212
科	-13.3212
謂	-13.3212
🐾	-13.3212
ラ	-13.324
加	-13.324
示	-13.324
엏	-13.324
̑	-13.3268
虛	-13.3268
選	-13.3268
刑	-13.3297
版	-13.3297
🍊	-13.3297
쎄	-13.3299
많	-13.3322
給	-13.3325
눕	-13.333
存	-13.3353
聲	-13.3353
臺	-13.3353
땔	-13.3353
뻬	-13.3353
쥔	-13.3359
局	-13.3382
뿍	-13.341
管	-13.3411
훙	-13.3411
尹	-13.3439
鄕	-13.3439
電	-13.3439
깈	-13.3439
뎠	-13.3439
텃	-13.3439
튠	-13.3439
慶	-13.3468
景	-13.3468
朱	-13.3468
냬	-13.3468
果	-13.3497
땟	-13.3497
콱	-13.3497
🍗	-13.3526
놔	-13.3537
м	-13.3555
洪	-13.3555
編	-13.3555
調	-13.3555
빰	-13.3555
쯧	-13.3584
🍻	-13.3584
大	-13.3591
쨌	-13.3601
듐	-13.3613
🍺	-13.3613
畵	-13.3642
爲	-13.365
井	-13.3671
半	-13.3671
넓	-13.3679
뜯	-13.368
價	-13.3701
勝	-13.3701
農	-13.3701
둿	-13.3701
렝	-13.3701
し	-13.3701
×	-13.3709
촬	-13.373
舊	-13.373
눼	-13.376
旨	-13.3819
極	-13.3819
監	-13.3819
벚	-13.3819
🍜	-13.3819
コ	-13.3849
͡	-13.3849
職	-13.3849
郡	-13.3849
뱌	-13.3849
얐	-13.3849
館	-13.3879
솨	-13.3879
잴	-13.3879
넹	-13.3889
˃	-13.3909
序	-13.3909
銀	-13.3909
卷	-13.3939
案	-13.3939
達	-13.3939
앟	-13.3969
μ	-13.3969
д	-13.4
種	-13.4
🧀	-13.4
냑	-13.403
겅	-13.4042
ᆢ	-13.4061
亦	-13.4061
빱	-13.4061
샨	-13.4061
핳	-13.4073
敬	-13.4091
쭙	-13.4091
쌩	-13.4104
智	-13.4122
눗	-13.4122
햤	-13.4122
🍕	-13.4122
レ	-13.4153
賢	-13.4153
首	-13.4153
웬	-13.4165
香	-13.4184
🍽	-13.4184
亂	-13.4214
建	-13.4214
祭	-13.4214
켘	-13.4214
펩	-13.4214
푀	-13.4214
📸	-13.4214
꼰	-13.4246
結	-13.4246
됭	-13.4246
듸	-13.4246
💞	-13.4246
東	-13.4259
굼	-13.4259
客	-13.4277
劉	-13.4308
뮨	-13.4308
풉	-13.4308
휼	-13.4308
乎	-13.4339
魏	-13.4339
쪄	-13.4354
냨	-13.436
復	-13.4371
派	-13.4371
멓	-13.4371
얏	-13.4386
尙	-13.4402
禁	-13.4402
等	-13.4402
🌝	-13.4402
紀	-13.4434
뷸	-13.4434
룹	-13.4446
씌	-13.4449
應	-13.4466
쌋	-13.4466
印	-13.4498
歸	-13.4498
괭	-13.4498
숨	-13.4502
̵	-13.4529
メ	-13.4529
柳	-13.4529
陳	-13.4529
順	-13.4529
營	-13.4562
쩔	-13.4572
イ	-13.4594
品	-13.4594
😴	-13.4594
參	-13.4626
吳	-13.4626
活	-13.4626
病	-13.4626
뷴	-13.4626
少	-13.4658
昌	-13.4658
―	-13.4676
쟀	-13.4691
쭌	-13.4691
根	-13.4723
💫	-13.4723
辭	-13.4756
🙃	-13.4756
許	-13.4789
👯	-13.4789
壽	-13.4822
儀	-13.4855
徐	-13.4855
提	-13.4855
校	-13.4855
欲	-13.4855
領	-13.4855
點	-13.4855
🎄	-13.4855
🎈	-13.4855
뽀	-13.4874
햄	-13.4874
回	-13.4888
宣	-13.4888
戶	-13.4888
넫	-13.4888
곧	-13.4902
곯	-13.4921
寧	-13.4954
登	-13.4954
헠	-13.4954
퀸	-13.4975
🙉	-13.4988
習	-13.5021
–	-13.5055
歷	-13.5055
消	-13.5055
뜀	-13.5055
젱	-13.5089
홈	-13.5111
☎	-13.5123
껜	-13.5123
켐	-13.5123
🍰	-13.5123
カ	-13.5123
に	-13.5157
奇	-13.5157
遠	-13.5157
톈	-13.5157
덮	-13.5176
짬	-13.5179
ト	-13.5191
뾰	-13.5225
致	-13.5225
힙	-13.5248
”	-13.5248
か	-13.5259
視	-13.5259
護	-13.5259
😫	-13.5259
똑	-13.5283
爭	-13.5294
🌹	-13.5294
͟	-13.5329
殺	-13.5329
衛	-13.5329
슼	-13.5329
솜	-13.5353
滿	-13.5363
足	-13.5363
쑨	-13.5363
🎂	-13.5363
🎬	-13.5363
✈	-13.5398
展	-13.5398
푠	-13.5398
🇷	-13.5398
👍	-13.5423
٩	-13.5433
ブ	-13.5433
쥼	-13.5433
캬	-13.5459
☀	-13.5468
뵌	-13.5468
뻣	-13.5468
쉅	-13.5468
왑	-13.5468
콕	-13.5491
俗	-13.5503
泰	-13.5503
線	-13.5503
送	-13.5503
た	-13.5503
힝	-13.553
曲	-13.5539
策	-13.5539
■	-13.5565
롴	-13.5574
̀	-13.5574
狀	-13.5574
😨	-13.5574
勢	-13.561
앀	-13.561
컄	-13.561
몹	-13.5645
程	-13.5646
🍎	-13.5646
相	-13.5673
ッ	-13.5681
夢	-13.5681
삔	-13.5681
“	-13.571
う	-13.5717
チ	-13.5717
區	-13.5717
及	-13.5717
梁	-13.5717
렼	-13.5717
롄	-13.5717
뵀	-13.5717
휩	-13.5717
☁	-13.5753
玄	-13.5753
絶	-13.5753
認	-13.5753
養	-13.5753
똬	-13.5753
卽	-13.579
湖	-13.579
血	-13.579
씐	-13.579
웤	-13.5807
初	-13.5826
な	-13.5826
安	-13.5856
房	-13.5863
連	-13.5863
뭥	-13.5863
냅	-13.5889
앓	-13.5893
쩝	-13.593
渡	-13.5936
큽	-13.5936
🐰	-13.5936
넣	-13.5944
🍦	-13.5973
💐	-13.5973
❄	-13.5973
п	-13.5973
吾	-13.601
夏	-13.601
持	-13.601
誠	-13.601
켕	-13.601
퀼	-13.601
🌙	-13.601
📷	-13.601
同	-13.6042
쫙	-13.6042
仲	-13.6047
償	-13.6047
멋	-13.6079
ド	-13.6084
夜	-13.6084
査	-13.6084
衣	-13.6084
댁	-13.6092
폼	-13.6103
指	-13.6122
맄	-13.6122
]	-13.6155
設	-13.6159
🤪	-13.6159
ᅪ	-13.6197
企	-13.6197
斷	-13.6197
옻	-13.6197
캣	-13.6231
範	-13.6235
藝	-13.6235
끙	-13.6235
냘	-13.6235
藤	-13.6273
閣	-13.6273
難	-13.6273
쿱	-13.6273
🤧	-13.6273
맺	-13.6308
ᴇ	-13.6311
흫	-13.6311
終	-13.6311
藏	-13.6311
닻	-13.6311
딬	-13.6311
🐟	-13.6311
他	-13.6349
左	-13.6349
갹	-13.6349
짹	-13.6349
亭	-13.635
友	-13.635
辛	-13.635
츈	-13.6388
溪	-13.6388
苦	-13.6388
욧	-13.6424
貴	-13.6427
醫	-13.6427
🎵	-13.6427
→	-13.6463
再	-13.6465
味	-13.6465
띡	-13.6465
빔	-13.6497
텝	-13.6501
ω	-13.6504
る	-13.6504
離	-13.6504
靜	-13.6504
귐	-13.6504
멱	-13.6504
敵	-13.6543
辰	-13.6543
꼽	-13.6574
向	-13.6583
審	-13.6583
犯	-13.6583
雄	-13.6583
겆	-13.6583
읶	-13.6583
썹	-13.6618
밸	-13.6621
%	-13.6621
폄	-13.6622
放	-13.6622
秀	-13.6622
系	-13.6622
🌊	-13.6622
🍂	-13.6622
北	-13.6661
′	-13.6661
句	-13.6661
놬	-13.6661
쫄	-13.6701
勞	-13.6701
投	-13.6701
項	-13.6701
黑	-13.6701
믐	-13.6701
켁	-13.6701
︎	-13.6701
α	-13.6701
稅	-13.6741
똠	-13.6741
퐈	-13.6741
🍑	-13.6741
틈	-13.6781
劍	-13.6781
떻	-13.6791
具	-13.6821
꺄	-13.6822
깜	-13.6822
熙	-13.6861
背	-13.6861
釋	-13.6861
퓌	-13.6861
詞	-13.6861
ᅭ	-13.6862
됔	-13.6902
👫	-13.6902
닼	-13.6903
쵸	-13.6934
♣	-13.6943
き	-13.6943
탯	-13.6943
텟	-13.6943
슥	-13.6944
떴	-13.6944
я	-13.6983
僧	-13.6983
澤	-13.6983
皆	-13.6983
移	-13.6983
꺠	-13.6983
묭	-13.6983
맵	-13.6985
植	-13.7024
量	-13.7024
у	-13.7066
殿	-13.7066
胡	-13.7066
違	-13.7066
ᴏ	-13.7107
園	-13.7107
婦	-13.7107
談	-13.7107
븅	-13.7107
構	-13.7148
于	-13.7148
孔	-13.7148
舍	-13.7148
衆	-13.7148
配	-13.7148
섴	-13.7178
破	-13.719
っ	-13.719
境	-13.719
服	-13.719
素	-13.719
《	-13.7194
略	-13.7232
귱	-13.7232
🍚	-13.7232
侯	-13.7274
引	-13.7274
望	-13.7274
遊	-13.7274
탰	-13.7274
☝	-13.7316
室	-13.7316
竹	-13.7316
聯	-13.7316
覺	-13.7316
餘	-13.7316
늗	-13.7316
🇰	-13.7316
◎	-13.7358
票	-13.7358
著	-13.7358
蘇	-13.7358
🍁	-13.7358
ク	-13.7358
돜	-13.7381
準	-13.7401
退	-13.7401
▪	-13.7444
隱	-13.7444
퉜	-13.7444
낫	-13.745
̥	-13.7487
乃	-13.7487
亡	-13.7487
役	-13.7487
散	-13.7487
莊	-13.7487
쭝	-13.7487
ᅩ	-13.7493
育	-13.753
鐵	-13.753
除	-13.753
雨	-13.753
&	-13.7536
걀	-13.7568
夷	-13.7573
奉	-13.7573
泉	-13.7573
魚	-13.7573
캇	-13.7573
핸	-13.758
☔	-13.7617
協	-13.7617
樹	-13.7617
比	-13.7617
雜	-13.7617
雪	-13.7617
魯	-13.7617
鳥	-13.7617
띨	-13.7617
릐	-13.7617
븨	-13.7617
샅	-13.7617
섶	-13.7617
츨	-13.7617
찹	-13.7624
❛	-13.766
列	-13.766
康	-13.766
留	-13.766
飛	-13.766
📖	-13.766
읽	-13.7712
讀	-13.7748
貞	-13.7748
🍔	-13.7748
😰	-13.7748
公	-13.7757
읔	-13.7792
寒	-13.7792
最	-13.7792
洋	-13.7792
쟈	-13.7801
ᅯ	-13.7837
😒	-13.7837
て	-13.7837
御	-13.7837
紅	-13.7837
귯	-13.7837
낟	-13.7837
믕	-13.7837
슌	-13.7881
й	-13.7881
괜	-13.7891
察	-13.7926
沈	-13.7926
虎	-13.7926
멩	-13.7926
ᅨ	-13.7926
施	-13.7971
͞	-13.7971
伯	-13.7971
喪	-13.7971
態	-13.7971
端	-13.7971
置	-13.7971
챡	-13.7971
🌈	-13.7971
🍪	-13.7971
͈	-13.8017
訟	-13.8017
ち	-13.8062
鬼	-13.8062
リ	-13.8062
왓	-13.807
不	-13.8073
布	-13.8108
料	-13.8108
波	-13.8108
샹	-13.812
邊	-13.8154
🤷	-13.8154
述	-13.8154
博	-13.82
嚴	-13.82
賣	-13.82
맻	-13.82
💟	-13.82
💧	-13.82
첵	-13.8245
±	-13.8246
筆	-13.8246
藥	-13.8246
鎭	-13.8246
쾨	-13.8246
펴	-13.8251
끽	-13.8265
曹	-13.8292
落	-13.8292
🎀	-13.8292
」	-13.8306
哲	-13.8339
單	-13.8339
型	-13.8339
昭	-13.8339
뮌	-13.8339
탸	-13.8339
👨	-13.8339
尊	-13.8386
滅	-13.8386
還	-13.8386
겊	-13.8386
씅	-13.8386
렙	-13.8401
و	-13.8433
損	-13.8433
熱	-13.8433
볏	-13.8433
킈	-13.8433
グ	-13.8481
ᆪ	-13.8481
盡	-13.8481
適	-13.8481
쨰	-13.8481
🍌	-13.8481
收	-13.8528
킁	-13.8528
붉	-13.8544
°	-13.8544
的	-13.8544
兒	-13.8576
講	-13.8576
丹	-13.8624
惠	-13.8624
楚	-13.8624
牛	-13.8624
篇	-13.8624
陵	-13.8624
삯	-13.8624
쓔	-13.8624
떫	-13.8624
낚	-13.8641
캡	-13.8641
伊	-13.8673
屬	-13.8673
戒	-13.8673
試	-13.8673
쳔	-13.8673
귄	-13.8709
各	-13.8721
后	-13.8721
캤	-13.8721
탆	-13.8721
텄	-13.8721
券	-13.877
右	-13.877
執	-13.877
脫	-13.877
買	-13.877
革	-13.877
假	-13.8819
樓	-13.8819
深	-13.8819
秘	-13.8819
讓	-13.8819
흣	-13.8819
キ	-13.8868
弘	-13.8868
檢	-13.8868
쉑	-13.8868
쨘	-13.8868
▶	-13.8887
갠	-13.8887
組	-13.8918
榮	-13.8918
住	-13.8967
才	-13.8967
擧	-13.8967
緣	-13.8967
超	-13.8967
防	-13.8967
願	-13.8967
겧	-13.8967
흄	-13.8967
β	-13.8967
딥	-13.8988
땜	-13.8988
ポ	-13.9017
亞	-13.9017
更	-13.9017
柱	-13.9017
橋	-13.9017
沙	-13.9017
辨	-13.9017
렄	-13.9017
욯	-13.9017
컾	-13.9017
툭	-13.9038
梅	-13.9068
逆	-13.9068
뱁	-13.9068
所	-13.9089
又	-13.9118
換	-13.9118
注	-13.9118
津	-13.9118
魔	-13.9118
캥	-13.9118
겈	-13.915
備	-13.9169
邪	-13.9169
🍅	-13.9169
💯	-13.9169
🤟	-13.9169
뿅	-13.9191
金	-13.9191
末	-13.922
鮮	-13.922
🍇	-13.922
個	-13.9271
喜	-13.9271
密	-13.9271
技	-13.9271
淵	-13.9271
群	-13.9271
評	-13.9271
늫	-13.9271
먿	-13.9271
눠	-13.9274
뵈	-13.9294
셧	-13.9294
已	-13.9323
晋	-13.9323
곈	-13.9323
홓	-13.9323
붐	-13.9347
婚	-13.9375
肉	-13.9375
附	-13.9375
쉭	-13.9375
씸	-13.9375
쪗	-13.9375
퍄	-13.9375
🍉	-13.9375
阿	-13.9375
꾹	-13.9399
갤	-13.9399
훨	-13.9399
띈	-13.9425
⃣	-13.9427
助	-13.9427
救	-13.9427
骨	-13.9427
👦	-13.9427
推	-13.9479
歲	-13.9479
わ	-13.9532
줜	-13.9532
🥳	-13.9532
̷	-13.9532
5	-13.9569
毛	-13.9585
🙅	-13.9585
붑	-13.9638
💝	-13.9638
燕	-13.9691
닢	-13.9691
が	-13.9691
三	-13.9719
刀	-13.9745
際	-13.9745
🍣	-13.9745
훅	-13.9773
影	-13.9799
펏	-13.9799
홱	-13.9799
🌴	-13.9799
臨	-13.9853
쥭	-13.9853
г	-13.9853
抗	-13.9908
接	-13.9908
角	-13.9908
긩	-13.9908
촨	-13.9908
텡	-13.9908
お	-13.9908
葉	-13.9908
否	-13.9963
啓	-13.9963
積	-13.9963
籍	-13.9963
般	-13.9963
譯	-13.9963
💨	-13.9963
🥖	-13.9963
팝	-13.9993
☑	-14.0018
台	-14.0018
庫	-14.0018
純	-14.0018
쿡	-14.005
完	-14.0074
盧	-14.0074
먜	-14.0074
즛	-14.0074
ら	-14.0074
吏	-14.013
稱	-14.013
訓	-14.013
費	-14.013
롷	-14.013
윔	-14.013
않	-14.0151
̫	-14.0186
履	-14.0186
干	-14.0186
延	-14.0186
楊	-14.0186
眼	-14.0186
錢	-14.0186
츌	-14.0186
侍	-14.0242
域	-14.0242
宇	-14.0242
紙	-14.0242
載	-14.0242
🍯	-14.0242
ま	-14.0242
츰	-14.0351
횟	-14.0356
溫	-14.0356
鳳	-14.0356
귿	-14.0356
봔	-14.0356
🍖	-14.0356
쩜	-14.0379
❣	-14.0391
云	-14.0414
擔	-14.0414
步	-14.0414
浮	-14.0414
赤	-14.0414
뺙	-14.0471
つ	-14.0472
傷	-14.0472
뇸	-14.0472
は	-14.053
奴	-14.053
姓	-14.053
繼	-14.053
쑴	-14.053
횽	-14.053
휜	-14.053
🍲	-14.053
ä	-14.053
☺	-14.0567
밌	-14.0585
ы	-14.0588
ᄡ	-14.0588
前	-14.0745
뉘	-14.0756
잼	-14.0802
슛	-14.0806
✨	-14.0927
깎	-14.1112
삽	-14.1112
늠	-14.1362
商	-14.1429
쿄	-14.1473
以	-14.1493
갖	-14.1556
美	-14.1624
슝	-14.169
닦	-14.169
닮	-14.1756
펐	-14.178
ᅧ	-14.189
듈	-14.19
흙	-14.2021
新	-14.2025
껌	-14.2025
빴	-14.2025
ア	-14.2037
而	-14.2094
챌	-14.2094
쉴	-14.2094
헉	-14.2232
딪	-14.2519
갚	-14.2587
無	-14.2659
굵	-14.2806
띵	-14.2806
💕	-14.2806
∼	-14.288
숟	-14.3185
촘	-14.3185
□	-14.3259
놉	-14.3259
챠	-14.3336
팜	-14.3336
갸	-14.3493
윌	-14.3493
☕	-14.3572
뎁	-14.3652
앞	-14.3727
쫑	-14.3814
高	-14.3896
뻥	-14.3979
깬	-14.4146
₩	-14.4231
👏	-14.4577
썸	-14.4665
옆	-14.4666
샐	-14.4666
ィ	-14.5108
ソ	-14.5108
🙋	-14.512
긔	-14.512
욜	-14.512
契	-14.5388
캔	-14.5594
💛	-14.5597
봣	-14.5695
ム	-14.6177
걍	-14.62
쌓	-14.6304
캄	-14.6304
늙	-14.6304
責	-14.6384
險	-14.6384
잭	-14.6409
헝	-14.6516
▲	-14.6623
也	-14.6623
넝	-14.6732
넴	-14.6732
먄	-14.6732
앰	-14.6732
될	-14.6842
쌉	-14.6953
녜	-14.7179
硏	-14.7259
́	-14.7294
탓	-14.7294
△	-14.741
춥	-14.7528
낳	-14.7528
뽑	-14.7889
덟	-14.7959
볍	-14.8087
돕	-14.8138
쳣	-14.8264
뻔	-14.8392
究	-14.8473
🙏	-14.8522
◆	-14.8654
맴	-14.8787
小	-14.8922
겡	-14.9198
햐	-14.9198
〈	-14.9339
』	-14.9339
꾀	-14.9774
ニ	-14.9854
씀	-14.9899
삶	-14.9923
눙	-15.0075
눴	-15.0106
낍	-15.0155
💚	-15.0544
싫	-15.0544
8	-15.0607
🙆	-15.0705
잌	-15.0867
뛸	-15.1036
뭔	-15.1036
즁	-15.1036
≪	-15.1036
먐	-15.1116
왱	-15.1205
뻗	-15.1205
땠	-15.1215
몇	-15.1549
넵	-15.1731
잤	-15.1731
졋	-15.1731
훔	-15.1911
웹	-15.2098
※	-15.2287
걷	-15.2287
겻	-15.2479
딨	-15.2685
꼿	-15.2756
9	-15.2762
밟	-15.2875
앱	-15.2876
릎	-15.3364
깥	-15.3577
≫	-15.3718
自	-15.3718
튿	-15.3798
註	-15.394
촵	-15.4248
됐	-15.44
졍	-15.4638
쭤	-15.4708
걔	-15.4882
긁	-15.5132
😊	-15.5132
욥	-15.5389
씻	-15.5652
🥰	-15.5652
빚	-15.5652
팟	-15.6197
끊	-15.62
▷	-15.62
죵	-15.62
✔	-15.62
땨	-15.6485
👉	-15.6779
쨔	-15.678
😍	-15.678
쟝	-15.7083
겜	-15.7083
☞	-15.7395
其	-15.7395
뺀	-15.7395
뺨	-15.7718
샀	-15.7718
떄	-15.8051
웡	-15.8051
봥	-15.9123
웟	-15.9123
밧	-15.9508
놧	-15.9508
쌤	-15.9508
첫	-15.9908
◇	-15.9908
곁	-16.0325
뒷	-16.0325
쎈	-16.0759
🌿	-16.0759
〉	-16.0759
좆	-16.0759
係	-16.084
잊	-16.1214
굳	-16.169
줫	-16.169
😆	-16.169
😘	-16.169
》	-16.219
껀	-16.219
얍	-16.219
쥴	-16.2716
🌸	-16.2717
💓	-16.2717
밝	-16.2717
믿	-16.3272
🔥	-16.3272
젊	-16.3272
팸	-16.3857
뺐	-16.386
얇	-16.386
팎	-16.391
캘	-16.5152
李	-16.5152
쏴	-16.5152
쟤	-16.5152
짧	-16.5152
😭	-16.5152
🤗	-16.5866
뺄	-16.5866
삘	-16.5866
🤭	-16.6635
헷	-16.6635
쫌	-16.6636
됫	-16.7469
│	-16.7469
갬	-16.7469
겄	-16.7469
뭘	-16.7469
옮	-16.9378
찢	-16.9378
뺏	-16.9378
😋	-16.9378
쉼	-17.0489
왠	-17.0489
😁	-17.0489
🐶	-17.0489
잃	-17.1739
🙄	-17.1739
됬	-17.1739
👀	-17.1739
🤣	-17.1739
셤	-17.1739
옛	-17.1739
굶	-17.3168
😂	-17.3168
묶	-17.4834
쏟	-17.4834
꿇	-17.4834
숏	-17.4834
겉	-17.6834
얻	-17.6834
😄	-17.6834
😝	-17.6834
꺾	-17.6835
넸	-17.6908
얹	-17.9333
쏙	-17.9334
🙈	-17.9334
팁	-17.9335
😅	-17.9335
🤩	-17.9335
깼	-17.9335
괌	-18.2668
귓	-18.2668
😚	-18.2668
꿰	-18.2668
및	-18.2668
꽉	-18.2668
땄	-18.7669
휠	-18.7669
😱	-18.7669
🐷	-18.7669
🙊	-18.7669
낡	-18.7669
🐻	-19.7526
쥑	-19.7527
뮐	-19.7528
뜹	-19.7529
밨	-19.753
줰	-19.7531
👅	-19.7532
떙	-19.7533
띌	-19.7534
겝	-19.7535
🎧	-19.7536
̌	-19.7537
😓	-19.7538
앚	-19.7539
뇬	-19.754
곪	-19.7541
👇	-19.7542
옭	-19.7543
땈	-19.7544
꿎	-19.7545
𖤐	-19.7546
곘	-19.7547
孟	-19.7548
😐	-19.7549
丙	-19.755
😬	-19.7551
졐	-19.7552
➰	-19.7553
🐥	-19.7554
꽥	-19.7555
땋	-19.7556
쟠	-19.7557
굔	-19.7558
뼘	-19.7559
🏠	-19.756
🍠	-19.7561
쟨	-19.7562
🐔	-19.7563
[...]
