[PAD]	0
[UNK]	0
[BOS]	0
[EOS]	0
[unused0]	0
[unused1]	0
[unused2]	0
[unused3]	0
[unused4]	0
[unused5]	0
[unused6]	0
[unused7]	0
[unused8]	0
[unused9]	0
[SEP]	0
[SEPT]	0
[MASK]	0
▁.	-3.29696
▁이	-3.63544
▁는	-3.77131
▁을	-4.04804
▁하	-4.07929
▁에	-4.15503
▁다	-4.22338
▁고	-4.22865
▁가	-4.32258
▁은	-4.45366
▁의	-4.5012
▁있	-4.61199
▁를	-4.69121
▁,	-4.71099
▁도	-4.76033
▁?	-4.86887
▁한	-4.89085
▁어	-4.94319
▁들	-4.97009
▁#	-5.003
▁지	-5.16034
▁	-5.18129
▁게	-5.23401
▁그	-5.26534
▁것	-5.30414
▁아	-5.30862
▁나	-5.30878
▁으로	-5.32917
▁에서	-5.36151
▁거	-5.43596
▁~	-5.49939
▁했	-5.505
▁었	-5.51586
▁로	-5.52375
▁되	-5.58155
▁해	-5.6137
▁기	-5.62987
▁적	-5.64398
▁수	-5.64906
▁면	-5.65822
▁네	-5.67644
▁ᄏᄏᄏᄏ	-5.77612
▁보	-5.7781
▁안	-5.79158
▁는데	-5.83112
▁과	-5.84473
▁만	-5.89147
▁일	-5.9079
▁"	-5.9111
▁없	-5.92285
▁할	-5.93591
▁!	-5.97699
▁같	-5.9953
▁말	-6.00502
▁않	-6.01484
▁내	-6.02619
▁겠	-6.05191
▁)	-6.0597
▁인	-6.05972
▁(	-6.10105
▁야	-6.10191
▁와	-6.11466
▁좋	-6.11795
▁아니	-6.15268
▁시	-6.15754
▁주	-6.1595
▁뭐	-6.16472
▁'	-6.17186
▁먹	-6.17634
▁습니다	-6.22898
▁사람	-6.2945
▁예	-6.29526
▁때	-6.34759
▁자	-6.37649
▁우리	-6.39392
▁서	-6.40452
▁던	-6.41488
▁았	-6.44207
▁오	-6.46903
▁어요	-6.52245
▁생각	-6.534
▁라고	-6.53688
▁년	-6.53742
▁잘	-6.57289
▁더	-6.58756
▁음	-6.59161
▁죠	-6.61409
▁지금	-6.61869
▁좀	-6.62523
▁까지	-6.63085
▁근데	-6.633
▁라	-6.6662
▁이제	-6.67004
▁지만	-6.67632
▁또	-6.68567
▁..	-6.70228
▁1	-6.70364
▁저	-6.70497
▁받	-6.7119
▁...	-6.72003
▁그런	-6.7245
▁다고	-6.77738
▁ᄏᄏᄏ	-6.78293
▁면서	-6.78582
▁등	-6.7906
▁한다	-6.79708
▁알	-6.80649
▁2	-6.81266
▁에게	-6.83057
▁이런	-6.83542
▁사	-6.8406
▁해서	-6.84248
▁싶	-6.85153
▁많	-6.85896
▁두	-6.86193
▁전	-6.8645
▁된	-6.87253
▁너무	-6.89588
▁번	-6.89998
▁ᄏᄏ	-6.90434
▁가지	-6.90592
▁니	-6.90634
▁대	-6.90664
▁원	-6.91003
▁그래서	-6.92247
▁여	-6.9242
▁제	-6.92992
▁때문	-6.93074
▁님	-6.9363
▁며	-6.93956
▁라는	-6.95898
▁3	-6.9624
▁진짜	-6.96504
▁중	-6.96924
▁그렇	-6.98693
▁많이	-6.98922
▁집	-6.98993
▁다는	-7.00044
▁분	-7.01963
▁어서	-7.03554
▁요	-7.04044
▁맞	-7.04268
▁이렇게	-7.04409
▁개	-7.0501
▁니까	-7.05292
▁ᅲᅲ	-7.05804
▁성	-7.07887
▁오늘	-7.1041
▁데	-7.10785
▁시간	-7.10817
▁왜	-7.11782
▁그리고	-7.12001
▁못	-7.14526
▁ᄏ	-7.16037
▁그냥	-7.16559
▁였	-7.17788
▁그러	-7.18882
▁#@	-7.19383
▁보다	-7.20962
▁너	-7.21041
▁으면	-7.21417
▁해야	-7.22127
▁살	-7.22886
▁-	-7.24033
▁부터	-7.2551
▁하나	-7.27891
▁구	-7.28246
▁명	-7.28905
▁사실	-7.3052
지	-7.31132
▁화	-7.33179
▁월	-7.33354
이	-7.33876
▁정도	-7.34438
▁4	-7.34918
▁문제	-7.36291
▁될	-7.36364
▁얘기	-7.36574
▁십	-7.36774
▁대한	-7.37318
▁다른	-7.37553
▁애	-7.37986
▁어떤	-7.38435
▁친구	-7.3938
▁난	-7.39475
▁막	-7.39532
▁입니다	-7.39681
▁이름	-7.39815
▁랑	-7.40747
▁5	-7.41643
▁이나	-7.42773
리	-7.43126
▁건	-7.43755
▁‘	-7.44528
▁신	-7.44575
▁씨	-7.45933
▁“	-7.46476
▁”	-7.46933
▁다가	-7.47396
▁그거	-7.49435
▁그램	-7.49747
▁’	-7.50414
▁아요	-7.50516
▁됐	-7.50567
▁돈	-7.52675
▁줄	-7.52852
▁응	-7.53278
▁경우	-7.54333
▁처럼	-7.56865
▁날	-7.56995
기	-7.57448
▁합니다	-7.57592
▁정말	-7.57662
▁어떻게	-7.58064
▁된다	-7.58175
▁:	-7.58993
▁차	-7.59013
▁다음	-7.59241
▁다시	-7.59964
▁네요	-7.60091
▁아이	-7.60405
▁자신	-7.60526
▁셨	-7.60635
▁남	-7.61129
▁만들	-7.61319
▁같이	-7.61488
▁냐	-7.61829
▁앞	-7.6185
▁봤	-7.63117
▁듯	-7.6317
▁걸	-7.63632
▁한테	-7.63853
▁함	-7.63978
▁여기	-7.64549
▁길	-7.64829
▁쓰	-7.6532
▁모르	-7.65486
▁인데	-7.65765
▁물	-7.6578
▁달	-7.66012
▁ᅲ	-7.66713
▁삼	-7.67035
▁자기	-7.67421
▁이번	-7.6842
▁마음	-7.6847
▁점	-7.68635
▁그럼	-7.6904
▁타	-7.69223
▁비	-7.69657
▁사진	-7.70129
▁세	-7.70158
▁이상	-7.71181
▁아서	-7.71706
▁시작	-7.71799
▁후	-7.72172
▁나오	-7.72791
▁거기	-7.73016
▁위	-7.73207
▁넘	-7.74874
▁·	-7.754
▁엄마	-7.75628
자	-7.76016
▁필요	-7.76255
▁가능	-7.77181
▁긴	-7.77243
▁한국	-7.77278
▁이거	-7.77328
▁맛	-7.77582
▁돼	-7.77649
도	-7.78183
▁속	-7.78352
▁맛있	-7.78382
▁6	-7.78405
▁입	-7.78412
▁그것	-7.78444
▁곳	-7.78658
▁세요	-7.79159
▁10	-7.79241
▁당	-7.79418
서	-7.79685
▁이게	-7.79731
▁함께	-7.80247
▁간	-7.80595
▁계속	-7.80604
▁볼	-7.80643
▁그래	-7.80731
▁천	-7.81892
▁바로	-7.8201
▁잖아	-7.82228
▁봐	-7.84793
▁상황	-7.85322
▁스타	-7.85953
하	-7.86138
▁는지	-7.87001
▁이야기	-7.87106
▁왔	-7.87512
▁영화	-7.87746
▁인제	-7.87773
▁위해	-7.87954
▁팔	-7.88221
▁사회	-7.88464
▁큰	-7.8861
▁가장	-7.89267
▁아직	-7.89908
▁눈	-7.90629
▁그런데	-7.91407
▁그게	-7.92347
▁어디	-7.93147
사	-7.93166
▁은데	-7.93222
▁열	-7.9351
▁`	-7.94418
▁놓	-7.94732
▁몇	-7.94856
▁갔	-7.95118
가	-7.96031
▁찾	-7.96308
▁권	-7.97437
▁장	-7.98023
▁도록	-7.98467
▁무슨	-7.99068
▁%	-7.99182
▁그때	-7.99241
▁7	-7.99471
▁부분	-7.9949
▁어야	-8.00801
▁마	-8.00858
▁조	-8.01019
▁엔	-8.01121
▁예요	-8.0119
▁뒤	-8.0154
▁사용	-8.01711
▁처음	-8.01902
▁그러나	-8.02778
▁백	-8.02866
▁학교	-8.04756
▁/	-8.0499
▁ᄒᄒ	-8.05085
▁부	-8.05241
▁손	-8.05252
인	-8.05391
▁조금	-8.05395
▁8	-8.05647
▁거든요	-8.05843
▁보이	-8.05862
▁지역	-8.05932
▁치	-8.05938
▁크	-8.05946
▁미국	-8.06155
다	-8.06269
▁진	-8.06446
▁이랑	-8.06477
▁밥	-8.0738
▁책	-8.07416
▁불	-8.07492
▁중요	-8.08038
▁모든	-8.08077
▁거나	-8.08096
▁끝	-8.08285
▁이러	-8.08364
▁사랑	-8.08792
▁갖	-8.08839
▁에요	-8.08846
▁잡	-8.0947
▁요즘	-8.09583
그렇게	-8.10167
요	-8.10456
▁잇	-8.10535
▁운동	-8.10585
▁대통령	-8.1102
▁배	-8.1194
▁대표	-8.12153
▁갈	-8.12308
▁나라	-8.12707
▁뿐	-8.12757
▁참	-8.12785
▁군요	-8.12874
▁말씀	-8.13234
스	-8.13241
▁러	-8.13289
▁형	-8.13651
▁일단	-8.14015
▁회사	-8.14029
▁세계	-8.1413
▁그래도	-8.14188
▁여자	-8.14509
▁모두	-8.14927
▁인가	-8.14983
▁정부	-8.15
▁시장	-8.15718
▁넣	-8.15844
▁약간	-8.15859
▁김	-8.16213
▁만나	-8.17108
▁바	-8.17561
▁하지만	-8.17564
▁면은	-8.17599
치	-8.17949
▁상	-8.18158
▁기업	-8.18239
▁나가	-8.18462
▁준비	-8.18633
▁본	-8.18889
▁시스템	-8.1932
▁언니	-8.19682
진	-8.19902
▁실	-8.20052
▁죽	-8.20234
시	-8.21
▁몸	-8.21418
수	-8.21451
▁반	-8.21545
대	-8.21552
▁일본	-8.21796
▁임	-8.22348
▁9	-8.22412
▁서울	-8.22554
▁동안	-8.22968
▁높	-8.23067
▁해도	-8.23604
▁그니까	-8.2401
▁방법	-8.24434
▁괜찮	-8.24823
▁해요	-8.24825
▁경제	-8.2485
▁통해	-8.25271
▁억	-8.25374
▁느낌	-8.25475
▁ᅮᅮ	-8.25756
▁단	-8.26019
▁name	-8.26057
▁이유	-8.26172
▁을까	-8.26455
▁그러니까	-8.26481
▁소리	-8.26499
▁들어가	-8.26508
▁양	-8.2675
▁거든	-8.2683
▁따라	-8.26943
▁정치	-8.27132
▁쪽	-8.27206
▁남자	-8.27609
▁대해서	-8.27644
▁없이	-8.28096
▁려고	-8.28571
▁박	-8.28621
▁관련	-8.28972
▁모습	-8.29186
▁여행	-8.2968
▁관계	-8.29973
▁온	-8.30077
▁힘들	-8.30339
▁건강	-8.30772
▁고요	-8.30838
▁는데요	-8.31314
▁씩	-8.31365
▁아주	-8.31588
▁....	-8.31662
▁중국	-8.31796
▁다면	-8.31893
▁<	-8.3212
라	-8.32134
▁교육	-8.3243
▁는다	-8.32988
▁인간	-8.33411
▁찍	-8.33498
고	-8.33634
▁자리	-8.34437
▁으니까	-8.34701
아	-8.3472
▁위한	-8.34909
▁란	-8.3539
▁째	-8.35434
▁여러	-8.35632
▁글	-8.35658
▁ᆞ	-8.3572
▁보내	-8.35788
장	-8.35864
▁내용	-8.35927
▁무	-8.36158
▁소	-8.36186
▁딱	-8.36451
▁새	-8.36513
▁결과	-8.36545
▁굉장히	-8.36611
▁특히	-8.36637
▁미	-8.36864
▁라도	-8.37079
▁시키	-8.3717
▁국민	-8.37285
▁용	-8.37295
▁든	-8.37593
▁역시	-8.37938
▁의원	-8.37948
▁문	-8.37983
▁거의	-8.38038
▁다니	-8.38203
▁법	-8.39053
▁>	-8.39149
▁사업	-8.39172
▁군	-8.39555
▁방	-8.39672
▁드	-8.39948
▁먼저	-8.39986
렇게	-8.40076
▁가족	-8.40139
▁20	-8.40275
▁싫	-8.40882
▁지난	-8.41302
▁대해	-8.41339
▁습니까	-8.41394
성	-8.41593
▁국가	-8.41738
▁선	-8.41759
▁엄청	-8.42131
▁얼굴	-8.42362
▁이후	-8.42564
▁이것	-8.42581
▁및	-8.42894
▁못하	-8.42927
▁듣	-8.42935
▁작	-8.43141
▁의미	-8.43142
▁더니	-8.43167
▁인지	-8.43274
▁기분	-8.43437
▁뭔가	-8.43643
▁잖아요	-8.43758
▁어느	-8.43855
▁이미	-8.43897
▁걱정	-8.44119
▁머리	-8.44172
주	-8.4418
▁공부	-8.44494
▁둘	-8.44954
▁나요	-8.45052
▁과정	-8.45081
어	-8.4524
▁감	-8.45578
▁산	-8.45623
▁아침	-8.45631
▁생활	-8.45788
▁어제	-8.45798
동	-8.45895
▁학생	-8.46064
▁문화	-8.46282
▁꼭	-8.46312
▁그랬	-8.46418
▁결국	-8.46492
▁선생	-8.46532
▁물론	-8.46615
▁30	-8.46621
구	-8.46796
▁되게	-8.46905
▁피	-8.47337
▁사이	-8.4748
▁노	-8.47683
▁재	-8.47952
▁ᄒ	-8.48073
▁하루	-8.48078
▁힘	-8.48661
▁언제	-8.48852
나	-8.48883
▁호	-8.48917
▁읽	-8.48924
▁북한	-8.48925
▁나왔	-8.49347
▁관리	-8.49363
▁술	-8.49383
▁누구	-8.49476
▁혼자	-8.49542
야	-8.49866
▁위해서	-8.50289
▁원래	-8.50388
상	-8.50466
▁내일	-8.5079
▁현재	-8.50965
▁무엇	-8.51014
▁그녀	-8.51101
▁전화	-8.51178
▁식	-8.51419
▁마다	-8.51723
▁12	-8.52622
▁지원	-8.52664
▁이해	-8.52694
▁대로	-8.52834
▁_	-8.52865
▁활동	-8.52974
▁스	-8.53136
▁으며	-8.53405
▁저희	-8.53708
▁구요	-8.53761
히	-8.53829
▁보여	-8.54083
▁세상	-8.54446
▁맛집	-8.55
▁별	-8.55032
▁밖에	-8.55064
로	-8.5528
▁기억	-8.55549
▁사건	-8.55587
원	-8.5562
▁상태	-8.55684
▁구나	-8.56165
▁직접	-8.56384
▁계획	-8.56649
▁다양	-8.56745
▁``	-8.56949
▁더라	-8.57135
▁정보	-8.57146
▁새로운	-8.57213
▁당신	-8.57247
▁^^	-8.5731
▁저녁	-8.5732
▁약	-8.57501
▁여성	-8.57837
▁파	-8.57914
비	-8.5794
▁초	-8.58136
▁라면	-8.5832
▁생	-8.58349
부	-8.58467
보	-8.58631
▁결정	-8.58858
▁만큼	-8.58888
▁설명	-8.59674
▁ᅮ	-8.59678
▁웅	-8.59785
▁대학	-8.60097
▁첫	-8.60168
▁제품	-8.60213
▁갑자기	-8.60217
▁그러면	-8.60261
▁담	-8.60488
▁빨리	-8.60927
▁당시	-8.60948
▁밖	-8.61004
▁11	-8.61152
▁편	-8.61241
오	-8.61246
▁고민	-8.61313
▁;	-8.61484
▁조사	-8.61524
▁한다는	-8.61781
▁쉽	-8.62275
▁가격	-8.62441
선	-8.62801
▁올	-8.6294
우	-8.6296
▁겟	-8.63622
▁그건	-8.63791
▁자체	-8.63906
미	-8.63935
▁진행	-8.64106
▁우	-8.64541
▁삶	-8.64546
▁놀	-8.64653
▁최근	-8.64791
▁헐	-8.64936
▁최고	-8.65189
▁아들	-8.65499
▁아빠	-8.65726
▁머	-8.65747
▁유	-8.65864
제	-8.66222
▁걔	-8.66337
▁이용	-8.66679
▁준	-8.66723
▁써	-8.66729
▁개인	-8.67262
▁완전	-8.6732
▁한다고	-8.67616
▁밤	-8.67624
▁교수	-8.67712
▁확인	-8.67802
▁입장	-8.67981
▁감사	-8.67989
▁케	-8.68323
▁투자	-8.68356
▁얼마	-8.68902
▁얼마나	-8.69387
▁햇	-8.69613
일	-8.69932
▁노래	-8.69943
▁결혼	-8.69981
▁늘	-8.70301
▁정	-8.70343
▁아야	-8.70402
▁기술	-8.70407
▁리	-8.706
▁어도	-8.70709
▁후보	-8.7076
▁회	-8.71008
▁믿	-8.71179
▁카페	-8.71189
▁서로	-8.71243
▁연구	-8.71563
드	-8.71674
▁추천	-8.71891
▁병원	-8.72034
▁ᄋᄋ	-8.72086
▁마지막	-8.72322
▁관심	-8.72505
▁채	-8.72647
▁쉬	-8.72779
▁옷	-8.72785
▁육	-8.72869
▁질	-8.7294
▁기대	-8.73019
▁또한	-8.73065
▁행복	-8.73092
▁역사	-8.73232
▁음식	-8.73713
전	-8.73762
▁정책	-8.73978
▁평가	-8.7436
▁시대	-8.74635
▁앉	-8.74983
▁ᄀ	-8.75109
▁개발	-8.75189
▁아닌	-8.75267
▁오빠	-8.75484
▁주장	-8.76132
▁게임	-8.76189
▁효과	-8.76588
▁제일	-8.76742
▁얻	-8.76905
▁풀	-8.76914
▁한데	-8.77153
▁남편	-8.77197
▁노력	-8.77721
▁부모	-8.77757
▁강	-8.77893
▁정신	-8.77897
▁을까요	-8.78354
▁일상	-8.78484
정	-8.78557
식	-8.78813
▁발	-8.7938
▁쯤	-8.79387
▁칠	-8.79435
▁오래	-8.7951
▁키	-8.79982
▁선택	-8.80559
▁잘못	-8.8059
산	-8.81029
▁팀	-8.81092
▁경기	-8.81181
▁열심히	-8.81335
▁까	-8.8146
▁나이	-8.81559
▁자유	-8.81771
▁모	-8.81866
▁별로	-8.82007
▁자연	-8.82015
▁아버지	-8.8246
▁옆	-8.82483
▁아까	-8.82538
▁그걸	-8.82648
▁아마	-8.82685
▁」	-8.82761
▁해결	-8.82907
▁방송	-8.83084
▁아무	-8.83171
▁됩니다	-8.83477
▁늦	-8.83881
▁와서	-8.84088
▁「	-8.84303
▁으니	-8.84386
▁변화	-8.84562
▁올해	-8.84604
▁일반	-8.84653
▁꺼	-8.84743
▁존재	-8.84885
▁대상	-8.84885
▁는가	-8.84903
▁줬	-8.85052
▁성공	-8.8514
▁층	-8.85337
▁15	-8.85434
▁계	-8.85458
▁맘	-8.86232
▁봐야	-8.86528
▁건데	-8.87028
▁전체	-8.87028
▁병	-8.87284
▁표현	-8.87417
▁『	-8.8747
▁기록	-8.87648
▁드리	-8.87823
▁울	-8.87827
▁코	-8.87984
영	-8.8799
▁디	-8.88308
▁공	-8.88463
▁그럴	-8.88802
▁국내	-8.89328
화	-8.89387
소	-8.89531
▁현실	-8.89552
▁로서	-8.89745
▁도움	-8.89783
▁피부	-8.89881
▁선물	-8.89986
▁항상	-8.90152
▁빵	-8.9024
▁께서	-8.90328
니	-8.9036
▁티	-8.90384
▁버리	-8.90432
▁선수	-8.90677
▁따	-8.90828
▁돌	-8.90846
▁기본	-8.90849
▁총	-8.90913
▁작품	-8.91098
▁재밌	-8.91244
▁제대로	-8.91267
▁도시	-8.91426
마	-8.91518
▁지요	-8.91525
▁딸	-8.91555
▁쫌	-8.91596
▁!!	-8.91698
▁최	-8.92202
▁어머니	-8.92203
▁던데	-8.9227
▁인정	-8.92286
▁낮	-8.92461
▁나중	-8.92638
▁스럽	-8.92756
▁또는	-8.92836
▁더라고	-8.93022
▁웃	-8.93169
▁외	-8.93493
호	-8.93666
▁참여	-8.93747
▁잖	-8.93843
국	-8.93843
▁고기	-8.94214
▁누가	-8.94625
의	-8.94697
▁사고	-8.94872
▁영	-8.95066
물	-8.95104
▁시켜	-8.95239
▁0	-8.95248
▁밝혔	-8.95412
▁대화	-8.95469
▁뜻	-8.95605
▁왕	-8.95686
▁겁니다	-8.95704
▁꿈	-8.95755
▁커피	-8.96064
▁네네	-8.96136
▁더라구요	-8.96397
▁각	-8.96593
트	-8.96709
▁기준	-8.96807
▁가운데	-8.96871
▁100	-8.96951
▁느끼	-8.9703
▁따라서	-8.9708
▁싸	-8.97335
▁지방	-8.97653
▁행동	-8.98201
▁빼	-8.98233
문	-8.98311
▁잠	-8.98633
▁산업	-8.98754
▁했었	-8.99207
▁느냐	-8.99396
▁운영	-8.99466
▁오히려	-8.99856
▁순간	-8.99878
▁A	-9.00009
▁유지	-9.00324
▁발생	-9.00354
s	-9.00479
▁다르	-9.00549
▁마시	-9.00729
▁경험	-9.00733
▁환경	-9.01054
▁주변	-9.0111
▁엇	-9.01278
▁감독	-9.01295
▁역할	-9.01354
▁걍	-9.01361
▁라서	-9.01385
▁으	-9.0139
▁배우	-9.01421
경	-9.01549
▁부산	-9.01554
▁금	-9.01563
▁차이	-9.01634
▁께	-9.02098
▁나온	-9.02396
▁안녕	-9.02405
▁어떻	-9.02518
▁거리	-9.02568
▁기간	-9.02698
만	-9.02764
▁능력	-9.03125
▁방식	-9.03192
▁일어나	-9.03229
▁주문	-9.03624
▁서비스	-9.03643
▁시험	-9.03716
▁경찰	-9.0398
▁즉	-9.03997
▁다이어트	-9.042
▁줘	-9.04284
▁순	-9.04341
▁심	-9.04411
▁18	-9.04415
▁중심	-9.04432
▁더라도	-9.04455
▁발표	-9.04585
군	-9.04593
▁테	-9.04641
▁분위기	-9.04874
▁이건	-9.04928
▁대부분	-9.05039
▁점심	-9.05172
조	-9.0519
▁트	-9.05218
▁수준	-9.05224
▁개월	-9.05392
▁자꾸	-9.05435
▁만약	-9.05551
한	-9.05645
면	-9.05659
▁어렵	-9.05665
▁연락	-9.05848
▁인사	-9.0595
▁본인	-9.06013
▁비슷	-9.06198
▁분석	-9.06419
▁엉	-9.06495
▁상대	-9.06785
▁보통	-9.06819
세	-9.07117
▁발전	-9.07147
▁목	-9.07224
▁주말	-9.07236
▁자주	-9.07269
▁낼	-9.07313
▁인생	-9.07526
▁요구	-9.07594
▁전혀	-9.07655
▁아내	-9.07694
▁못했	-9.07912
▁직원	-9.07944
▁구성	-9.0799
▁️	-9.08051
▁이모티콘	-9.08156
▁그대로	-9.08389
▁제공	-9.08491
▁났	-9.08795
▁사장	-9.08958
▁곧	-9.0906
신	-9.09077
▁봄	-9.09137
▁구조	-9.09215
▁포함	-9.09341
▁매	-9.09344
▁대신	-9.09362
▁더욱	-9.09592
르	-9.09879
▁시민	-9.10335
▁ᄒᄒᄒ	-9.10639
석	-9.10897
▁뭘	-9.10928
▁제도	-9.11028
▁동	-9.11148
▁선거	-9.1127
▁프로	-9.12073
단	-9.12134
▁혹시	-9.12399
▁우선	-9.12727
민	-9.12894
▁50	-9.12901
▁기관	-9.13016
▁냐고	-9.13347
▁끼	-9.13356
관	-9.13477
▁기능	-9.13486
▁카	-9.13546
▁지난해	-9.13727
▁기회	-9.13781
▁귀	-9.13845
▁가치	-9.13988
▁회장	-9.14125
▁공간	-9.14137
▁벌	-9.14161
▁으시	-9.14278
▁조직	-9.1436
▁아냐	-9.14649
▁스스로	-9.14662
▁기자	-9.14766
▁금융	-9.15022
▁국제	-9.15059
▁바람	-9.15148
▁+	-9.15244
질	-9.15244
▁예정	-9.15331
▁나와	-9.15586
▁래	-9.15644
▁유명	-9.15654
▁그치	-9.15757
▁지나	-9.15849
▁성장	-9.159
▁만든	-9.15906
▁마련	-9.16376
▁업체	-9.16422
▁그림	-9.16475
▁영향	-9.16552
▁프로그램	-9.16608
▁음악	-9.16658
▁정상	-9.16712
▁책임	-9.16744
▁몰라	-9.16828
▁여러분	-9.16947
안	-9.17008
▁정리	-9.1703
▁매일	-9.17143
▁예전	-9.1747
▁소통	-9.17623
▁존나	-9.17951
▁미래	-9.18064
▁행사	-9.18108
▁생산	-9.18141
▁허	-9.18146
디	-9.1822
당	-9.18671
▁질문	-9.18682
▁동생	-9.18724
▁발견	-9.18734
린	-9.18843
파	-9.19111
▁졌	-9.19115
▁소개	-9.1912
▁텐데	-9.19143
▁감정	-9.19593
▁목소리	-9.1961
▁도착	-9.19702
▁궁금	-9.19705
▁작가	-9.19744
▁부족	-9.19806
▁벌써	-9.19816
▁m	-9.19967
▁맨날	-9.20092
▁메뉴	-9.20145
은	-9.20195
▁땅	-9.2026
▁고객	-9.2033
▁듯이	-9.20448
▁따르	-9.20641
▁추가	-9.20652
▁매우	-9.20808
▁북	-9.21237
력	-9.21395
키	-9.2147
▁단계	-9.21482
▁규모	-9.21613
▁신경	-9.21647
두	-9.21704
▁그리	-9.21829
▁과거	-9.21893
▁급	-9.22071
▁전략	-9.2213
▁』	-9.22141
▁이루	-9.22533
해	-9.22936
▁위험	-9.23037
▁실제로	-9.23126
▁과학	-9.23359
역	-9.23447
▁존	-9.23473
▁전쟁	-9.23555
모	-9.23583
▁조선	-9.23666
▁B	-9.23706
▁활용	-9.23803
▁일부	-9.23847
▁으면서	-9.23861
▁으로써	-9.23923
▁더라고요	-9.23955
▁려는	-9.24032
▁반대	-9.24211
▁버스	-9.24248
▁ᄋ	-9.24298
▁향	-9.24386
▁국회	-9.24478
▁답	-9.24705
거	-9.24799
▁판단	-9.24807
▁하고	-9.24829
▁카드	-9.24876
▁연	-9.24961
▁여름	-9.25143
▁생기	-9.25155
▁옛날	-9.25236
▁라며	-9.25453
▁알려	-9.25769
▁목표	-9.25932
▁으로서	-9.26007
법	-9.26012
▁수사	-9.26184
▁표	-9.26191
▁영어	-9.26306
▁넌	-9.26449
▁마치	-9.26449
▁은행	-9.26466
▁로부터	-9.26596
▁짜	-9.26678
타	-9.268
▁쓸	-9.26864
▁판매	-9.26959
▁의사	-9.26984
어지	-9.27024
▁절대	-9.27555
심	-9.27583
▁저기	-9.27671
▁의식	-9.27908
▁공개	-9.27991
▁16	-9.28002
▁요리	-9.2803
▁대박	-9.28042
▁그래요	-9.28089
▁아닌가	-9.28103
▁상품	-9.2826
▁인터넷	-9.28563
▁짓	-9.28591
▁위치	-9.28632
▁지적	-9.28641
▁관	-9.28776
▁옹	-9.28829
실	-9.28993
유	-9.29455
▁포	-9.29471
▁@	-9.29521
▁방문	-9.29725
재	-9.29735
▁영상	-9.29895
▁업무	-9.29898
▁오후	-9.29946
▁분야	-9.3003
데	-9.30104
▁비교	-9.30173
▁숨	-9.30204
▁루	-9.30333
▁추진	-9.30369
방	-9.30372
▁다행	-9.30394
▁]	-9.30395
▁단체	-9.30459
게	-9.30467
▁S	-9.30543
▁봐요	-9.30603
감	-9.30708
▁기사	-9.30788
▁만드	-9.30838
▁수업	-9.30847
▁셔서	-9.30856
▁특별	-9.30915
▁앗	-9.30977
▁꽃	-9.30983
▁육아	-9.31171
현	-9.31209
▁겨울	-9.31287
▁짐	-9.31504
▁붙	-9.31862
▁아기	-9.32177
▁맡	-9.32281
▁40	-9.32405
▁부르	-9.32496
용	-9.32496
▁부담	-9.32521
▁져	-9.32585
▁센터	-9.32714
▁훨씬	-9.32823
▁[	-9.32834
▁17	-9.32969
▁전문	-9.33177
▁미안	-9.33212
노	-9.33284
▁대회	-9.33473
▁13	-9.33493
들	-9.33494
▁주민	-9.33671
는	-9.33677
▁상당히	-9.3393
▁행위	-9.33936
간	-9.34002
▁달리	-9.34014
▁위원회	-9.34266
▁덜	-9.34413
▁잔	-9.34444
▁젊	-9.34557
▁기다리	-9.34807
▁뽑	-9.34807
▁현장	-9.34969
공	-9.34992
▁한편	-9.3504
▁이날	-9.35126
▁친	-9.35304
▁대구	-9.35348
▁예상	-9.35404
▁25	-9.35449
▁바라	-9.35461
▁얘	-9.35463
▁집중	-9.35559
▁강조	-9.35701
▁먹스	-9.35821
▁관계자	-9.35829
▁걸로	-9.36114
▁통해서	-9.36426
▁검찰	-9.36508
▁회의	-9.3658
▁론	-9.36725
▁토	-9.36872
▁낫	-9.37029
▁치료	-9.37142
▁현대	-9.37158
▁의견	-9.37354
▁일찍	-9.37517
▁약속	-9.37553
연	-9.37643
▁마을	-9.37844
▁14	-9.38009
▁인식	-9.38034
▁시기	-9.38062
▁따로	-9.38333
회	-9.38343
▁통	-9.38463
▁신청	-9.38808
▁전국	-9.38914
▁돌아가	-9.38994
▁직장	-9.39016
▁작업	-9.39039
무	-9.39227
금	-9.3944
▁아파트	-9.39524
▁넹	-9.39558
▁비판	-9.39802
▁려	-9.39816
▁아프	-9.39935
▁저거	-9.40248
▁자료	-9.40387
루	-9.40412
▁피해	-9.40613
▁미리	-9.40623
▁검사	-9.41084
▁측	-9.41174
▁려면	-9.41221
▁똑같	-9.41251
▁된다고	-9.41299
▁아예	-9.41327
▁크림	-9.41407
▁소설	-9.41561
▁제주	-9.41577
▁처리	-9.4164
▁률	-9.41674
▁아래	-9.41707
▁현	-9.41764
여	-9.41777
▁연결	-9.41882
▁보험	-9.41895
▁동시	-9.41901
▁문학	-9.41923
포	-9.41948
▁잠깐	-9.4215
▁날씨	-9.4219
▁D	-9.42198
▁해당	-9.42199
▁종	-9.42318
▁업	-9.42348
천	-9.42556
▁깊	-9.4257
▁홍	-9.42643
▁시설	-9.42738
▁못한	-9.42912
▁청	-9.42913
▁증가	-9.43133
▁기존	-9.43172
▁식사	-9.43193
▁스트레스	-9.43301
▁하늘	-9.43328
▁보였	-9.43353
▁솔직히	-9.43402
▁C	-9.43471
▁일정	-9.43702
▁맨	-9.43827
▁해외	-9.43912
▁목적	-9.44017
▁관한	-9.44057
▁놈	-9.44118
▁비싸	-9.44259
▁색	-9.44376
▁중간	-9.44513
▁모양	-9.44637
▁강화	-9.4465
▁비용	-9.44879
▁밑	-9.44882
▁묻	-9.44896
병	-9.44906
에	-9.44909
▁설	-9.44951
중	-9.44994
▁치킨	-9.45009
▁장관	-9.45107
▁가슴	-9.45184
▁인물	-9.45245
▁달러	-9.45502
학	-9.45588
▁형태	-9.45661
▁스타일	-9.45668
▁언론	-9.45678
▁불안	-9.45715
카	-9.45952
▁드라마	-9.45978
▁경	-9.45993
▁역	-9.46087
▁보도	-9.46214
▁판	-9.46218
▁성격	-9.46226
차	-9.4633
▁이라고	-9.46404
▁이전	-9.46591
▁검	-9.46639
▁홈	-9.46774
계	-9.46825
프	-9.46864
▁학년	-9.46914
▁적용	-9.47069
▁잃	-9.47127
▁어려운	-9.47168
▁경쟁	-9.47307
▁방향	-9.47504
▁만족	-9.47586
▁터	-9.47643
▁개념	-9.47672
▁버렸	-9.47718
▁돼요	-9.47756
▁19	-9.4787
체	-9.47956
▁송	-9.47965
▁개선	-9.48068
▁샀	-9.48109
▁확대	-9.48199
▁주택	-9.48237
▁교회	-9.48237
▁시절	-9.48249
▁올리	-9.4827
▁유럽	-9.48309
▁눈물	-9.48316
▁위원장	-9.48323
▁자식	-9.48498
▁등장	-9.48763
▁안전	-9.48786
▁공격	-9.48927
▁나무	-9.48931
▁성적	-9.49146
▁분명	-9.49222
▁그룹	-9.49261
▁메	-9.49314
▁들어오	-9.49402
▁내년	-9.49442
▁아님	-9.49514
▁끊	-9.49551
▁안정	-9.49558
▁한다면	-9.49606
▁퍼센트	-9.49759
▁냄새	-9.49759
▁광고	-9.49787
▁썼	-9.49873
▁자고	-9.49923
▁떠나	-9.50012
▁고려	-9.50021
▁팬	-9.50273
▁뉴스	-9.50276
▁아도	-9.50418
음	-9.5049
▁자동차	-9.50553
▁적극	-9.50719
▁저번	-9.50769
▁절	-9.51056
▁답니다	-9.51061
▁경영	-9.51138
▁버	-9.512
▁건물	-9.51207
▁인기	-9.51237
▁베	-9.51249
과	-9.51365
▁공연	-9.51509
▁아하	-9.51591
▁실제	-9.51634
▁가진	-9.51658
▁국	-9.5166
▁멀	-9.51838
▁덕	-9.51974
▁어쨌든	-9.52077
▁플	-9.52118
▁몰	-9.52137
네	-9.52193
▁다리	-9.52201
▁곡	-9.52349
▁브랜드	-9.52365
▁가득	-9.52422
▁할까	-9.52526
▁삼성	-9.52621
▁잠시	-9.52626
명	-9.52741
▁바다	-9.52754
즈	-9.52778
▁생겼	-9.52893
▁아무리	-9.53053
▁짧	-9.53172
▁신기	-9.53185
▁스러운	-9.5326
▁암	-9.53323
▁가정	-9.53348
▁한번	-9.53407
▁고자	-9.53438
형	-9.53514
크	-9.53522
▁혹은	-9.53668
▁보호	-9.53812
▁24	-9.53837
▁마찬가지	-9.53885
▁황	-9.53916
▁이걸	-9.54132
▁민주당	-9.54177
▁현상	-9.54212
▁21	-9.54226
▁당연히	-9.54235
▁됨	-9.54306
위	-9.54309
▁ᄒᄒᄒᄒ	-9.54391
▁으러	-9.54402
▁주제	-9.54479
▁넓	-9.54651
운	-9.54692
▁포기	-9.54723
▁계약	-9.54899
▁보인다	-9.54964
▁전문가	-9.5504
▁해야지	-9.55064
▁미친	-9.55128
▁닭	-9.55132
▁지속	-9.55209
▁몰랐	-9.55316
▁대답	-9.55345
▁자마자	-9.5551
▁학원	-9.55636
▁아니면	-9.55694
▁깨	-9.55824
림	-9.55881
▁위기	-9.55924
▁이르	-9.55959
▁불편	-9.56015
래	-9.56059
▁중앙	-9.56201
▁웅웅	-9.5643
▁다섯	-9.56587
▁인데요	-9.56732
▁민주	-9.56852
▁탈	-9.56862
러	-9.56896
▁반응	-9.56955
▁짱	-9.56975
▁윤	-9.57043
▁주식	-9.57119
▁치즈	-9.57232
▁구체	-9.57285
놓	-9.57401
▁계시	-9.57485
▁정당	-9.57502
▁내부	-9.5753
▁민	-9.57652
▁도와	-9.57797
▁땐	-9.57829
▁연기	-9.58002
▁된다는	-9.58015
▁바뀌	-9.58044
▁끝나	-9.58052
▁구매	-9.58105
▁할지	-9.5812
▁대비	-9.58256
▁할머니	-9.58256
▁비롯	-9.58273
▁이익	-9.58321
▁나올	-9.58457
▁쓴	-9.58575
▁곤	-9.58578
▁환자	-9.58817
▁검색	-9.58861
▁바꾸	-9.58943
▁율	-9.58963
▁규정	-9.59054
▁조건	-9.59116
▁K	-9.59125
▁챙겨	-9.59245
▁돼서	-9.59266
▁동네	-9.59277
▁점점	-9.59282
▁부부	-9.59299
▁설치	-9.59475
▁=	-9.59616
▁틀	-9.59805
▁소식	-9.5984
▁거래	-9.59847
▁예술	-9.59916
거리	-9.59936
▁제시	-9.60053
▁아무래도	-9.60055
론	-9.60056
란	-9.60059
▁롭	-9.60074
▁식단	-9.6013
바	-9.60145
▁살짝	-9.60158
▁호텔	-9.60166
희	-9.60171
▁에선	-9.60206
▁공동	-9.60295
▁000	-9.60339
▁줘야	-9.6045
▁취업	-9.60466
▁영국	-9.60466
▁올라가	-9.60496
▁과연	-9.60557
▁끌	-9.60635
▁어차피	-9.60664
▁뜨	-9.60764
▁작년	-9.60972
▁짜증	-9.60984
▁상담	-9.61026
▁알바	-9.61119
▁젤	-9.61129
복	-9.61201
▁자세	-9.6121
▁충분히	-9.61217
▁출근	-9.61273
▁떨어지	-9.61364
▁디자인	-9.61584
▁건가	-9.61621
▁밀	-9.61641
▁체험	-9.61687
▁이렇	-9.6169
▁퇴근	-9.61723
레	-9.6173
▁가끔	-9.61778
▁꽤	-9.61806
▁단지	-9.61839
▁의해	-9.61928
▁시켰	-9.61945
▁전통	-9.6195
졌	-9.61955
랑	-9.61995
토	-9.62067
판	-9.62175
▁주요	-9.62196
티	-9.6223
▁저런	-9.62289
▁창	-9.62476
▁모델	-9.62519
▁겪	-9.62584
▁주일	-9.62586
▁표정	-9.62674
교	-9.62728
▁평소	-9.62828
▁인상	-9.62828
▁*	-9.62848
▁그만	-9.62886
▁이곳	-9.62894
주의	-9.63022
▁따른	-9.63033
▁으나	-9.63387
▁투	-9.63569
▁세대	-9.63589
▁불구	-9.63612
▁그런가	-9.63625
▁뛰	-9.63636
▁핵	-9.63673
▁최대	-9.63721
▁석	-9.63722
▁부탁	-9.63845
▁수익	-9.63846
▁고생	-9.63853
▁얼	-9.63886
▁완전히	-9.63896
▁다만	-9.63935
▁커	-9.63976
근	-9.64019
▁희망	-9.6403
▁M	-9.64112
▁조정	-9.64133
▁핵심	-9.6414
▁동물	-9.64178
▁건지	-9.64424
▁편하	-9.6454
▁내리	-9.64582
▁부인	-9.64586
▁조심	-9.64637
▁신문	-9.64774
▁오랜만	-9.64822
▁출발	-9.64894
▁장면	-9.65101
▁실패	-9.6516
▁누리	-9.65167
▁갓	-9.65207
▁지식	-9.65236
▁나타나	-9.65358
▁자금	-9.65533
코	-9.65561
▁주로	-9.65579
▁따뜻	-9.65642
▁청와대	-9.65708
▁문자	-9.6574
▁대단	-9.65746
▁부정	-9.65768
▁공사	-9.65793
▁나누	-9.66097
▁남성	-9.66193
▁건설	-9.66221
준	-9.66237
▁죽음	-9.66287
▁운	-9.66296
▁오전	-9.66369
점	-9.66375
▁레	-9.66531
▁하나님	-9.66558
▁에너지	-9.66721
태	-9.66752
▁생명	-9.66808
▁ᅳᅳ	-9.66829
▁근처	-9.6683
내	-9.66848
▁먼	-9.66924
▁종류	-9.66961
▁든지	-9.67006
▁씻	-9.67037
▁는군요	-9.67058
▁이래	-9.67141
▁전망	-9.67178
▁체	-9.67226
통	-9.6726
적	-9.67329
▁광주	-9.6735
▁걷	-9.67351
▁칼	-9.674
▁십니까	-9.67414
▁시즌	-9.67576
▁욕	-9.67712
▁소스	-9.6773
▁빛	-9.67744
▁맥주	-9.6778
▁새로	-9.67804
▁길래	-9.67819
▁앞서	-9.67858
▁이벤트	-9.67859
▁체제	-9.67861
▁징	-9.67914
▁민족	-9.67932
▁꼬	-9.67991
▁새벽	-9.68016
▁정확	-9.68062
▁박근혜	-9.6815
임	-9.6818
▁잊	-9.6821
강	-9.68418
▁피곤	-9.68476
▁고맙	-9.68484
▁으로부터	-9.68545
▁시원	-9.68559
▁원인	-9.68623
▁이미지	-9.68629
▁반드시	-9.68671
▁s	-9.68689
▁언어	-9.68723
▁인천	-9.68845
▁세기	-9.68892
▁바라보	-9.68918
▁지구	-9.68923
▁사과	-9.6897
▁22	-9.69027
발	-9.69164
▁힘든	-9.69196
▁니깐	-9.6929
▁출신	-9.69293
▁당연	-9.69457
▁논의	-9.69754
▁제기	-9.69773
▁여전히	-9.69873
▁변호사	-9.69889
까	-9.69897
▁추	-9.70007
▁그동안	-9.70167
▁이사	-9.70189
▁해석	-9.70196
▁독일	-9.70209
▁요새	-9.70212
▁기타	-9.70334
▁대체	-9.70373
▁떠	-9.70416
▁평균	-9.7042
▁직	-9.70441
▁봉	-9.7069
▁개혁	-9.70699
▁골	-9.70867
▁푸드	-9.70943
려	-9.71028
▁&	-9.71213
▁합의	-9.71282
▁걸리	-9.71289
▁식당	-9.71304
▁승	-9.714
▁충격	-9.71512
▁대전	-9.71582
▁티비	-9.71648
▁평화	-9.71661
▁차원	-9.71922
했	-9.71924
양	-9.71942
▁행정	-9.71976
▁각각	-9.71979
종	-9.72126
▁장소	-9.72155
▁준다	-9.72236
▁위원	-9.72302
▁처	-9.72389
철	-9.72561
▁마리	-9.72585
▁종교	-9.72745
▁당장	-9.72951
▁전부	-9.72964
▁데일리	-9.73082
▁신고	-9.73179
피	-9.73201
▁에스	-9.73341
▁예약	-9.7346
▁셈	-9.7348
▁무조건	-9.73662
▁P	-9.7382
▁~~	-9.73829
▁할인	-9.73848
▁사례	-9.7393
▁고양이	-9.73998
▁그날	-9.74003
▁폰	-9.74109
▁떼	-9.74166
▁수술	-9.74194
▁진정	-9.74268
▁고통	-9.74306
▁올려	-9.74309
▁전자	-9.74325
▁확보	-9.74363
▁정권	-9.74406
▁복	-9.74474
▁어쩔	-9.74493
▁예쁘	-9.74554
▁누	-9.74705
▁낸	-9.74708
▁누나	-9.74763
개	-9.74782
렸	-9.74834
▁앙	-9.74856
▁엥	-9.75122
▁차지	-9.75128
▁전달	-9.75397
▁떡	-9.7546
▁통합	-9.75493
▁당하	-9.75589
▁강아지	-9.75602
▁나름	-9.75711
▁으신	-9.75741
▁청년	-9.75774
▁상처	-9.75777
ᆞ	-9.75808
▁23	-9.75877
▁귀찮	-9.75928
▁르	-9.75977
▁종합	-9.75988
▁쥐	-9.76136
▁프랑스	-9.76197
집	-9.76207
▁그까	-9.76275
▁이론	-9.76355
▁맛스타	-9.76388
▁측면	-9.76408
▁낳	-9.76653
▁시도	-9.76683
▁지도	-9.76719
▁악	-9.76845
길	-9.77017
▁높이	-9.77066
▁간단	-9.77166
▁빈	-9.77242
▁예산	-9.77283
▁아닌데	-9.77304
▁공장	-9.77426
▁도전	-9.7751
▁확실	-9.7753
▁왜냐하면	-9.77618
▁고개	-9.77637
▁뭔	-9.77804
▁포인트	-9.77965
▁형성	-9.77986
▁나와서	-9.77993
▁주인	-9.78108
▁느껴	-9.7813
▁야지	-9.78173
▁물건	-9.78313
▁영업	-9.7843
▁인스타	-9.78525
▁권력	-9.78568
▁파악	-9.78576
▁봅니다	-9.78627
▁태도	-9.78629
▁훈련	-9.78655
▁사상	-9.78794
▁등급	-9.78916
▁가요	-9.7893
▁상승	-9.7896
▁요소	-9.7905
▁차례	-9.79188
▁냈	-9.79428
▁확실히	-9.79439
▁주인공	-9.79462
▁진심	-9.79489
그	-9.79543
▁나갈	-9.79628
▁집단	-9.79735
▁p	-9.79749
▁욜	-9.79774
▁대한민국	-9.79814
▁이때	-9.79841
▁철	-9.79869
▁쳐	-9.79919
▁척	-9.79927
▁군대	-9.79998
▁김치	-9.80073
▁팩	-9.80286
▁값	-9.80298
▁G	-9.8037
▁노동	-9.80429
▁냐면	-9.80435
▁조차	-9.8049
▁반면	-9.80517
증	-9.80556
▁이동	-9.80597
▁체계	-9.8066
▁짜리	-9.80699
▁심각	-9.80763
▁지내	-9.80817
▁빠지	-9.80838
▁마무리	-9.80868
▁당황	-9.80928
▁우려	-9.80952
▁공원	-9.81003
▁류	-9.81025
▁봐도	-9.811
▁60	-9.81131
▁빠져	-9.8121
▁뎅	-9.81357
▁피자	-9.81359
▁어린	-9.81405
▁나머지	-9.81531
▁세력	-9.8163
▁졸업	-9.81662
▁찌	-9.81672
▁재미	-9.81672
할	-9.81755
▁평	-9.81813
창	-9.81822
▁빠르	-9.81899
▁논란	-9.82009
▁복지	-9.82039
▁굿	-9.82177
추	-9.82239
▁끼리	-9.82287
▁회담	-9.82387
▁생일	-9.82455
▁꾸	-9.8253
▁금방	-9.82556
▁간다	-9.82613
▁들어갔	-9.82674
▁과제	-9.82676
▁간식	-9.82717
▁소비자	-9.82749
▁협력	-9.82766
▁보수	-9.8278
▁운전	-9.82825
▁슈	-9.82874
▁심지어	-9.82887
▁컴퓨터	-9.82931
▁상상	-9.82936
▁부동산	-9.82969
▁T	-9.83016
▁세트	-9.83028
▁공식	-9.83085
량	-9.83092
▁외국	-9.83106
▁직업	-9.83131
봉	-9.83242
▁퍼	-9.83317
▁갈등	-9.83407
▁여유	-9.83435
▁공급	-9.83452
설	-9.83462
▁ᄂ	-9.83496
색	-9.83635
▁아무것	-9.83763
▁어찌	-9.8382
▁번호	-9.83941
청	-9.84011
▁푸	-9.8427
▁을지	-9.8429
▁of	-9.84372
▁견	-9.84385
▁비해	-9.84448
▁시킬	-9.84462
▁무대	-9.8463
▁인해	-9.8471
▁도로	-9.84795
▁교사	-9.84857
▁회복	-9.84893
▁의지	-9.84915
▁완성	-9.84933
▁가을	-9.85061
생	-9.85139
▁굳이	-9.85306
▁최초	-9.85467
▁장애	-9.85475
▁면접	-9.85515
▁항	-9.85577
▁대책	-9.85597
온	-9.85667
▁느라	-9.85756
▁지키	-9.85766
▁!!!	-9.85851
▁촬영	-9.85934
▁노인	-9.86087
▁선정	-9.8613
▁작용	-9.86259
▁극	-9.86302
▁속도	-9.86304
▁쟈	-9.8639
▁근	-9.86459
▁전하	-9.86532
▁가게	-9.86599
▁헉	-9.86661
남	-9.86821
▁주목	-9.86865
▁소속	-9.87022
▁기초	-9.87183
▁접	-9.87292
▁장기	-9.87338
▁일까	-9.87413
▁자녀	-9.87618
▁F	-9.87757
▁보장	-9.8776
▁군사	-9.8791
▁패	-9.87945
▁수입	-9.88018
순	-9.88085
▁왜냐면	-9.88306
▁털	-9.88407
▁제작	-9.8842
▁조치	-9.88458
▁미치	-9.88554
▁아아	-9.88692
▁행	-9.88709
2	-9.88763
▁the	-9.88828
▁유리	-9.88943
▁지지	-9.88948
▁응응	-9.88995
▁모임	-9.89047
▁오르	-9.89193
▁실시	-9.89204
▁태	-9.89217
▁어떠	-9.8932
환	-9.89354
령	-9.89376
▁분명히	-9.89427
▁성과	-9.89563
▁영역	-9.89565
▁어린이	-9.89567
▁재료	-9.89579
터	-9.89625
▁너무나	-9.89748
▁셔	-9.89756
▁특징	-9.89787
▁원칙	-9.8985
▁무리	-9.89898
▁애요	-9.89958
▁다며	-9.89988
▁대하	-9.89989
▁애기	-9.90068
▁캐릭터	-9.9031
▁매력	-9.90332
권	-9.90378
▁27	-9.90468
▁학습	-9.90552
▁둔	-9.90695
▁자극	-9.90925
▁통일	-9.91083
▁수학	-9.91115
왕	-9.91143
▁수행	-9.91159
▁각종	-9.91227
▁캐	-9.91228
▁28	-9.91239
▁여야	-9.91271
약	-9.91341
▁근무	-9.91394
▁임금	-9.91421
▁전환	-9.91543
▁가입	-9.91592
달	-9.91644
▁만났	-9.91647
▁품	-9.91731
▁가방	-9.91741
▁찬	-9.91808
▁반영	-9.91907
▁어떡	-9.91932
덕	-9.92072
▁자면	-9.92154
▁나갔	-9.92305
▁전형	-9.92319
▁흑	-9.92363
▁므로	-9.92567
▁대출	-9.92682
▁차량	-9.92733
▁키우	-9.92859
▁죄	-9.92889
▁깔끔	-9.92913
▁사항	-9.92993
▁러시아	-9.93104
▁TV	-9.93106
▁공항	-9.93118
울	-9.93163
▁L	-9.93177
▁26	-9.93295
▁움직이	-9.93492
▁브	-9.93531
▁홀	-9.93575
▁시각	-9.93637
▁무시	-9.93665
▁특정	-9.93677
▁후기	-9.93829
▁나쁜	-9.93959
▁옴	-9.93978
▁귀엽	-9.94089
▁자랑	-9.9416
▁보고	-9.94174
▁ᄀᄀ	-9.94184
▁∼	-9.94212
▁그분	-9.94241
▁먹방	-9.94318
▁떡볶이	-9.94453
▁도입	-9.94472
▁재산	-9.94536
▁테이블	-9.94573
▁아저씨	-9.94652
▁통화	-9.94693
▁어른	-9.94778
▁매장	-9.94786
▁불과	-9.9484
▁대학교	-9.94847
▁봐서	-9.94964
▁냥	-9.95031
▁덕분	-9.95059
ing	-9.95097
▁E	-9.95178
▁기획	-9.95223
▁축구	-9.95238
▁방금	-9.95402
▁히	-9.95417
▁제한	-9.95471
▁성분	-9.95485
▁선배	-9.95524
▁이끌	-9.95551
▁공기	-9.95588
반	-9.95641
▁묵	-9.95714
▁R	-9.95742
▁흠	-9.95803
▁남북	-9.95822
▁공무원	-9.95837
▁쏘	-9.95847
▁눈치	-9.95849
▁비밀	-9.95889
저	-9.95895
▁💕	-9.95924
▁조성	-9.95937
▁대응	-9.96074
▁범죄	-9.96078
▁f	-9.96081
▁누군가	-9.96112
▁쌓	-9.96167
▁발언	-9.96174
▁요청	-9.96228
▁야당	-9.96286
▁즐기	-9.96301
▁전기	-9.96466
▁바닥	-9.96579
▁언급	-9.96619
▁혁명	-9.96665
▁%)	-9.96943
▁쥬	-9.96949
▁화장품	-9.96965
▁방안	-9.97002
▁로운	-9.97065
▁대중	-9.97108
▁소득	-9.97125
▁참석	-9.97154
▁500	-9.97278
었	-9.97294
▁인도	-9.97337
▁세월	-9.97452
▁느	-9.97501
▁뻔	-9.97511
분	-9.97543
▁힘드	-9.97546
▁샐러드	-9.97597
▁광	-9.9773
▁카톡	-9.97783
▁가구	-9.97785
▁우주	-9.97794
▁밝	-9.97811
초	-9.97839
▁잉	-9.97845
▁그만큼	-9.97998
▁며칠	-9.98094
▁벗어나	-9.98226
▁불러	-9.98273
▁고등학교	-9.98277
▁H	-9.98324
▁조아	-9.98326
▁박사	-9.98333
▁데리	-9.98344
▁자는	-9.98423
▁구경	-9.98456
▁물질	-9.98489
▁화장실	-9.98491
▁웃음	-9.98589
▁긍정	-9.9859
▁어야지	-9.98694
▁단어	-9.98697
▁금액	-9.9872
▁의심	-9.98737
▁동기	-9.98773
▁본격	-9.98785
▁혁신	-9.98809
▁스포츠	-9.9882
▁볼까	-9.98923
릴	-9.99068
▁폭	-9.99091
▁마저	-9.99174
▁투표	-9.99227
▁법원	-9.99234
▁강력	-9.99404
광	-9.99421
▁반복	-9.9945
▁근거	-9.99464
▁무료	-9.99487
난	-9.99532
▁재정	-9.99552
▁편지	-9.99612
▁독	-9.99617
재미있	-9.99627
▁살펴보	-9.99707
▁식품	-9.99709
와	-9.99788
망	-9.9983
▁셋	-9.99849
▁주도	-9.99887
▁멀리	-9.9995
▁라니	-9.9995
▁왓	-10.0003
▁녹	-10.0004
▁계산	-10.002
▁주의	-10.002
좋아하	-10.002
▁헤	-10.0031
▁알아보	-10.0032
▁쇼	-10.0032
▁평생	-10.0034
▁I	-10.0045
▁기계	-10.0057
▁앤	-10.0058
▁원장	-10.0063
▁생긴	-10.0068
▁나타났	-10.0071
언	-10.0073
▁철학	-10.0074
▁으셨	-10.0074
더	-10.0088
▁실수	-10.0091
▁열린	-10.0105
▁드디어	-10.0109
▁이쁘	-10.0115
▁정의	-10.012
배	-10.0124
)	-10.0128
▁초등	-10.0136
▁제외	-10.0143
▁아닙니다	-10.0147
▁연습	-10.0158
▁ᅳ	-10.0159
▁뷰티	-10.0162
승	-10.0167
▁설정	-10.0179
▁승리	-10.0182
▁협상	-10.0182
▁단순	-10.0182
▁예쁜	-10.0194
▁폭력	-10.0201
▁가까운	-10.0202
▁이럴	-10.0203
매	-10.0207
▁쇼핑	-10.0212
▁여부	-10.0213
▁특성	-10.0214
▁수출	-10.022
▁조절	-10.0238
▁축하	-10.0241
▁작성	-10.0242
▁벽	-10.0249
▁수도	-10.0251
▁여론	-10.0253
▁등록	-10.0254
▁배경	-10.0254
▁택시	-10.0257
▁탕	-10.0269
▁엠	-10.027
▁이란	-10.0278
▁담배	-10.0286
▁담당	-10.0288
▁보냈	-10.029
▁사전	-10.029
▁대선	-10.0297
▁200	-10.031
▁연애	-10.0311
▁둘째	-10.0321
담	-10.0321
▁마자	-10.0322
▁드렸	-10.0328
▁장난	-10.0331
받	-10.0338
▁탓	-10.0346
▁전해	-10.035
▁규	-10.0363
▁차별	-10.0383
▁조합	-10.0384
▁통신	-10.0388
▁신뢰	-10.0389
▁자원	-10.0391
▁외국인	-10.0396
▁거부	-10.0397
직	-10.0398
▁문재인	-10.04
▁접근	-10.0409
▁독립	-10.0412
▁강한	-10.0414
▁29	-10.043
▁꺼내	-10.0433
▁70	-10.0442
▁뿌리	-10.0447
▁버린	-10.0454
▁어깨	-10.0457
▁차라리	-10.0461
▁관광	-10.0463
▁소재	-10.0466
▁지배	-10.047
애	-10.0484
▁혼	-10.0491
▁얼른	-10.0503
▁고서	-10.0504
▁나눠	-10.0507
▁본다	-10.0509
▁떨	-10.0509
▁게다가	-10.0519
▁비율	-10.0522
▁쌤	-10.0524
▁지급	-10.0524
져	-10.0527
▁△	-10.0527
▁싸우	-10.0529
▁❤	-10.0533
▁아닙니까	-10.0534
▁논리	-10.0536
▁2000	-10.0537
▁놀라	-10.0544
▁쿠	-10.0559
▁마스크	-10.0574
▁취소	-10.0576
▁구입	-10.0577
▁제주도	-10.0584
▁이케	-10.0585
후	-10.0585
▁상당	-10.0587
▁학	-10.059
살	-10.0593
▁난리	-10.0594
▁프로젝트	-10.06
▁축제	-10.0607
▁딴	-10.0607
▁포장	-10.0608
▁어쩌	-10.0612
▁창조	-10.0617
다는	-10.0622
▁돼지	-10.0624
▁화면	-10.0625
▁W	-10.0625
▁던지	-10.0628
▁링	-10.0638
▁더불	-10.0641
▁형식	-10.0643
▁청소	-10.0649
류	-10.065
▁검토	-10.0654
▁ᄉᄇ	-10.0656
행	-10.0657
▁내려	-10.0662
▁심리	-10.0666
▁오픈	-10.0674
열	-10.0675
▁시선	-10.0678
▁는다는	-10.0679
▁제발	-10.0696
▁공공	-10.0697
▁는다고	-10.0702
▁수능	-10.0718
▁바르	-10.0725
▁기반	-10.0728
▁펀드	-10.0731
▁언제나	-10.0734
▁크기	-10.0735
▁공유	-10.0735
▁증거	-10.0737
▁돌려	-10.0739
▁홍보	-10.0741
▁라인	-10.0752
▁익	-10.0765
▁제목	-10.0767
▁핫	-10.0778
▁아니야	-10.0783
▁절차	-10.0783
▁섬	-10.0784
▁g	-10.0788
▁우유	-10.0791
▁교	-10.0796
▁완벽	-10.0802
▁80	-10.0804
▁국물	-10.0805
▁스러워	-10.0805
▁충분	-10.0806
다고	-10.0807
▁도대체	-10.0807
▁답답	-10.0808
▁결론	-10.0818
▁의료	-10.0823
▁글로벌	-10.084
▁ᄆ	-10.0849
▁일자리	-10.0855
▁향해	-10.0856
▁ᄃ	-10.0857
▁혐의	-10.0864
▁여섯	-10.0877
▁롯데	-10.0885
▁제거	-10.089
▁새끼	-10.0894
▁올림픽	-10.0896
▁싸움	-10.0897
건	-10.0899
▁만날	-10.0901
박	-10.0905
▁이어	-10.0908
▁언	-10.0921
▁제안	-10.0926
▁가까이	-10.0927
▁동료	-10.0932
▁셀	-10.0938
▁모아	-10.0946
▁에다가	-10.0948
▁후회	-10.0962
▁아닐까	-10.0962
▁카메라	-10.0997
▁극복	-10.1013
▁맞춰	-10.1021
▁대형	-10.1028
▁감동	-10.1035
목	-10.1036
▁최종	-10.1038
▁응원	-10.104
▁넘어가	-10.1072
▁킹	-10.1077
▁인터뷰	-10.1086
▁는디	-10.1086
▁자산	-10.1087
▁ᄅ	-10.1089
▁침	-10.109
▁줘서	-10.1095
▁.?	-10.1096
▁겁나	-10.1106
▁첨	-10.111
락	-10.1115
▁휴가	-10.1115
▁워낙	-10.1115
▁고용	-10.1117
▁옥	-10.1119
▁의혹	-10.1136
▁지하철	-10.1152
▁시킨	-10.1154
▁강남	-10.1161
▁뇌	-10.1162
불	-10.1164
▁죄송	-10.1167
▁출연	-10.1168
▁참고	-10.117
▁구만	-10.1174
▁사태	-10.1174
▁통과	-10.1175
▁시행	-10.1176
▁복잡	-10.1179
▁습관	-10.1183
규	-10.1189
▁외부	-10.1192
긴	-10.1195
▁즈	-10.12
▁구속	-10.1204
▁ᅡ	-10.121
▁구분	-10.121
▁강의	-10.1212
▁동의	-10.1212
▁초기	-10.1219
▁나쁘	-10.122
▁유일	-10.1225
▁점수	-10.1234
표	-10.1241
▁웃겨	-10.1248
▁배달	-10.1248
▁맞추	-10.1256
▁주위	-10.1266
▁불리	-10.1268
▁인구	-10.127
▁빠	-10.1284
▁아쉽	-10.1286
▁독자	-10.1287
▁어때	-10.1291
▁나온다	-10.1305
▁피해자	-10.1312
▁의한	-10.1318
▁만난	-10.1319
▁규제	-10.1327
▁망	-10.133
▁선언	-10.133
▁공감	-10.1337
▁맺	-10.1341
▁합	-10.1344
▁워	-10.1345
▁그곳	-10.1352
▁재판	-10.1356
▁허리	-10.1357
▁권리	-10.1359
▁실천	-10.136
▁깔	-10.136
▁편안	-10.1361
▁리그	-10.1366
▁계기	-10.1375
▁and	-10.1376
▁토요일	-10.1386
▁집안	-10.1391
▁아시아	-10.1395
▁시점	-10.1397
속	-10.1407
▁필수	-10.1417
▁소비	-10.1428
▁줌	-10.1431
▁추억	-10.1451
▁학기	-10.1459
▁고급	-10.1459
▁부장	-10.1477
er	-10.1482
▁LG	-10.1491
▁연금	-10.1498
▁아름다운	-10.1513
▁무기	-10.152
▁십시오	-10.1526
▁실험	-10.1537
▁상징	-10.1539
▁궁	-10.1552
▁놀이	-10.1559
▁강하	-10.1564
▁헌법	-10.1568
▁건가요	-10.1574
▁본부	-10.1576
▁환	-10.1591
▁핸드폰	-10.1592
▁감소	-10.1593
▁울산	-10.1595
▁거짓말	-10.1603
▁심하	-10.1606
▁우린	-10.1611
돌아오	-10.1613
속상하	-10.1615
▁연합	-10.1615
▁논	-10.1622
▁무섭	-10.1636
▁매출	-10.1637
▁동일	-10.1652
▁진실	-10.1653
▁그저	-10.1656
▁사정	-10.1663
본	-10.1685
▁깨끗	-10.1686
를	-10.1687
▁결코	-10.1692
▁비행기	-10.1694
▁녀석	-10.1694
▁31	-10.1715
▁시청	-10.1724
▁마케팅	-10.1726
▁그려	-10.173
▁경기도	-10.1735
▁엄청난	-10.174
▁그런지	-10.1741
▁과일	-10.1751
▁바꿔	-10.1754
▁어울리	-10.1755
▁끝내	-10.1765
▁꿀	-10.1765
▁벗	-10.1768
브	-10.1769
▁탄	-10.1771
▁흐름	-10.1786
▁의도	-10.1809
각	-10.1813
▁파티	-10.1831
▁천천히	-10.1844
▁닮	-10.1848
▁회원	-10.1851
▁띠	-10.1859
▁휴	-10.1879
▁현지	-10.1879
▁저렴	-10.188
▁부여	-10.188
▁겨	-10.1883
▁a	-10.1886
▁구축	-10.1903
▁닫	-10.1916
▁한계	-10.1916
▁코스	-10.1922
▁ᅦ	-10.1923
▁전공	-10.1926
▁는구나	-10.1926
▁아픈	-10.1926
▁대충	-10.1926
▁닦	-10.1939
▁해졌	-10.194
▁똥	-10.1945
▁증	-10.1952
▁쌀	-10.1952
▁괜히	-10.1979
▁꾼	-10.199
범	-10.1994
버	-10.1995
▁변	-10.1997
▁자세히	-10.2001
▁혼란	-10.2003
▁반찬	-10.2003
▁지나가	-10.2004
▁업계	-10.2013
▁바탕	-10.2018
▁편의점	-10.2024
▁엿	-10.2026
▁웃기	-10.2028
▁구하	-10.2028
▁부문	-10.2034
▁빡	-10.204
▁범	-10.2047
채	-10.2047
▁필	-10.2048
▁사망	-10.2048
▁계란	-10.2052
▁꾸준히	-10.2056
▁총리	-10.2056
▁토론	-10.2069
▁예방	-10.2072
▁그린	-10.2073
▁할아버지	-10.2074
y	-10.2078
▁톡	-10.2079
업	-10.2079
▁불법	-10.208
▁혀	-10.2085
▁기름	-10.2094
▁제출	-10.2101
▁돌리	-10.2102
▁연속	-10.2107
▁새우	-10.2109
▁진출	-10.211
▁우수	-10.2111
▁찾아보	-10.2129
▁확	-10.213
▁그래야	-10.2134
▁in	-10.2142
▁유통	-10.215
▁바쁘	-10.2154
▁홍대	-10.2154
웠	-10.2155
▁ᄋᄏ	-10.2156
▁봉사	-10.2157
▁데이트	-10.2167
▁위하	-10.2176
▁N	-10.2177
▁이젠	-10.2181
▁산책	-10.2201
▁출시	-10.2201
▁땀	-10.2203
▁과장	-10.2206
▁국정	-10.2214
▁클	-10.2231
▁침대	-10.2231
▁천만	-10.2242
▁금요일	-10.2254
▁통한	-10.2255
▁쭉	-10.2259
송	-10.226
▁깜짝	-10.2261
▁전시	-10.2276
▁분양	-10.2283
▁금리	-10.2289
▁들어간	-10.2291
▁그쪽	-10.2294
말	-10.2297
▁긴장	-10.2299
왔	-10.2301
▁사이트	-10.2301
▁금지	-10.2304
▁팀장	-10.2304
▁희	-10.2312
아가	-10.2319
▁숲	-10.2321
▁아무튼	-10.2322
▁실력	-10.2326
▁트럼프	-10.233
▁확정	-10.2336
▁의무	-10.2344
▁인가요	-10.2346
▁자전거	-10.2346
▁노동자	-10.2354
▁으세요	-10.2358
▁해라	-10.2361
▁사이즈	-10.2362
▁의회	-10.2365
▁수많	-10.2372
▁낭	-10.2372
작	-10.2376
▁으려고	-10.238
▁관점	-10.2382
▁결제	-10.2394
옥	-10.2395
▁대사	-10.2402
▁셔야	-10.2403
▁메시지	-10.2408
▁박스	-10.2412
볼	-10.2415
▁교통	-10.2416
▁처벌	-10.242
▁기에	-10.2421
▁글쎄	-10.2426
▁훌륭	-10.2429
▁효율	-10.243
▁들어왔	-10.2436
▁수단	-10.2437
▁컵	-10.2437
▁부자	-10.2438
▁설립	-10.2446
향	-10.2448
▁소송	-10.2449
▁양념	-10.2451
▁노후	-10.2452
술	-10.2456
▁뉴	-10.2457
품	-10.2467
▁갑	-10.2471
▁활성	-10.2486
▁빠른	-10.2493
▁J	-10.25
▁예수	-10.2502
▁자네	-10.2508
▁움	-10.2513
▁일요일	-10.2514
▁끄	-10.2523
먹	-10.2532
▁패션	-10.2548
▁상호	-10.2549
▁능	-10.2551
▁실장	-10.2552
▁느꼈	-10.2564
▁개최	-10.2567
▁비싼	-10.2574
▁올랐	-10.2586
▁너희	-10.2595
▁ᄅᄋ	-10.2598
▁스토리	-10.2599
였	-10.26
▁졸	-10.2611
▁어려움	-10.2613
▁콩	-10.2616
▁법률	-10.2617
▁종이	-10.2617
▁샤	-10.2618
▁맥	-10.2619
▁그릇	-10.2636
▁첫째	-10.2639
▁파스타	-10.2643
▁빚	-10.2643
▁특수	-10.2645
▁통하	-10.2646
▁O	-10.2657
▁빌	-10.2659
▁랭	-10.2667
▁ᄌ	-10.2667
▁달려	-10.2673
▁자본	-10.2673
▁내려가	-10.2682
▁프	-10.269
▁소유	-10.2691
▁전반	-10.2692
▁아파	-10.2701
▁수요	-10.2707
▁색깔	-10.2708
▁초코	-10.2715
▁장점	-10.272
▁자라	-10.2721
▁세금	-10.2731
▁블랙	-10.2733
▁사무실	-10.2737
▁근대	-10.2746
▁인증	-10.2746
▁겸	-10.2752
▁야구	-10.2755
▁콘	-10.2761
▁한참	-10.2766
▁표시	-10.2779
▁이혼	-10.2783
투	-10.2789
▁용기	-10.2795
▁라구	-10.2796
▁수석	-10.2798
▁화장	-10.2799
▁모른다	-10.28
절	-10.2802
▁수상	-10.2805
함	-10.2808
▁일어났	-10.2808
▁잼	-10.2813
▁느낄	-10.2816
▁이하	-10.2822
훈	-10.2824
▁될지	-10.284
▁상대방	-10.2843
▁외교	-10.2846
▁',	-10.2846
▁앱	-10.2847
▁월요일	-10.2854
▁온라인	-10.2856
을	-10.2858
▁요인	-10.2863
▁댓글	-10.2865
▁축	-10.2884
▁신발	-10.2889
▁고소	-10.2893
▁입니까	-10.2896
▁미디어	-10.2897
▁최대한	-10.2915
▁김정은	-10.2917
▁내내	-10.2922
▁청소년	-10.2922
▁주체	-10.2927
▁노조	-10.293
▁추구	-10.2931
▁여서	-10.2932
▁미소	-10.2942
▁합리	-10.2953
▁굴	-10.2955
▁굳	-10.2956
▁그쵸	-10.2957
▁혜택	-10.2959
▁그나마	-10.2964
▁이틀	-10.2974
▁의하	-10.2982
▁무역	-10.2984
▁던가	-10.299
▁기도	-10.2996
▁타임	-10.2999
▁일기	-10.3002
▁지난달	-10.3021
▁수원	-10.3022
▁ᄉ	-10.3025
▁올라	-10.3038
▁통제	-10.3039
▁아닐	-10.3052
▁기구	-10.3064
▁무릎	-10.3069
▁뭔지	-10.307
▁드라	-10.3073
▁가수	-10.3078
▁민간	-10.3095
▁잤	-10.3111
▁완	-10.3119
▁주가	-10.3119
▁베트남	-10.312
▁t	-10.312
▁떨어져	-10.3121
▁지사	-10.3121
갈	-10.3123
▁백화점	-10.3126
▁감기	-10.3137
▁상관	-10.3138
곡	-10.3141
변	-10.3142
▁충	-10.3142
▁실망	-10.3145
▁부대	-10.3158
▁심장	-10.3158
▁정체	-10.316
▁엘	-10.3163
▁생각나	-10.3173
▁꼴	-10.3174
▁디저트	-10.3177
▁샷	-10.3179
▁음료	-10.3181
▁90	-10.3197
▁오른쪽	-10.3201
▁빌려	-10.3203
▁시인	-10.3205
▁엄	-10.3207
▁변경	-10.3219
▁《	-10.3225
▁춤	-10.3236
빈	-10.3239
▁휘	-10.3245
▁서울시	-10.3246
▁투어	-10.3253
▁보유	-10.3259
▁300	-10.3268
▁블	-10.3289
▁줄게	-10.3304
▁미쳤	-10.3305
▁대기	-10.3305
▁♥	-10.3305
▁l	-10.3306
▁b	-10.3309
▁수정	-10.3313
▁단위	-10.3315
▁맛나	-10.3316
▁보상	-10.3329
▁일곱	-10.3331
▁굽	-10.3331
▁가볍	-10.3333
▁늘어나	-10.3334
▁연출	-10.3336
▁으면은	-10.334
▁시발	-10.3342
▁모여	-10.3342
▁익숙	-10.3346
▁닿	-10.3349
▁은데요	-10.335
▁톤	-10.3351
▁참가	-10.3352
▁지정	-10.3376
▁새롭	-10.3388
줄	-10.339
▁쪼끔	-10.3393
항	-10.3394
▁방학	-10.3404
▁부럽	-10.3405
▁선발	-10.3406
▁설계	-10.3406
▁빨	-10.341
▁세우	-10.3413
▁😍	-10.342
▁판결	-10.3425
너	-10.3426
▁실질	-10.3427
▁각자	-10.343
▁감성	-10.3431
▁케이크	-10.3434
▁흥미	-10.3438
▁초반	-10.3441
▁희생	-10.3442
츠	-10.3448
▁갈까	-10.3452
▁다루	-10.3456
▁믄	-10.3462
▁수분	-10.3464
▁왼쪽	-10.3473
평	-10.3474
▁적절	-10.3486
▁%,	-10.3486
▁관객	-10.3487
▁배치	-10.3492
▁근육	-10.3504
▁뼈	-10.3506
▁합격	-10.3509
▁족	-10.3514
▁경남	-10.3515
▁찾아가	-10.3516
▁심사	-10.3517
▁암튼	-10.3518
▁최선	-10.3518
▁도서관	-10.3523
처	-10.3523
▁소장	-10.3534
▁케이스	-10.3538
▁SK	-10.3543
▁칭찬	-10.3554
▁화학	-10.3557
▁우울	-10.3561
▁아무런	-10.3568
▁이분	-10.357
▁우와	-10.3573
▁종일	-10.3586
▁데이터	-10.3591
▁강제	-10.3596
▁고향	-10.36
▁풍	-10.3606
찬	-10.3607
▁춥	-10.3633
탄	-10.3636
▁스마트폰	-10.3638
▁지시	-10.3639
▁좁	-10.3643
▁전개	-10.3644
▁요거	-10.3648
▁실현	-10.365
▁오키	-10.3657
▁아마도	-10.3665
▁한국인	-10.3671
▁명령	-10.3671
ed	-10.3679
▁이슈	-10.3684
▁오랜	-10.3688
▁억울	-10.3704
▁협회	-10.3708
▁옳	-10.3709
▁취향	-10.3711
▁기여	-10.3711
ᄏᄏ	-10.3718
▁달라	-10.372
▁소중	-10.3724
▁롤	-10.3731
▁나아가	-10.3738
년	-10.3738
▁c	-10.3742
▁근본	-10.3745
▁다닐	-10.3746
▁촉촉	-10.3751
▁숫자	-10.3756
▁요렇게	-10.3758
▁했으며	-10.3764
▁공주	-10.3783
▁범위	-10.379
▁사기	-10.3793
▁깊이	-10.3797
날	-10.3799
▁떨어졌	-10.3811
▁km	-10.3812
▁고마워	-10.3814
▁내게	-10.3814
▁헤어	-10.3818
독	-10.3823
▁슬프	-10.3825
▁얌	-10.3827
▁유아	-10.3833
▁뿌	-10.3835
결	-10.384
칠	-10.3843
▁걸려	-10.3847
▁위협	-10.3852
▁월급	-10.3855
▁에다	-10.3856
▁유치	-10.386
▁액	-10.3874
▁아이디어	-10.3876
▁자동	-10.3877
▁비타민	-10.3879
▁폼	-10.3879
▁○	-10.388
▁롱	-10.3889
▁실적	-10.3897
▁ᅲᅮ	-10.3897
▁경쟁력	-10.3898
▁👍	-10.3905
▁분노	-10.3912
▁멍	-10.3915
▁daily	-10.3928
▁현금	-10.3929
▁미술	-10.3933
▁당했	-10.3939
▁들어갈	-10.3945
▁진단	-10.3959
▁룸	-10.3972
▁늙	-10.3976
▁장사	-10.3977
▁건조	-10.3977
▁시리즈	-10.3981
급	-10.3984
▁친절	-10.3987
▁서류	-10.3989
▁경향	-10.4
▁상사	-10.4
▁마늘	-10.4
▁난다	-10.4006
▁The	-10.4008
▁알리	-10.4008
▁일종	-10.4021
▁땜	-10.4037
걸	-10.4039
▁비중	-10.404
▁인권	-10.4059
▁마트	-10.4063
친	-10.4063
▁그렇지만	-10.4068
출	-10.4075
▁비록	-10.4075
▁청구	-10.4078
▁만화	-10.4079
▁중단	-10.4083
▁순위	-10.4083
▁에게서	-10.4095
테	-10.4101
▁공포	-10.4105
니다	-10.4113
▁이따	-10.4115
▁▲	-10.4116
▁정확히	-10.4124
▁균형	-10.4125
▁개봉	-10.4126
▁케이	-10.4127
▁동영상	-10.4128
▁유형	-10.4128
▁백만	-10.4146
▁놔	-10.4146
▁프리	-10.4148
▁어릴	-10.4163
▁손가락	-10.417
암	-10.4173
▁씹	-10.4175
▁연대	-10.4177
▁도덕	-10.4187
▁국회의원	-10.4187
▁은퇴	-10.4187
▁켜	-10.4194
▁진지	-10.4197
▁파리	-10.4198
▁그러므로	-10.4202
▁섞	-10.4204
▁우승	-10.4204
▁택배	-10.4215
▁바지	-10.4217
▁밝히	-10.4217
▁질환	-10.4219
▁이랬	-10.422
▁소문	-10.4225
▁드립니다	-10.4226
▁초밥	-10.4228
▁겉	-10.423
▁분리	-10.4238
▁기다려	-10.4245
▁뉴욕	-10.4245
▁한가	-10.4247
▁라디오	-10.4248
▁최소	-10.425
▁다운	-10.4267
▁바른	-10.4267
▁랫	-10.4269
▁보낸	-10.4271
▁달성	-10.4274
▁연구원	-10.4277
▁연구소	-10.428
▁손해	-10.4302
▁컬러	-10.4303
▁지점	-10.4306
▁손님	-10.4311
▁본질	-10.4311
d	-10.4313
▁해소	-10.4315
▁적어도	-10.4316
윤	-10.4317
▁올렸	-10.4319
▁소녀	-10.432
▁마니	-10.4324
▁35	-10.4325
▁감각	-10.4327
▁민주주의	-10.433
▁오해	-10.4333
▁─	-10.4339
▁홈페이지	-10.4339
▁야채	-10.4341
▁대요	-10.4344
▁바보	-10.4359
▁미니	-10.4367
al	-10.4367
▁기독교	-10.4368
▁지수	-10.4372
▁운명	-10.4373
▁삼겹살	-10.4378
▁으므로	-10.4381
▁탑	-10.4381
▁런	-10.4384
▁부드럽	-10.4384
▁결	-10.4386
▁어려워	-10.4399
▁꼽	-10.4399
▁갖추	-10.44
▁한반도	-10.441
▁붉	-10.4411
녀	-10.4414
▁오늘날	-10.4416
▁겨우	-10.4417
▁중학교	-10.4422
▁왠지	-10.4432
▁인테리어	-10.4433
▁젖	-10.4438
▁연장	-10.4441
려오	-10.4448
n	-10.4454
▁한마디	-10.4458
▁투쟁	-10.4461
▁전투	-10.4462
▁과목	-10.4465
악	-10.4466
▁누워	-10.4469
▁매운	-10.447
▁안내	-10.4471
▁기운	-10.448
▁흔히	-10.4483
▁최저	-10.449
든	-10.449
▁인력	-10.4491
▁져서	-10.4492
▁́	-10.4496
▁도시락	-10.4499
▁공정	-10.4499
▁와인	-10.4504
▁쉬운	-10.4509
▁진보	-10.4522
▁.....	-10.4532
▁샵	-10.4538
▁염	-10.4539
▁예측	-10.454
▁지켜	-10.454
▁문장	-10.454
▁과자	-10.4544
▁사라지	-10.4549
▁안심	-10.455
▁수영	-10.4553
▁공동체	-10.4555
▁못해	-10.4559
▁써야	-10.4561
▁간장	-10.4578
▁격	-10.4581
스트	-10.4586
▁~~~	-10.4593
▁크리스마스	-10.4595
▁순수	-10.4597
▁맑	-10.4599
▁나섰	-10.46
▁템	-10.4601
▁드릴	-10.4603
▁돼야	-10.4608
▁딸기	-10.4617
▁수용	-10.4621
▁일부러	-10.4623
입	-10.4623
▁정하	-10.4624
t	-10.4624
▁가난	-10.4625
▁●	-10.4626
▁조각	-10.4629
▁죽이	-10.463
▁하락	-10.4634
▁토지	-10.4645
▁옛	-10.4646
슨	-10.4647
족	-10.4649
▁취하	-10.465
▁오랫동안	-10.465
▁어여	-10.4654
▁창업	-10.4655
▁피하	-10.4657
▁분기	-10.467
▁논문	-10.467
▁◆	-10.4674
막	-10.468
▁교체	-10.468
▁소년	-10.4685
▁인한	-10.4685
삼	-10.4685
▁내렸	-10.4686
▁입맛	-10.4687
▁신나	-10.469
풍	-10.4691
▁증권	-10.4693
▁배송	-10.4694
▁거대	-10.4697
▁니까요	-10.4699
▁주소	-10.47
▁딱히	-10.4703
▁유튜브	-10.4704
▁볶	-10.4708
숙	-10.4708
▁감자	-10.472
▁독서	-10.4721
▁이모	-10.4728
▁귀여워	-10.4734
▁챙기	-10.4735
▁중소기업	-10.4738
▁다이어터	-10.475
▁딩	-10.4754
▁봣	-10.4759
▁00	-10.4761
▁구워	-10.4763
▁칸	-10.4767
케	-10.4776
▁얇	-10.478
▁ᅵ	-10.4781
▁가만히	-10.4781
▁다구	-10.4787
백	-10.4789
ᄏᄏᄏ	-10.4801
▁매년	-10.4805
▁초대	-10.4806
▁플레이	-10.4811
▁밟	-10.4816
책	-10.4823
▁전했	-10.483
▁열정	-10.4833
▁멋있	-10.484
▁방지	-10.4841
▁아라	-10.4841
▁콜	-10.4841
▁당한	-10.4842
▁흐르	-10.4842
▁소위	-10.4861
▁com	-10.4861
▁클럽	-10.4862
▁비난	-10.4867
▁보단	-10.4869
▁체력	-10.4871
▁적응	-10.4879
▁성인	-10.4884
▁어머	-10.4895
▁화려	-10.4902
▁안보	-10.4907
▁못할	-10.4911
▁목숨	-10.4917
▁효	-10.492
▁흐	-10.492
▁전주	-10.4925
▁d	-10.4926
▁다녔	-10.4927
▁농	-10.4929
▁장비	-10.4931
▁솔	-10.4932
▁해진	-10.4933
▁똑같이	-10.4934
▁이웃	-10.4938
▁진다	-10.4944
▁위반	-10.4945
▁슬	-10.4945
▁거쳐	-10.4946
▁멋진	-10.4948
▁갈비	-10.495
익	-10.4953
▁질서	-10.4958
▁절반	-10.4961
▁신체	-10.4967
▁건축	-10.4968
름	-10.4975
▁당국	-10.4986
▁페	-10.4991
▁향상	-10.4995
▁발달	-10.4995
▁만남	-10.4999
▁몬	-10.5002
▁파괴	-10.5002
▁아녀	-10.5006
아들이	-10.5026
▁기념	-10.5031
▁소화	-10.5044
▁아이스크림	-10.5047
▁모자	-10.5049
▁네이버	-10.5059
▁근까	-10.506
메	-10.5061
▁컴	-10.5061
▁펴	-10.5066
▁즐길	-10.5078
▁보고서	-10.5078
▁불만	-10.5079
▁아이폰	-10.5081
▁스테이크	-10.5082
▁1000	-10.5085
▁자격	-10.5095
ᄏ	-10.5097
▁어용	-10.5099
▁널	-10.5103
▁구역	-10.5105
▁자치	-10.5107
▁유사	-10.5107
▁V	-10.511
▁』,	-10.5119
▁알려졌	-10.5121
▁신랑	-10.5122
▁주차	-10.5127
록	-10.5128
▁학자	-10.5137
▁주부	-10.5137
▁지니	-10.5138
▁큰일	-10.5159
▁갚	-10.516
모으	-10.5161
▁달달	-10.5162
▁사내	-10.5169
린다	-10.517
▁여인	-10.517
▁흑흑	-10.5178
▁움직임	-10.5182
겼	-10.5183
▁안철수	-10.5189
▁바랍니다	-10.5189
▁할게요	-10.5191
▁숙소	-10.5199
▁의자	-10.5201
▁이른바	-10.5201
▁모집	-10.5202
▁붙이	-10.5215
▁유행	-10.5219
▁까진	-10.5224
▁원리	-10.5224
▁예비	-10.5225
▁국어	-10.5228
▁취미	-10.5231
▁상관없	-10.5232
▁■	-10.5232
료	-10.5239
액	-10.5241
▁총선	-10.5242
▁투명	-10.5245
▁싼	-10.5248
▁보관	-10.5253
른	-10.5253
▁커플	-10.5256
▁의문	-10.5262
▁의해서	-10.5268
▁된다면	-10.5269
▁장치	-10.5269
▁싹	-10.5272
▁미세먼지	-10.5272
▁인수	-10.5274
▁찜	-10.5275
▁전용	-10.5277
▁불렀	-10.5282
▁교환	-10.5291
▁신용	-10.5291
▁옮겨	-10.5294
▁봐야지	-10.5295
▁신선	-10.5295
▁힘내	-10.53
▁지도자	-10.5305
▁가져가	-10.5307
▁칭	-10.5311
▁증상	-10.5311
▁변하	-10.5313
▁한두	-10.5319
▁김밥	-10.5322
▁소주	-10.5325
▁가시	-10.5326
▁니다	-10.5333
▁고정	-10.5333
▁개정	-10.5339
▁연어	-10.5351
▁뒤집	-10.5369
▁'(	-10.5369
▁자율	-10.5371
▁정식	-10.5373
▁원하	-10.5374
▁발휘	-10.5375
▁탔	-10.5377
▁경북	-10.5378
▁덮	-10.5383
▁지하	-10.5384
▁걸렸	-10.5396
▁한지	-10.5398
▁할까요	-10.54
▁베이비	-10.54
▁확장	-10.5401
▁꽉	-10.5403
▁푹	-10.5408
▁매체	-10.541
▁방어	-10.541
▁황제	-10.5411
▁창출	-10.5418
▁그럼에도	-10.5419
▁짝	-10.542
▁》	-10.5423
새	-10.5423
▁돕	-10.5423
▁애매	-10.5433
필	-10.5442
▁갠	-10.5442
▁아우	-10.5443
▁마감	-10.5445
▁협의	-10.545
▁흔들	-10.5451
▁어머님	-10.5456
▁선팔	-10.5459
▁채용	-10.5459
쳤	-10.5465
▁욕심	-10.5467
▁어라	-10.5468
퍼	-10.5469
▁사유	-10.5471
▁무서워	-10.5473
층	-10.5475
▁방침	-10.5478
▁겁니까	-10.5479
▁아유	-10.5481
▁폴	-10.5483
▁풍경	-10.5483
▁센	-10.5484
▁형사	-10.5497
▁결합	-10.5501
▁완료	-10.5501
▁고르	-10.5513
▁발라	-10.5516
▁떨어진	-10.5521
▁즐겁	-10.5532
▁즐거운	-10.5541
▁아홉	-10.5545
▁폐	-10.5551
▁소금	-10.5553
▁추석	-10.5555
▁향후	-10.5558
만두	-10.5568
▁화이트	-10.5571
극	-10.5578
▁쳐다보	-10.558
e	-10.5588
▁흥	-10.5594
▁어쩌면	-10.5597
▁동원	-10.5599
▁쓰레기	-10.5605
▁입술	-10.5608
▁계신	-10.5608
▁탄생	-10.5608
▁경주	-10.5608
▁놀랐	-10.5608
▁컸	-10.5618
▁결혼식	-10.5635
▁연극	-10.5638
▁랍니다	-10.5644
▁디지털	-10.5646
▁저자	-10.5647
▁단순히	-10.565
▁규칙	-10.565
▁여덟	-10.5657
궁	-10.566
씨	-10.5662
▁폭발	-10.5666
▁무려	-10.5666
탕	-10.5668
▁조용	-10.5671
▁윤리	-10.5676
▁부서	-10.5676
취	-10.5677
▁45	-10.5677
▁다소	-10.5682
▁인류	-10.5686
▁개입	-10.5689
▁했으나	-10.5694
▁귀여운	-10.5697
▁연예인	-10.5699
올라오	-10.5704
▁물리	-10.5705
▁투자자	-10.5709
▁추정	-10.5711
▁소고기	-10.5713
▁어우	-10.5719
▁연계	-10.5729
▁써서	-10.5731
▁핑크	-10.5734
▁전력	-10.5746
▁독특	-10.575
▁썰	-10.5755
▁앨범	-10.5758
▁오일	-10.5761
▁집행	-10.5762
▁여당	-10.5763
▁없애	-10.5764
편	-10.5765
▁만두	-10.5769
▁쟤	-10.5769
▁들리	-10.578
▁심심	-10.5781
▁총장	-10.5789
▁아이템	-10.5805
▁연말	-10.5806
▁용어	-10.5807
▁2010	-10.5812
▁입구	-10.5816
▁여보	-10.5828
m	-10.5829
▁ᄐᄐ	-10.583
▁시계	-10.5838
▁식물	-10.5841
▁대만	-10.5842
▁모시	-10.5843
▁항공	-10.5845
▁허용	-10.586
▁인근	-10.5863
▁전제	-10.5867
글	-10.587
▁2018	-10.5872
겨	-10.5875
▁영혼	-10.5879
▁이쪽	-10.588
▁터지	-10.5883
▁큐	-10.5885
▁걸음	-10.5888
▁바랄게	-10.589
▁..?	-10.5891
▁띄	-10.5892
▁확산	-10.5894
▁묘	-10.5903
or	-10.5907
▁양식	-10.5907
▁헌	-10.5911
▁뜯	-10.5912
▁ᅥ	-10.5913
▁형제	-10.5914
▁양파	-10.5915
▁졸라	-10.5917
▁대안	-10.5922
▁튀	-10.5923
▁평일	-10.5929
▁계정	-10.5942
▁재단	-10.5945
▁남겨	-10.5948
▁이명박	-10.5956
▁특이	-10.5957
▁위주	-10.5959
▁채널	-10.596
▁남기	-10.5963
▁곱창	-10.5966
▁2012	-10.5969
▁냉장고	-10.5972
▁체크	-10.5976
▁점검	-10.598
▁2017	-10.5989
▁묶	-10.599
▁개별	-10.599
▁태어나	-10.6004
워	-10.6006
▁어렸	-10.6012
▁혜	-10.6015
머	-10.6024
▁확신	-10.6027
.	-10.6037
▁이외	-10.604
▁한쪽	-10.6042
▁빠진	-10.6045
▁학과	-10.6046
▁다행히	-10.6048
▁번역	-10.6051
▁슬퍼	-10.6056
▁부상	-10.6059
▁콘텐츠	-10.6062
▁아동	-10.6065
▁이성	-10.6072
등	-10.6074
▁케어	-10.6077
▁고구마	-10.6079
▁환영	-10.6079
▁적당	-10.6082
▁해방	-10.609
▁부처	-10.6093
▁신화	-10.6102
▁로써	-10.6104
▁뒷	-10.6108
▁커다란	-10.6108
▁모바일	-10.611
▁입학	-10.6113
▁진로	-10.6117
▁친한	-10.6123
▁쌈	-10.6126
▁룩	-10.6129
▁리뷰	-10.613
손	-10.613
▁마주	-10.613
▁출산	-10.6137
▁사연	-10.6137
▁인재	-10.6142
베	-10.6142
▁한잔	-10.6143
▁블로그	-10.6145
▁시골	-10.6145
▁백성	-10.6148
▁날짜	-10.6149
▁만일	-10.615
▁솔직	-10.6159
▁먼지	-10.6162
▁방해	-10.6164
▁언젠가	-10.6165
▁회식	-10.6167
으면	-10.617
▁태양	-10.6178
▁지켜보	-10.6178
l	-10.6181
▁옮	-10.6181
▁욕망	-10.6183
▁줄어들	-10.6197
홍	-10.6197
▁둘러	-10.6201
▁삼성전자	-10.6204
▁뚫	-10.6208
▁풍부	-10.6208
▁임신	-10.6208
▁투입	-10.6208
▁빅	-10.6209
▁싱	-10.6222
▁의장	-10.6224
▁ᄂᄂ	-10.6225
▁헬스	-10.6226
▁충전	-10.6228
▁덥	-10.6229
▁X	-10.6232
▁컷	-10.6232
▁분류	-10.6235
▁마이	-10.6239
▁쪼	-10.6241
▁거절	-10.6243
▁장르	-10.6245
▁얘길	-10.6245
▁♡	-10.6251
▁무척	-10.6254
▁마디	-10.6258
▁막상	-10.6262
▁콘서트	-10.6262
▁뷰	-10.6274
▁정기	-10.6278
▁설마	-10.6281
▁경력	-10.6283
▁버거	-10.6283
커	-10.6291
예	-10.6299
▁틈	-10.6305
▁홍콩	-10.6306
▁튼	-10.6306
▁기차	-10.6318
▁천연	-10.632
▁델	-10.6324
▁가깝	-10.6328
▁벌이	-10.6329
▁고추	-10.6337
▁신규	-10.6337
▁종목	-10.6339
▁드릴게요	-10.6346
▁to	-10.635
▁뜨거운	-10.6355
▁플러스	-10.6358
▁|	-10.636
▁자살	-10.6364
▁쿡	-10.6366
▁배려	-10.6369
▁편집	-10.6371
▁계절	-10.6371
▁마라	-10.6372
▁대처	-10.6373
▁골라	-10.6373
▁😭	-10.6375
▁진술	-10.6378
▁취재	-10.6384
▁가량	-10.6387
▁짤	-10.6388
▁2015	-10.6391
▁에서부터	-10.6396
▁성향	-10.6408
▁복합	-10.6408
▁쏟	-10.6414
▁심한	-10.6415
▁아줌마	-10.6419
▁쿠폰	-10.6419
▁이내	-10.6423
▁신혼	-10.6424
▁캬	-10.6424
▁학문	-10.6431
▁교류	-10.6438
▁!!!!	-10.6439
▁조명	-10.6441
▁곁	-10.6443
▁연주	-10.6445
▁몽	-10.6448
▁설득	-10.6449
▁수고	-10.6463
▁온다	-10.6504
▁닝	-10.6507
▁정답	-10.651
▁정말로	-10.6513
▁2014	-10.6527
침	-10.6529
▁대리	-10.653
▁정원	-10.6531
▁겁	-10.6534
▁저게	-10.6534
립	-10.654
▁까먹	-10.6542
▁연관	-10.6542
▁무서운	-10.6549
▁제조	-10.655
귀	-10.6552
▁티켓	-10.6556
▁실내	-10.6563
▁팅	-10.6564
▁드러나	-10.6567
▁직전	-10.6574
▁어떨까	-10.6574
녀왔	-10.6575
▁쳤	-10.6578
골	-10.6582
▁답변	-10.6586
▁누르	-10.6589
▁권한	-10.6596
▁따지	-10.6596
▁살인	-10.6602
▁경계	-10.6603
▁들려	-10.6616
▁될까	-10.6616
▁모를	-10.6626
▁유학	-10.6632
▁공천	-10.6632
▁드러내	-10.6636
▁엄청나	-10.6638
▁―	-10.6641
▁서울대	-10.6645
▁개성	-10.6649
▁이기	-10.6655
▁버려	-10.6655
▁걸쳐	-10.6656
▁조작	-10.6663
▁준다고	-10.6665
합	-10.6672
c	-10.6677
▁턱	-10.6679
▁걸까	-10.669
▁흡수	-10.6691
▁흰	-10.6692
▁저항	-10.6699
▁골프	-10.6706
▁순서	-10.6707
▁특	-10.6709
▁안경	-10.671
▁법인	-10.6712
▁임대	-10.6716
▁랴	-10.6723
g	-10.6734
▁듭니다	-10.6734
▁교과	-10.6735
▁선고	-10.6738
▁채소	-10.6744
▁그대	-10.676
▁부위	-10.6764
▁ᅮᅲ	-10.6766
en	-10.677
▁셀카	-10.6772
▁했잖아	-10.6776
▁하우스	-10.678
▁바디	-10.6782
▁린	-10.6783
링	-10.6789
▁녀	-10.6795
▁등등	-10.68
▁스님	-10.6804
▁시내	-10.6804
패	-10.6804
▁조용히	-10.6804
▁요건	-10.6808
▁영양	-10.6809
▁데이	-10.6809
▁짚	-10.6814
▁관찰	-10.6817
▁출	-10.6817
▁조언	-10.6821
▁평범	-10.6832
▁지향	-10.6834
▁책상	-10.6836
,	-10.684
쿠	-10.6846
▁체결	-10.6847
▁보일	-10.6849
▁정해	-10.6853
▁교과서	-10.6854
▁군데	-10.6857
▁판사	-10.6864
▁2016	-10.6867
▁에겐	-10.6868
▁비상	-10.6868
▁까스	-10.6871
▁철저	-10.6874
▁로마	-10.6876
▁그죠	-10.688
▁전날	-10.6881
▁반려	-10.6884
▁검증	-10.6892
▁착한	-10.6894
▁뽀	-10.6897
▁찐	-10.6898
▁샴푸	-10.6907
▁넷	-10.6907
▁락	-10.6908
▁전남	-10.6911
▁후배	-10.6911
▁가졌	-10.6915
▁접수	-10.6921
▁진리	-10.6923
▁빠졌	-10.6927
▁미터	-10.693
나무	-10.6931
▁측정	-10.6934
▁임명	-10.6941
▁이념	-10.6942
▁장군	-10.6945
▁완화	-10.6949
▁주년	-10.6954
▁32	-10.6955
▁멤버	-10.6966
▁타인	-10.6966
▁차단	-10.6967
▁건너	-10.6967
▁인하	-10.6974
▁후반	-10.6975
ᄏᄏᄏᄏ	-10.6978
▁온도	-10.6979
▁허락	-10.6984
▁랩	-10.6985
▁붙여	-10.699
▁체육	-10.6993
▁붓	-10.6997
▁두부	-10.7015
염	-10.7017
▁여긴	-10.7017
▁지인	-10.7018
▁두려워	-10.7018
▁역량	-10.7022
▁정비	-10.7032
▁학부모	-10.7034
▁목사	-10.7037
▁실행	-10.7044
▁조국	-10.7051
▁신앙	-10.7052
▁명예	-10.7053
▁으라고	-10.7056
▁종종	-10.7067
▁좌	-10.7073
▁뮤	-10.7084
▁떠오르	-10.7085
▁www	-10.7087
▁2013	-10.7087
▁멈추	-10.7089
▁조화	-10.7094
▁풀리	-10.7099
▁사원	-10.7109
▁마세요	-10.711
▁곳곳	-10.7115
▁위로	-10.7118
▁리더	-10.7118
▁무게	-10.712
▁력	-10.7128
▁2011	-10.7129
▁e	-10.713
▁계단	-10.7141
▁"(	-10.7147
▁든다	-10.715
▁애초	-10.7168
▁별도	-10.7168
알	-10.717
▁갔었	-10.7171
▁냉	-10.7176
욱	-10.719
▁주방	-10.7196
▁일까요	-10.7196
▁상하	-10.7206
▁라든지	-10.7209
▁인형	-10.7209
▁이탈리아	-10.7218
▁요금	-10.7219
▁발행	-10.7221
▁간다고	-10.7227
▁줍니다	-10.7229
▁반갑	-10.7231
웅	-10.7234
▁기쁨	-10.7243
▁샘	-10.7249
▁뛰어난	-10.7257
▁유치원	-10.726
▁튀김	-10.7261
▁출마	-10.7276
▁2009	-10.7279
▁채권	-10.728
▁수치	-10.7281
▁정치인	-10.7285
▁평등	-10.7286
▁2008	-10.7286
▁선호	-10.7288
▁끝난	-10.7289
▁헬	-10.7292
▁견해	-10.7294
▁세포	-10.7295
▁인원	-10.7298
▁제재	-10.73
▁취지	-10.73
▁용서	-10.7302
▁적당히	-10.7305
▁가루	-10.7308
▁매콤	-10.7312
▁大	-10.7313
▁최소한	-10.7315
황	-10.7315
▁반발	-10.7321
▁버터	-10.7335
▁군인	-10.7344
▁작전	-10.7345
▁버릴	-10.7348
▁33	-10.7352
잔	-10.7359
▁압박	-10.7361
▁강사	-10.7363
▁옵	-10.7377
▁특별히	-10.7381
▁스마트	-10.7382
▁탈출	-10.7383
▁썩	-10.7383
▁들어와	-10.7384
▁너무너무	-10.7387
▁더군요	-10.7401
▁쪼금	-10.7407
▁살리	-10.7409
▁량	-10.7412
▁려나	-10.7414
▁패딩	-10.7419
▁지난번	-10.7425
▁강원도	-10.7426
는데	-10.7426
▁욤	-10.7427
▁출판	-10.7432
▁대학생	-10.7433
▁저축	-10.7438
택	-10.7438
▁계급	-10.7439
▁폐지	-10.7445
▁끊임없이	-10.7451
▁국장	-10.7453
▁화제	-10.7462
▁이래서	-10.7469
▁당근	-10.7469
▁거울	-10.747
▁개방	-10.7475
▁몰래	-10.7478
▁삐	-10.7486
▁지혜	-10.7488
▁버섯	-10.7502
▁이쁜	-10.7503
▁맹	-10.7503
먼	-10.7506
▁다녀	-10.7506
충	-10.7509
▁힐링	-10.7515
▁운용	-10.7515
▁펼쳐	-10.7517
▁볶음밥	-10.7521
▁처분	-10.7525
▁반성	-10.7533
▁생존	-10.7536
▁슈퍼	-10.7539
▁올린	-10.754
▁남녀	-10.7541
▁포스팅	-10.755
▁는다면	-10.7556
▁오호	-10.7558
▁5000	-10.7561
▁들어온	-10.7561
▁나옴	-10.7562
▁서양	-10.7566
▁위대	-10.7569
▁x	-10.7572
▁증명	-10.7572
▁탁	-10.7575
흘리	-10.7575
▁놨	-10.7576
▁돌아	-10.7576
▁아버님	-10.7586
▁평양	-10.7588
▁~~~~	-10.7588
▁노출	-10.7589
돌아다니	-10.7595
▁대장	-10.7597
▁걸린	-10.7597
▁삿	-10.7601
▁창문	-10.7601
▁정서	-10.7604
▁예뻐	-10.7605
▁인연	-10.7611
▁더라구	-10.7613
▁생태	-10.7613
▁담주	-10.7614
▁입시	-10.7614
▁박물관	-10.7622
▁사귀	-10.7623
▁서구	-10.7623
▁시청자	-10.7625
C	-10.763
▁점차	-10.7632
▁신분	-10.7639
▁먹이	-10.7639
▁유도	-10.7652
▁마당	-10.7652
▁와야	-10.7652
▁밝혀	-10.7655
▁월드컵	-10.7656
▁었었	-10.7659
▁촌	-10.7665
▁네트워크	-10.7672
▁뭔데	-10.7678
▁라든가	-10.7679
▁할려고	-10.7682
▁여기저기	-10.7685
▁민감	-10.7688
▁욕구	-10.7703
▁문제점	-10.7709
▁맵	-10.7716
▁마침내	-10.7727
▁낙	-10.7737
▁애플	-10.7737
▁육성	-10.7739
▁냐는	-10.7742
▁주차장	-10.7743
▁일으	-10.7744
돌	-10.7745
▁나타내	-10.7747
▁불교	-10.7748
▁대가	-10.7748
▁코로나	-10.7749
▁퇴	-10.7752
▁미사일	-10.7756
▁스물	-10.7757
축	-10.7759
▁공약	-10.7764
▁상자	-10.7765
▁근로자	-10.778
▁생선	-10.7781
대로	-10.7781
▁안주	-10.7783
▁중독	-10.7786
▁해양	-10.779
▁극장	-10.7793
▁밋	-10.7796
▁사안	-10.7809
아지	-10.781
▁단일	-10.7813
f	-10.7813
▁개웃	-10.7826
▁식감	-10.7827
▁묘사	-10.7827
▁될까요	-10.7834
촌	-10.7834
잡	-10.7849
▁오른	-10.785
▁믿음	-10.7856
나라	-10.7856
으며	-10.7862
▁아이고	-10.7864
▁공단	-10.7867
▁문명	-10.7872
▁때로	-10.7874
▁그야말로	-10.7887
룡	-10.7891
▁지닌	-10.7893
▁가르치	-10.7905
▁못한다	-10.7905
▁순환	-10.7906
▁결심	-10.7907
▁트리	-10.7909
▁오리	-10.7914
▁무한	-10.7924
▁http	-10.7932
▁부드러운	-10.7934
on	-10.7938
▁그걸로	-10.7938
니까	-10.7938
쳐	-10.794
▁눈길	-10.7941
▁시위	-10.7946
▁매번	-10.7946
▁동아리	-10.7952
▁영웅	-10.7954
▁지위	-10.7955
▁코드	-10.7955
▁뮤지컬	-10.7959
▁노무현	-10.7964
▁가스	-10.797
벌어지	-10.7974
▁무렵	-10.7974
▁립	-10.7976
▁팔로우	-10.7979
▁주관	-10.7981
▁탐	-10.7982
▁다는데	-10.7983
▁애정	-10.7984
▁돌아왔	-10.7987
▁숙	-10.8002
▁ᄁ	-10.8002
▁주사	-10.8006
▁부리	-10.8008
▁저장	-10.8012
▁사물	-10.8017
혔	-10.8019
▁회견	-10.8024
▁은지	-10.8033
▁에어컨	-10.8034
완	-10.8037
▁깎	-10.805
▁섭취	-10.8053
▁병사	-10.8054
▁객관	-10.8054
▁농업	-10.8057
▁헤헤	-10.8058
▁메인	-10.806
▁추워	-10.8067
▁렌즈	-10.8068
▁드린	-10.8074
▁알려져	-10.8076
▁취	-10.8082
▁광장	-10.8084
▁춘	-10.8088
▁가사	-10.8088
▁신부	-10.8089
▁쿠키	-10.809
▁오직	-10.8091
▁당사자	-10.8094
▁듀	-10.8095
▁국립	-10.8096
ar	-10.8098
▁시사	-10.8103
▁대립	-10.8121
▁남친	-10.8122
▁보낼	-10.8123
▁와중	-10.8124
▁가질	-10.8129
▁오오	-10.813
▁라떼	-10.813
▁흔적	-10.8133
▁법안	-10.8138
풀	-10.8144
▁젊은이	-10.8145
면은	-10.8154
▁쌍	-10.8156
▁셋째	-10.8157
▁갑니다	-10.8158
▁당첨	-10.8168
▁수립	-10.817
▁휴대폰	-10.8174
▁채우	-10.8177
▁국수	-10.8183
▁관광객	-10.8186
▁U	-10.8187
▁불행	-10.8187
▁치열	-10.819
▁적합	-10.8191
▁보편	-10.8194
▁인용	-10.8203
갑	-10.8203
▁빨간	-10.8205
▁곰	-10.8205
▁무언가	-10.8205
▁부채	-10.8205
▁자본주의	-10.8206
▁국당	-10.8216
▁국토	-10.8217
람	-10.822
▁통계	-10.8221
▁살려	-10.8222
▁와우	-10.8226
▁초점	-10.8237
▁36	-10.824
▁’,	-10.8247
▁짬뽕	-10.8265
▁감안	-10.8266
▁멘	-10.8272
▁불쌍	-10.8272
▁샌드위치	-10.8274
▁일치	-10.8278
▁펜	-10.8281
▁록	-10.8286
▁다시피	-10.8287
▁휴대	-10.8289
▁트위터	-10.8291
▁도구	-10.8292
▁명절	-10.8293
▁노트북	-10.8296
▁2007	-10.8296
▁신학	-10.83
▁레드	-10.8301
▁확률	-10.8308
▁법정	-10.8311
습	-10.8315
▁co	-10.8316
▁때리	-10.8317
in	-10.8317
▁벤	-10.8318
▁깨달	-10.8319
▁션	-10.832
▁활	-10.8324
▁환상	-10.8326
▁물가	-10.8333
▁미군	-10.834
▁황금	-10.834
▁파워	-10.8342
▁잘라	-10.8343
▁사업자	-10.8349
▁해질	-10.8349
▁품질	-10.8349
▁호주	-10.8352
▁구멍	-10.8353
▁얼음	-10.8353
▁닼	-10.8358
▁진입	-10.8361
▁스페인	-10.8362
▁덧붙였	-10.8373
▁융	-10.8378
▁토마토	-10.839
▁족발	-10.8401
▁파일	-10.8401
▁페이	-10.8408
▁38	-10.8415
▁밴드	-10.8415
▁한숨	-10.8416
▁배출	-10.8422
▁쉴	-10.8422
▁고백	-10.8428
▁계좌	-10.8428
▁추세	-10.8428
▁쓰이	-10.843
▁비리	-10.8433
▁바란다	-10.8433
▁신호	-10.8439
▁끈	-10.844
다녀오	-10.8441
혜	-10.8441
▁키워	-10.8447
▁댜	-10.845
▁직후	-10.845
▁어색	-10.8463
▁취급	-10.8464
▁대우	-10.8464
▁의학	-10.8465
▁이것저것	-10.8466
▁의존	-10.847
▁매매	-10.8479
▁가르쳐	-10.848
▁자격증	-10.8482
▁어플	-10.8483
▁34	-10.8484
▁생길	-10.8487
▁골목	-10.8491
▁들어서	-10.8492
▁일어난	-10.8498
▁당선	-10.8506
▁타자	-10.8509
▁2002	-10.8518
월	-10.8519
▁자아	-10.8523
▁조기	-10.8523
▁ᄃᄃ	-10.8528
▁가져	-10.8533
▁비즈니스	-10.8535
▁갈래	-10.8545
▁존중	-10.8546
▁철도	-10.8557
▁접촉	-10.8567
▁캔	-10.8572
춘	-10.8573
▁네네네	-10.8577
▁명확	-10.8579
▁기다렸	-10.8585
렌	-10.8585
▁배제	-10.8586
페	-10.8588
▁유엔	-10.8589
▁한나라당	-10.859
▁오징어	-10.8592
▁세워	-10.8592
▁😆	-10.8597
▁알려진	-10.8603
▁질병	-10.8604
▁깨닫	-10.8605
▁세제	-10.8607
▁대개	-10.8607
▁테스트	-10.8614
▁갈수록	-10.8619
▁계층	-10.8619
▁온갖	-10.8627
▁핏	-10.8639
▁경고	-10.8639
▁손실	-10.8642
▁흙	-10.8644
▁흥분	-10.8645
▁집회	-10.865
▁보조	-10.8655
▁목요일	-10.8657
▁ᄋᄉᄋ	-10.8657
▁글자	-10.8659
▁그서	-10.8662
el	-10.8664
▁k	-10.8674
번	-10.8676
▁등산	-10.8679
▁지났	-10.8679
▁용품	-10.868
▁강요	-10.8686
▁하얀	-10.8686
▁다니까	-10.8694
▁전면	-10.8694
▁호남	-10.8695
▁배고파	-10.8695
혁	-10.8703
▁도쿄	-10.8705
▁꽂	-10.8706
▁노트	-10.8706
▁이불	-10.871
▁통장	-10.8712
▁달래	-10.8717
▁신입	-10.8723
▁검진	-10.8731
▁패턴	-10.8732
▁내면	-10.8734
섭	-10.8746
▁테러	-10.8749
▁회계	-10.875
▁허가	-10.8756
▁400	-10.876
▁비전	-10.8762
▁수요일	-10.8763
▁통증	-10.8767
▁저렇	-10.8767
▁맞이	-10.8771
▁당일	-10.8773
▁코리아	-10.8779
▁제국	-10.8779
▁스러우	-10.8785
▁제자	-10.8787
▁슬픔	-10.8788
▁정성	-10.8788
스타	-10.879
▁넘겨	-10.879
▁박수	-10.8793
▁센스	-10.8804
▁바람직	-10.8805
▁편리	-10.8806
진다	-10.8807
▁화재	-10.8809
▁마사지	-10.8813
▁심판	-10.8815
▁달콤	-10.8816
▁전원	-10.882
▁땡	-10.8826
▁천안	-10.8828
▁모이	-10.8833
▁원내대표	-10.8833
▁쿠션	-10.8834
▁food	-10.8836
▁아끼	-10.8836
▁카레	-10.8836
▁교육청	-10.8838
▁단기	-10.8839
▁논쟁	-10.8851
▁줘요	-10.8852
▁설탕	-10.8855
▁협	-10.8858
▁가리	-10.886
▁럼	-10.8865
▁데뷔	-10.8866
벌	-10.8868
힐	-10.8873
▁복수	-10.8875
▁껴	-10.888
▁폭행	-10.8883
▁마셨	-10.8884
▁근로	-10.8888
▁입원	-10.8889
▁마실	-10.8891
▁바깥	-10.8897
▁아트	-10.8901
▁으론	-10.8902
▁가슴살	-10.8904
▁도저히	-10.8905
▁그리스	-10.8909
▁전세	-10.8911
▁코트	-10.8911
다면	-10.8913
▁볼까요	-10.8913
▁구이	-10.8914
▁instafood	-10.8918
▁진화	-10.892
▁단독	-10.8922
▁로봇	-10.8924
탈	-10.8925
▁충돌	-10.8926
▁잠들	-10.8926
▁xx	-10.8929
▁시티	-10.8931
▁두려움	-10.8936
▁탄핵	-10.8936
으니	-10.8946
▁외출	-10.8951
▁아야지	-10.8953
▁참치	-10.8954
냐	-10.8956
▁접시	-10.8959
▁사자	-10.8961
▁호흡	-10.8962
움	-10.8972
▁감시	-10.8975
▁곱	-10.8977
▁표준	-10.8981
▁양쪽	-10.8986
▁메이크업	-10.899
▁하여튼	-10.8995
▁국정원	-10.9001
▁재능	-10.9007
▁유기	-10.9008
▁임시	-10.901
▁영향력	-10.9011
▁다를	-10.9012
▁보완	-10.9021
▁기기	-10.9029
▁화이팅	-10.9029
▁틱	-10.903
련	-10.9032
▁향기	-10.9032
▁일제	-10.9036
▁기소	-10.9038
▁어둠	-10.9039
▁편한	-10.9039
▁→	-10.904
▁여수	-10.9041
▁kg	-10.9041
▁노선	-10.9045
▁kr	-10.9046
▁스런	-10.9046
▁휴식	-10.9053
▁구원	-10.9053
▁긁	-10.9057
▁법칙	-10.9058
▁연간	-10.9062
▁보습	-10.9062
▁승진	-10.9066
▁지출	-10.9069
▁한글	-10.9069
▁차려	-10.907
▁한강	-10.9072
▁상식	-10.9073
▁참조	-10.9074
▁수록	-10.9075
례	-10.9076
▁히히	-10.9079
▁오염	-10.9079
▁좌우	-10.9085
▁예민	-10.9108
▁쩌	-10.9108
▁커지	-10.9109
헌	-10.911
▁악화	-10.9111
ur	-10.9116
▁승인	-10.9117
▁필자	-10.9118
▁심정	-10.912
▁나간	-10.9121
▁프리미엄	-10.9123
▁ᄋᄌ	-10.9125
▁럽	-10.9126
죽	-10.9128
▁기부	-10.913
▁버티	-10.9131
▁랏	-10.9132
▁150	-10.9137
▁키즈	-10.9155
▁빨래	-10.9155
▁대단히	-10.9156
▁잔뜩	-10.9157
▁올리브	-10.9157
▁2004	-10.9157
▁채워	-10.9162
▁협정	-10.9164
짐	-10.917
▁절대로	-10.917
▁개편	-10.9174
▁대학원	-10.9175
▁혈	-10.9177
슬	-10.9203
▁스러웠	-10.9204
▁액션	-10.9207
▁??	-10.9212
▁한대	-10.9214
▁之	-10.9219
▁정작	-10.9223
▁돋	-10.9225
▁뻗	-10.9226
▁바꿀	-10.9228
▁통상	-10.9235
▁해명	-10.9241
▁마크	-10.9244
▁不	-10.9244
▁고대	-10.9245
▁벨	-10.9246
▁페이지	-10.9254
▁볶음	-10.9256
▁놓치	-10.9256
▁은가	-10.926
객	-10.9264
▁경비	-10.9265
▁관념	-10.9266
▁든든	-10.9267
▁정지	-10.9268
▁강릉	-10.9271
▁지대	-10.9275
팔	-10.9281
▁서운	-10.9289
▁어려울	-10.9294
▁바이	-10.9298
▁하나하나	-10.93
▁핀	-10.93
▁요런	-10.9305
▁제약	-10.9311
▁라이	-10.9311
▁문서	-10.9315
▁고전	-10.9319
▁2003	-10.9323
▁극단	-10.9324
▁특유	-10.9325
b	-10.933
율	-10.933
▁햄	-10.9331
le	-10.9331
▁거듭	-10.9332
▁공학	-10.9336
▁호소	-10.9339
▁인분	-10.9347
▁붙잡	-10.9357
▁아름답	-10.9358
▁았었	-10.936
잖	-10.936
▁대결	-10.9365
h	-10.937
▁응답	-10.937
▁서민	-10.9373
▁아가	-10.938
it	-10.9385
▁부품	-10.9394
▁1990	-10.9396
▁신라	-10.9401
▁영장	-10.9402
▁양성	-10.9403
▁뿜	-10.9406
▁대북	-10.9408
o	-10.941
▁계열	-10.9412
▁식구	-10.9414
▁이라든지	-10.9418
▁안타깝	-10.942
▁캠프	-10.9426
▁발사	-10.9428
으	-10.943
▁존경	-10.9434
▁간편	-10.9442
▁단백질	-10.9456
▁배터리	-10.9458
▁멋	-10.9464
▁지각	-10.9467
▁한정	-10.9474
▁랄까	-10.9477
▁리얼	-10.9478
▁IT	-10.9488
▁리스트	-10.949
▁마침	-10.9492
지나치	-10.9493
격	-10.9493
▁55	-10.9494
▁렷	-10.951
▁인친	-10.9517
▁바퀴	-10.9517
▁채택	-10.9525
▁짠	-10.9527
▁민중	-10.9529
▁용돈	-10.9534
▁배웠	-10.9535
▁즐겨	-10.9539
▁전년	-10.9539
견	-10.9541
다가	-10.9542
▁코너	-10.9542
▁조카	-10.9544
▁%),	-10.9554
▁😂	-10.9556
효	-10.9557
▁농민	-10.9558
▁오만	-10.9566
▁구름	-10.9567
?	-10.9567
기쁘	-10.9568
▁압	-10.9572
▁타입	-10.9575
▁리더십	-10.9578
▁보건	-10.9579
▁눌러	-10.958
▁바위	-10.9583
▁곤란	-10.9584
♀	-10.9584
▁둥	-10.9585
▁양심	-10.9592
▁찬성	-10.9598
죄	-10.9599
▁거두	-10.9605
▁츠	-10.9613
▁웹	-10.9617
▁복귀	-10.9628
▁대목	-10.9629
▁대변인	-10.963
▁육체	-10.9635
▁음성	-10.9638
▁2005	-10.9647
▁눈앞	-10.9647
▁술집	-10.9651
▁내지	-10.9658
▁인디	-10.9665
▁혈압	-10.9669
▁배고프	-10.9672
▁2001	-10.9673
▁교실	-10.9674
던	-10.9679
▁2006	-10.9683
▁눈빛	-10.9683
▁셔도	-10.9687
▁낯	-10.9687
▁지분	-10.9688
▁수제	-10.9694
▁사라졌	-10.9696
▁시켜서	-10.9697
▁태국	-10.9698
▁멋지	-10.9703
▁쿨	-10.9704
▁아프리카	-10.9705
▁아파서	-10.9722
▁푸짐	-10.9736
북	-10.974
▁웨	-10.974
▁월드	-10.9751
탁	-10.9752
▁찢	-10.9758
▁으려	-10.9759
▁흘러	-10.9766
ly	-10.9768
ᄏᄏᄏᄏᄏ	-10.9769
▁주기	-10.9769
▁갖춘	-10.977
▁신상	-10.978
▁cm	-10.978
▁맛난	-10.9789
▁수십	-10.9792
▁시집	-10.9792
▁향수	-10.9793
▁시켜야	-10.9793
져서	-10.9799
▁텔레비전	-10.9803
▁몇몇	-10.9803
▁나타난	-10.9806
▁드려요	-10.9807
▁구간	-10.9807
▁꺾	-10.9811
▁지지율	-10.9812
▁건데요	-10.9826
▁자르	-10.9826
▁3000	-10.983
▁버튼	-10.9831
▁마약	-10.9832
▁엽	-10.984
▁관람	-10.9849
▁여지	-10.9849
▁요기	-10.985
▁37	-10.985
▁상실	-10.9856
▁커버	-10.986
총	-10.9862
▁칼국수	-10.9865
▁장수	-10.9865
났	-10.987
▁네여	-10.9871
▁걸어가	-10.9873
▁즉시	-10.9875
▁으흠	-10.9876
▁비서	-10.9881
척	-10.9883
▁친환경	-10.9887
▁감상	-10.989
▁당당	-10.989
▁염색	-10.9895
▁구해	-10.9896
▁앓	-10.9899
▁연령	-10.9899
▁2019	-10.9901
▁뺏	-10.9904
▁따위	-10.9908
▁태풍	-10.9908
▁급여	-10.9909
▁안쪽	-10.9909
▁창작	-10.9914
▁토대	-10.9923
▁내린	-10.9926
▁키로	-10.993
▁단점	-10.9931
▁바나나	-10.9935
▁우리나라	-10.9939
▁중대	-10.994
▁연휴	-10.9941
려서	-10.9943
▁힝	-10.9946
▁상업	-10.9946
슈	-10.9948
▁텐	-10.9949
맨	-10.9953
흥	-10.9955
▁***	-10.9955
▁샤워	-10.9958
▁아깝	-10.996
▁긍까	-10.9961
▁엉엉	-10.9961
▁출전	-10.9966
▁아나운서	-10.9967
▁으실	-10.9967
▁면적	-10.997
▁부당	-10.9972
▁김영	-10.9972
▁승부	-10.9979
▁▶	-10.9981
▁서른	-10.9981
▁은근	-10.9985
▁특검	-10.9993
▁사무	-10.9993
▁맞춤	-10.9997
▁주름	-10.9997
▁바이오	-10.9998
▁컨	-10.9999
▁바쁜	-11
▁머릿속	-11.0009
▁매수	-11.0012
밥	-11.0018
▁중반	-11.0019
▁h	-11.0024
▁명품	-11.0024
▁그리스도	-11.0028
▁비하	-11.0028
▁하여금	-11.0038
▁생리	-11.004
▁우산	-11.0041
▁입주	-11.0043
▁우동	-11.0046
▁냠냠	-11.005
▁like	-11.0053
▁미루	-11.0058
▁아픔	-11.0061
▁다수	-11.0063
▁런던	-11.0073
▁탄력	-11.0075
▁이자	-11.0075
▁부회장	-11.0078
▁침묵	-11.0079
▁리라	-11.0079
▁얹	-11.0081
▁노예	-11.0081
▁냉면	-11.0092
▁주간	-11.0094
▁입증	-11.0098
▁커뮤니케이션	-11.0099
▁취직	-11.0099
▁동양	-11.01
▁상인	-11.0103
▁끓여	-11.0104
▁청주	-11.0106
▁지갑	-11.0107
▁갈라	-11.0109
▁진료	-11.0111
▁지상	-11.0112
▁***-****-****	-11.0115
▁장식	-11.0118
▁한때	-11.0118
▁청문회	-11.0119
▁담겨	-11.0121
▁몰라서	-11.0121
▁시급	-11.0129
▁발굴	-11.0129
▁지자체	-11.0131
돈	-11.0134
▁구별	-11.014
▁시킨다	-11.014
▁의외	-11.0143
균	-11.0146
▁마셔	-11.015
▁천재	-11.015
▁개국	-11.0153
▁댔	-11.0154
▁수리	-11.0155
▁예매	-11.0157
▁상가	-11.0158
▁댐	-11.0163
▁수집	-11.0166
갔	-11.0167
▁’(	-11.0168
▁겹	-11.0168
▁연수	-11.0169
▁......	-11.0173
▁토끼	-11.0175
▁껍질	-11.0176
▁패스	-11.0178
▁이마트	-11.0181
▁퀴즈	-11.0186
▁아이돌	-11.0186
an	-11.0194
▁한창	-11.0194
▁담긴	-11.0197
▁w	-11.0199
▁소수	-11.0199
▁맛없	-11.02
▁이달	-11.0201
▁애인	-11.0203
▁일어날	-11.0203
▁조리	-11.0205
▁수수료	-11.0206
▁세종	-11.0214
▁업종	-11.0215
▁부하	-11.0217
▁쎄	-11.0226
▁구성원	-11.0228
▁드림	-11.0233
▁협조	-11.0234
▁URL	-11.0238
▁48	-11.0238
▁셀프	-11.024
▁파크	-11.0241
▁구래	-11.0241
▁슬픈	-11.0241
▁비로소	-11.0244
▁아가씨	-11.0247
▁여건	-11.0249
(	-11.0249
▁^	-11.0253
▁칩	-11.0255
▁진영	-11.0264
▁39	-11.0268
▁상위	-11.0271
▁색상	-11.0274
▁착	-11.0276
▁구도	-11.0277
어서	-11.0279
▁태어난	-11.0279
▁유발	-11.028
3	-11.028
▁소원	-11.0283
런	-11.0286
▁매입	-11.0287
▁이야	-11.0288
▁어르신	-11.0303
▁나선	-11.0307
▁참으로	-11.0313
▁앵	-11.0318
et	-11.0322
▁레몬	-11.0324
▁연봉	-11.033
▁경선	-11.0332
▁보존	-11.0338
▁꼬리	-11.034
▁산다	-11.0343
▁학점	-11.0343
es	-11.0343
▁피아노	-11.0347
▁매트	-11.0349
_	-11.0349
▁빛나	-11.0352
▁r	-11.0359
▁호수	-11.0363
님	-11.0364
▁전후	-11.0369
▁피로	-11.037
▁보안	-11.0379
하여	-11.0379
▁만만	-11.0382
▁사면	-11.0383
▁합니까	-11.0383
▁진짜로	-11.0385
▁곧바로	-11.0389
▁조만간	-11.0389
▁직장인	-11.039
▁영원	-11.0393
▁변동	-11.0394
▁마켓	-11.0396
▁떠났	-11.0398
▁활약	-11.0401
▁닥	-11.0401
▁워터	-11.0402
▁던져	-11.0402
▁야식	-11.0402
▁침해	-11.0406
▁햄버거	-11.0407
▁한동안	-11.0413
▁할래	-11.0413
쉬	-11.0415
▁느낀	-11.0417
il	-11.042
▁댕	-11.042
▁웬만	-11.0421
▁라이프	-11.0422
▁그니깐	-11.0423
▁더워	-11.0423
▁동작	-11.0425
p	-11.0427
▁레이	-11.0431
▁부지	-11.0432
▁연인	-11.0434
▁집권	-11.0436
▁권위	-11.0436
▁작동	-11.0438
▁사법	-11.0441
▁매주	-11.0445
▁균	-11.0449
▁사퇴	-11.045
▁축소	-11.0451
▁카카오	-11.0451
▁즐거움	-11.0451
▁사회주의	-11.0452
▁싯	-11.0459
▁패키지	-11.046
▁대체로	-11.0462
▁쑥	-11.0464
▁탱	-11.0469
▁고유	-11.047
‍	-11.0473
▁범인	-11.0474
▁간부	-11.0475
▁활발	-11.0477
▁레스토랑	-11.0481
▁포항	-11.0487
▁주주	-11.0487
▁요번	-11.0492
ᅲ	-11.0493
▁껄	-11.05
▁잎	-11.0501
▁맞춰서	-11.0504
▁녹음	-11.0504
▁모래	-11.0512
▁뚜	-11.0514
▁왤케	-11.0514
▁이스라엘	-11.0514
▁follow	-11.0516
▁마구	-11.0519
▁공중	-11.0524
▁끔찍	-11.0526
한다	-11.0529
▁이행	-11.053
▁마마	-11.0534
▁임원	-11.0535
▁짐작	-11.0538
▁주거	-11.0538
▁일지	-11.0543
▁칼로리	-11.0545
a	-11.0553
▁커서	-11.0555
▁외모	-11.0556
▁일방	-11.0561
▁문재	-11.0564
▁세일	-11.0567
맥	-11.0568
▁타격	-11.0571
▁들어와서	-11.0571
▁직무	-11.0575
▁◇	-11.0575
▁충족	-11.0575
▁파견	-11.0577
▁장난감	-11.0577
▁주먹	-11.0579
▁공통	-11.058
▁본사	-11.0582
ic	-11.0583
밀	-11.0587
▁똑똑	-11.0591
▁출장	-11.0596
▁정착	-11.0597
▁귤	-11.0605
▁가벼운	-11.0608
▁재생	-11.0609
▁배운	-11.0609
▁심해	-11.0618
▁래요	-11.0619
▁라면서	-11.062
▁섬유	-11.0622
▁따라가	-11.0631
▁초콜릿	-11.0632
▁영광	-11.0633
▁거실	-11.0638
야겠어	-11.0639
엽	-11.064
▁고문	-11.0643
▁스벅	-11.0645
▁고발	-11.065
▁』(	-11.0652
▁잡지	-11.0655
▁기억나	-11.066
▁재벌	-11.0665
▁십니다	-11.0669
▁진주	-11.0674
▁특허	-11.0678
▁진상	-11.0682
▁사냥	-11.0683
▁획득	-11.0691
다니	-11.0696
렁	-11.0698
▁매각	-11.0699
▁살아남	-11.07
▁볼게요	-11.0702
▁람	-11.0707
▁어이없	-11.0707
▁동반	-11.0708
혀	-11.0709
▁연설	-11.0711
▁PC	-11.0712
▁기원	-11.0715
▁영감	-11.0723
▁탐구	-11.0724
▁지휘	-11.0726
▁메뉴판	-11.0729
▁마르	-11.0732
▁팟	-11.0737
▁신중	-11.0739
▁협약	-11.0743
▁수면	-11.0745
▁이겨	-11.0747
▁어딜	-11.0751
▁1980	-11.0752
▁밭	-11.0753
▁캐나다	-11.0758
▁단다	-11.076
▁인민	-11.0762
▁빙	-11.0763
랐	-11.0766
▁가짜	-11.0769
▁갤럭시	-11.0771
▁주머니	-11.0774
▁밥상	-11.0777
▁제정	-11.0777
▁홀로	-11.0781
▁용인	-11.0784
▁봐라	-11.0791
▁오케이	-11.0792
빛	-11.0794
▁✔	-11.0796
▁괴	-11.0796
▁농담	-11.0796
누	-11.08
▁마카롱	-11.0805
▁클렌징	-11.0805
▁물량	-11.0805
▁야근	-11.0812
▁자신감	-11.0815
라든가	-11.0817
▁블루	-11.0817
▁혹	-11.0818
▁고집	-11.0821
▁착각	-11.0824
▁일자	-11.0825
▁이중	-11.0826
▁오이	-11.0829
굴	-11.083
▁마냥	-11.0834
▁미용실	-11.0836
▁엉덩이	-11.0836
▁떴	-11.0837
▁북미	-11.0838
▁지루	-11.0838
▁일관	-11.0845
▁동화	-11.0845
▁동맹	-11.0845
▁거론	-11.0846
▁긔	-11.085
▁걸릴	-11.0854
펼치	-11.0854
▁석유	-11.0855
쓰	-11.0859
w	-11.0861
▁42	-11.0862
▁쇼핑몰	-11.0864
▁유용	-11.0866
압	-11.0866
▁소련	-11.087
▁음음	-11.0873
찾아오	-11.0874
▁구두	-11.0874
▁쇠	-11.0875
▁댁	-11.0875
▁이어서	-11.0876
▁오지	-11.0877
▁슬슬	-11.088
▁겡	-11.0893
▁강도	-11.0896
"	-11.0897
별	-11.0897
▁들으면	-11.0897
▁스튜디오	-11.0898
▁질투	-11.0898
▁초청	-11.0908
짓	-11.0908
▁푼	-11.091
▁아웃	-11.0912
▁的	-11.0916
▁촉진	-11.0918
▁한화	-11.0922
▁버전	-11.0924
▁놀라운	-11.0925
▁몰라도	-11.0927
▁마법	-11.0928
▁귀신	-11.0928
앙	-11.093
▁원전	-11.0932
▁담보	-11.0939
▁마는	-11.094
▁매달	-11.0943
▁푸른	-11.0949
▁세부	-11.0953
▁모기	-11.0956
▁모순	-11.0956
▁😊	-11.0958
▁새해	-11.096
▁메일	-11.0966
▁마이크	-11.097
▁감당	-11.0975
▁출석	-11.0975
▁스승	-11.0979
▁아이디	-11.098
▁온몸	-11.0986
▁처지	-11.0987
▁총회	-11.0992
▁몫	-11.0996
▁원작	-11.1
▁힐	-11.1001
▁차리	-11.1002
▁ᄀᄎ	-11.1008
▁일시	-11.101
▁역대	-11.1012
▁맥락	-11.1012
▁성립	-11.1018
▁킨	-11.1021
▁엄격	-11.1021
▁케익	-11.1027
▁교정	-11.1031
▁분과	-11.1033
at	-11.1035
▁홈런	-11.1037
▁넉넉	-11.1038
▁검정	-11.1047
▁아울러	-11.1052
▁치우	-11.1053
▁KT	-11.1053
▁출구	-11.1056
▁편의	-11.1058
▁자국	-11.1058
▁최악	-11.1061
▁꿈꾸	-11.1063
잉	-11.1064
▁음식점	-11.1069
▁생겨서	-11.1069
▁미술관	-11.1077
▁농촌	-11.1078
▁츄	-11.1087
▁항목	-11.1098
▁출범	-11.1101
▁불고기	-11.1101
▁자존심	-11.1104
▁문의	-11.1107
▁쿠리	-11.1113
가져오	-11.1122
▁생겨	-11.1122
▁적혀	-11.1124
▁빼앗	-11.113
▁Y	-11.1131
▁왕자	-11.1137
▁며느리	-11.1137
▁선임	-11.1138
▁려구	-11.1139
▁농사	-11.1143
▁지성	-11.1143
i	-11.1144
념	-11.1148
▁체포	-11.1148
▁촉구	-11.1153
▁아닌지	-11.1154
▁재수	-11.1159
▁아쉬운	-11.1162
▁1997	-11.1165
▁불가	-11.1169
▁ᄇ	-11.1169
▁부과	-11.1177
▁99	-11.1177
▁변신	-11.118
▁화요일	-11.1187
▁팁	-11.1187
▁변수	-11.1187
▁원피스	-11.1189
클	-11.1199
▁배워	-11.1202
▁뿌려	-11.1203
▁길이	-11.1204
▁돌아온	-11.1205
r	-11.1206
▁1998	-11.1206
▁비해서	-11.1208
▁당해	-11.1214
▁국방	-11.1215
검	-11.1216
▁지난주	-11.1219
▁치매	-11.1222
▁남부	-11.1232
▁뚜껑	-11.1232
▁여권	-11.1233
▁후원	-11.1236
▁함유	-11.1238
▁비주얼	-11.1251
엘	-11.1253
으나	-11.1255
▁본래	-11.1268
▁흔들리	-11.1268
▁딱딱	-11.1269
▁ᅢ	-11.127
▁집착	-11.1271
▁픽	-11.1273
▁화해	-11.1274
▁라기	-11.1275
▁1999	-11.1276
▁널리	-11.1278
▁입사	-11.128
올	-11.1283
▁놓여	-11.1289
▁잠재	-11.1291
▁스킨	-11.1292
▁이뻐	-11.1304
▁기적	-11.1316
▁연상	-11.1317
T	-11.1319
▁一	-11.1321
▁이른	-11.1324
▁ᅩ	-11.1327
▁녹차	-11.1329
▁첨단	-11.1329
외	-11.1333
▁거품	-11.1339
▁농구	-11.1347
▁배울	-11.1349
▁부실	-11.135
▁편성	-11.135
▁압력	-11.135
▁막히	-11.1358
▁자제	-11.136
▁헛	-11.1361
u	-11.1363
▁더러	-11.1365
▁우연히	-11.1367
▁달하	-11.1368
김	-11.1371
▁긴급	-11.1371
▁간접	-11.1372
끼	-11.1377
▁취득	-11.1378
▁600	-11.1381
참	-11.1382
▁다면서	-11.1382
▁해져	-11.1385
▁65	-11.1388
▁퇴직	-11.1395
▁남쪽	-11.1401
▁신비	-11.1404
▁보리	-11.1405
▁친하	-11.1408
▁된대	-11.1426
▁지연	-11.1429
▁여사	-11.1429
re	-11.1433
▁예외	-11.1433
▁로션	-11.1435
▁녹색	-11.1436
▁경매	-11.1437
▁으니깐	-11.1438
▁링크	-11.144
▁부활	-11.1443
▁서방	-11.1449
▁실시간	-11.1451
▁반지	-11.1454
▁진학	-11.1462
▁내밀	-11.1462
▁최순	-11.1462
▁엔진	-11.1467
▁까닭	-11.1468
▁무지	-11.1469
▁조지	-11.1476
▁편해	-11.1477
▁성질	-11.148
▁보여서	-11.148
▁임기	-11.1483
▁지표	-11.1484
▁컨셉	-11.1488
▁억제	-11.1488
▁젤리	-11.1488
▁철저히	-11.1491
▁예의	-11.1491
▁촛불	-11.1494
▁폭탄	-11.1495
▁엑스	-11.1498
▁스키	-11.15
▁훼손	-11.1511
▁상장	-11.1515
▁말투	-11.1516
▁추운	-11.1516
▁취임	-11.1517
▁면허	-11.1519
▁드셨	-11.1521
▁향한	-11.1521
▁배상	-11.1521
▁날개	-11.1522
▁살해	-11.1526
▁필름	-11.1528
▁도달	-11.1529
▁모드	-11.1534
▁당분간	-11.1538
블	-11.1539
▁왕국	-11.1539
▁KBS	-11.1543
▁그르	-11.1544
▁손상	-11.1546
▁전설	-11.1546
▁n	-11.1548
▁더구나	-11.1551
▁들여	-11.1552
▁첫날	-11.1555
▁이라도	-11.1561
▁전시회	-11.1563
▁실업	-11.1567
▁예고	-11.1569
▁멜	-11.1572
▁고구려	-11.1581
▁선전	-11.1582
▁야권	-11.1585
▁MBC	-11.1588
▁≪	-11.1592
▁여의도	-11.1593
리스	-11.1596
▁선진국	-11.1599
▁썬	-11.1605
▁유혹	-11.1605
▁저러	-11.1606
▁으니까요	-11.1608
▁미만	-11.161
▁서술	-11.1611
▁웹툰	-11.1611
▁보입니다	-11.1614
▁치과	-11.1614
▁계셨	-11.1616
▁몰려	-11.1619
▁거치	-11.1621
▁소름	-11.1622
농	-11.1623
렬	-11.1624
▁혈관	-11.1626
존	-11.1627
▁육수	-11.1631
▁강연	-11.1633
▁양반	-11.164
▁지옥	-11.164
▁예능	-11.1641
um	-11.1641
▁자나	-11.1644
▁지르	-11.1644
▁터져	-11.1646
곤	-11.1651
▁끓	-11.1654
▁막걸리	-11.1655
▁랜드	-11.1661
▁부추	-11.1664
▁거주	-11.1668
▁매니저	-11.1668
▁re	-11.1668
▁주스	-11.1669
▁타당	-11.1674
▁물고기	-11.1683
B	-11.1683
▁베리	-11.1687
▁추적	-11.1692
▁입법	-11.1698
▁🤣	-11.1702
▁문득	-11.1704
▁밝힌	-11.1705
▁이득	-11.1706
▁빌리	-11.1707
▁비유	-11.1708
▁대륙	-11.1708
▁버림	-11.1709
▁소환	-11.1711
▁팝	-11.1715
▁들여다보	-11.1718
▁됩니까	-11.1719
▁해고	-11.1721
▁소음	-11.1721
▁거트	-11.1724
▁통치	-11.1728
▁설비	-11.173
▁성능	-11.1735
▁램	-11.1738
▁튼튼	-11.174
▁왜곡	-11.1742
▁앰	-11.1742
▁신다	-11.1745
▁읍	-11.1746
▁막내	-11.175
▁양보	-11.1751
▁노리	-11.1752
▁임무	-11.1752
▁씀	-11.1758
▁약한	-11.1759
▁신가요	-11.1759
▁人	-11.1763
▁삭제	-11.1771
▁비디오	-11.1774
▁구상	-11.1774
▁머물	-11.1779
▁생생	-11.1781
▁수지	-11.1784
▁증언	-11.1785
▁분쟁	-11.1786
▁곽	-11.1795
▁그래두	-11.1799
▁분당	-11.1804
▁한꺼번에	-11.1808
▁44	-11.1809
▁착용	-11.1815
▁양상	-11.1818
▁초과	-11.1818
▁돌파	-11.1819
▁구글	-11.1824
▁문구	-11.1824
▁투수	-11.1827
▁유전자	-11.1827
▁환율	-11.1829
▁그림자	-11.1829
▁올릴	-11.1834
▁그리구	-11.1837
▁뚜렷	-11.1839
▁수다	-11.1841
▁가져다	-11.1842
▁이태원	-11.1842
▁우정	-11.1845
▁대접	-11.1853
▁외식	-11.1853
▁핑	-11.1858
▁선보	-11.1858
▁든가	-11.1859
▁영원히	-11.1862
▁바꿨	-11.1867
▁덴	-11.187
▁관료	-11.1875
▁간호사	-11.1878
▁살림	-11.1879
▁청장	-11.188
▁😘	-11.188
▁인격	-11.1882
ter	-11.1884
▁한우	-11.1887
▁껀	-11.1891
▁살까	-11.1894
▁글씨	-11.1897
▁하필	-11.1901
▁분열	-11.1907
▁머리카락	-11.1911
▁전복	-11.1913
▁세웠	-11.1916
좌	-11.1917
▁교양	-11.192
응	-11.1923
▁모색	-11.1924
▁pp	-11.1928
▁실체	-11.193
▁단속	-11.1932
▁어마어마	-11.1935
▁선사	-11.1937
▁어두운	-11.1939
▁성취	-11.194
▁습	-11.1942
▁논술	-11.1954
▁발목	-11.1954
▁",	-11.1963
▁부작용	-11.1967
▁유해	-11.1967
▁de	-11.197
▁지경	-11.1974
▁파이	-11.1975
▁신세계	-11.1978
▁주력	-11.198
▁75	-11.1982
▁무선	-11.1983
▁감옥	-11.1984
읍	-11.1986
▁전당	-11.1999
▁상반기	-11.2
▁렌	-11.2
▁올라갔	-11.2002
▁범행	-11.2006
▁구현	-11.2007
▁본다면	-11.201
▁잠실	-11.2014
▁고수	-11.2016
▁나눌	-11.2017
▁보급	-11.2017
▁하반기	-11.2019
▁어딨	-11.202
▁창의	-11.2021
▁고교	-11.2025
▁재무	-11.2025
육	-11.2025
▁이사장	-11.2035
▁52	-11.2035
▁캠페인	-11.2037
▁용량	-11.2039
▁동부	-11.2039
▁붕괴	-11.204
▁무거운	-11.204
▁외면	-11.2042
▁듬뿍	-11.2044
▁므	-11.2044
▁해진다	-11.2044
▁43	-11.2045
▁눈썹	-11.2047
▁충남	-11.2052
▁부림	-11.2053
▁피우	-11.2058
▁쪄	-11.2058
▁120	-11.2062
▁마땅	-11.2063
▁천사	-11.2063
▁나타난다	-11.2064
▁줄까	-11.2065
▁장악	-11.2065
▁차장	-11.2065
▁형상	-11.2066
▁땡기	-11.2068
▁클래식	-11.2068
▁웬	-11.2073
▁바뀐	-11.2075
▁폐쇄	-11.2075
▁드라고	-11.208
▁들렸	-11.2081
▁지불	-11.2083
머리	-11.2087
▁41	-11.2089
▁가라앉	-11.2089
▁밤새	-11.2092
▁쏙	-11.2096
▁애니메이션	-11.2103
▁유출	-11.2104
▁청약	-11.211
▁월세	-11.211
▁호박	-11.2113
▁배신	-11.2116
▁성실	-11.2116
▁베이	-11.2118
▁야간	-11.2124
▁키워드	-11.2127
▁혈액	-11.2128
▁친해	-11.2128
▁타이	-11.213
▁때려	-11.2132
▁따져	-11.2134
▁학회	-11.2134
▁CEO	-11.2139
▁준다는	-11.214
▁st	-11.2145
▁800	-11.215
▁어린이집	-11.2152
1	-11.2153
▁ᄐ	-11.2155
▁겄	-11.2157
▁식탁	-11.2159
▁점유	-11.2159
▁스타벅스	-11.216
P	-11.2162
▁통보	-11.2162
▁49	-11.2162
▁신촌	-11.2163
▁관측	-11.2168
▁열차	-11.2168
▁화나	-11.217
▁취약	-11.2171
▁공인	-11.2171
▁수시	-11.2175
▁스무	-11.2175
▁민정	-11.2177
▁•	-11.2177
k	-11.218
칭	-11.2185
▁신가	-11.2186
▁하느님	-11.2188
▁중도	-11.219
▁게끔	-11.2194
팅	-11.2195
▁귀족	-11.2198
▁친척	-11.22
▁조항	-11.2204
▁오가	-11.2204
튼	-11.2206
▁보충	-11.2209
▁악마	-11.2212
▁46	-11.2212
▁기법	-11.2214
▁박정희	-11.2218
ri	-11.222
허	-11.2227
▁창원	-11.2227
▁였으며	-11.2229
▁생물	-11.2237
▁벼	-11.2238
▁넵	-11.224
▁한입	-11.224
▁패배	-11.2244
▁한데요	-11.2245
▁이야말로	-11.2246
▁>,	-11.2246
▁슴	-11.2247
▁굶	-11.2247
셔	-11.2249
▁말리	-11.2251
▁라니까	-11.2253
▁셧	-11.2257
▁떠난	-11.2261
▁일행	-11.2262
▁김대중	-11.2264
▁열렸	-11.2265
▁팩트	-11.2265
▁망고	-11.2271
▁보증	-11.2272
▁충실	-11.2275
▁햇빛	-11.2276
I	-11.2277
▁가까워	-11.2279
혼	-11.228
▁비핵화	-11.2281
이드	-11.2283
▁어쩌다	-11.2299
▁재미없	-11.23
▁섭	-11.23
is	-11.2301
▁無	-11.2306
칼	-11.231
▁라운드	-11.231
▁스티커	-11.231
▁절망	-11.2312
▁부각	-11.2312
▁뿌듯	-11.2314
▁알아	-11.2317
▁02	-11.232
▁연방	-11.232
려고	-11.232
▁경찰서	-11.2332
▁베이스	-11.2332
▁정시	-11.2336
▁i	-11.2341
▁일반인	-11.2344
▁평창	-11.2347
▁일본인	-11.2349
▁빠질	-11.2353
▁목욕	-11.2358
▁실무	-11.2359
▁급식	-11.2361
▁선진	-11.2365
▁어느새	-11.2376
▁페이스북	-11.2379
▁비극	-11.2381
▁느껴졌	-11.2381
▁떠올	-11.2387
▁예컨대	-11.239
▁비비	-11.239
지르	-11.2391
▁청산	-11.2392
▁보여준다	-11.2397
▁과도	-11.2402
▁심의	-11.2403
▁전신	-11.241
▁치르	-11.2411
▁퇴사	-11.2421
▁실화	-11.2422
릉	-11.2424
▁염려	-11.2424
▁그지	-11.2425
▁수백	-11.2427
▁토익	-11.2428
▁테마	-11.2431
▁이대로	-11.2432
▁러브	-11.2434
▁낚시	-11.2434
▁적자	-11.2437
▁나와요	-11.2443
▁부를	-11.2444
▁택	-11.2445
▁한심	-11.2453
▁협박	-11.246
▁???	-11.2461
▁을걸	-11.2463
▁골드	-11.2465
▁오류	-11.2466
▁져야	-11.2466
▁해물	-11.2467
▁브라질	-11.2467
▁유연	-11.2468
▁보스	-11.2473
▁징역	-11.2474
▁비행	-11.2478
▁반사	-11.2478
▁호기심	-11.2481
▁브이	-11.2487
ᄋ	-11.2496
▁니당	-11.2497
궁극	-11.2498
▁간판	-11.2502
▁기재	-11.2508
▁국방부	-11.2509
▁화성	-11.251
▁서명	-11.2513
▁v	-11.2514
▁인공	-11.2515
▁했잖아요	-11.2515
▁지냈	-11.2524
우스	-11.2525
M	-11.2527
▁간단히	-11.2534
▁텍스트	-11.2541
▁신설	-11.2542
▁무장	-11.2546
▁!!!!!	-11.2548
us	-11.2549
▁우연	-11.2549
▁교육감	-11.2549
▁초래	-11.2554
▁리스	-11.2555
ᄏᄏᄏᄏᄏᄏ	-11.2557
▁다가가	-11.2559
▁나빠	-11.2563
협	-11.2563
▁원고	-11.257
▁흰색	-11.2574
▁가려	-11.2574
▁서서히	-11.2577
▁운행	-11.2583
▁저건	-11.2583
▁기저귀	-11.2584
▁무겁	-11.2585
▁선박	-11.2588
▁올바른	-11.2588
▁유산균	-11.2588
▁발음	-11.2593
▁꼬치	-11.2598
▁인프라	-11.2603
달라지	-11.2603
▁포도	-11.2611
▁foodstagram	-11.2614
▁을래	-11.2614
▁인자	-11.2619
리아	-11.2619
▁체중	-11.2621
▁떨어질	-11.2621
▁SNS	-11.2621
▁김정일	-11.2623
▁거짓	-11.2628
찾	-11.2628
▁돼지고기	-11.2629
▁과학자	-11.263
▁공짜	-11.263
▁요약	-11.2633
▁비치	-11.2636
▁숙제	-11.2639
▁나눔	-11.2644
️	-11.2651
▁일대	-11.2654
▁랄	-11.2657
▁도중	-11.2658
▁도심	-11.266
▁타워	-11.2664
▁야외	-11.2665
▁사드	-11.2666
▁Q	-11.2667
▁찾아볼	-11.2679
▁원가	-11.2681
▁입지	-11.2681
▁형편	-11.2682
라고	-11.2691
▁ᅭ	-11.2695
▁벚꽃	-11.2696
▁전역	-11.27
▁마인드	-11.2704
ad	-11.2704
▁수강	-11.271
▁창고	-11.2713
▁47	-11.2713
괴롭히	-11.2719
▁아메리카노	-11.2719
센	-11.2723
▁맛보	-11.2723
▁불가피	-11.2723
▁농장	-11.2723
▁섰	-11.2724
▁타이밍	-11.273
▁하트	-11.2734
▁사이버	-11.2735
▁겠다	-11.2735
▁사소	-11.2736
▁金	-11.2738
▁보험료	-11.2743
▁대인	-11.2743
▁도둑	-11.2743
▁나옵니다	-11.2744
▁공제	-11.2745
▁캣	-11.2746
▁아이스	-11.2749
▁아뇨	-11.275
▁미칠	-11.275
▁기지	-11.2754
▁바빠	-11.2755
▁무관	-11.2757
▁오바	-11.2757
▁압도	-11.2758
▁몰라요	-11.2758
▁개설	-11.2759
▁건대	-11.2762
▁구단	-11.2762
▁명분	-11.2766
▁사료	-11.2771
▁이어폰	-11.2771
▁억지로	-11.2772
▁주자	-11.2773
꽃	-11.2774
ᄒ	-11.2776
▁빵집	-11.2777
▁호르몬	-11.2779
▁뷔페	-11.2782
▁달랐	-11.2785
▁마비	-11.2786
▁👍🏻	-11.2787
▁소외	-11.2788
▁치유	-11.279
▁김정	-11.2791
냈	-11.2793
▁깡	-11.2795
▁콜라	-11.2797
▁배당	-11.2798
▁낭비	-11.2799
▁야겠다	-11.28
▁달걀	-11.2802
人	-11.2802
▁오로지	-11.2805
▁식민지	-11.2807
▁><	-11.281
달리	-11.2812
▁아닌가요	-11.2813
▁추측	-11.2813
▁민원	-11.2816
▁레벨	-11.2817
▁쉐	-11.2819
▁공모	-11.2822
▁이루어진	-11.2822
▁당원	-11.2826
▁지진	-11.2829
▁어때요	-11.2834
▁빨라	-11.2841
▁수당	-11.2845
▁드러났	-11.2845
▁폐하	-11.2847
▁성경	-11.2849
▁아름다움	-11.2851
▁부패	-11.2853
▁비추	-11.2855
▁ᄒᄉᄒ	-11.287
▁으려면	-11.2872
▁중고	-11.2876
▁표면	-11.2878
▁벤처	-11.2878
▁몹시	-11.2881
▁거긴	-11.2883
▁현대차	-11.2886
▁내장	-11.2886
▁좌석	-11.2887
▁for	-11.2889
▁파업	-11.289
R	-11.2891
▁우웅	-11.2892
▁라이브	-11.2893
▁선출	-11.2894
▁찰	-11.2894
▁고도	-11.2897
징	-11.29
▁그랬었	-11.2902
▁메이	-11.2902
▁인성	-11.2903
▁1995	-11.2904
▁융합	-11.2904
꼬	-11.2907
둔	-11.2916
▁해체	-11.2922
해서	-11.2923
▁옥수수	-11.2927
ent	-11.2929
▁어땠	-11.2932
▁경영자	-11.2937
▁대외	-11.2939
▁기숙사	-11.2939
▁울리	-11.2941
▁유권자	-11.2943
▁웃긴	-11.2946
▁노릇	-11.2951
▁밀려	-11.2951
▁유전	-11.2954
▁비오	-11.2957
욕	-11.2959
▁독재	-11.2961
▁전북	-11.2964
▁종료	-11.2967
▁라이트	-11.2976
▁반전	-11.298
▁랬	-11.2982
🏻	-11.2987
▁코치	-11.2993
▁청춘	-11.2997
v	-11.3001
득	-11.3005
▁외치	-11.3006
▁당초	-11.3008
▁낡	-11.3012
▁베스트	-11.3014
▁뵙	-11.3015
▁닭발	-11.3023
▁selfie	-11.3029
▁언덕	-11.3029
어들	-11.303
▁빌딩	-11.3035
▁🏻	-11.3037
▁요가	-11.3039
▁내말이	-11.3039
▁돌렸	-11.3041
▁이따가	-11.3043
▁설레	-11.3046
▁전이	-11.3049
▁반도체	-11.3051
▁랜	-11.3053
▁미쳐	-11.3058
▁휴일	-11.3059
▁제법	-11.306
▁지우	-11.3064
▁재난	-11.3066
▁상무	-11.3073
▁벌어졌	-11.3074
▁인해서	-11.3076
▁낯선	-11.3076
▁키스	-11.3077
▁정규	-11.3079
▁나왓	-11.3086
▁탁월	-11.3086
▁댓	-11.3089
▁에프	-11.3089
▁원내	-11.3089
▁대변	-11.3094
▁농협	-11.3097
▁수비	-11.3099
▁댄스	-11.3104
▁뒀	-11.3105
▁순식간	-11.3109
▁격차	-11.3111
▁지도부	-11.3112
힌	-11.3112
▁닥터	-11.3113
▁덤	-11.3114
▁인스타그램	-11.3117
▁유산	-11.3123
▁양말	-11.3124
▁네일	-11.3125
▁아니면은	-11.3128
▁약하	-11.3129
▁中	-11.313
▁지마는	-11.3133
▁걸까요	-11.3135
▁존맛탱	-11.3136
▁개헌	-11.3136
▁지명	-11.3138
▁갸	-11.3139
ong	-11.314
▁모른	-11.3141
▁건립	-11.3143
▁입력	-11.3146
▁밀리	-11.3147
▁천국	-11.3152
▁감히	-11.3159
엔	-11.3159
▁정면	-11.316
▁트럭	-11.316
▁자발	-11.3163
▁협의회	-11.3169
▁공작	-11.317
▁먼가	-11.3174
▁이리	-11.3175
▁쩔	-11.3176
▁기뻐	-11.3179
▁내신	-11.318
▁세여	-11.3182
▁규명	-11.3182
▁격려	-11.3185
▁구리	-11.3186
▁비례	-11.3186
▁맞서	-11.3187
▁국면	-11.319
▁감수	-11.319
▁흉	-11.3192
▁대략	-11.3194
▁아쉬움	-11.3195
▁계곡	-11.3199
▁열려	-11.3199
▁햐	-11.32
▁처방	-11.3202
▁엑	-11.3203
▁댄	-11.3204
▁겜	-11.3207
▁유료	-11.3211
▁오렌지	-11.3211
▁침체	-11.3213
▁무난	-11.3214
▁터미널	-11.3215
▁대량	-11.3219
▁현명	-11.3223
▁노래방	-11.3227
▁라멘	-11.3227
▁소요	-11.3233
▁북쪽	-11.3235
▁춘천	-11.3237
▁긋	-11.3238
▁×	-11.3238
▁턴	-11.3239
▁잔소리	-11.3239
▁대법원	-11.324
▁치아	-11.3241
▁단장	-11.3241
▁케이블	-11.3246
▁양자	-11.3248
▁사라져	-11.3249
▁씬	-11.3256
▁ᄌᄂ	-11.3258
▁인턴	-11.3276
▁기한	-11.3278
▁무사	-11.3278
▁상큼	-11.3279
▁공고	-11.3282
▁혐오	-11.3282
▁ᄆᄎ	-11.3282
▁모았	-11.3283
▁순대	-11.3284
헤어지	-11.329
▁함부로	-11.329
▁리조트	-11.329
▁산소	-11.3291
▁렴	-11.3291
측	-11.3292
as	-11.3293
▁✨	-11.3294
▁디자이너	-11.3294
▁둘러싼	-11.3298
▁어려웠	-11.3302
▁59	-11.3304
킨	-11.3305
묘	-11.3305
▁아닝	-11.3306
st	-11.3316
▁무너지	-11.3319
▁이어졌	-11.3319
▁한식	-11.3321
▁접속	-11.3323
▁장미	-11.3325
▁조개	-11.3326
▁꼼꼼	-11.3328
▁한국어	-11.3328
▁일산	-11.3329
id	-11.3332
▁장학금	-11.3334
▁강원	-11.3334
ce	-11.3336
▁슨	-11.3339
▁부천	-11.3343
▁억압	-11.3349
▁900	-11.335
▁스위스	-11.3358
▁높여	-11.3359
▁중시	-11.336
▁이마	-11.3362
▁입금	-11.3362
▁회전	-11.3363
▁사단	-11.3364
▁적금	-11.3366
▁간주	-11.3366
▁상의	-11.3368
▁위안	-11.337
▁닷	-11.3373
▁닭갈비	-11.3374
▁위장	-11.3377
▁발효	-11.3384
▁운전자	-11.3385
▁호랑이	-11.339
▁대강	-11.339
▁무상	-11.3393
▁놀란	-11.3394
▁자문	-11.3397
▁멀쩡	-11.3398
▁펫	-11.3398
▁세용	-11.3399
▁전선	-11.34
▁예금	-11.3405
▁서면	-11.3407
▁찾아내	-11.3411
▁지워	-11.3414
▁여태	-11.3414
▁세운	-11.3414
▁메리	-11.3414
▁레시피	-11.3418
▁시나리오	-11.3418
▁훈	-11.3419
▁ml	-11.3419
▁매도	-11.3421
▁두산	-11.3425
▁쌀국수	-11.3426
▁놔야	-11.3427
▁삼촌	-11.343
▁시트	-11.343
▁절감	-11.3432
▁경기장	-11.3434
▁관여	-11.3436
▁거친	-11.3438
다리	-11.3442
▁현안	-11.3445
▁뛰어나	-11.3446
▁내주	-11.3447
▁두피	-11.3454
것	-11.3454
▁놀랍	-11.3454
▁신속	-11.3463
▁순천	-11.3465
▁돌아와	-11.3467
▁스프	-11.3467
▁드려야	-11.3471
▁고립	-11.3472
▁줄여	-11.3472
▁방치	-11.3475
▁뜬	-11.3479
▁사리	-11.348
▁교장	-11.3482
▁줫	-11.3483
▁부진	-11.3483
▁감싸	-11.3492
▁부러워	-11.3497
▁기호	-11.35
▁주류	-11.3502
닝	-11.3502
수록	-11.3503
▁들어올	-11.3503
▁받아들여	-11.3503
▁흑인	-11.3504
▁유대	-11.3506
▁천하	-11.3508
▁청취자	-11.3521
▁림	-11.3523
▁어딘가	-11.3529
▁했으니	-11.353
▁한복	-11.3532
▁겻	-11.3532
▁구석	-11.3533
▁바삭	-11.3537
7	-11.3541
▁초월	-11.3542
▁속상해	-11.3546
벽	-11.3547
▁중국인	-11.3548
▁설거지	-11.3552
▁가공	-11.3553
▁성서	-11.3557
혈	-11.3558
▁즉각	-11.3559
▁픈	-11.3564
폭	-11.3565
z	-11.3565
탑	-11.3566
▁독점	-11.3566
▁오브	-11.3569
V	-11.357
▁벌어진	-11.357
▁남겼	-11.3571
▁틴	-11.3575
셨	-11.3576
▁재고	-11.3578
착하	-11.3581
▁김무성	-11.3584
▁다름	-11.3584
맛	-11.3585
▁여쭤	-11.3588
ation	-11.3588
▁펌	-11.3589
롱	-11.359
▁기르	-11.359
ᄀ	-11.3595
▁현행	-11.3595
▁국밥	-11.3602
낸	-11.3609
▁담당자	-11.3612
▁세탁	-11.3612
▁컨디션	-11.3613
▁다고요	-11.3615
▁셀피	-11.3615
▁플랫	-11.3617
ol	-11.3622
▁치약	-11.3622
▁정통	-11.3623
▁드레스	-11.3623
▁영화제	-11.3627
▁가죽	-11.363
▁롬	-11.3632
▁文	-11.3634
▁으루	-11.3638
▁😋	-11.3638
▁전파	-11.3638
▁파도	-11.3638
▁뱅	-11.3645
▁저쪽	-11.3645
▁탈락	-11.3652
▁졸려	-11.3656
▁사도	-11.3657
▁득	-11.3658
세우	-11.3671
▁용도	-11.3674
▁쫄	-11.3675
▁다짐	-11.3677
▁으음	-11.3678
▁끓이	-11.3678
▁1996	-11.3679
▁가해자	-11.3681
▁감염	-11.3682
▁맞아	-11.3682
▁핑계	-11.3688
▁반박	-11.3688
▁햇살	-11.3689
샤	-11.369
▁인종	-11.3692
▁트렌드	-11.3695
▁유독	-11.3696
까봐	-11.37
▁들어야	-11.3702
▁손톱	-11.3704
▁평론가	-11.3705
▁모아서	-11.371
릿	-11.3713
▁내릴	-11.3713
▁외롭	-11.3713
▁공익	-11.3715
▁진한	-11.3716
▁주행	-11.3717
▁우울증	-11.3718
▁비빔밥	-11.372
▁체질	-11.3722
▁Re	-11.3722
▁태어났	-11.3724
▁료	-11.3727
▁과세	-11.3727
▁영양제	-11.3736
▁텐데요	-11.3738
▁명칭	-11.3741
▁떠올랐	-11.3741
▁비평	-11.3742
▁비서관	-11.3743
un	-11.3744
▁李	-11.3745
▁버린다	-11.375
▁물품	-11.3751
▁도발	-11.3753
▁필터	-11.3755
▁무덤	-11.3756
▁者	-11.3757
▁95	-11.3758
▁본능	-11.376
▁무력	-11.376
▁꾸미	-11.3762
▁공략	-11.3763
▁틀림없	-11.3764
▁각오	-11.3769
▁붐	-11.377
▁ᅣ	-11.3771
▁였을	-11.3773
▁걸어서	-11.3773
▁욱	-11.3777
▁손자	-11.3783
▁됐었	-11.3788
▁판정	-11.3789
▁아팠	-11.3791
▁대왕	-11.3792
▁할라	-11.3794
▁의정부	-11.3794
▁최애	-11.3796
▁합시다	-11.38
▁핸	-11.3801
▁고쳐	-11.3801
▁51	-11.381
▁신념	-11.3811
▁사촌	-11.3815
▁시바	-11.3816
▁안타까운	-11.3816
▁국무	-11.3821
▁시체	-11.3823
▁강렬	-11.3826
▁합병	-11.3831
▁출판사	-11.3831
▁더블	-11.3831
▁겠어	-11.3835
▁호두	-11.3838
▁복원	-11.3839
▁가져왔	-11.3839
▁폐기	-11.3841
▁양국	-11.3841
▁화폐	-11.3843
▁친정	-11.3844
▁셔츠	-11.3847
▁저것	-11.385
▁초조	-11.3852
▁김일성	-11.3858
▁올라왔	-11.3859
▁거라	-11.386
▁≫	-11.3867
▁브라운	-11.3867
▁뒤늦	-11.3871
급하	-11.3872
▁행보	-11.3875
▁에어	-11.3877
▁전사	-11.3879
얼	-11.3879
▁쿤	-11.3881
▁해운대	-11.3889
▁주고	-11.3891
▁망했	-11.3894
▁부른	-11.3895
▁윈	-11.3897
▁속하	-11.3898
▁사로잡	-11.39
▁해피	-11.3901
▁차관	-11.3906
▁전적	-11.3911
▁시신	-11.3923
▁모닝	-11.3923
▁준대	-11.3934
▁상해	-11.3934
▁당뇨	-11.3936
눈	-11.3937
▁미세	-11.3938
ia	-11.3939
▁실습	-11.3943
률	-11.3944
▁클린	-11.3946
▁만성	-11.3946
▁광화문	-11.3947
▁700	-11.3947
▁보여준	-11.395
▁치마	-11.395
▁허위	-11.3953
▁할라고	-11.3954
▁귀국	-11.3955
▁성숙	-11.3955
▁수영장	-11.3957
▁서점	-11.3963
▁초보	-11.3965
▁1970	-11.3967
▁성당	-11.3968
▁바이러스	-11.3968
▁황당	-11.397
▁아주머니	-11.3971
▁동력	-11.3974
▁그레이	-11.3974
▁단단	-11.3978
▁재판부	-11.3979
▁동해	-11.3981
▁봉투	-11.3983
▁그다지	-11.3986
▁〈	-11.3987
▁봤었	-11.3989
K	-11.3996
▁간담회	-11.3998
▁근원	-11.3998
▁민심	-11.3999
▁제사	-11.4005
▁교육부	-11.4008
▁젠	-11.401
▁좌절	-11.401
▁냄	-11.4012
스터	-11.4016
▁현황	-11.4016
▁라고요	-11.4017
!	-11.4018
▁터치	-11.4021
▁53	-11.4023
▁선도	-11.4028
▁싸웠	-11.4032
▁쌓여	-11.4036
▁사인	-11.404
▁유력	-11.4043
▁설사	-11.4044
▁남매	-11.4047
▁벌레	-11.4047
▁신장	-11.4049
▁프사	-11.4052
th	-11.4059
▁탈모	-11.406
▁된장	-11.4062
▁달린	-11.4067
▁손목	-11.4074
▁대폭	-11.4081
▁유동	-11.4085
▁사이드	-11.4087
▁심화	-11.4089
▁요원	-11.4092
▁짙	-11.4092
떡	-11.4092
▁1994	-11.4092
▁위생	-11.4096
▁스카이	-11.4097
▁죽여	-11.4098
▁떄	-11.4101
▁수박	-11.4102
▁날리	-11.4104
▁마스터	-11.4104
▁개정안	-11.4105
▁영화관	-11.4107
▁갈게	-11.4113
▁시중	-11.4115
▁증인	-11.412
▁과외	-11.4122
▁설문	-11.4123
▁더운	-11.4127
▁왔었	-11.413
▁모여서	-11.4135
▁양산	-11.4136
▁편견	-11.4138
▁남한	-11.414
▁줘야지	-11.4141
▁콩나물	-11.4143
▁데려가	-11.4145
▁명성	-11.4145
am	-11.4147
▁은혜	-11.4148
▁철수	-11.4149
▁물티슈	-11.4153
▁잔인	-11.416
▁필리핀	-11.4166
▁중계	-11.4171
▁조상	-11.4171
▁해봐야	-11.4173
▁캠핑	-11.4174
F	-11.4175
▁떨리	-11.4184
▁중동	-11.4188
▁조약	-11.4189
▁틀리	-11.419
▁보인	-11.419
▁아르바이트	-11.4196
▁즙	-11.4196
▁중년	-11.4196
▁최적	-11.4204
▁담백	-11.4209
▁56	-11.421
▁뱀	-11.421
▁아오	-11.4212
▁개척	-11.4214
▁로드	-11.4215
▁브라	-11.4216
▁실정	-11.4216
▁실은	-11.4221
▁뭡니까	-11.4222
▁덩	-11.4226
소리	-11.4228
▁클릭	-11.4231
▁관해서	-11.4231
▁해산물	-11.4232
▁득점	-11.4232
▁명단	-11.4233
▁행운	-11.4235
▁다던데	-11.4239
▁드세요	-11.424
▁주석	-11.4241
▁비누	-11.4242
▁or	-11.4242
헤	-11.4242
▁열쇠	-11.4246
▁자매	-11.4247
▁오바마	-11.425
▁수시로	-11.426
▁예예예	-11.4261
▁씨발	-11.4263
▁익히	-11.4265
W	-11.4266
▁조선일보	-11.4266
▁품목	-11.4268
▁자칫	-11.4272
▁발급	-11.4274
▁쭈	-11.4275
▁스크린	-11.4275
▁재현	-11.4277
ge	-11.4281
▁동서	-11.4281
▁아휴	-11.429
▁혹시나	-11.4291
▁한층	-11.4292
▁포스코	-11.4293
▁주최	-11.4296
▁어휴	-11.4297
▁속성	-11.4297
▁얍	-11.4297
▁천장	-11.4302
▁불량	-11.4303
▁냐구	-11.4303
▁프라	-11.4306
▁당면	-11.431
▁시술	-11.4313
▁마친	-11.4321
▁냉동	-11.4326
▁복음	-11.4326
몽	-11.433
▁일체	-11.4332
▁정해진	-11.4334
▁비벼	-11.4334
▁날라	-11.4335
▁열매	-11.4338
▁그럴까	-11.4342
▁랍	-11.4344
▁이놈	-11.4344
▁징계	-11.4345
둥	-11.4347
▁별거	-11.4349
▁멕시코	-11.4349
▁소형	-11.4351
▁마른	-11.4355
▁파트너	-11.4363
▁보람	-11.4365
ss	-11.4377
▁썸	-11.4379
▁신성	-11.4379
▁法	-11.4379
▁여신	-11.438
▁항의	-11.4387
▁이용자	-11.4391
▁으라	-11.4392
▁58	-11.4397
▁중국어	-11.4397
▁환불	-11.4404
느	-11.4405
▁퓨	-11.4411
▁스터디	-11.4412
▁선두	-11.4414
▁극대	-11.4415
▁해제	-11.4416
▁be	-11.442
리키	-11.442
▁소프트웨어	-11.442
ine	-11.4424
Y	-11.4427
▁가동	-11.4428
▁장인	-11.4428
▁달려가	-11.4431
▁쫓	-11.4436
▁원천	-11.4437
▁나란히	-11.4438
▁해변	-11.4439
▁용산	-11.4442
▁윗	-11.4451
▁도박	-11.4454
▁지침	-11.4458
▁공방	-11.4459
▁쓴다	-11.4459
▁출입	-11.4461
▁라구요	-11.447
▁할수록	-11.4472
▁답장	-11.449
▁고마	-11.4497
▁레알	-11.4498
X	-11.4498
▁으려는	-11.4499
▁관절	-11.4502
▁민생	-11.4509
▁강추	-11.4513
▁악기	-11.4515
▁57	-11.4515
▁시범	-11.4516
▁룰	-11.4517
려놓	-11.452
▁mm	-11.4522
▁피디	-11.4523
▁85	-11.4523
▁잡혀	-11.4529
거렸	-11.4532
▁4000	-11.4535
▁상환	-11.4536
▁54	-11.454
▁정돈	-11.4547
▁밀가루	-11.4551
▁졸리	-11.4552
▁지랄	-11.4552
▁외환	-11.4556
▁원료	-11.4562
▁빗	-11.4563
▁그치만	-11.4567
▁의뢰	-11.4567
폐	-11.4568
▁여왕	-11.4569
▁정황	-11.4576
▁닉	-11.4581
▁딜	-11.4585
▁점포	-11.4585
▁베개	-11.4586
▁예배	-11.4586
▁회수	-11.4587
ra	-11.4588
▁더라면	-11.4588
▁학력	-11.459
▁허리케인	-11.4591
▁구미	-11.4593
▁뽕	-11.4593
▁학위	-11.4598
푸	-11.4598
▁배부르	-11.46
▁포럼	-11.4601
▁염두	-11.4603
놈	-11.4605
▁수습	-11.4607
▁인쇄	-11.4609
▁몸무게	-11.4609
▁운송	-11.4611
▁라는데	-11.4612
▁한텐	-11.4613
▁입찰	-11.4613
▁웨딩	-11.4614
▁연차	-11.4616
착	-11.4617
▁가로	-11.4618
▁쟁점	-11.4619
▁뜰	-11.4621
▁해설	-11.4626
짝	-11.4628
▁남긴	-11.4634
▁졋	-11.4636
▁고모	-11.4639
▁덩어리	-11.4641
▁나와야	-11.4644
▁❣	-11.4645
▁떨어져서	-11.4649
▁을수록	-11.4649
▁예술가	-11.4649
▁원조	-11.4651
▁여겨	-11.4651
▁단편	-11.4656
▁몽골	-11.466
▁보여요	-11.466
▁유효	-11.4662
▁텍	-11.4664
▁초딩	-11.4669
ir	-11.4671
▁신다고	-11.4671
▁차가운	-11.4673
▁선명	-11.4674
▁웨이	-11.4676
▁당할	-11.4676
▁조례	-11.4678
▁구할	-11.4679
▁릭	-11.4681
▁민망	-11.4685
▁72	-11.4687
▁편입	-11.4687
▁다구요	-11.4687
흐	-11.469
▁한미	-11.4691
▁공구	-11.4691
▁미팅	-11.4694
▁히트	-11.4698
▁추상	-11.4698
▁농가	-11.47
▁배추	-11.4702
▁복숭아	-11.4705
▁진작	-11.4706
▁당부	-11.4709
▁낸다	-11.471
▁감탄	-11.4712
▁령	-11.4713
▁안타	-11.4717
▁습니당	-11.4719
10	-11.472
▁쫙	-11.4723
▁혼인	-11.4727
▁만지	-11.4731
▁금메달	-11.4732
▁괴물	-11.4734
▁이뤄	-11.4744
▁오사카	-11.4746
▁쩐	-11.4747
맞	-11.4749
▁살피	-11.475
ᄉ	-11.4751
▁새삼	-11.4752
▁김동	-11.4753
-	-11.4756
▁수험	-11.4757
▁유가	-11.4765
▁국내외	-11.4766
▁뒷받침	-11.4778
▁⠀	-11.4778
▁증시	-11.4783
울이	-11.4784
께	-11.4786
▁갤러리	-11.4787
▁사찰	-11.4792
▁ᄋᄒ	-11.4793
▁64	-11.4794
▁서부	-11.4794
▁사라진	-11.4796
▁워싱턴	-11.4797
▁포착	-11.4802
▁그간	-11.4807
▁노란	-11.481
▁온다고	-11.4812
▁아베	-11.4813
▁밍	-11.4816
▁재배	-11.4819
▁건네	-11.4824
▁누군지	-11.4826
▁미워	-11.4829
▁토스	-11.483
▁j	-11.483
▁합류	-11.4831
▁펜션	-11.4834
▁노사	-11.4834
▁뜨겁	-11.4834
▁약국	-11.4834
▁계열사	-11.484
om	-11.4841
▁이데올로기	-11.4843
▁염증	-11.4845
▁수령	-11.4847
따	-11.4847
▁아르	-11.4848
▁고장	-11.4848
▁주연	-11.4848
▁식량	-11.4849
▁찾아왔	-11.485
▁쓰리	-11.4851
▁뮤직	-11.4853
▁FTA	-11.4853
▁비정규직	-11.4857
▁대다수	-11.4857
▁이집트	-11.4857
▁드려	-11.4858
▁부스	-11.4859
▁수련	-11.4859
▁유로	-11.486
▁깐	-11.4861
▁더위	-11.4864
▁해안	-11.4869
▁축적	-11.4873
▁국경	-11.4875
▁스케줄	-11.4875
라도	-11.4885
▁박람회	-11.4889
뒀	-11.4892
▁정한	-11.4893
▁New	-11.4894
▁뇌물	-11.4894
▁측근	-11.4895
▁결의	-11.4897
▁점프	-11.49
▁김성	-11.4903
▁꿀맛	-11.4904
▁돌보	-11.4905
▁서둘러	-11.4906
▁몰아	-11.4906
▁고위	-11.4909
▁노하우	-11.4913
▁보증금	-11.4914
▁온천	-11.4914
▁성명	-11.4917
▁동참	-11.4919
▁드실	-11.4919
▁쳐서	-11.492
▁Z	-11.493
▁보석	-11.493
▁거지	-11.4932
▁번지	-11.4934
▁숙박	-11.494
▁끝날	-11.4941
▁피할	-11.4943
▁스테이지	-11.4943
▁으응	-11.4947
▁불안감	-11.4948
▁플라스틱	-11.495
▁교대	-11.4952
▁이제야	-11.4953
▁파란	-11.4957
▁심리학	-11.4959
▁초등학생	-11.496
▁코디	-11.496
▁소지	-11.4969
▁느냐고	-11.497
▁물류	-11.497
▁변했	-11.4971
▁소서	-11.4973
▁최신	-11.4974
▁볼래	-11.4976
▁가만	-11.4976
▁분산	-11.4977
▁무죄	-11.4978
▁브런치	-11.4978
▁시세	-11.498
▁연맹	-11.4981
▁포스트	-11.4982
x	-11.4983
▁해결책	-11.4987
▁한결	-11.4989
▁혁	-11.4992
▁무침	-11.4993
▁사형	-11.4995
찌	-11.4997
▁페스티벌	-11.5002
▁😁	-11.5002
▁이걸로	-11.5006
▁따돌림	-11.5007
▁비결	-11.5016
▁들으면서	-11.5018
▁김장	-11.502
▁장어	-11.5022
▁저작	-11.503
▁구절	-11.503
▁모험	-11.5038
▁안다	-11.5043
▁맡겨	-11.5045
▁트랙	-11.505
▁강해	-11.5053
▁기대감	-11.5059
▁오월	-11.506
▁애서	-11.5063
▁컬	-11.5063
▁단정	-11.5064
▁%(	-11.5064
▁me	-11.5066
▁길거리	-11.5067
▁후후	-11.5072
▁대해선	-11.5074
▁소홀	-11.5074
▁출간	-11.5075
▁관행	-11.5077
▁종로	-11.5077
▁써도	-11.5077
▁다네	-11.5078
때	-11.508
룩	-11.508
▁미국인	-11.5081
▁명동	-11.5082
▁퍼지	-11.5083
▁부른다	-11.5085
▁은근히	-11.5086
▁문건	-11.5087
▁바꾼	-11.5089
▁풍성	-11.5089
▁갱	-11.5091
▁주어진	-11.5092
▁흥행	-11.5093
▁가계	-11.5095
▁영토	-11.5096
▁성남	-11.5102
▁강경	-11.5102
▁소소	-11.5106
드리	-11.5113
ro	-11.5115
▁명시	-11.5117
▁안팎	-11.5121
▁캠	-11.5122
▁너머	-11.5125
▁점령	-11.5125
능	-11.5126
▁원망	-11.5128
▁대상자	-11.5129
▁드셔	-11.513
▁거꾸로	-11.513
▁대원	-11.5133
▁김포	-11.5134
▁빙수	-11.5134
▁틀린	-11.5135
▁모자라	-11.5138
▁미스	-11.5138
▁출동	-11.514
▁실감	-11.5141
▁욥	-11.5141
▁급한	-11.5142
▁는겨	-11.5146
▁지능	-11.5149
▁초록	-11.5149
▁태워	-11.515
▁견제	-11.5154
▁차분	-11.5156
▁추위	-11.5158
▁막대	-11.5158
▁토크	-11.516
▁전술	-11.5162
어내	-11.5165
▁무인	-11.5167
▁건전	-11.5169
▁해져서	-11.517
▁상품권	-11.5173
▁김치찌개	-11.5173
▁광역	-11.5175
▁컨설팅	-11.5178
▁집계	-11.5182
▁돌아갈	-11.5183
▁콤	-11.5184
▁변형	-11.5186
▁물러나	-11.5189
▁일수록	-11.5191
▁공자	-11.5194
▁담임	-11.5194
▁낙지	-11.5197
ang	-11.5197
▁1992	-11.5198
▁천억	-11.5198
▁고치	-11.5204
▁쓰여	-11.5205
▁‍	-11.5206
▁북부	-11.5206
▁가져야	-11.5208
▁누워서	-11.5209
▁💛	-11.521
▁기상	-11.5215
▁메이저	-11.5217
▁조달	-11.5218
이트	-11.5218
▁한방	-11.5219
▁베르	-11.522
▁폭풍	-11.5221
▁시어머니	-11.5223
▁더욱이	-11.5224
▁영입	-11.5225
j	-11.5226
▁섹스	-11.5226
▁관해	-11.5226
te	-11.5229
▁벌금	-11.523
▁가상	-11.523
▁최후	-11.5232
▁명의	-11.5234
▁우아	-11.5234
▁유머	-11.5235
D	-11.5239
▁교훈	-11.5242
ᄂ	-11.5244
▁파트	-11.5245
▁1960	-11.5245
▁어쩐지	-11.5248
▁몸매	-11.5248
▁넴	-11.5248
▁파주	-11.5251
▁꾸준	-11.5252
▁포괄	-11.5255
▁생애	-11.5258
▁자니	-11.5263
▁겐	-11.5264
30	-11.5265
▁구제	-11.5265
▁메이드	-11.5268
S	-11.5271
▁굵	-11.5273
▁늘어난	-11.5273
H	-11.5274
닥	-11.5278
▁.!	-11.528
▁일각	-11.5281
▁소품	-11.5283
▁데려다	-11.5285
▁식이	-11.5285
▁기금	-11.5286
▁대행	-11.5287
▁다녀온	-11.529
▁식빵	-11.529
▁비단	-11.5291
▁잣	-11.5294
▁귀한	-11.5294
▁중순	-11.5294
▁확립	-11.5295
▁왱	-11.5296
▁뜸	-11.5298
▁실용	-11.53
▁포스터	-11.53
▁규범	-11.53
▁란다	-11.5304
▁01	-11.5307
몬	-11.5308
▁늘어났	-11.5309
▁김종	-11.5313
▁못해서	-11.5316
▁공헌	-11.5316
▁클래스	-11.5318
▁쟁이	-11.5319
▁눌	-11.5321
▁어쩜	-11.5324
▁중점	-11.5325
▁기후	-11.5328
▁위상	-11.533
L	-11.5333
▁만져	-11.5337
▁싱가포르	-11.5338
▁일일이	-11.5338
▁목록	-11.5341
▁탕수육	-11.5343
▁고등학생	-11.5347
두르	-11.5348
▁통로	-11.5349
▁영구	-11.5351
▁역설	-11.5352
었잖	-11.5356
뛰어넘	-11.5357
▁별다른	-11.5358
▁on	-11.5359
줘	-11.5361
▁63	-11.5362
▁옵션	-11.5362
▁diet	-11.5363
▁별루	-11.5363
▁1993	-11.5367
▁모범	-11.5368
▁외우	-11.5371
▁교통사고	-11.5372
▁스콘	-11.5373
▁차기	-11.5375
▁투기	-11.5377
▁탄탄	-11.5378
▁백제	-11.538
▁오를	-11.5381
▁퀸	-11.5385
▁In	-11.5386
▁여도	-11.5388
▁배우자	-11.539
▁각질	-11.5395
▁독도	-11.5396
▁급증	-11.5397
없	-11.5398
▁가이드	-11.5398
▁솜	-11.5399
▁대서	-11.54
▁저하	-11.5401
▁별명	-11.5406
▁증말	-11.5408
▁서부터	-11.5409
▁양배추	-11.5411
▁스쿨	-11.5411
▁송도	-11.5414
60	-11.5415
▁막막	-11.5415
▁소망	-11.5417
▁사월	-11.5418
▁쵸	-11.5418
▁만점	-11.5422
▁학업	-11.5423
▁학부	-11.5423
▁삭	-11.5424
▁명백	-11.5424
▁GS	-11.5424
▁허브	-11.5425
밤	-11.5428
▁놀러	-11.5431
▁허허	-11.5432
▁바꿔야	-11.5434
▁상관없이	-11.5434
▁일본어	-11.5435
▁죄책감	-11.5436
▁보복	-11.5436
▁홍준표	-11.5441
▁생활비	-11.5442
▁부엌	-11.5446
▁바빠서	-11.5446
▁봉지	-11.545
li	-11.5452
▁출현	-11.5453
▁그늘	-11.5453
▁신세	-11.5454
▁세련	-11.5454
▁천지	-11.5458
▁시정	-11.5459
▁자취	-11.546
▁후식	-11.546
▁결단	-11.5463
▁터키	-11.5463
▁아항	-11.5467
▁.......	-11.547
▁필라테스	-11.547
▁냐며	-11.5473
▁180	-11.5474
▁금속	-11.5475
▁84	-11.5479
▁상공	-11.5481
▁보쌈	-11.5482
▁군수	-11.5483
▁三	-11.5485
▁부끄럽	-11.5486
▁요정	-11.5487
▁팥	-11.5487
▁허벅지	-11.549
▁정복	-11.5492
▁행정부	-11.5492
▁공화	-11.5494
털어놓	-11.5494
▁울음	-11.5496
▁유교	-11.5497
▁덧	-11.5498
▁불신	-11.5501
▁대금	-11.5502
▁바래	-11.5503
▁꼬마	-11.5504
▁is	-11.5505
▁가치관	-11.5507
▁와요	-11.5509
▁의상	-11.5509
im	-11.551
▁도리	-11.5519
▁안양	-11.5519
▁상상력	-11.552
▁절약	-11.5524
▁상영	-11.5524
▁면세점	-11.5525
▁참사	-11.5528
▁취해	-11.5537
▁먄	-11.5537
ist	-11.5538
▁는데도	-11.5543
▁동남아	-11.5546
▁로비	-11.5551
▁멀티	-11.5555
▁증대	-11.5555
▁by	-11.5556
▁즘	-11.556
▁학술	-11.5561
U	-11.5562
▁인체	-11.5565
▁속초	-11.5565
▁정직	-11.5567
▁동구	-11.5569
어리석	-11.5569
▁김해	-11.5571
E	-11.5577
▁장착	-11.5578
▁모니터	-11.5579
▁단호	-11.5585
▁웡	-11.5585
▁소멸	-11.5587
▁떠들	-11.559
▁낮잠	-11.5591
co	-11.5596
▁장벽	-11.5599
▁이별	-11.56
▁모인	-11.5604
▁😅	-11.5605
▁덮밥	-11.5605
▁대대	-11.5607
▁글구	-11.561
▁리터	-11.5613
▁원활	-11.5614
▁진동	-11.5614
▁모발	-11.5614
▁리필	-11.5614
▁열기	-11.5615
▁전문점	-11.5615
▁종전	-11.5623
▁패드	-11.5623
▁그라	-11.5625
▁고속	-11.5626
▁분량	-11.563
▁포토	-11.563
▁손바닥	-11.563
렀	-11.5632
▁훔쳐	-11.5638
▁날아가	-11.5639
▁타이틀	-11.564
▁분할	-11.5641
▁유진	-11.5641
▁헌신	-11.5643
▁단호박	-11.5645
턴	-11.5648
▁네덜란드	-11.565
****************	-11.565
▁유입	-11.565
▁👉	-11.5651
▁려니	-11.5651
▁끌어	-11.5652
▁음반	-11.5652
▁트윗	-11.5655
▁단원	-11.5656
▁화가	-11.566
▁고추장	-11.5661
▁정밀	-11.5662
▁상당수	-11.5662
▁받아들일	-11.5666
▁구운	-11.5666
▁드물	-11.567
▁즁	-11.5672
▁유기농	-11.5675
▁타협	-11.5676
▁백인	-11.568
▁뻥	-11.5688
▁나간다	-11.5689
▁그릴	-11.5693
▁비법	-11.5695
▁스토어	-11.5696
▁시비	-11.5697
▁약점	-11.5698
▁놀랬	-11.5706
▁했어요	-11.5708
▁진정한	-11.5712
▁냐면은	-11.5717
▁들어도	-11.5721
▁그러니깐	-11.5722
▁가속	-11.5723
▁용역	-11.5724
▁재개	-11.573
▁이어질	-11.573
▁관장	-11.5738
▁유승민	-11.5741
▁몰리	-11.5741
▁;;	-11.5741
▁휴학	-11.5746
▁합성	-11.5748
▁이슬람	-11.575
▁사용자	-11.5751
▁계세요	-11.5751
▁방울	-11.5755
▁참가자	-11.5755
▁지붕	-11.5758
▁위축	-11.5761
子	-11.5761
▁수명	-11.5761
▁팡	-11.5761
▁법무부	-11.5762
쏟아지	-11.5765
▁신사	-11.5765
▁합동	-11.5765
▁데요	-11.5771
▁그쳤	-11.5772
▁기둥	-11.5774
▁간섭	-11.5774
▁치밀	-11.5781
▁쫄깃	-11.5782
▁벌였	-11.5785
▁뛰어들	-11.5786
▁처녀	-11.5788
▁개꿀	-11.5789
▁병력	-11.5791
▁거칠	-11.5792
려야	-11.5794
▁한단	-11.5795
▁글쓰기	-11.5797
▁병행	-11.5798
▁행태	-11.58
▁임산부	-11.5802
▁구려	-11.5803
혹	-11.5804
son	-11.5805
▁>(	-11.5806
▁필기	-11.5807
▁6000	-11.5807
▁느리	-11.5807
▁CJ	-11.5813
▁보물	-11.5814
▁탄소	-11.5815
▁나뉘	-11.5815
▁도망	-11.5815
▁부시	-11.5816
▁연남동	-11.5818
▁발전소	-11.5819
ment	-11.5819
짜	-11.5819
N	-11.5819
▁잭	-11.582
▁연료	-11.582
킹	-11.5821
▁터졌	-11.5822
찰	-11.5822
80	-11.5822
▁제이	-11.5823
▁▷	-11.5823
▁분배	-11.5824
▁줄기	-11.5826
▁띵	-11.5826
▁응시	-11.5827
▁풀이	-11.5829
▁옮긴	-11.583
▁싱글	-11.5833
어놓	-11.5834
▁중구	-11.5834
▁였으나	-11.5834
▁해군	-11.5836
▁사막	-11.5839
▁납부	-11.584
묵	-11.5848
▁샹	-11.5849
▁마쳤	-11.5852
▁정했	-11.5854
11	-11.5854
▁와도	-11.5855
듣	-11.5859
핑	-11.5859
ie	-11.5861
▁팔리	-11.5861
▁누적	-11.5862
납	-11.5866
▁역전	-11.5866
▁인문	-11.5869
▁사립	-11.587
▁범주	-11.5872
▁아무렇	-11.5873
▁기온	-11.5874
▁〉	-11.5874
▁총괄	-11.5874
▁믹스	-11.5876
▁결말	-11.588
▁공시	-11.5882
▁먹거리	-11.5886
벨	-11.5886
▁의류	-11.5888
▁죵	-11.589
▁변해	-11.5894
▁위성	-11.5895
▁오페라	-11.5895
▁유래	-11.5897
▁개시	-11.5899
지않	-11.5901
▁느낀다	-11.5902
▁아쉬웠	-11.5905
▁더욱더	-11.5905
▁권유	-11.5907
▁치명	-11.5909
▁신임	-11.5913
▁담론	-11.5913
mo	-11.5915
렉	-11.592
▁250	-11.5926
▁은은	-11.5927
▁텐트	-11.5928
▁변명	-11.5928
▁객	-11.5929
▁모형	-11.5932
▁다녀야	-11.5934
▁걸려서	-11.5936
▁미션	-11.5938
▁가령	-11.5938
▁무사히	-11.5938
해야	-11.594
▁생강	-11.5943
and	-11.5944
▁싱싱	-11.5946
▁잦	-11.5947
▁떠날	-11.5948
▁체육관	-11.5949
▁어허	-11.5951
▁동지	-11.5951
▁자외선	-11.5951
▁음주	-11.5952
럼	-11.5952
▁옵니다	-11.5952
▁시야	-11.5955
▁여드름	-11.5956
▁간격	-11.5959
▁모은	-11.596
롭	-11.5961
▁에센스	-11.5962
▁바바	-11.5962
▁집사	-11.5965
뜨	-11.5967
▁페이스	-11.5967
▁이길	-11.597
▁공직	-11.5974
▁벗겨	-11.5978
▁~!	-11.5979
▁-)	-11.598
▁노노	-11.5982
▁집값	-11.5985
age	-11.5986
▁오잉	-11.5986
▁괴로워	-11.5987
▁손질	-11.5988
▁크로	-11.5988
▁저리	-11.5989
▁진하	-11.5989
▁충동	-11.599
▁우위	-11.5991
▁조그만	-11.5998
▁선행	-11.6007
▁아이패드	-11.6008
▁간다는	-11.601
▁불꽃	-11.6013
▁소파	-11.6013
▁지낸	-11.6013
▁올라와	-11.6016
▁메모	-11.6017
멸	-11.602
▁과감	-11.6025
▁오우	-11.6025
빠	-11.6032
▁대항	-11.6032
▁天	-11.6032
▁땡겨	-11.6036
▁유월	-11.6038
ig	-11.604
▁늘려	-11.6042
엄	-11.6044
▁추첨	-11.6045
▁홍삼	-11.6047
▁휴무	-11.6048
▁66	-11.6049
▁벗어날	-11.605
▁산하	-11.6051
▁이끄	-11.6051
▁모야	-11.6052
0	-11.6053
▁출생	-11.6057
▁돌아갔	-11.6061
▁동쪽	-11.6062
▁책임자	-11.6062
▁꾀	-11.6063
▁청소기	-11.6063
▁베이징	-11.6066
▁마라톤	-11.6066
▁애견	-11.6067
▁납	-11.6068
▁생성	-11.6069
▁짜장면	-11.6072
▁적립	-11.6072
▁열린다	-11.6073
▁바닷가	-11.6076
▁사방	-11.6078
▁공화국	-11.6078
거나	-11.6078
▁느라고	-11.608
▁무서워서	-11.6083
▁추워서	-11.6086
▁스러움	-11.6087
▁으리라	-11.6089
▁스틱	-11.6092
▁텔	-11.6096
쇼	-11.6098
▁어찌나	-11.6099
▁듬	-11.6104
▁폴리	-11.6105
▁브레이크	-11.6108
▁브리핑	-11.6108
▁닌	-11.6111
▁적정	-11.6113
▁St	-11.6118
▁불러서	-11.6118
▁선교	-11.612
▁던졌	-11.6123
▁더럽	-11.6125
▁든데	-11.6128
▁비트	-11.6134
▁매직	-11.6134
▁사무소	-11.6137
▁대구시	-11.6139
▁날려	-11.6139
▁나설	-11.614
▁냄비	-11.6142
▁사후	-11.6142
▁깔려	-11.6143
▁과잉	-11.6145
▁68	-11.6145
▁엔딩	-11.6148
졸	-11.6152
▁등록금	-11.6154
▁망하	-11.6157
▁전직	-11.6158
▁냉정	-11.6159
▁피의자	-11.6161
▁넘쳐	-11.6162
▁포스	-11.6162
▁뒤쪽	-11.6163
▁으셔서	-11.6168
▁회색	-11.617
▁공지	-11.6172
▁내외	-11.6173
▁탈당	-11.6174
▁시킴	-11.6176
꾸	-11.6177
▁매출액	-11.6178
▁다룬	-11.6181
▁식초	-11.6182
▁행하	-11.6182
▁마블	-11.619
▁性	-11.619
▁창피	-11.6192
▁겨냥	-11.6193
▁찔	-11.6193
▁련	-11.6195
▁갈지	-11.6196
~	-11.6196
▁골고루	-11.6198
▁계약서	-11.6198
▁톱	-11.6199
▁타이어	-11.62
릭	-11.6201
▁신인	-11.6206
▁🤗	-11.6209
▁~~~~~	-11.6209
▁약자	-11.6212
▁현역	-11.6212
▁달라졌	-11.6216
▁사라	-11.6221
▁섭섭	-11.6225
ion	-11.6228
▁하루하루	-11.623
▁감지	-11.6231
▁목격	-11.6233
▁동행	-11.6233
▁먹여	-11.6233
▁승객	-11.6236
▁증세	-11.624
▁줘도	-11.6241
▁표기	-11.6246
▁멸치	-11.6248
▁활력	-11.6248
▁표명	-11.6251
ill	-11.6251
로스	-11.6253
▁official	-11.6256
▁그나저나	-11.6256
▁기절	-11.6259
▁저래	-11.626
▁바뀔	-11.6262
집어넣	-11.6265
▁로또	-11.6265
빙	-11.6267
▁강점	-11.6268
▁프레임	-11.6268
▁온통	-11.6269
▁축복	-11.627
▁정국	-11.627
맡기	-11.6271
▁최강	-11.6271
▁리듬	-11.6273
▁정규직	-11.6273
▁수건	-11.6275
ers	-11.6279
G	-11.6282
▁두유	-11.6283
▁공업	-11.6283
싸	-11.6287
▁기침	-11.6287
▁추락	-11.6291
▁물어볼	-11.6294
▁씨앗	-11.6295
▁꺄	-11.6299
▁각도	-11.6299
▁움직일	-11.6299
ot	-11.63
▁딥	-11.6302
▁타운	-11.6302
▁신데	-11.6302
▁빡세	-11.6304
▁복사	-11.6308
O	-11.6316
▁조심히	-11.6319
▁갈색	-11.632
▁실물	-11.6323
▁중공업	-11.6324
간다	-11.6328
▁67	-11.633
est	-11.6336
ry	-11.634
▁올려서	-11.634
▁중립	-11.634
▁두세	-11.6342
▁임직원	-11.6342
▁릴	-11.6347
▁8000	-11.6355
▁취한	-11.6358
▁62	-11.6358
▁수급	-11.6359
▁개미	-11.6361
▁경로	-11.6364
▁동굴	-11.6366
▁서쪽	-11.6367
▁달렸	-11.6374
#	-11.6374
▁함정	-11.6374
▁내려서	-11.6375
▁머신	-11.6375
밭	-11.6375
▁현직	-11.6379
▁낀	-11.638
▁도서	-11.6387
▁불금	-11.6388
▁당내	-11.6393
▁흡입	-11.6396
ᄏᄏᄏᄏᄏᄏᄏ	-11.6397
▁와이프	-11.6397
▁지식인	-11.6398
▁그놈	-11.6398
▁개통	-11.6398
플	-11.6401
▁암시	-11.6406
▁고스란히	-11.6407
▁냇	-11.6408
▁즐	-11.6409
▁전담	-11.641
▁보임	-11.6413
▁08	-11.6417
▁불빛	-11.6418
▁코미디	-11.6423
▁꿰	-11.6424
▁왕조	-11.6424
man	-11.6425
▁밀접	-11.6429
▁오버	-11.643
▁구청	-11.6436
▁둬	-11.6436
▁뒤지	-11.6436
▁부재	-11.6437
▁스포	-11.6437
▁깻잎	-11.644
▁이민	-11.6441
▁잃어버린	-11.6445
▁절실	-11.6446
륜	-11.6449
▁디즈니	-11.6451
▁진흥	-11.6451
▁you	-11.6457
▁최상	-11.6457
▁옮겼	-11.6457
▁뚱	-11.6458
▁벨트	-11.6459
▁두렵	-11.646
▁회화	-11.646
▁더더욱	-11.6462
▁카카오톡	-11.6462
▁막혀	-11.6463
▁어유	-11.6465
▁이윤	-11.6466
▁삼월	-11.6467
▁종업원	-11.6473
▁그래픽	-11.6474
▁실종	-11.6476
▁보육	-11.6477
▁대세	-11.6477
▁퍼져	-11.6483
▁그토록	-11.6484
활	-11.6484
▁문법	-11.6487
▁캠퍼스	-11.6489
▁면역력	-11.649
▁니트	-11.6493
▁소용	-11.6495
▁청원	-11.6496
▁한자	-11.6496
▁마신	-11.6499
▁정자	-11.65
▁숨겨	-11.6501
▁싣	-11.6505
▁제임스	-11.6505
▁게시판	-11.6506
▁진전	-11.6508
▁숟가락	-11.6511
▁업자	-11.6513
▁러닝	-11.6515
▁제로	-11.6515
▁교재	-11.6515
▁가르침	-11.6517
▁솜씨	-11.6517
▁추출물	-11.6517
옹	-11.6525
▁제조업	-11.6528
▁정해져	-11.6529
▁촉	-11.6533
▁전철	-11.6533
▁다닌	-11.6534
▁이까	-11.6535
▁적성	-11.6541
▁서기	-11.6541
▁물음	-11.6545
▁성령	-11.6549
▁고독	-11.6551
랜	-11.6552
▁하위	-11.6552
▁피트	-11.6554
▁목포	-11.6555
▁갈아입	-11.6555
▁세미나	-11.6555
▁엘리베이터	-11.656
▁기다려야	-11.6561
▁다투	-11.6561
▁公	-11.6562
▁놔두	-11.6569
▁구호	-11.657
▁드라이브	-11.6572
댔	-11.6576
▁쭈꾸미	-11.6577
▁전무	-11.6577
▁미용	-11.6579
▁올라갈	-11.6584
▁아플	-11.6585
▁줄일	-11.6586
▁긴장감	-11.6586
짖	-11.6587
▁작정	-11.6587
▁게장	-11.6594
▁당기	-11.6598
▁티셔츠	-11.6599
▁크로스	-11.66
▁발명	-11.6602
▁관세	-11.6605
▁에코	-11.6606
▁인공지능	-11.661
▁회피	-11.661
▁설교	-11.6611
▁1991	-11.6611
▁단식	-11.6611
▁가문	-11.6614
각국	-11.6616
▁퀄리티	-11.6621
▁캐리어	-11.6623
봐	-11.6623
▁나눈	-11.6628
▁ootd	-11.6632
▁마루	-11.6634
▁외국어	-11.6634
▁지리	-11.6636
ap	-11.6638
▁김용	-11.6639
▁앞둔	-11.6639
▁나마	-11.6641
▁똑	-11.6641
▁수천	-11.6642
▁스페셜	-11.6643
▁헤드	-11.6646
▁보전	-11.6651
▁납득	-11.6655
▁한눈	-11.6664
▁트러블	-11.6666
▁태우	-11.6666
▁98	-11.6666
▁山	-11.6668
▁모른다는	-11.6672
▁입양	-11.6672
어드	-11.6673
▁증정	-11.6678
▁각지	-11.668
▁신다면	-11.668
▁權	-11.6684
▁멈춰	-11.6684
▁려구요	-11.6688
▁경제학	-11.6688
▁저절로	-11.6688
08	-11.6689
로우	-11.6689
▁7000	-11.669
▁대거	-11.6691
▁정화	-11.6692
▁단축	-11.6694
▁적발	-11.6694
▁토론회	-11.6697
▁지문	-11.6698
▁직면	-11.6702
▁개막	-11.6702
▁철회	-11.6705
▁!!!!!!	-11.6709
▁이월	-11.6709
▁돌아올	-11.6711
▁조조	-11.6711
▁봅시다	-11.6713
▁일원	-11.6715
▁비명	-11.6715
▁몰입	-11.6718
▁왜냐면은	-11.6722
▁어리	-11.673
05	-11.6731
▁간직	-11.6731
▁모공	-11.6731
▁업적	-11.6733
▁학대	-11.6735
▁비씨	-11.6735
▁질렀	-11.6738
▁와이파이	-11.6738
▁안개	-11.6739
유투	-11.6739
▁토스트	-11.6743
▁수색	-11.6743
▁부사장	-11.6745
▁웰	-11.6746
▁운동장	-11.6746
▁수주	-11.6748
▁방송사	-11.6748
▁소방	-11.6752
▁내각	-11.6755
▁넨	-11.6757
▁88	-11.6757
▁버릇	-11.676
▁국적	-11.6761
▁안겨	-11.6766
▁마이너스	-11.6767
▁껌	-11.6771
▁소유자	-11.6772
▁끼워	-11.6775
▁기울	-11.6775
▁오토바이	-11.6778
시다	-11.6778
▁엘리	-11.6779
▁만기	-11.6781
▁백수	-11.6782
▁철거	-11.6784
▁해야죠	-11.6784
▁물어봐	-11.6785
▁상임	-11.6786
▁단절	-11.6788
▁코코	-11.6789
▁가입자	-11.6791
▁헤이	-11.6795
▁신한	-11.6801
ut	-11.6802
▁이메일	-11.6806
▁셔요	-11.6807
▁조세	-11.6809
▁어째	-11.6811
▁릿	-11.6814
▁77	-11.6817
▁화물	-11.682
▁대여	-11.682
▁꾸며	-11.6831
칙	-11.6834
▁뵈	-11.6835
▁오프	-11.6844
▁생계	-11.6844
▁사격	-11.6845
▁포털	-11.6846
ate	-11.6847
04	-11.6849
▁國	-11.6849
▁특집	-11.6853
▁1987	-11.6853
▁계승	-11.6853
▁더워서	-11.6856
▁계십니다	-11.6857
▁겅	-11.6861
▁지켜야	-11.6863
션	-11.6866
▁려다가	-11.6867
듯	-11.6868
▁급히	-11.6869
▁채무	-11.6869
▁서버	-11.687
ch	-11.6873
▁필연	-11.6878
▁막창	-11.6879
▁쉰	-11.688
▁화합	-11.6881
▁일련	-11.6882
▁무용	-11.6883
▁약물	-11.6886
▁회관	-11.6889
▁☺	-11.6891
▁권고	-11.6892
▁도망가	-11.6895
▁지나갔	-11.6896
▁증진	-11.6898
▁걸친	-11.6901
▁팜	-11.6901
▁캡	-11.6905
▁흡	-11.6908
▁구먼	-11.6909
▁디스크	-11.691
▁나타날	-11.6914
▁샌	-11.6914
▁뚝	-11.6915
▁효력	-11.6917
멘	-11.6919
▁씨씨	-11.692
▁대조	-11.6921
▁기조	-11.6923
▁실태	-11.6923
▁아용	-11.6924
▁철학자	-11.6925
찮	-11.6927
▁복구	-11.6928
▁자영업	-11.6931
▁훌쩍	-11.6931
▁중소	-11.6931
▁업그레이드	-11.6937
▁오피스텔	-11.6937
▁충북	-11.6937
▁안동	-11.6939
▁조회	-11.6941
em	-11.6946
▁출퇴근	-11.6948
▁또래	-11.6948
▁몬스터	-11.6948
▁다름없	-11.6952
▁옆집	-11.6953
▁른	-11.6958
▁고파	-11.696
▁관리자	-11.696
▁매치	-11.6963
▁나이트	-11.6964
▁마롱	-11.6964
▁무효	-11.6964
▁파우더	-11.6966
▁엉뚱	-11.6966
▁이승만	-11.6966
▁앜ᄏᄏᄏ	-11.6968
▁배정	-11.6968
▁침략	-11.6971
▁2020	-11.6972
▁향했	-11.6972
빌	-11.6974
▁차트	-11.6975
▁머금	-11.6977
▁리모	-11.6979
▁각기	-11.6981
▁장갑	-11.6985
▁웟	-11.6989
▁김경	-11.699
▁착수	-11.6993
▁꿇	-11.6994
▁1989	-11.6995
▁위안부	-11.6997
▁면제	-11.6999
▁중세	-11.6999
▁나비	-11.6999
▁내역	-11.7
▁섬세	-11.7
▁dogstagram	-11.7
▁갤	-11.7
▁ᄑ	-11.7002
▁리스크	-11.7002
▁구사	-11.7003
▁반해	-11.7004
▁어울려	-11.7005
▁세수	-11.7005
▁더군다나	-11.7006
▁간지	-11.7006
▁상세	-11.7008
▁有	-11.7015
▁크리스	-11.7016
▁샤브샤브	-11.7017
▁일으켰	-11.7017
▁단골	-11.7018
▁탱크	-11.7018
▁충성	-11.7019
▁사운드	-11.7023
▁이탈	-11.7023
섬	-11.7023
▁침입	-11.7024
▁영주	-11.7028
▁쓸쓸	-11.7029
▁재판소	-11.7029
▁모금	-11.7032
'	-11.7033
▁지만은	-11.7036
▁납치	-11.7038
▁지목	-11.7038
▁이유식	-11.7042
<	-11.7043
▁사나이	-11.7043
▁반반	-11.7044
▁음료수	-11.7045
▁자몽	-11.7045
▁황교안	-11.7046
▁외로움	-11.7046
▁마이클	-11.7046
되	-11.7048
▁지원금	-11.7049
▁톰	-11.7053
▁요법	-11.7054
▁재질	-11.7055
▁비닐	-11.7055
▁짐승	-11.7058
▁상생	-11.7058
40	-11.7061
아먹	-11.7063
▁약화	-11.7066
▁쟁	-11.7067
▁올라온	-11.7069
▁하하하	-11.7069
▁팍	-11.7069
▁빈곤	-11.707
▁61	-11.7079
▁유저	-11.7079
▁관심사	-11.7081
▁테이프	-11.7081
▁바둑	-11.7082
▁방위	-11.7083
▁길러	-11.7084
털	-11.7085
▁척하	-11.7085
▁립스틱	-11.7087
▁일월	-11.7087
틀	-11.7087
▁부근	-11.7088
▁이닝	-11.7089
▁모름	-11.7091
▁부딪	-11.7092
▁쿄	-11.7097
▁텔레콤	-11.7098
▁일으켜	-11.7098
▁해외여행	-11.7098
▁붙였	-11.7102
▁언론사	-11.7103
▁而	-11.7109
▁그립	-11.711
▁1988	-11.7111
▁힙	-11.7111
▁납품	-11.7116
...	-11.7116
략	-11.7118
▁엔터	-11.7118
20	-11.7122
▁딘	-11.7125
▁숙성	-11.7133
▁컨텐츠	-11.7133
▁복도	-11.7134
▁복용	-11.7134
▁느냐는	-11.7135
▁청사	-11.7136
▁어묵	-11.7138
▁우물	-11.7143
▁수렴	-11.7143
▁터질	-11.7145
▁주한	-11.7146
▁진자	-11.7149
▁발걸음	-11.7151
▁아시안	-11.7151
ᄅ	-11.7151
▁작곡	-11.7156
▁복제	-11.7158
▁공세	-11.7158
▁찾아온	-11.716
▁잔치	-11.7163
▁부도	-11.7164
싱	-11.7165
▁선비	-11.7166
▁공룡	-11.7172
▁당혹	-11.7173
▁어쨌	-11.7176
▁선크림	-11.718
▁야야	-11.7183
▁제의	-11.7189
▁놨는데	-11.7198
▁교황	-11.7198
▁달라진	-11.7198
▁스파	-11.7201
▁나아질	-11.7204
89	-11.7204
▁두께	-11.7205
▁펄	-11.7207
첩	-11.7211
▁발매	-11.7212
▁들으	-11.7213
▁원정	-11.7215
▁농산물	-11.7215
▁유인	-11.7221
▁앞뒤	-11.7222
▁확고	-11.7224
▁지극히	-11.7227
▁지나친	-11.7228
▁다크	-11.723
▁텅	-11.7232
▁명문	-11.7237
▁들어간다	-11.7239
▁선포	-11.7243
▁부러	-11.7245
▁공통점	-11.7246
ag	-11.7247
▁탐라	-11.7251
▁어린아이	-11.7251
▁육회	-11.7255
▁구월	-11.7259
ta	-11.7262
▁고양	-11.7263
▁되풀이	-11.7268
▁인치	-11.7268
없이	-11.7269
▁다이소	-11.727
▁원주	-11.727
12	-11.727
어오	-11.727
ne	-11.7275
▁뱉	-11.7275
합니다	-11.7277
▁청양	-11.728
▁물어봐야	-11.7282
▁공기업	-11.7283
▁생김	-11.7283
01	-11.7284
▁cafe	-11.7285
▁육군	-11.7286
▁IMF	-11.7286
▁유쾌	-11.7287
▁기다릴	-11.7289
▁안방	-11.729
▁De	-11.7292
▁은디	-11.7293
은행	-11.7294
▁꼼꼼히	-11.7295
▁원자력	-11.7299
▁세균	-11.7301
▁발상	-11.7306
▁그러고	-11.7308
▁사무총장	-11.731
▁나을	-11.731
▁패널	-11.731
▁김민	-11.7316
▁저걸	-11.7318
▁아이구	-11.732
▁김현	-11.732
▁즐거워	-11.7321
ive	-11.7321
▁가르	-11.7325
▁재원	-11.7325
▁EU	-11.7325
▁살살	-11.7326
▁장성	-11.7326
▁미뤄	-11.7329
▁나바	-11.733
▁차림	-11.733
▁모셔	-11.7331
▁집니다	-11.7332
▁o	-11.7332
▁찼	-11.7334
▁세이	-11.7338
▁된장찌개	-11.734
▁얀	-11.7341
▁샘플	-11.7344
▁용지	-11.7344
▁킬	-11.7346
▁식욕	-11.7349
▁버려야	-11.7352
▁돋보	-11.7356
▁인도네시아	-11.7357
▁아몬드	-11.7357
▁재테크	-11.7358
▁키울	-11.7361
▁에피소드	-11.7363
▁가져온	-11.7366
▁마흔	-11.7367
▁더만	-11.7371
▁싸이	-11.7372
▁셰	-11.7374
▁똑바로	-11.7375
▁사령관	-11.7375
▁자유주의	-11.7376
▁세계관	-11.7379
▁어음	-11.7379
▁충청	-11.7379
▁철강	-11.7381
▁분단	-11.7383
▁경찰청	-11.7383
▁괜춘	-11.7387
▁군주	-11.7388
둘	-11.7388
▁con	-11.7394
▁지치	-11.7395
▁자질	-11.7396
der	-11.7397
▁본성	-11.7398
▁부수	-11.7398
▁숭	-11.7399
▁밑반찬	-11.7399
▁뺐	-11.74
▁세탁기	-11.7402
쳐서	-11.7403
▁살아온	-11.7405
▁금전	-11.7405
▁스킬	-11.7406
▁03	-11.7415
▁참모	-11.7417
▁선풍기	-11.7417
▁피터	-11.7418
▁켄	-11.7424
▁앞머리	-11.7426
랜드	-11.7427
▁드라이	-11.7428
값	-11.7434
▁보조금	-11.7437
▁판타지	-11.7441
▁지역구	-11.7446
▁도민	-11.7447
흔	-11.7448
▁도장	-11.7449
▁내려갔	-11.7451
▁화살	-11.7452
▁신지	-11.7455
▁上	-11.7457
▁워크	-11.7459
▁두꺼운	-11.7459
▁........	-11.746
▁합쳐	-11.7464
랄	-11.7466
▁판교	-11.7466
▁근디	-11.7466
▁겹치	-11.7467
▁foodporn	-11.7471
▁자부심	-11.7472
▁y	-11.7472
▁탐방	-11.7474
▁하얗	-11.7475
▁82	-11.7477
▁횟수	-11.7478
▁쿠팡	-11.7478
▁불쾌	-11.749
▁조립	-11.7493
▁결승	-11.7495
▁드러난	-11.7501
▁동대문	-11.7502
▁표지	-11.7507
▁으셨어요	-11.7508
▁소모	-11.7511
se	-11.7516
▁별개	-11.7516
88	-11.752
▁호응	-11.7523
▁아닐까요	-11.7524
▁동아시아	-11.7526
▁혼합	-11.7527
▁퇴직금	-11.7527
잠	-11.7532
▁고마운	-11.7533
▁장교	-11.7536
▁인문학	-11.7537
▁문어	-11.7539
▁지주	-11.754
▁화상	-11.754
▁좌파	-11.7541
즘	-11.7543
▁뉘	-11.7546
▁외쳤	-11.7549
▁관광지	-11.755
▁칫솔	-11.755
▁여친	-11.7551
▁질러	-11.7552
▁따님	-11.7553
▁도약	-11.7553
▁정무	-11.7556
▁로우	-11.7556
▁with	-11.7556
▁스펙	-11.7557
▁후드	-11.7557
▁어울릴	-11.7558
핀	-11.7562
▁유익	-11.7562
ung	-11.7563
▁사흘	-11.7563
▁빵빵	-11.7564
▁미인	-11.7564
▁부평	-11.7565
▁그렸	-11.7567
▁좆	-11.7569
▁마음껏	-11.7571
▁편히	-11.7571
▁면담	-11.7574
▁탄수화물	-11.7575
▁납니다	-11.7578
▁불닭	-11.7582
▁놓인	-11.7583
▁야생	-11.7583
▁서사	-11.7584
라이	-11.7586
▁호감	-11.7592
▁크림치즈	-11.7593
▁카라	-11.7594
▁움직여	-11.7599
▁신전	-11.7601
▁춤추	-11.7601
▁애스타	-11.7602
▁노화	-11.7611
▁추모	-11.7613
▁망치	-11.7615
▁건의	-11.7617
▁궈	-11.7618
▁블록	-11.7619
▁빨간색	-11.7619
▁성찰	-11.7621
▁비자	-11.7623
▁팀원	-11.7623
▁이라크	-11.7624
▁확충	-11.7625
▁솔루션	-11.763
▁넷째	-11.763
▁자구	-11.7631
▁아쉬워	-11.7632
▁기쁜	-11.7632
려왔	-11.7632
▁무산	-11.7637
▁공존	-11.7638
lo	-11.7641
▁지킬	-11.7642
▁베이컨	-11.7642
▁王	-11.7648
▁빠져나가	-11.7654
▁군산	-11.7656
▁명상	-11.7657
▁신하	-11.7665
▁피부과	-11.7667
▁자사	-11.7668
▁낭만	-11.7671
▁여동생	-11.7673
▁됬	-11.7673
▁메르스	-11.7674
▁커졌	-11.768
▁해용	-11.7681
▁액수	-11.7683
▁박지원	-11.7686
▁기아	-11.7687
os	-11.7688
▁소감	-11.7688
▁고마워요	-11.7691
▁댈	-11.7692
▁파이터	-11.7693
▁저지른	-11.7693
▁연세대	-11.7693
▁고작	-11.7693
▁미역국	-11.7698
▁씌	-11.77
칸	-11.7709
▁정교	-11.7715
▁컨트롤	-11.7716
!!	-11.7718
▁평택	-11.7721
▁머니	-11.7721
▁깜빡	-11.7722
▁pomeranian	-11.7722
▁속상	-11.7725
▁상속	-11.7726
▁동창	-11.7729
르르	-11.7731
낼	-11.7733
▁성폭행	-11.7734
▁05	-11.7735
▁느긋	-11.7735
▁스피드	-11.7736
▁자란	-11.7738
▁방콕	-11.7741
▁평상시	-11.7741
▁갇혀	-11.7747
▁^_^	-11.7747
▁명함	-11.7752
▁가성	-11.7753
▁알코올	-11.7753
▁이룰	-11.7754
▁셨잖아요	-11.7754
▁루트	-11.7756
▁어째서	-11.7758
▁미련	-11.7759
▁잘생긴	-11.7759
▁끌려	-11.7761
▁강행	-11.7761
▁매진	-11.7762
▁경찰관	-11.7763
▁아껴	-11.7763
▁쓸데없	-11.7765
▁원형	-11.7766
▁라라	-11.7768
▁심플	-11.7773
▁위탁	-11.7775
▁출국	-11.7776
▁성형	-11.7776
▁기세	-11.7776
▁당대	-11.7777
웨이	-11.7779
▁김태	-11.7781
▁이빨	-11.7782
▁미묘	-11.7782
▁으려나	-11.7782
▁쓰러지	-11.7784
▁챔피언	-11.7784
▁출처	-11.7785
▁정산	-11.7785
▁반란	-11.7789
▁돌입	-11.7789
▁민족주의	-11.779
▁물려	-11.7792
▁지쳐	-11.7794
▁시끄럽	-11.7795
▁코코넛	-11.7797
▁확진	-11.7797
▁🌸	-11.7797
▁오뎅	-11.78
▁빠져서	-11.7802
▁김재	-11.7804
▁포크	-11.7805
렵	-11.7806
ea	-11.7809
▁78	-11.7811
▁영업시간	-11.7815
▁끝났	-11.7816
▁워킹	-11.7816
▁취했	-11.7817
▁그리워	-11.7818
▁유의	-11.782
▁사야	-11.7821
▁드립	-11.7822
죠	-11.7823
▁세팅	-11.7823
▁모셨	-11.7824
▁후자	-11.7828
▁소매	-11.7828
▁려던	-11.783
▁日	-11.783
▁동아	-11.7831
▁터널	-11.7835
▁개운	-11.7837
▁져요	-11.7838
▁솔로	-11.7841
▁엘리트	-11.7842
이스	-11.7842
▁다듬	-11.7845
▁승용차	-11.7847
▁싸울	-11.7848
▁합정	-11.785
▁로워	-11.7854
▁품절	-11.7855
▁실려	-11.786
▁참기름	-11.786
▁SBS	-11.7866
▁토너	-11.7869
▁달라질	-11.7869
▁야기	-11.7872
▁커뮤니티	-11.7872
▁해치	-11.7873
▁만세	-11.7874
▁허무	-11.7876
▁게스트	-11.7877
▁동향	-11.7877
▁독감	-11.7877
▁아보카도	-11.7878
▁물결	-11.7878
▁간절	-11.7882
레스	-11.7882
▁로맨스	-11.7884
▁견딜	-11.7885
▁남용	-11.7885
▁멍청	-11.7886
▁저서	-11.7892
▁바짝	-11.7895
▁파운드	-11.7897
▁농부	-11.7897
▁광명	-11.7899
▁주권	-11.79
▁요게	-11.7901
▁문화재	-11.7903
▁모호	-11.7904
▁神	-11.7905
가요	-11.7905
▁온대	-11.7909
▁프로필	-11.7913
▁모의고사	-11.7916
▁뺨	-11.7917
집니다	-11.7917
▁밴	-11.7917
▁화사	-11.7923
그러	-11.7928
18	-11.7928
▁목걸이	-11.7929
▁분해	-11.7933
▁응용	-11.7933
▁통통	-11.7935
▁쥬얼	-11.7936
▁핸드	-11.7937
▁기울여	-11.7938
▁톡톡	-11.7939
▁생긴다	-11.7943
▁내놨	-11.7944
▁요양	-11.7945
▁+_+	-11.7947
톤	-11.795
▁미미	-11.795
▁과시	-11.7951
▁유감	-11.7956
▁챠	-11.7958
아들	-11.7964
딩	-11.7967
▁고시	-11.797
▁해놨	-11.7971
▁영리	-11.7972
▁PD	-11.7972
▁다가왔	-11.7973
▁광범위	-11.7973
▁포메라니안	-11.7973
▁스트레칭	-11.7973
▁환기	-11.7974
▁니스	-11.7976
▁단맛	-11.7983
▁재발	-11.7983
▁부착	-11.7984
▁나물	-11.7984
▁여주	-11.7985
▁키웠	-11.7987
▁대국	-11.7987
▁집들이	-11.7988
▁대문	-11.7988
▁에바	-11.7991
퇴	-11.7991
▁instadaily	-11.7992
▁개구리	-11.7992
▁특권	-11.7993
▁아카데미	-11.7998
▁소세지	-11.7998
▁꺼냈	-11.7998
▁두툼	-11.8001
▁가위	-11.8004
▁스웨덴	-11.8005
▁유난히	-11.8005
▁탑승	-11.8006
엉	-11.8007
▁東	-11.801
▁동경	-11.801
▁진도	-11.8012
▁이왕	-11.8014
▁https	-11.8014
▁약해	-11.8016
▁앜ᄏᄏᄏᄏ	-11.8017
▁중복	-11.8018
▁71	-11.8018
▁수위	-11.8018
이어	-11.802
▁제작진	-11.8023
전해졌	-11.8024
▁합치	-11.8026
▁여우	-11.8026
▁틀렸	-11.8029
▁욧	-11.8033
▁뤼	-11.8034
스리	-11.8036
▁사신	-11.8036
▁붕	-11.804
▁ch	-11.8041
▁디테일	-11.8043
▁파마	-11.8044
▁설날	-11.8046
▁사탕	-11.8048
▁퇴원	-11.8048
▁폭로	-11.8048
▁넷플릭스	-11.8049
▁분식	-11.805
▁던데요	-11.8052
▁속옷	-11.8053
▁프레	-11.8057
▁79	-11.8058
▁부지런	-11.806
▁장래	-11.8062
델	-11.8062
▁혐	-11.8063
▁관할	-11.8069
▁피고인	-11.807
▁상한	-11.807
50	-11.8071
▁뺄	-11.8075
▁1500	-11.8077
▁집안일	-11.8077
^	-11.808
▁상금	-11.808
▁콕	-11.8081
▁지친	-11.8081
法	-11.8083
▁태극기	-11.8084
▁이종	-11.8084
▁조이	-11.8085
▁II	-11.8085
▁총재	-11.8085
▁상주	-11.8086
▁필드	-11.8087
▁눕	-11.8087
▁팍팍	-11.8088
▁토리	-11.8089
▁애써	-11.8091
▁게요	-11.8095
▁조율	-11.8096
▁시러	-11.8096
▁안산	-11.8099
뉴	-11.81
▁야말로	-11.8101
▁│	-11.8101
▁버블	-11.8101
▁新	-11.8106
▁다이어리	-11.8107
럴	-11.8107
▁뇨	-11.8109
▁여학생	-11.8109
▁삽	-11.811
▁왠	-11.8111
▁94	-11.8113
▁97	-11.8114
▁번쩍	-11.8115
▁맞춘	-11.8116
▁울려	-11.8116
▁기력	-11.8119
▁주저	-11.8121
▁간신히	-11.8126
▁그루	-11.8129
▁시월	-11.813
▁원수	-11.8133
▁흘러가	-11.8134
▁수확	-11.8138
▁속눈썹	-11.8139
쪽	-11.814
▁기각	-11.8141
친다	-11.8141
▁말라	-11.8142
▁공직자	-11.8144
▁신생아	-11.8147
▁그래야지	-11.8148
▁동전	-11.815
▁깨지	-11.815
논	-11.8153
아보	-11.8157
▁..!	-11.8158
▁로즈	-11.8167
▁96	-11.817
▁드러냈	-11.8172
▁상추	-11.8173
▁시댁	-11.8175
09	-11.8178
러스	-11.8179
▁노동당	-11.8179
▁박원순	-11.8184
▁73	-11.8186
▁활짝	-11.8191
▁포즈	-11.8194
▁달라서	-11.8195
▁계실	-11.8195
▁가톨릭	-11.8197
▁뺀	-11.82
▁야징	-11.8203
▁극혐	-11.8204
▁결성	-11.8206
딘	-11.8214
▁마취	-11.8216
▁미스트	-11.8222
▁집중력	-11.8222
▁KB	-11.8229
▁오프라인	-11.823
▁밝혀졌	-11.8232
▁찌개	-11.8234
▁불길	-11.8235
▁트레이닝	-11.8237
▁색감	-11.824
▁네티즌	-11.8243
▁젓가락	-11.8243
▁웨이팅	-11.8243
▁골프장	-11.8244
▁연동	-11.8245
닉	-11.8247
▁흘려	-11.8247
▁z	-11.8249
▁道	-11.8252
▁언더	-11.8253
▁애교	-11.8253
▁크크	-11.8254
▁등기	-11.8259
▁뿔	-11.8259
▁소극	-11.8262
▁재건축	-11.8263
젠	-11.8263
▁⠀⠀⠀⠀	-11.8266
▁고딩	-11.8269
▁고등	-11.8269
▁릉	-11.8271
▁정장	-11.8275
▁핫도그	-11.8276
▁간혹	-11.8281
▁종사	-11.8281
▁높였	-11.8282
▁쏴	-11.8283
▁골든	-11.8285
▁수필	-11.8285
▁놔서	-11.8286
▁보태	-11.8287
▁리아	-11.8288
▁노동조합	-11.8289
▁알아볼	-11.8289
▁페어	-11.829
▁추리	-11.8292
▁69	-11.8294
▁흘렀	-11.8295
▁급격	-11.8296
▁흔한	-11.8299
our	-11.8302
▁사양	-11.8303
▁이어져	-11.8304
70	-11.8306
쉽	-11.8308
▁깼	-11.8309
▁소나무	-11.8309
▁총체	-11.8309
▁겸손	-11.831
▁국산	-11.8316
▁광경	-11.8316
▁와라	-11.8317
▁상기	-11.8319
▁특화	-11.8319
▁첨가	-11.832
▁풍요	-11.8321
▁부총리	-11.8322
▁야경	-11.8322
▁쫓아	-11.8325
▁단풍	-11.8325
▁엎	-11.8325
▁행진	-11.8327
▁탄산	-11.8327
▁이리저리	-11.8328
▁휴지	-11.8335
▁탑재	-11.8338
15	-11.834
▁고래	-11.834
▁가꾸	-11.8341
▁와사비	-11.8342
J	-11.8342
▁맘대로	-11.8345
▁패러다임	-11.8348
▁매운맛	-11.8348
▁세자	-11.835
▁소개팅	-11.835
▁올라간	-11.8351
▁배분	-11.8354
▁꽁	-11.8354
▁통영	-11.8355
▁피지	-11.8358
▁본점	-11.8359
▁굉장	-11.836
▁오리지널	-11.8361
▁떠서	-11.8362
▁음식물	-11.8363
▁농도	-11.8364
▁일환	-11.8364
▁해준다	-11.8365
▁교복	-11.8365
▁둘러싸	-11.8365
▁도모	-11.8367
▁앞선	-11.8369
젤	-11.8373
ell	-11.8377
▁No	-11.8378
▁유죄	-11.8378
▁다툼	-11.8384
▁바닐라	-11.8388
▁할지라도	-11.8389
▁풍기	-11.839
▁고난	-11.8391
▁아일랜드	-11.8392
A	-11.8397
▁정의당	-11.84
▁공산당	-11.8402
▁소리쳤	-11.8403
▁주재	-11.8403
다며	-11.8407
▁74	-11.841
▁반장	-11.8413
▁체리	-11.8414
▁모릅니다	-11.8415
▁마법사	-11.8421
▁vs	-11.8422
▁로켓	-11.8422
▁륵	-11.8422
▁부끄러워	-11.8423
니아	-11.8423
▁난감	-11.8425
▁다거나	-11.8426
▁플로	-11.8431
ᅮ	-11.8431
▁xxx	-11.8434
▁뭉	-11.8437
▁대지	-11.8439
▁앵커	-11.8441
na	-11.8443
래요	-11.8447
▁정립	-11.8453
▁외관	-11.8454
▁고무	-11.8454
▁제보	-11.8454
▁방송국	-11.8454
▁극히	-11.8455
▁제고	-11.8458
▁고령	-11.846
▁04	-11.8461
▁을려고	-11.8463
밍	-11.8463
▁시공	-11.8465
▁마요	-11.8466
▁문헌	-11.8466
▁사위	-11.8467
▁횟집	-11.8467
▁노답	-11.8469
▁미처	-11.8471
▁국왕	-11.8472
▁단서	-11.8474
▁교섭	-11.8475
▁니께	-11.8476
▁라온	-11.848
▁슬쩍	-11.8481
▁모욕	-11.8483
▁표출	-11.8485
▁왕복	-11.8486
▁다면서요	-11.8487
▁넘어갈	-11.8487
▁베란다	-11.8488
▁발리	-11.8488
▁궁금증	-11.8488
▁과실	-11.8492
▁영남	-11.8492
▁살펴	-11.8492
▁다매	-11.8493
답	-11.8497
▁옹호	-11.8497
▁독서실	-11.8498
pe	-11.8499
뢰	-11.85
oo	-11.8501
▁할게	-11.8505
▁스피커	-11.8507
▁입안	-11.8508
▁비춰	-11.8508
▁아담	-11.8508
▁도청	-11.851
▁에휴	-11.8512
들이	-11.8513
▁민트	-11.8513
▁쌍둥이	-11.8514
▁분포	-11.8515
▁할꺼	-11.8519
▁부디	-11.852
▁美	-11.852
▁특위	-11.8521
▁해상	-11.8521
▁일생	-11.8525
▁서적	-11.8525
▁교원	-11.8525
▁살아갈	-11.8527
▁상쾌	-11.8528
▁아드	-11.8529
▁내수	-11.8529
▁겔	-11.8531
▁본다고	-11.8531
▁종말	-11.8532
▁섞여	-11.8533
덩이	-11.8533
▁하드	-11.8534
▁영수증	-11.8534
▁험	-11.8535
▁물체	-11.8538
▁위해선	-11.8548
▁연도	-11.855
▁껍데기	-11.8554
▁정수	-11.8557
▁셤	-11.8561
▁원서	-11.8563
▁어둡	-11.8563
▁소설가	-11.8567
▁고등어	-11.857
▁양도	-11.8574
▁Ch	-11.8576
▁단체장	-11.8577
▁지낼	-11.8583
아주	-11.8585
▁기장	-11.8585
스키	-11.8586
▁끄덕	-11.8588
▁십자가	-11.8588
▁찾아	-11.8588
▁my	-11.8591
▁옥상	-11.8593
▁고려대	-11.8595
▁줍	-11.8597
▁상승세	-11.8597
▁동계	-11.86
▁견과	-11.86
을까	-11.86
뇨	-11.8601
▁재빨리	-11.8601
▁LED	-11.8602
쥐	-11.8602
▁오븐	-11.8602
▁🥰	-11.8603
▁되돌아	-11.8603
▁크리	-11.8607
▁ad	-11.8608
▁마산	-11.8622
▁Le	-11.8623
▁130	-11.8623
▁以	-11.8628
▁충고	-11.8633
▁89	-11.8637
▁렀다	-11.8637
▁경사	-11.8639
▁발길	-11.8641
▁생각났	-11.8642
▁저주	-11.8645
▁AI	-11.8646
▁가주	-11.8649
▁침착	-11.865
art	-11.8652
▁만주	-11.8654
▁대입	-11.8655
▁씁쓸	-11.8656
▁92	-11.866
ard	-11.8667
▁디스	-11.8669
▁뚝딱	-11.8669
▁중재	-11.8669
▁쑤	-11.867
▁선거구	-11.8675
▁하와이	-11.8677
▁앞장서	-11.8678
▁발레	-11.8679
▁선조	-11.8686
▁보험금	-11.8686
▁간대	-11.8689
▁항공기	-11.8694
▁파장	-11.8697
▁섹시	-11.8698
▁두루	-11.8698
큐	-11.8704
▁플레이어	-11.8705
▁오디	-11.8705
▁헝	-11.8707
▁>_<	-11.8708
▁파이팅	-11.871
▁중학생	-11.8712
▁말려	-11.8714
ay	-11.8716
▁체감	-11.8718
▁사지	-11.872
▁아악	-11.8723
▁저지	-11.8727
▁난민	-11.8729
▁킬로미터	-11.8731
▁좀처럼	-11.8733
▁子	-11.8738
▁밀크티	-11.8738
▁남산	-11.8739
▁정세	-11.874
▁구용	-11.8742
▁프랜차이즈	-11.8744
▁면역	-11.8747
십	-11.8748
▁솟	-11.8749
▁무늬	-11.875
▁노랑	-11.875
▁의사소통	-11.8751
▁멸망	-11.8752
▁수산	-11.8752
▁양치	-11.8754
▁비참	-11.8754
▁토로	-11.8754
▁자소서	-11.8758
▁끄덕였	-11.8759
▁호호	-11.8761
▁황후	-11.8763
▁주의자	-11.8765
▁태자	-11.8769
▁소득세	-11.8773
▁통신사	-11.8773
잖아	-11.8774
▁직관	-11.8774
▁일가	-11.8775
▁공평	-11.878
▁시력	-11.8783
▁상권	-11.8785
▁루이	-11.8785
▁클리어	-11.8787
▁트친	-11.8791
▁색다른	-11.8793
▁위력	-11.8793
▁뎌	-11.8794
▁서해	-11.8795
▁합법	-11.8797
▁영등포	-11.8798
렛	-11.8798
▁마우스	-11.8799
io	-11.8799
▁이를테면	-11.8799
▁명심	-11.8801
▁블루베리	-11.8806
▁헤어졌	-11.8807
낭	-11.8812
▁안대	-11.8814
▁바치	-11.8815
▁카트	-11.8819
▁지지자	-11.8819
▁반환	-11.8819
▁이룬	-11.882
▁소박	-11.882
▁설득력	-11.8824
▁이른다	-11.8825
▁무한리필	-11.8827
▁쏟아져	-11.8827
▁해운	-11.8828
▁어려서	-11.883
뱉	-11.8833
▁쯔	-11.8836
▁해산	-11.8838
▁로움	-11.8839
▁뱃살	-11.8841
▁한도	-11.8843
▁전집	-11.8845
▁완공	-11.8845
▁짱짱	-11.8848
▁엉망	-11.8849
▁격리	-11.8851
▁복권	-11.8852
▁일세	-11.8856
▁화내	-11.8859
▁물러	-11.8861
▁녹화	-11.8861
▁경과	-11.8863
▁시퍼	-11.8865
▁간호	-11.8865
▁김상	-11.8868
▁바게트	-11.8869
른다	-11.8872
▁거래소	-11.8875
▁쌓인	-11.8875
▁치러	-11.8875
▁간만에	-11.8876
▁정조	-11.8876
▁KIA	-11.8876
▁강변	-11.8876
▁생략	-11.8878
▁원자	-11.8878
▁임상	-11.8878
▁인맥	-11.888
▁전도	-11.8881
▁유비	-11.8881
▁원비	-11.8881
▁타르트	-11.8886
▁일어서	-11.8887
▁늘어날	-11.8889
▁업데이트	-11.8889
▁스러울	-11.889
스럽	-11.8891
▁잡힌	-11.8895
▁성사	-11.8896
▁항공사	-11.8896
▁내재	-11.8897
▁땅콩	-11.8897
▁배워야	-11.8902
▁FC	-11.8902
▁07	-11.8905
▁놀리	-11.8905
▁생물학	-11.8905
▁로고	-11.8906
▁놀이터	-11.8907
▁세안	-11.8909
▁생명체	-11.891
▁찾아갔	-11.8911
▁생겨나	-11.8911
▁몰두	-11.8914
▁순한	-11.8917
▁소셜	-11.8918
틴	-11.8919
▁공산	-11.892
▁욘	-11.892
캐	-11.8921
았	-11.8922
gram	-11.8923
▁훅	-11.8925
66	-11.8928
▁추출	-11.8933
▁自	-11.8933
랗	-11.8936
▁의결	-11.8937
▁브리	-11.8937
mi	-11.8937
▁짖	-11.8939
▁보드	-11.8943
▁숙이	-11.8944
4	-11.8944
▁광주시	-11.8946
긴다	-11.8947
▁짜장	-11.8948
900	-11.8949
▁체인	-11.8953
▁힘든데	-11.8954
16	-11.8954
▁이력서	-11.8954
▁교감	-11.8958
▁정문	-11.896
바람	-11.8961
▁👏	-11.8964
▁죽였	-11.8973
▁제어	-11.8974
▁맥스	-11.8974
▁★	-11.8976
▁김진	-11.8977
▁여의	-11.8981
▁증권사	-11.8981
▁헿	-11.8982
▁웬일	-11.8984
▁현관	-11.8985
▁□	-11.8985
▁쿠롱	-11.8988
▁소신	-11.8991
▁질리	-11.8992
▁110	-11.8993
ow	-11.8995
▁찬양	-11.8999
몰	-11.9
to	-11.9001
▁개이득	-11.9001
▁사춘기	-11.9001
▁👀	-11.9002
▁모였	-11.9002
▁일러	-11.9002
25	-11.9003
▁상점	-11.9006
▁즈음	-11.9009
솟	-11.9009
..	-11.9011
▁관습	-11.9011
▁교차	-11.9011
▁연구자	-11.9012
▁사제	-11.9013
▁실버	-11.9013
맹	-11.9013
▁복장	-11.9014
▁강남역	-11.9014
▁영문	-11.9017
▁헤매	-11.9018
▁싸워	-11.9021
▁벌리	-11.9023
▁모리	-11.9024
▁용이	-11.9024
▁어려우	-11.9024
▁킴	-11.9025
▁사모	-11.9027
▁이재명	-11.9031
▁이재용	-11.9031
▁실상	-11.9033
▁귀걸이	-11.9037
▁여름철	-11.9038
▁어휘	-11.9043
▁캐스팅	-11.9044
▁청바지	-11.9044
▁볼려고	-11.9045
▁탄압	-11.9045
▁아까워	-11.9045
▁애니	-11.9047
▁강세	-11.9049
ore	-11.9051
▁인과	-11.9053
▁파우	-11.9054
▁감축	-11.9057
▁공군	-11.9058
▁디스플레이	-11.9058
▁수수	-11.9061
▁경관	-11.9063
▁go	-11.9065
▁레이스	-11.9065
냥	-11.9066
▁음모	-11.907
▁레이저	-11.9074
쁘	-11.9081
▁잔다	-11.9081
▁전송	-11.9081
▁넘어갔	-11.9086
▁펼쳤	-11.9086
▁유족	-11.9086
▁보정	-11.909
▁밀크	-11.9093
▁탐색	-11.9095
삭	-11.9097
▁숏	-11.9101
▁팬티	-11.9101
▁묻혀	-11.9105
▁그면	-11.9107
▁특혜	-11.9108
▁기술력	-11.9111
▁일억	-11.9112
자기	-11.9115
▁막판	-11.9118
ts	-11.9118
▁코끼리	-11.9122
▁코엑스	-11.9122
▁해장국	-11.9123
au	-11.9129
▁foodie	-11.913
▁는대	-11.9131
ism	-11.9131
▁재학	-11.9132
▁no	-11.9137
▁흉내	-11.9137
▁오타	-11.9138
▁이재	-11.9139
▁다치	-11.9143
▁엇다	-11.9143
▁재활	-11.9143
▁추격	-11.9145
▁76	-11.9145
▁보름	-11.9145
▁부합	-11.9147
▁건강식	-11.9149
55	-11.9149
▁목살	-11.915
▁재즈	-11.9151
▁특강	-11.9152
꺼	-11.9155
▁기미	-11.9155
▁다큐멘터리	-11.9157
▁주먹밥	-11.9158
▁쾌적	-11.9158
▁9000	-11.9167
▁윤기	-11.9168
▁지나간	-11.9169
▁사설	-11.9171
ak	-11.9172
▁1950	-11.9174
▁느껴져	-11.9175
▁소독	-11.9175
▁원했	-11.9176
조선	-11.9176
▁박혀	-11.9178
▁압수수색	-11.9179
▁엄지	-11.918
▁註	-11.9181
▁열받	-11.9181
▁창립	-11.9181
▁까페	-11.9183
▁개조	-11.9186
▁어딘지	-11.9188
스크	-11.9188
▁매월	-11.9189
▁좋아해	-11.919
▁플랜	-11.9193
▁생크림	-11.9193
▁스파게티	-11.9193
▁반죽	-11.9193
띠	-11.9194
▁항구	-11.9195
▁무수	-11.9196
▁수년	-11.9199
▁연이	-11.9202
▁Press	-11.9202
▁입자	-11.9205
▁인삼	-11.9207
▁신탁	-11.9208
▁실재	-11.9209
▁극한	-11.9209
ti	-11.9211
▁마리아	-11.9215
▁금연	-11.9216
▁퐁	-11.9219
▁막말	-11.9219
▁손길	-11.922
▁행성	-11.9224
▁맞음	-11.9226
▁암살	-11.9227
▁대중교통	-11.9229
▁햇볕	-11.9229
▁효능	-11.923
▁엄빠	-11.923
▁요것	-11.923
▁뱅크	-11.923
▁한다며	-11.9232
▁앞쪽	-11.9235
▁이루어져	-11.9235
▁명회	-11.9236
▁여보세요	-11.9236
學	-11.9238
▁※	-11.9238
▁섞인	-11.9243
▁공복	-11.9243
▁벼슬	-11.9244
▁번개	-11.9245
▁붙인	-11.9249
▁피스	-11.925
▁수월	-11.9253
▁파격	-11.9256
▁전두환	-11.9258
▁개그	-11.9258
▁페북	-11.9259
▁미학	-11.9261
▁얘긴	-11.9262
▁잠자리	-11.9265
▁날카로운	-11.9265
▁아세요	-11.9267
▁국사	-11.9269
▁할걸	-11.9269
▁알아들	-11.9272
▁금호	-11.9275
▁나눠서	-11.9277
▁우편	-11.9278
▁느껴진다	-11.928
▁캐슬	-11.9281
▁심했	-11.9283
▁깜	-11.9284
▁써요	-11.9285
▁아메리카	-11.9286
▁갈려고	-11.9287
▁괌	-11.9287
▁복무	-11.9287
▁일으킨	-11.9289
네스	-11.9292
▁건국	-11.9292
▁애국	-11.9293
▁도무지	-11.9295
▁급속	-11.9298
▁쿵	-11.9299
▁약정	-11.9301
더라	-11.9302
▁보강	-11.9303
▁변호인	-11.9304
▁아아아	-11.9304
▁굼	-11.9307
▁연고	-11.9307
▁주저앉	-11.9309
▁나온다고	-11.9309
▁중지	-11.9309
▁테크	-11.9309
▁스쳐	-11.9311
▁이만큼	-11.9312
▁위임	-11.9314
▁환경부	-11.9314
▁지네	-11.9317
▁내보내	-11.9318
▁녜	-11.9319
▁흡연	-11.932
ᄏᄏᄏᄏᄏᄏᄏᄏ	-11.9321
▁위쪽	-11.9321
▁🤭	-11.9324
▁전라도	-11.9325
▁워시	-11.9325
▁설화	-11.9325
▁실까요	-11.9326
▁양주	-11.9327
▁제대	-11.9328
▁이겼	-11.9329
▁잠자	-11.9331
17	-11.9331
▁터진	-11.9332
▁놀래	-11.9334
▁지검	-11.9335
▁우체국	-11.9338
▁냠	-11.9338
▁갯	-11.9339
▁한류	-11.9344
▁절로	-11.9345
▁여대	-11.9346
▁거둔	-11.9347
▁상단	-11.9348
all	-11.9353
▁둔다	-11.9357
▁마음속	-11.9358
▁부양	-11.9359
▁naver	-11.9359
▁청탁	-11.9362
▁와이	-11.9363
▁전진	-11.9363
▁엘지	-11.9364
▁수소	-11.9365
▁키친	-11.9366
▁제휴	-11.9368
▁센서	-11.9369
▁죽일	-11.937
▁달했	-11.9374
▁어떠세요	-11.9374
▁게이트	-11.9375
▁수염	-11.9375
▁드나	-11.9377
▁송이	-11.938
▁드루	-11.9382
잇	-11.9382
▁돔	-11.9383
▁An	-11.9384
▁제자리	-11.9385
▁검거	-11.9385
▁차마	-11.9389
▁망설	-11.9389
▁이해관계	-11.9389
▁풍미	-11.939
▁경위	-11.939
▁전지	-11.939
▁정신없	-11.9392
▁드래곤	-11.9392
▁화두	-11.9393
▁알람	-11.9393
▁짬	-11.9396
國	-11.9397
▁롯	-11.9397
▁처한	-11.9398
ma	-11.9398
▁곡선	-11.9401
▁사이다	-11.9401
▁나왔었	-11.9403
23	-11.9404
▁당뇨병	-11.9405
▁불평	-11.9411
▁버려서	-11.9412
▁외교부	-11.9413
▁조식	-11.9414
▁차이점	-11.9415
▁위법	-11.9416
ant	-11.9417
▁뭘까	-11.9418
덴	-11.942
▁화자	-11.9421
▁찡	-11.9422
▁비우	-11.9424
▁也	-11.9429
▁척추	-11.943
▁실존	-11.9431
랭	-11.9432
27	-11.9442
▁무서웠	-11.9448
▁사명	-11.9448
▁휴게소	-11.9448
ity	-11.9448
▁차질	-11.9448
▁여행지	-11.9449
▁흘러나	-11.945
▁81	-11.9453
▁초록색	-11.9456
▁소프트	-11.9456
▁갑작	-11.9457
▁환승	-11.9457
▁전액	-11.9461
▁발령	-11.9462
▁⠀⠀⠀	-11.9462
▁열풍	-11.9463
▁깨우	-11.9463
19	-11.9464
ha	-11.9464
▁잊어버	-11.9465
▁변한	-11.9467
▁자켓	-11.9468
▁콜라겐	-11.947
▁볼륨	-11.947
op	-11.9471
▁노려	-11.948
▁뚱뚱	-11.9484
▁마녀	-11.9484
▁캡쳐	-11.9484
▁입체	-11.9489
▁예언	-11.949
▁키보드	-11.9492
▁혼나	-11.9498
▁民	-11.9505
▁회상	-11.9506
▁노란색	-11.9507
▁자궁	-11.9508
▁카이	-11.9511
▁발주	-11.9512
▁소집	-11.9512
▁병역	-11.9513
▁낙찰	-11.9514
▁골랐	-11.9515
▁급격히	-11.9516
▁팔월	-11.9518
▁06	-11.9518
▁교역	-11.952
▁재직	-11.952
▁중산	-11.9521
▁노총	-11.9523
▁금세	-11.9525
▁찾아와	-11.9525
▁성별	-11.9526
▁처장	-11.9528
▁이루어질	-11.9529
▁김기	-11.9532
ul	-11.9532
▁꺼지	-11.9534
▁애쓰	-11.9536
▁노잼	-11.9536
▁두뇌	-11.9537
잡이	-11.9539
▁86	-11.954
▁아재	-11.9542
▁크레	-11.9543
▁이순신	-11.9544
▁insta	-11.9547
▁여전	-11.9552
▁누릴	-11.9552
▁테라	-11.9553
▁아부지	-11.9555
▁배후	-11.9556
▁수직	-11.9556
▁事	-11.9557
▁원금	-11.956
▁증오	-11.9561
▁포로	-11.9564
▁곰돌이	-11.9566
▁남북한	-11.9567
▁배신감	-11.9568
▁부산시	-11.9572
▁밀착	-11.9573
▁구마	-11.9575
▁김수	-11.9575
어요	-11.9577
▁전락	-11.9579
▁해수욕장	-11.9581
▁습득	-11.9581
▁메밀	-11.9583
▁부친	-11.9583
▁인터	-11.9583
▁허구	-11.9584
▁배고파서	-11.9585
14	-11.9586
잎	-11.9589
▁쟝	-11.9589
☆	-11.9592
▁경유	-11.9592
개인	-11.9595
▁느니	-11.9595
시아	-11.9596
▁더듬	-11.96
▁버텨	-11.9601
▁예뻐서	-11.9602
ice	-11.9602
▁대본	-11.9603
▁원숭이	-11.9603
▁불황	-11.9606
▁넝	-11.9607
▁차갑	-11.9611
▁내려와	-11.9617
▁패밀리	-11.9618
▁자자	-11.9619
▁후손	-11.962
▁알차	-11.9624
▁93	-11.9625
▁새댁	-11.9626
▁**	-11.9626
▁태양광	-11.9627
▁건수	-11.963
ok	-11.9631
▁어젯밤	-11.9633
▁🙊	-11.9633
▁유가족	-11.9633
▁유자	-11.9634
▁준공	-11.9634
▁즉석	-11.9638
▁눈동자	-11.9641
▁비대	-11.9641
▁혼밥	-11.9642
▁푸르	-11.9644
▁히어로	-11.9647
▁진압	-11.9648
▁격렬	-11.9649
셀	-11.9649
24	-11.965
▁남구	-11.9651
어먹	-11.9653
▁모방	-11.9654
▁브로	-11.9659
▁공산주의	-11.9659
▁유물	-11.966
▁명목	-11.9662
▁오락	-11.9663
▁압축	-11.9664
▁1986	-11.9664
▁테니스	-11.9664
▁열악	-11.9664
▁미드	-11.9666
▁취할	-11.9666
▁파동	-11.9666
▁수호	-11.9667
▁빌라	-11.9667
▁마차	-11.9673
▁냉전	-11.9676
▁공론	-11.9678
▁멘탈	-11.9679
▁폭염	-11.968
▁도내	-11.968
▁는군	-11.9681
▁툭	-11.9684
▁역학	-11.9685
▁마져	-11.9685
▁방영	-11.9688
▁입국	-11.9688
▁모던	-11.969
▁고프	-11.9691
▁유령	-11.9692
▁달라요	-11.9693
▁강물	-11.9694
ph	-11.9696
▁이어진	-11.9698
▁87	-11.9698
▁한겨레	-11.9701
▁두껍	-11.9702
▁칠월	-11.9705
▁태평양	-11.9708
셈	-11.9708
▁뷰스타	-11.9709
▁바늘	-11.9711
▁부턴	-11.9717
▁실로	-11.9718
▁우드	-11.972
▁앜ᄏᄏᄏᄏᄏ	-11.9721
▁명확히	-11.9722
▁해온	-11.9722
▁훔	-11.9723
▁댕댕이	-11.9724
▁넘겼	-11.9727
▁알파	-11.9727
▁괴롭	-11.973
▁칵테일	-11.9731
▁공영	-11.9731
▁을라고	-11.9733
▁왕따	-11.9733
▁직구	-11.9736
▁원시	-11.9739
▁진다고	-11.9739
ab	-11.974
▁희미	-11.9741
▁시립	-11.9741
▁선동	-11.9743
▁상정	-11.9744
▁장기간	-11.9746
▁instagood	-11.9746
▁폭넓	-11.9746
▁의논	-11.9747
▁동포	-11.9753
▁원대	-11.9753
▁결과물	-11.9756
▁구라	-11.9756
▁김지	-11.9757
▁횡	-11.9758
빵	-11.9758
닐	-11.9759
▁자회사	-11.9761
▁훗날	-11.9761
▁Co	-11.9762
▁풍선	-11.9763
▁지상파	-11.9764
▁맴	-11.9764
▁심상	-11.9765
▁려다	-11.9765
뼈	-11.9765
▁아나	-11.9766
▁공대	-11.9767
▁조종	-11.9767
▁렌지	-11.9768
▁산출	-11.9769
▁내쉬	-11.9769
if	-11.977
▁획기	-11.9771
▁트레	-11.9773
▁진이	-11.9773
▁장거리	-11.9775
▁헷	-11.9777
▁구로	-11.9777
▁명사	-11.9778
▁마나	-11.9778
▁생전	-11.9778
레이	-11.9779
▁드문	-11.9783
▁홍수	-11.9784
▁dieter	-11.9785
보이	-11.979
▁모른다고	-11.9791
▁유세	-11.9793
▁흘러내	-11.9793
▁무튼	-11.9797
▁이브	-11.9798
▁시너지	-11.9799
▁그람	-11.9801
▁벌인	-11.9801
▁올까	-11.9801
▁합작	-11.9801
▁십이월	-11.9807
▁가중	-11.9807
▁속한	-11.9809
▁열흘	-11.981
▁it	-11.9811
`	-11.9812
▁성비	-11.9813
▁현대인	-11.9819
▁볼거리	-11.982
▁국무총리	-11.9822
▁성폭력	-11.9822
▁순이익	-11.9822
!!!	-11.9823
▁금강산	-11.9823
▁큐브	-11.9824
▁내버려	-11.9825
▁산다는	-11.9827
▁전방	-11.9828
▁어미	-11.9828
▁메세지	-11.983
ver	-11.983
▁놧	-11.9831
▁방탄	-11.9833
▁반납	-11.9834
▁후퇴	-11.9835
▁수첩	-11.9837
▁연합회	-11.9841
▁챙겼	-11.9845
▁예선	-11.9845
▁其	-11.9846
▁마포	-11.9848
▁흘	-11.9849
▁헨리	-11.9849
la	-11.9849
▁중화	-11.9849
▁다니엘	-11.985
립니다	-11.9854
▁문신	-11.9856
▁지형	-11.9856
▁140	-11.9857
▁자존	-11.9859
▁굴러	-11.9862
▁틀림없이	-11.9865
▁윌	-11.9866
▁허공	-11.9867
▁번갈	-11.9868
▁캡슐	-11.9868
▁유신	-11.9868
▁뭘로	-11.9871
▁양측	-11.9873
▁장마	-11.9874
▁목회	-11.9876
▁나선다	-11.988
▁임용	-11.988
▁후속	-11.988
28	-11.988
▁생후	-11.9881
▁아티스트	-11.9883
▁CD	-11.9885
port	-11.9887
▁땡큐	-11.9891
▁단발	-11.9893
▁혈당	-11.9894
▁단단히	-11.9895
ton	-11.9898
▁잇따라	-11.9899
어넣	-11.9899
▁가늠	-11.9899
▁보좌관	-11.9899
▁파란색	-11.99
▁스푼	-11.99
▁대담	-11.99
▁품격	-11.99
▁dog	-11.99
▁동정	-11.9902
▁강좌	-11.9902
▁청결	-11.9903
▁신자	-11.9905
ty	-11.9905
▁읍니다	-11.9907
▁화분	-11.9909
▁so	-11.9912
▁사업장	-11.9913
▁니까는	-11.9915
▁컴백	-11.9915
▁손잡이	-11.9916
▁수송	-11.9918
▁서귀포	-11.9919
▁₩	-11.9919
▁축산	-11.992
▁응모	-11.9928
▁원만	-11.9928
▁커튼	-11.9931
▁플레이스	-11.9935
▁상수	-11.9938
▁1985	-11.9938
▁갖춰	-11.9939
▁형부	-11.994
one	-11.9944
▁유성	-11.9947
▁내려다보	-11.9949
솔	-11.9954
▁쉬워	-11.9954
▁거세	-11.9955
▁흔	-11.9956
▁발간	-11.9959
▁반팔	-11.9961
▁쌀쌀	-11.9961
▁언능	-11.9961
▁꿔	-11.9962
▁출력	-11.9964
▁도출	-11.9967
▁탈퇴	-11.9969
▁????	-11.9971
드라	-11.9976
▁서정	-11.9979
▁양육	-11.998
딱	-11.9981
13	-11.9981
▁치워	-11.9982
▁연재	-11.9983
▁경호	-11.9983
르케	-11.9983
▁챌린지	-11.9984
▁어려	-11.9985
▁명소	-11.9986
▁일찍이	-11.9987
▁권하	-11.9988
▁적폐	-11.999
▁프로세스	-11.9992
26	-11.9993
▁깨끗이	-11.9993
▁학살	-11.9995
▁변비	-11.9995
▁경상	-11.9997
▁문인	-11.9998
▁분유	-11.9999
▁랭킹	-12
▁욕실	-12.0001
▁매개	-12.0001
▁세심	-12.0005
▁관건	-12.0006
▁파산	-12.0006
▁토핑	-12.0008
▁학년도	-12.0012
인다	-12.0014
▁석사	-12.0014
▁爲	-12.0014
▁아쿠아	-12.0015
▁인싸	-12.0017
▁죽인	-12.0018
▁실전	-12.0023
▁외로워	-12.0031
▁pro	-12.0036
▁뽀뽀	-12.0038
▁즐거웠	-12.0038
▁끌어내	-12.004
▁관중	-12.0041
▁꺼져	-12.0045
▁일보	-12.0045
▁선글라스	-12.0046
▁갔다왔	-12.0046
▁들어섰	-12.0046
▁지저분	-12.0046
▁쓰러져	-12.0046
▁셰프	-12.0047
▁소니	-12.0047
▁허물	-12.0049
▁기어	-12.005
▁풋	-12.0053
▁정류장	-12.0054
▁🙈	-12.0054
▁자분	-12.0055
▁풀려	-12.0061
▁論	-12.0068
둥이	-12.0069
▁올게	-12.007
▁판매량	-12.007
54	-12.0073
ction	-12.0075
▁올라서	-12.0076
▁알려줘	-12.0077
▁도지사	-12.0079
▁임의	-12.008
▁비틀	-12.0081
be	-12.0081
▁도우	-12.0083
▁거점	-12.0083
о	-12.0085
▁와플	-12.0086
▁자막	-12.0086
▁지장	-12.0088
ᄐ	-12.0091
어졌	-12.0093
▁걸맞	-12.0093
▁메가	-12.0094
홀	-12.0096
▁충전기	-12.0098
▁절제	-12.0098
▁공백	-12.0099
넬	-12.0099
▁사생활	-12.01
▁발의	-12.0102
▁노동부	-12.0102
데이	-12.0104
▁09	-12.0105
져야	-12.0106
▁조장	-12.0108
▁스냅	-12.0109
▁동사	-12.0109
▁횡령	-12.011
럭	-12.0111
▁중견	-12.0112
▁160	-12.0113
▁한판	-12.0114
▁달력	-12.0115
▁생소	-12.0117
▁비웃	-12.0118
▁몸살	-12.012
▁라곤	-12.0123
99	-12.0125
▁정년	-12.0125
▁역동	-12.0128
▁분비	-12.0131
▁콜레스테롤	-12.0132
▁스틸	-12.0133
▁죄인	-12.0134
▁믹	-12.0137
▁다방	-12.0137
▁출자	-12.014
▁건축물	-12.0146
▁넥센	-12.0148
▁요령	-12.015
▁오줌	-12.0151
▁우월	-12.0154
▁자립	-12.0155
▁뛰어	-12.0157
▁갑질	-12.0162
▁친다	-12.0165
▁83	-12.0167
▁배불러	-12.0168
▁원단	-12.0169
▁러쉬	-12.0172
ᅡ	-12.0172
▁연하	-12.0172
▁냉동실	-12.0173
일보	-12.0179
▁기꺼이	-12.018
▁사거리	-12.018
▁산뜻	-12.0181
▁법령	-12.0183
▁숨겨진	-12.0184
▁PR	-12.0185
▁요금제	-12.0186
▁근력	-12.0188
며	-12.0189
▁아싸	-12.0189
▁더러운	-12.0189
▁차선	-12.0191
▁부대찌개	-12.0196
▁재주	-12.0198
▁엌ᄏᄏᄏ	-12.0199
▁91	-12.0201
▁사업비	-12.0202
▁여가	-12.0206
75	-12.0207
▁가로막	-12.0208
▁챙겨야	-12.0209
쟁이	-12.0209
/	-12.0211
▁김선	-12.0211
▁베를린	-12.0211
▁이뤄졌	-12.0213
▁양해	-12.0213
▁가져올	-12.0213
ance	-12.0213
▁출제	-12.0218
▁청정	-12.0218
▁개장	-12.0219
▁머물러	-12.0221
▁석탄	-12.0223
▁여겼	-12.0224
▁따름	-12.0225
▁선장	-12.0226
▁어떤지	-12.0226
▁해낼	-12.0226
▁괜차나	-12.0228
▁겨울철	-12.0228
보였	-12.0231
▁팽	-12.0236
ye	-12.0236
▁태연	-12.0238
▁해독	-12.0239
▁商	-12.0242
▁분자	-12.0242
▁윽	-12.0244
어야	-12.0245
▁청중	-12.0246
▁집합	-12.0247
▁언서	-12.0248
▁스파이	-12.0248
휘	-12.0248
▁😢	-12.0251
▁어서요	-12.0253
▁종족	-12.0255
▁연루	-12.0256
▁맞은편	-12.0259
▁로버트	-12.0261
▁주워	-12.0262
▁Be	-12.0264
▁고른	-12.0265
▁극심	-12.0267
▁늑대	-12.0268
▁속이	-12.0269
▁윙	-12.0271
▁마르크스	-12.0275
nd	-12.0276
▁화질	-12.0279
놓고	-12.0279
▁몰락	-12.028
▁특별법	-12.0281
그룹	-12.0282
▁살아왔	-12.0283
▁외곽	-12.0283
▁민속	-12.0288
▁기성	-12.0289
ee	-12.029
▁동북아	-12.029
▁프렌치	-12.0291
▁아래쪽	-12.0292
▁🌿	-12.0292
▁실명	-12.0292
▁내려왔	-12.0293
▁다물	-12.0293
▁센치	-12.0295
▁일차	-12.0297
▁쪼개	-12.0301
▁코스피	-12.0303
▁관계없이	-12.0304
▁치가	-12.0306
▁찰떡	-12.0307
▁숯불	-12.0307
▁힙합	-12.0307
▁제왕	-12.0308
▁레오	-12.031
▁창가	-12.0313
▁갱년기	-12.0315
▁해법	-12.0315
▁문단	-12.0317
▁배수	-12.0319
▁막연	-12.032
▁여정	-12.0321
▁주역	-12.0322
▁보컬	-12.0322
▁백악관	-12.0323
▁디엠	-12.0324
▁높일	-12.0325
29	-12.0325
▁뒤져	-12.0326
▁하구	-12.0329
▁그레	-12.0331
▁캘리포니아	-12.0331
▁시럽	-12.0332
▁실기	-12.0332
▁le	-12.0335
▁둬야	-12.0337
▁반하	-12.0337
▁.........	-12.0337
▁난다고	-12.0337
▁처형	-12.0338
▁시상식	-12.034
▁인강	-12.0342
▁캉	-12.0342
▁기원전	-12.0344
아이	-12.0346
▁travel	-12.0347
▁실컷	-12.0348
▁덩치	-12.0352
▁제형	-12.0353
▁국군	-12.0354
▁목동	-12.0359
▁문체	-12.0361
▁신도	-12.0361
▁찌르	-12.0362
▁고찰	-12.0366
▁판례	-12.0366
▁잔잔	-12.0367
▁대권	-12.0367
▁아울렛	-12.0371
▁산업단지	-12.0371
▁메이커	-12.0372
▁걸요	-12.0373
▁生	-12.0376
▁대사관	-12.0378
▁꼼짝	-12.0379
▁포트폴리오	-12.038
▁엑소	-12.0382
▁손잡	-12.0384
▁블로거	-12.0388
▁내기	-12.039
▁바리	-12.0393
▁아앙	-12.0394
▁생리대	-12.0395
▁텀블러	-12.0396
de	-12.0396
▁등지	-12.0402
▁등심	-12.0402
▁원유	-12.0403
▁핵무기	-12.0404
▁바꿔서	-12.0406
hi	-12.041
▁🐷	-12.0412
▁동아일보	-12.0412
▁접목	-12.0415
▁인천시	-12.0416
쩍	-12.0423
▁일제히	-12.0426
▁데스	-12.0427
▁귓	-12.0428
▁훨	-12.0429
▁바빴	-12.0429
▁건드리	-12.043
릅니다	-12.0431
▁지체	-12.0431
▁만물	-12.0432
▁문항	-12.0433
22	-12.0433
▁부풀	-12.0434
▁스팸	-12.0436
▁벗어난	-12.0436
▁킥	-12.0437
▁익혀	-12.0439
▁백신	-12.0441
▁물리학	-12.0444
▁항해	-12.0445
▁늦잠	-12.0446
▁쾌	-12.0448
▁불려	-12.0448
▁멸	-12.0452
▁유병언	-12.0453
▁통째	-12.0453
▁아랍	-12.0454
▁디제이	-12.0461
▁실리콘	-12.0461
교육	-12.0461
▁나눴	-12.0463
▁무심	-12.0464
▁NC	-12.0464
▁여럿	-12.0466
▁😄	-12.0469
▁제국주의	-12.0471
▁렉	-12.0471
▁토록	-12.0473
▁잡아먹	-12.0473
▁사치	-12.0478
▁어두	-12.0479
▁을게요	-12.048
▁절정	-12.048
ac	-12.048
▁농단	-12.0482
▁콧	-12.0484
▁하여간	-12.0485
▁범죄자	-12.0486
▁레저	-12.049
▁내포	-12.0491
▁감격	-12.05
▁효소	-12.05
▁비워	-12.0501
▁판문점	-12.0501
▁인건비	-12.0501
▁가맹점	-12.0502
▁선거법	-12.0503
▁교도소	-12.051
▁군부	-12.0512
▁산물	-12.0516
▁산지	-12.0522
▁광대	-12.0522
▁던가요	-12.0524
▁정반대	-12.0526
▁골라서	-12.0526
▁그랜드	-12.053
▁작곡가	-12.0531
▁동요	-12.0534
qu	-12.0534
▁Con	-12.0536
▁편할	-12.054
▁as	-12.054
▁류현진	-12.0542
Q	-12.0543
▁침투	-12.0545
▁노라	-12.0546
▁공연장	-12.0547
▁아스	-12.0547
86	-12.055
▁임대료	-12.0552
▁입점	-12.0554
▁거제	-12.0555
▁추경	-12.056
어설	-12.0561
▁개강	-12.0561
▁그해	-12.0561
▁태그	-12.0564
쇠	-12.0564
▁럴	-12.0564
▁쳣	-12.0566
▁베이커리	-12.0568
▁재촉	-12.0568
style	-12.0576
69	-12.0576
▁알맞	-12.0577
▁막힌	-12.0577
옷	-12.0585
▁만찬	-12.0585
▁곁들여	-12.0586
▁자각	-12.0587
▁조교	-12.0588
▁처해	-12.0588
▁다정	-12.059
▁국한	-12.059
긋	-12.0591
▁신음	-12.0592
▁이승	-12.0593
▁토하	-12.0594
▁입각	-12.0594
▁빤	-12.0595
▁슬림	-12.0595
▁쓸모	-12.0596
▁들여다	-12.0599
▁발자국	-12.06
▁쇄신	-12.0601
▁산림	-12.0601
▁망할	-12.0604
▁정전	-12.0607
더니	-12.061
事	-12.061
▁깨달음	-12.0611
▁송금	-12.0611
▁대치	-12.0611
▁용납	-12.0612
▁사당	-12.0613
▁법무	-12.0614
▁코스닥	-12.0617
▁경영진	-12.0618
▁퀴	-12.0621
▁제게	-12.0621
▁슬기	-12.0623
▁하이브리드	-12.0625
▁😝	-12.0625
스틴	-12.0625
▁배포	-12.0625
▁박차	-12.0625
▁전교조	-12.0626
▁드러	-12.0629
▁연락처	-12.0631
▁챙	-12.0631
▁1984	-12.0633
▁돌아와서	-12.0633
▁라스	-12.0633
잘	-12.0633
▁집필	-12.0634
97	-12.0635
▁여배우	-12.0635
▁고사	-12.0636
▁앜ᄏᄏ	-12.0637
▁간사	-12.0638
▁수육	-12.0641
▁아리	-12.0641
▁블루투스	-12.0641
▁동호회	-12.0642
▁입수	-12.0644
▁거북	-12.0645
▁흘렸	-12.065
▁개체	-12.0656
▁가설	-12.0656
▁침몰	-12.0658
▁내다보	-12.066
▁뭘까요	-12.0662
▁도깨비	-12.0666
▁검색어	-12.0666
▁깃발	-12.0667
ᅲᅲ	-12.0668
▁멘토	-12.0671
▁환장	-12.0673
▁배움	-12.0676
▁잠재력	-12.0677
▁do	-12.0678
▁초라	-12.0679
▁사주	-12.0679
me	-12.068
▁승무원	-12.0683
▁파인애플	-12.0683
▁대법관	-12.0683
▁관람객	-12.0683
▁신문사	-12.0689
▁발송	-12.0692
▁응급	-12.0693
▁수동	-12.0695
▁자비	-12.0697
다르	-12.0697
▁챌	-12.0698
▁가져와	-12.0698
쌓이	-12.07
▁해답	-12.0703
▁후임	-12.0706
▁서브	-12.0706
▁다는데요	-12.0707
▁"......."	-12.0708
▁사관	-12.0708
폰	-12.0712
▁내놔	-12.0712
▁줄어든	-12.0713
▁후쿠오카	-12.0716
▁理	-12.0718
▁궁합	-12.0718
▁공감대	-12.0718
98	-12.0719
▁코팅	-12.0719
▁수법	-12.072
▁썽	-12.0724
▁차세대	-12.0725
▁가로수길	-12.0725
▁블리	-12.0725
▁단가	-12.0727
깃	-12.0729
▁돈가스	-12.0729
▁오름	-12.0731
▁걸러	-12.0733
▁팝콘	-12.0733
▁신축	-12.0735
려면	-12.0736
▁北	-12.0736
▁무능	-12.0737
▁同	-12.0737
▁묘한	-12.0738
▁접종	-12.0738
▁고조	-12.0739
▁메모리	-12.0742
ary	-12.0743
▁달한다	-12.0744
▁펀	-12.0744
▁커질	-12.0745
▁ᅠᅠ	-12.075
▁권장	-12.0753
▁사법부	-12.0755
▁구했	-12.0755
▁다쳤	-12.0757
31	-12.0758
▁폴란드	-12.0758
▁쾌락	-12.0758
▁잡혔	-12.0761
▁교시	-12.0761
▁칼슘	-12.0767
▁낮춰	-12.0767
치기	-12.0768
▁인접	-12.077
800	-12.077
▁수장	-12.0771
▁합당	-12.0774
▁이뤄진	-12.0774
▁받아들였	-12.0775
▁적절히	-12.0778
▁마사	-12.0779
▁가드	-12.0781
▁늠	-12.0782
▁대부	-12.0784
샘	-12.0784
▁백작	-12.0787
▁지독	-12.0791
▁버려진	-12.0792
▁🙄	-12.0792
▁엊그제	-12.08
▁찬물	-12.0803
▁왕실	-12.0804
ip	-12.0805
▁LA	-12.0806
▁존버	-12.0806
▁바울	-12.0807
▁할까봐	-12.0807
▁움직였	-12.0808
▁부유	-12.0809
▁명제	-12.0811
공사	-12.0812
▁달빛	-12.0813
▁으악	-12.0815
▁육상	-12.0815
▁증후군	-12.0817
▁교리	-12.0818
▁°	-12.0818
▁대한항공	-12.0818
▁포트	-12.082
▁그닥	-12.0821
▁참나	-12.0827
▁스피	-12.0829
▁아픈데	-12.083
▁ha	-12.0831
▁남다른	-12.0836
▁욕설	-12.084
vi	-12.084
▁이윽고	-12.0842
▁연예	-12.0842
▁모듬	-12.0843
▁들러	-12.0843
▁이얌	-12.0844
▁채팅	-12.0846
▁산다고	-12.0847
▁체온	-12.0848
▁팔찌	-12.0849
▁반항	-12.0849
▁He	-12.085
▁petstagram	-12.0851
▁잡아	-12.0853
▁모레	-12.0853
▁챙길	-12.0854
74	-12.0857
▁줘라	-12.0858
▁닭강정	-12.0859
▁유니폼	-12.0859
▁sh	-12.086
▁알림	-12.0861
▁실점	-12.0864
81	-12.0865
▁붙들	-12.0865
바르	-12.0865
▁말레이시아	-12.0868
▁뭉치	-12.0868
펜	-12.0872
▁안목	-12.0875
▁지칭	-12.0876
▁두근두근	-12.0876
▁주무	-12.0876
▁샐	-12.0879
▁업소	-12.0879
▁라던데	-12.0886
▁톨	-12.0888
▁정경	-12.0892
▁알레르기	-12.0893
▁유모차	-12.0893
▁월남	-12.0893
▁이루어진다	-12.0895
▁입혀	-12.0896
68	-12.0898
▁경지	-12.09
▁밸런스	-12.0902
특	-12.0902
▁다뤄	-12.0903
▁수량	-12.0904
▁급등	-12.0906
▁교토	-12.0907
▁익명	-12.0907
▁살아나	-12.0907
▁경쟁자	-12.0908
▁산행	-12.0909
▁귀요미	-12.091
▁난이도	-12.091
▁용감	-12.0913
▁뎁	-12.0916
▁다시금	-12.0916
▁클린턴	-12.0919
▁조림	-12.092
▁한껏	-12.0921
▁Ro	-12.0925
▁컵라면	-12.0927
▁상향	-12.0928
▁메달	-12.0928
▁응급실	-12.0928
▁세입자	-12.0928
텐	-12.093
붓	-12.0931
▁캄	-12.0932
▁양념장	-12.0933
▁느껴질	-12.0933
sh	-12.0934
▁염소	-12.0934
▁닭고기	-12.0936
▁스윙	-12.0936
▁불타	-12.0937
▁본문	-12.0937
된	-12.0938
▁큼	-12.094
▁플라	-12.0942
▁시간표	-12.0943
▁파인	-12.0946
▁벌여	-12.0946
▁내달	-12.095
▁문예	-12.095
▁십일월	-12.0953
▁어느덧	-12.0953
▁손주	-12.0955
▁양복	-12.0958
▁학계	-12.0959
▁쩜	-12.0961
▁허허허	-12.0961
▁악수	-12.0963
▁졍	-12.0963
書	-12.0965
▁배구	-12.0969
▁갈아타	-12.097
▁정적	-12.0971
▁비만	-12.0973
린다는	-12.0976
▁첩	-12.0977
▁결핍	-12.0979
▁미흡	-12.0979
ner	-12.0981
▁요란	-12.0981
▁배낭	-12.0982
▁구비	-12.0982
싫어하	-12.0984
▁항복	-12.0985
▁튀겨	-12.0986
▁도피	-12.0988
▁건너편	-12.0988
▁재해	-12.0989
▁꼬막	-12.099
▁양극	-12.099
▁스카	-12.0995
▁알라딘	-12.0996
▁입대	-12.0996
▁따듯	-12.0998
▁라네	-12.0999
려구	-12.1003
▁근접	-12.1005
틱	-12.1005
▁종북	-12.1007
▁갈라고	-12.1009
▁원두	-12.101
▁이나마	-12.101
▁찹쌀	-12.1013
▁최우선	-12.1014
▁💓	-12.1014
▁화보	-12.1014
▁정정	-12.1017
달라붙	-12.1017
▁깍	-12.1018
▁보답	-12.1018
▁시동	-12.102
▁쫀득	-12.1021
ical	-12.1022
ba	-12.1022
▁동인	-12.1025
뛰	-12.1026
▁꾹	-12.1026
▁클로	-12.1028
▁매달려	-12.1028
ci	-12.1031
▁나타냈	-12.1031
▁☞	-12.1032
▁다더라	-12.1034
▁줄거리	-12.1035
▁통역	-12.1036
▁삼계탕	-12.1039
▁크으	-12.104
▁공조	-12.1042
▁열릴	-12.1046
▁오디션	-12.1047
▁잠옷	-12.1049
폴	-12.1051
▁겹쳐	-12.1052
▁남미	-12.1056
▁주유소	-12.1057
▁분담	-12.1057
91	-12.1058
▁주심	-12.1062
▁리어	-12.1064
▁대꾸	-12.1064
77	-12.1066
▁넘나	-12.1069
▁소개서	-12.107
▁수납	-12.1072
▁"...	-12.1073
▁선착순	-12.1073
▁성추행	-12.1073
▁뱃속	-12.1074
▁갬	-12.1074
▁놀랄	-12.1076
▁구청장	-12.1077
▁허니	-12.108
▁바베큐	-12.1082
▁후추	-12.1082
▁어떨	-12.1085
▁묵직	-12.1086
▁응답자	-12.1087
▁연세	-12.109
▁감자탕	-12.1092
▁이례	-12.1094
▁수유	-12.1095
▁마땅히	-12.1095
▁아씨	-12.1096
▁으라는	-12.1096
▁입문	-12.1097
▁오스트리아	-12.1099
▁슐	-12.1103
▁키운	-12.1103
▁밀양	-12.1106
▁잔디	-12.1107
▁세무	-12.1107
▁왕비	-12.1108
▁타고난	-12.1108
▁오토	-12.1109
▁실린	-12.1111
▁누굴	-12.1113
03	-12.1114
▁액정	-12.1116
▁클라우드	-12.1117
▁계란찜	-12.1117
▁환전	-12.1119
▁헌재	-12.1121
▁에여	-12.1125
▁견뎌	-12.1125
▁근심	-12.1125
▁사모님	-12.1125
▁면세	-12.1126
▁온전히	-12.1127
▁종결	-12.113
그리	-12.113
버스	-12.1131
▁강남구	-12.1131
▁폭포	-12.1132
▁진열	-12.1132
▁용병	-12.1132
▁正	-12.1133
▁재정부	-12.1133
▁찬스	-12.1134
▁산거	-12.1134
▁영하	-12.1138
85	-12.1138
▁1930	-12.1139
▁프로모션	-12.1143
▁제압	-12.1144
▁야심	-12.1144
▁걸린다	-12.1145
▁낙관	-12.1147
▁아산	-12.1148
▁펑	-12.115
▁쉐이크	-12.1151
▁스터	-12.1153
▁->	-12.1155
▁실례	-12.116
▁흐흐	-12.1161
▁고함	-12.1161
나갔	-12.1162
▁액체	-12.1164
▁김종인	-12.1166
▁난방	-12.1166
ai	-12.1167
▁th	-12.1172
TO	-12.1174
AT	-12.1174
▁고속도	-12.1175
▁여고	-12.1175
▁세례	-12.1175
▁산정	-12.1177
▁벌떡	-12.118
▁요한	-12.1183
▁부끄러운	-12.1186
▁야무지	-12.1187
▁상원	-12.1188
▁백억	-12.1188
▁결함	-12.1188
▁마일	-12.1189
▁방면	-12.1191
▁쌉	-12.1191
▁미모	-12.1193
그라	-12.1195
▁시련	-12.1196
▁느려	-12.1196
▁유능	-12.1198
▁여행사	-12.1198
▁어쩌구	-12.1203
▁차근차근	-12.1204
▁가져갔	-12.1204
▁외로운	-12.1205
▁흑자	-12.1207
▁시국	-12.1209
▁자요	-12.1211
▁가혹	-12.1212
▁York	-12.1213
▁인명	-12.1214
▁생산량	-12.1214
▁보호자	-12.1216
▁인내	-12.1216
▁유대인	-12.1219
▁;;;	-12.122
▁오죽	-12.1221
▁누룽지	-12.1221
▁오메가	-12.1223
▁기증	-12.1224
▁당선인	-12.1224
200	-12.1227
▁유예	-12.1229
mp	-12.123
▁tr	-12.123
▁뉴질랜드	-12.123
▁내려온	-12.1234
휴	-12.1235
▁개소	-12.1236
▁대포	-12.1238
▁롯데월드	-12.1239
▁가급적	-12.1239
▁조급	-12.124
▁떨어진다	-12.1241
▁줄지	-12.1243
워서	-12.1245
▁기질	-12.1245
▁전수	-12.1246
▁단추	-12.1247
▁—	-12.1248
▁박정	-12.1252
▁졸업식	-12.1254
da	-12.1254
▁바로잡	-12.1254
▁총수	-12.1257
▁해임	-12.1257
치우	-12.1262
▁커리	-12.1263
▁사이클	-12.1264
▁지으며	-12.1264
▁끌어들	-12.1265
▁멜론	-12.1267
▁틴트	-12.1268
▁최다	-12.1269
▁풍자	-12.1272
▁연유	-12.1273
▁실효	-12.1274
▁횡단	-12.1276
▁절벽	-12.1276
▁보일러	-12.1277
▁비켜	-12.1278
▁대두	-12.128
▁책정	-12.1281
▁한국사	-12.1284
▁얼룩	-12.1284
▁김준	-12.1284
▁외상	-12.1288
he	-12.1291
▁까요	-12.1292
▁여느	-12.1294
▁려는데	-12.1294
▁추우	-12.1294
▁일당	-12.1295
부딪히	-12.1296
▁기억력	-12.1301
▁찝찝	-12.1301
▁스티븐	-12.1301
▁fff	-12.1301
▁메이플	-12.1302
ex	-12.1305
*	-12.1307
▁치사	-12.1308
▁여파	-12.1308
▁기인	-12.1309
▁태블릿	-12.131
▁사투리	-12.131
▁빔	-12.1311
▁제철	-12.1312
▁날렸	-12.1312
▁요일	-12.1313
▁사옵니다	-12.1313
``	-12.1315
▁맞췄	-12.1317
▁막국수	-12.1319
▁어지럽	-12.1319
▁얼큰	-12.1319
어붙	-12.132
▁청정기	-12.1324
▁심층	-12.1324
콜	-12.1326
▁패치	-12.1327
▁하룻밤	-12.1327
▁귀여움	-12.1328
▁광안리	-12.1329
▁프라이	-12.133
▁스키장	-12.1334
▁피티	-12.1335
라면	-12.1338
▁향해서	-12.1343
▁슛	-12.1345
▁의약품	-12.1345
▁능동	-12.1345
▁으까	-12.1346
▁언론인	-12.1346
od	-12.1351
▁전격	-12.1352
▁음원	-12.1359
▁미아	-12.1359
▁다녀와	-12.1359
렐	-12.136
▁페르	-12.136
▁부가	-12.1361
▁장편	-12.1361
▁어두워	-12.1363
▁으신가	-12.1364
▁노년	-12.1366
▁기득	-12.1373
▁무너져	-12.1373
▁객실	-12.1373
▁리라고	-12.1374
▁열망	-12.1375
▁클라	-12.1376
엇	-12.1376
▁빈도	-12.138
▁휴직	-12.1383
▁가해	-12.1385
▁반론	-12.1388
▁찔러	-12.1391
▁감면	-12.1391
▁죄다	-12.1392
▁사표	-12.1398
평균	-12.1398
▁핵실험	-12.1399
망치	-12.1399
▁본연	-12.14
▁나노	-12.1402
▁해냈	-12.1402
▁연패	-12.1403
▁잘라서	-12.1405
▁정수기	-12.1405
▁로그인	-12.1408
!!!!	-12.1408
▁거려	-12.1408
▁떠돌	-12.1409
▁장례	-12.1409
▁석방	-12.141
▁🙏	-12.1411
▁항쟁	-12.1417
▁렛	-12.1418
▁동방	-12.1418
▁세로	-12.1418
▁경성	-12.1418
▁사망자	-12.1419
▁💚	-12.142
꾼	-12.142
버렸	-12.1421
▁인조	-12.1421
바꼈	-12.1421
▁소변	-12.1422
쥬	-12.1423
콘	-12.1424
라인	-12.1424
93	-12.1424
▁고춧가루	-12.1426
▁프린트	-12.1426
준다	-12.1426
▁사회학	-12.1427
▁봥	-12.1427
▁모양새	-12.1429
▁폈	-12.1432
ian	-12.1434
▁버틸	-12.1435
▁꾸려	-12.1435
▁열광	-12.1438
▁수반	-12.1439
▁Ma	-12.144
▁카페인	-12.1442
▁선원	-12.1442
갛	-12.1443
▁내걸	-12.1445
스레	-12.1446
▁장부	-12.1446
▁첨부	-12.1449
▁추울	-12.1449
▁동상	-12.1449
end	-12.145
린데	-12.1452
▁통닭	-12.1453
▁실리	-12.1453
▁미끄러	-12.1454
▁면모	-12.1456
▁테라스	-12.1457
▁뒷면	-12.1458
▁마찰	-12.1458
▁윌리엄	-12.1459
컨대	-12.146
36	-12.146
▁우회	-12.1461
▁목적지	-12.1461
▁셜	-12.1462
▁줄곧	-12.1462
▁꺼야	-12.1464
▁지원자	-12.1466
▁서원	-12.1467
▁건설사	-12.1468
자리	-12.1468
▁탁자	-12.1469
▁이어진다	-12.147
▁암호	-12.147
▁눌렀	-12.1471
▁쌩	-12.1471
▁간과	-12.1473
▁방과	-12.1475
▁자랐	-12.1475
▁정관	-12.1477
▁이직	-12.1479
▁퍼포먼스	-12.1479
▁튜브	-12.148
48	-12.148
▁장담	-12.1481
▁170	-12.1482
▁구슬	-12.1484
▁광양	-12.1485
▁통일부	-12.1488
▁청하	-12.1488
▁해킹	-12.1489
▁할려면	-12.1489
▁벽돌	-12.149
sa	-12.149
▁양면	-12.1491
▁자진	-12.1492
▁드린다	-12.1493
▁일어	-12.1496
▁치안	-12.1497
▁카운터	-12.1497
▁연쇄	-12.1498
▁크루즈	-12.1498
살이	-12.1499
▁노벨	-12.1499
▁곤충	-12.15
▁소명	-12.1502
ast	-12.1502
▁임하	-12.1503
▁곤약	-12.1504
▁럿	-12.1504
▁복종	-12.1504
▁대용	-12.1506
▁궁전	-12.1509
봤	-12.1509
리어	-12.1512
▁깅	-12.1512
▁정중	-12.1513
▁GM	-12.1513
▁우호	-12.1514
▁jmt	-12.1516
▁he	-12.1516
ca	-12.1517
34	-12.1517
▁小	-12.1519
▁al	-12.1522
▁압구정	-12.1523
51	-12.1525
ke	-12.1525
▁지켜봐야	-12.1526
▁조짐	-12.1527
▁운반	-12.1527
▁폐기물	-12.1527
▁거슬러	-12.153
▁coffee	-12.1532
▁핳	-12.1532
▁답니당	-12.1534
▁구석구석	-12.1534
▁피치	-12.1535
ER	-12.1536
▁기념일	-12.1542
▁병우	-12.1545
▁회동	-12.1545
▁지켰	-12.1545
▁북구	-12.1546
▁본체	-12.1546
▁용의자	-12.1553
▁헷갈리	-12.1555
▁ᄐᄏ	-12.1558
▁맥도날드	-12.1561
힘	-12.1562
▁특기	-12.1565
▁비번	-12.1568
▁고깃집	-12.157
▁사령부	-12.157
6	-12.1571
♡	-12.1574
▁해선	-12.1575
봄	-12.1576
▁가평	-12.1578
▁부들부들	-12.1579
▁반가운	-12.1579
▁놉	-12.158
▁바랄	-12.1582
▁아이유	-12.1584
▁무거워	-12.1585
▁at	-12.1588
▁팽팽	-12.1588
▁방황	-12.1588
▁국세청	-12.1588
▁탐사	-12.1593
▁엇갈	-12.1594
▁합쳐서	-12.1595
▁學	-12.1595
▁막강	-12.1597
▁애슐리	-12.1597
▁볼라고	-12.1599
▁미사	-12.1601
▁소풍	-12.1601
▁ex	-12.1603
▁들렀	-12.1604
▁장례식	-12.1606
▁타임스	-12.1607
▁악몽	-12.1608
▁미백	-12.161
▁미주	-12.161
▁지리산	-12.161
널	-12.1611
▁소란	-12.1618
▁착공	-12.1618
▁리치	-12.1623
▁자정	-12.1624
▁굿모닝	-12.1625
▁질주	-12.1627
▁드럼	-12.1629
▁종시	-12.163
ᄆ	-12.1631
▁수없이	-12.1633
▁前	-12.1633
▁헤아	-12.1634
▁반짝	-12.1635
▁물회	-12.1636
▁본선	-12.1637
▁얏	-12.164
▁우왕	-12.1641
▁시리아	-12.1643
▁피드백	-12.1643
▁팽창	-12.1644
▁사마	-12.1648
▁세속	-12.1649
⠀⠀⠀⠀⠀⠀⠀⠀⠀⠀⠀⠀⠀⠀⠀⠀	-12.165
게요	-12.165
▁🐶	-12.1653
▁볼일	-12.1653
▁우스	-12.1654
39	-12.1656
기아차	-12.1656
▁바스	-12.1656
▁서리	-12.1656
▁묶여	-12.1664
▁박상	-12.1666
▁특가	-12.1668
겨운	-12.1668
▁적대	-12.1668
▁Mo	-12.1669
▁추론	-12.1669
▁과다	-12.167
▁숭배	-12.1671
ens	-12.1672
▁성급	-12.1672
▁던진	-12.1673
딸	-12.1677
▁리드	-12.1677
▁원룸	-12.1678
行	-12.1679
▁신대	-12.1679
ob	-12.1679
▁육즙	-12.1681
린다고	-12.1681
▁공정위	-12.1684
▁대법원장	-12.1685
펠	-12.1686
▁밀도	-12.1687
96	-12.1689
▁저술	-12.169
▁물어본	-12.1692
▁표본	-12.1696
▁중부	-12.1698
300	-12.1698
▁시진핑	-12.1698
▁울타리	-12.1698
▁일으킬	-12.1698
▁갈비찜	-12.1698
ick	-12.1702
▁광산	-12.1702
▁베이지	-12.1706
▁뒷모습	-12.1707
▁천주교	-12.1707
▁변호	-12.171
▁곧장	-12.1711
▁영양소	-12.1713
▁순진	-12.1714
▁변기	-12.1716
▁이듬해	-12.1717
▁경치	-12.1722
▁La	-12.1722
▁서열	-12.1722
▁옷장	-12.1723
▁꼬집	-12.1724
뇌	-12.1724
▁기습	-12.1724
▁손흥민	-12.1726
▁오케스트라	-12.1726
▁법관	-12.1727
▁대면	-12.1727
▁헬기	-12.1729
▁당해서	-12.1729
▁궤도	-12.1729
▁동성	-12.1731
▁헤어진	-12.1733
▁웃겼	-12.1733
▁노량진	-12.1735
▁미스터	-12.1735
49	-12.1736
▁반기문	-12.1736
▁진해	-12.1737
▁산타	-12.1737
▁타투	-12.1737
▁쥬스	-12.1739
▁우대	-12.1742
▁압수	-12.1744
▁역임	-12.1744
▁팸	-12.1745
▁신종	-12.1748
▁젠장	-12.1749
▁루이스	-12.175
▁보이스	-12.175
▁다던	-12.175
▁동조	-12.1751
▁korea	-12.1751
▁마셔야	-12.1751
▁현미	-12.1752
▁동거	-12.1753
▁우세	-12.1753
▁착취	-12.1754
▁총무	-12.1757
▁쥔	-12.1757
▁!!!!!!!	-12.1759
▁연탄	-12.1759
▁101	-12.176
▁선별	-12.176
▁서문	-12.1762
▁가습기	-12.1763
▁아까운	-12.1764
▁구실	-12.1765
▁항만	-12.1766
▁에이스	-12.1766
▁安	-12.1768
▁장만	-12.1768
▁일품	-12.1772
▁돌려서	-12.1772
▁발판	-12.1773
▁쨔	-12.1774
▁싸운	-12.1774
끔	-12.1775
▁벅	-12.1775
▁소진	-12.1775
▁깬	-12.1778
▁질까	-12.1781
▁알아봐	-12.1783
▁학사	-12.1784
▁선보인다	-12.1786
▁페리	-12.1786
▁갈릭	-12.1787
▁가격대	-12.179
▁라이언	-12.1792
▁전산	-12.1793
눌	-12.1797
스탄	-12.1797
58	-12.1798
▁오예	-12.1798
▁할텐데	-12.18
▁노골	-12.18
▁법조	-12.1802
▁됐으며	-12.1804
▁공허	-12.1804
▁구여	-12.1805
▁1982	-12.1809
▁저마다	-12.1813
▁경상도	-12.1814
▁이룩	-12.1814
▁사역	-12.1816
▁유선	-12.1817
ᅥ	-12.1818
▁사수	-12.1818
▁낙동강	-12.1819
▁所	-12.182
38	-12.182
▁대나무	-12.1826
▁계발	-12.1826
▁보너스	-12.1828
▁토이	-12.1832
▁떨어뜨	-12.1835
▁달라진다	-12.1836
▁얼리	-12.1837
▁책임감	-12.1837
▁구수	-12.1838
▁스톤	-12.184
600	-12.1841
▁아비	-12.1842
▁Th	-12.1843
▁호의	-12.1843
▁일어난다	-12.1843
▁접대	-12.1845
▁타락	-12.1845
▁무당	-12.1846
▁파생	-12.1847
▁마술	-12.1847
▁위조	-12.1853
▁☕	-12.1853
▁동탄	-12.1853
▁림프	-12.1858
▁에세이	-12.1858
▁유정	-12.1859
▁무스	-12.186
▁맞출	-12.1861
▁동등	-12.1861
났었	-12.1863
▁노숙	-12.1868
다봤	-12.1869
▁포카	-12.187
▁유적	-12.1871
▁파스	-12.1871
▁벤트	-12.1872
44	-12.1874
▁표상	-12.1875
▁청취	-12.1875
▁갈게요	-12.1875
▁신흥	-12.1875
▁동선	-12.1876
▁넥	-12.1879
▁면서도	-12.188
▁중식	-12.188
▁게재	-12.1883
▁히틀러	-12.1884
▁학번	-12.1886
▁기피	-12.1887
▁흐음	-12.1888
▁119	-12.1889
▁등판	-12.1889
▁재물	-12.189
▁예스	-12.1894
▁신동	-12.1894
76	-12.1895
▁김윤	-12.1896
▁국악	-12.1898
▁장보	-12.1898
▁망명	-12.1899
▁장남	-12.19
싸움	-12.1901
▁》,	-12.1904
▁가야지	-12.1905
▁비와	-12.1906
▁돌릴	-12.1907
기뻐하	-12.1908
▁귀중	-12.191
▁호기	-12.191
▁온전	-12.1912
▁다이아몬드	-12.1912
▁쐬	-12.1912
무라	-12.1914
▁갱신	-12.1915
▁쩝	-12.1915
35	-12.1919
21	-12.1921
32	-12.1921
▁말없이	-12.1923
▁결여	-12.1926
▁문과	-12.1927
▁울렸	-12.1928
▁파파	-12.193
❤	-12.1932
▁민사	-12.1933
▁갈치	-12.1933
▁정점	-12.1933
흘	-12.1935
▁왈	-12.1939
▁아실	-12.1939
▁유포	-12.194
▁콧물	-12.1942
45	-12.1942
▁진다는	-12.1944
67	-12.1945
▁스탈	-12.1947
▁나아	-12.1948
▁불러일으	-12.195
▁래서	-12.195
▁고속도로	-12.1952
ep	-12.1953
che	-12.1953
▁당도	-12.1954
▁가든	-12.1955
▁직권	-12.1956
▁피클	-12.1956
▁레스	-12.1957
▁키트	-12.196
▁동국	-12.196
▁날씬	-12.1961
▁찹	-12.1962
해졌	-12.1964
▁과천	-12.1967
▁성매매	-12.1969
▁목욕탕	-12.197
▁함량	-12.1973
▁된답니다	-12.1977
켓	-12.1982
▁동갑	-12.1983
▁도자기	-12.1983
▁물들	-12.1985
▁포드	-12.1985
▁마음가짐	-12.1988
▁말기	-12.1989
▁쌍용	-12.1991
▁공모전	-12.1992
▁정제	-12.1995
▁보라색	-12.1998
▁뻐	-12.1998
▁들어선	-12.1999
▁잊혀	-12.1999
65	-12.2001
▁깃	-12.2002
▁브루	-12.2002
▁미역	-12.2003
▁심해서	-12.2003
▁고런	-12.2003
▁까만	-12.2004
▁괴롭힘	-12.2007
▁좋아할	-12.2008
▁못함	-12.2013
▁재앙	-12.2013
▁설명서	-12.2013
▁엄만	-12.2015
▁시금치	-12.2016
▁개그맨	-12.2017
▁1983	-12.2017
니스	-12.2018
▁묘지	-12.2021
▁경감	-12.2021
▁김영삼	-12.2027
▁파라	-12.2033
▁매너	-12.2033
▁홈플러스	-12.2035
낸다	-12.2036
▁🔥	-12.2036
▁상봉	-12.2037
ure	-12.2037
▁희귀	-12.2037
트라	-12.2041
▁얘긴데	-12.2042
갔다오	-12.2042
▁요리사	-12.2044
▁구독	-12.2045
▁어김없이	-12.2045
▁남동생	-12.2045
▁새콤	-12.2046
▁렌트	-12.205
▁동결	-12.2052
▁기생	-12.2054
▁성균관	-12.2054
놀	-12.2055
▁뇽	-12.2056
▁노동력	-12.2056
베르	-12.2059
▁북경	-12.2059
▁소심	-12.206
▁저질렀	-12.206
▁살펴볼	-12.206
▁종속	-12.2061
못	-12.2061
▁간첩	-12.2061
▁안함	-12.2062
▁마누라	-12.2064
▁모조리	-12.2064
▁모처럼	-12.2064
▁1979	-12.2065
▁드신	-12.2067
▁일본군	-12.207
▁덕질	-12.207
94	-12.2071
겐	-12.2072
ven	-12.2074
▁군것질	-12.2074
▁경보	-12.2074
▁들으니까	-12.2074
▁어선	-12.2076
▁다큐	-12.2078
▁분수	-12.208
산업	-12.208
▁머무	-12.208
▁전기차	-12.2081
▁충만	-12.2082
▁왼손	-12.2083
per	-12.2091
▁묵묵히	-12.2093
▁플라워	-12.2093
▁수차례	-12.21
▁심부름	-12.2102
▁후유증	-12.2102
▁스릴러	-12.2103
▁그제야	-12.2103
▁블럭	-12.2103
di	-12.2103
▁생신	-12.2106
;;	-12.2106
▁라벨	-12.2107
▁원한	-12.2109
▁슝	-12.2113
▁가져갈	-12.2113
▁유한	-12.2114
▁창구	-12.2117
▁호칭	-12.2117
▁엌ᄏᄏᄏᄏ	-12.2118
▁별일	-12.2119
▁한다든지	-12.2119
▁해본다	-12.2119
▁강간	-12.212
▁랜덤	-12.2122
▁아토피	-12.2122
▁올려야	-12.2123
▁전한	-12.2123
▁예산안	-12.2124
▁학급	-12.2124
▁육지	-12.2126
▁살찌	-12.2127
▁부속	-12.2127
▁운동가	-12.2128
▁선가	-12.213
▁끔	-12.2131
и	-12.2131
▁성우	-12.2133
▁넓혀	-12.2133
▁나르	-12.2135
▁근래	-12.2138
iv	-12.214
▁원본	-12.2141
▁메신저	-12.2141
▁뱃	-12.2141
부리	-12.2142
▁벤치	-12.2142
▁데스크	-12.2143
▁도래	-12.2144
▁전화기	-12.2144
▁반대편	-12.2146
▁흡사	-12.2147
▁코믹	-12.2148
37	-12.2149
▁쿠데타	-12.215
▁칼럼	-12.2152
▁끼어들	-12.2153
▁유산소	-12.2154
▁미네랄	-12.216
▁스퀘어	-12.216
▁땄	-12.216
▁숙취	-12.2161
▁협찬	-12.2161
▁연다	-12.2161
▁땨	-12.2162
▁싸인	-12.2163
▁Sh	-12.2165
▁재혼	-12.2166
녕	-12.2167
▁눈여겨	-12.217
▁깡패	-12.217
▁pet	-12.2172
▁고종	-12.2172
▁부지런히	-12.2173
ies	-12.2174
▁장터	-12.2175
▁건만	-12.2176
▁신약	-12.2179
▁파운데이션	-12.2179
▁장가	-12.2181
적절	-12.2181
▁삭감	-12.2181
▁드러난다	-12.2181
▁각인	-12.2183
여서	-12.2184
▁먼데	-12.2184
▁껴서	-12.2185
▁어치	-12.2186
??	-12.2187
▁그러다	-12.219
▁비대위	-12.219
▁쥴	-12.219
▁렁	-12.2191
▁저격	-12.2193
▁우상	-12.2194
▁환원	-12.2194
▁유니	-12.2194
▁친근	-12.22
=	-12.2201
▁사귄	-12.2201
▁메타	-12.2203
▁튜	-12.2208
▁원주민	-12.221
▁틈새	-12.221
▁쓱	-12.2212
▁예감	-12.2216
▁차익	-12.2217
▁곡물	-12.2218
▁신원	-12.2221
놨	-12.2226
▁침실	-12.2226
▁오른손	-12.2229
si	-12.2229
▁동문	-12.223
▁비스	-12.2235
▁연승	-12.2237
▁사고방식	-12.2238
▁밀린	-12.2238
▁옮김	-12.2238
▁헐랭	-12.224
▁수용자	-12.2243
▁세울	-12.2243
▁에버랜드	-12.2247
▁편찬	-12.2249
▁경품	-12.2253
▁한테서	-12.2255
▁지법	-12.2255
▁가담	-12.2256
▁의제	-12.2258
▁바질	-12.2259
▁다친	-12.2261
▁슥	-12.2261
▁통행	-12.2263
ᄏᄏᄏᄏᄏᄏᄏᄏᄏ	-12.2265
▁포켓	-12.2268
▁드라구요	-12.2268
▁추방	-12.2268
▁잘난	-12.2269
▁도마	-12.2271
▁어린애	-12.2272
접	-12.2273
▁감사원	-12.2274
▁채취	-12.2275
▁스위치	-12.2276
▁득템	-12.2277
▁효자	-12.2281
▁봉건	-12.2282
▁주전	-12.2282
▁호전	-12.2284
▁해짐	-12.2284
▁史	-12.2285
▁데이비드	-12.2286
▁무공	-12.2289
▁수저	-12.2291
▁강자	-12.2292
▁둠	-12.2294
▁아이러니	-12.2296
▁추이	-12.2299
▁호떡	-12.2301
▁브라우니	-12.2306
43	-12.2306
▁스텝	-12.2306
▁거창	-12.2307
▁새겨	-12.2307
ey	-12.2307
▁상표	-12.2309
ach	-12.2311
▁유보	-12.2312
▁일식	-12.2312
▁로맨틱	-12.2316
▁바삭바삭	-12.2316
▁클리닉	-12.2316
▁모의	-12.2316
▁DNA	-12.2316
▁전골	-12.2317
숭	-12.2318
▁면회	-12.232
▁明	-12.2325
▁탐험	-12.2326
▁쎈	-12.2327
▁자야	-12.2327
▁어머나	-12.2327
▁가전	-12.2328
▁선대	-12.2328
▁끌리	-12.233
▁띄워	-12.233
▁FA	-12.2332
▁나리	-12.2333
▁주시	-12.2335
▁한없이	-12.2341
▁인지라	-12.2345
▁리오	-12.2346
▁정신없이	-12.2346
▁모터	-12.2348
▁단군	-12.2348
▁때렸	-12.2349
▁얄	-12.2349
▁남짓	-12.2351
벼	-12.2352
▁액자	-12.2352
▁베스트셀러	-12.2355
▁들어온다	-12.2356
▁보트	-12.2356
▁내세워	-12.2357
학교	-12.2358
▁대추	-12.2358
▁외화	-12.2362
▁__	-12.2363
▁파문	-12.2364
▁즐겼	-12.2365
▁환멸	-12.2365
46	-12.2366
▁코인	-12.2366
▁루시	-12.2367
▁술자리	-12.2367
▁說	-12.2368
▁절박	-12.2371
▁뜻밖	-12.2374
▁정거장	-12.2375
▁뻔뻔	-12.2375
▁😚	-12.2375
▁주임	-12.2378
▁창당	-12.2379
ack	-12.238
ame	-12.2381
▁열등	-12.2382
▁매물	-12.2385
▁1981	-12.2385
▁선뜻	-12.2386
▁단행	-12.2387
버리	-12.2387
▁거래처	-12.2389
▁강구	-12.2391
▁원로	-12.2393
▁다녀서	-12.2393
▁인절미	-12.2394
▁실사	-12.2397
▁어필	-12.2397
▁찰스	-12.2397
▁은밀	-12.2398
▁신년	-12.2399
▁증여	-12.2399
▁예뻤	-12.2403
▁일화	-12.2405
▁다신	-12.2406
▁무지개	-12.2406
▁사라질	-12.2406
▁알콜	-12.2407
▁으으	-12.2408
구이	-12.2409
▁태종	-12.241
▁부류	-12.2413
▁왕위	-12.2413
▁잇몸	-12.2415
▁지퍼	-12.2417
둑	-12.2417
▁야야야	-12.2418
▁그리움	-12.2418
▁으아	-12.2419
fe	-12.242
▁심신	-12.2422
▁밤중	-12.2422
▁se	-12.2422
▁거니	-12.2422
▁카스	-12.2424
▁빡빡	-12.2424
▁기생충	-12.2424
▁가바	-12.2425
mer	-12.2428
▁된단	-12.2429
▁포용	-12.2431
▁가벼워	-12.2431
▁조롱	-12.2432
▁누이	-12.2433
▁스프링	-12.2434
롤	-12.2436
ah	-12.2436
▁알뜰	-12.2437
▁도넛	-12.2438
▁운항	-12.2438
ling	-12.2438
▁원화	-12.2439
▁書	-12.2439
▁地	-12.244
▁따돌	-12.244
▁존재감	-12.2441
▁行	-12.2445
oc	-12.2449
이치	-12.2449
▁말차	-12.2449
▁주입	-12.2449
흔하	-12.245
▁가뭄	-12.245
▁전작	-12.2451
▁알아내	-12.2452
▁설령	-12.2452
▁知	-12.2453
▁느린	-12.2455
▁강박	-12.2457
▁마장	-12.2459
▁야단	-12.246
▁올레	-12.2461
▁손녀	-12.2463
▁백지	-12.2464
▁다릅니다	-12.2464
▁영세	-12.2465
▁가늘	-12.2465
▁장려	-12.2466
▁바가지	-12.2466
▁추운데	-12.2466
가루	-12.247
▁대파	-12.2476
▁대동	-12.2478
구역	-12.2479
▁준수	-12.248
끝	-12.2481
▁한남	-12.2482
▁참으	-12.2483
▁비박	-12.2483
▁내사	-12.2483
▁감자튀김	-12.2484
▁공휴일	-12.2484
▁봉사자	-12.2486
▁불거	-12.2489
▁은폐	-12.249
▁부려	-12.2492
▁망가	-12.2493
▁신청서	-12.2495
베이	-12.2495
▁지지층	-12.2497
▁수영복	-12.2498
▁방수	-12.2499
▁高	-12.2499
▁갈께	-12.25
췄	-12.2502
▁스타일링	-12.2507
▁해내	-12.2509
▁병실	-12.2511
▁황태	-12.2513
57	-12.2514
무작정	-12.2514
▁시카고	-12.2515
규모	-12.2515
▁옮길	-12.2516
겁	-12.2518
▁징수	-12.2518
▁독창	-12.2519
▁공문	-12.252
▁봇	-12.2521
스케	-12.2523
▁삼각	-12.2524
▁발가락	-12.2524
▁스노우	-12.2525
어왔	-12.2527
▁개관	-12.2528
▁맹세	-12.2529
ess	-12.2532
▁금감원	-12.2534
▁두려운	-12.2534
▁종아리	-12.2534
▁수신	-12.2534
▁매운탕	-12.2535
▁국민은행	-12.2537
▁깊숙이	-12.2537
▁허전	-12.2538
▁욕먹	-12.2538
▁무성	-12.2541
▁스캔들	-12.2544
▁증폭	-12.2544
▁팔자	-12.2545
IN	-12.2545
▁유망	-12.2548
Z	-12.2548
▁대령	-12.2549
▁회로	-12.255
▁동백	-12.255
▁성주	-12.2553
▁*********	-12.2554
▁꼭대기	-12.2554
▁빛깔	-12.2554
▁아리랑	-12.2555
▁스타트	-12.2556
주무시	-12.2557
▁서재	-12.2558
▁안성	-12.2558
▁밸리	-12.2558
▁속삭	-12.2559
▁실지	-12.256
▁광복	-12.256
▁특사	-12.2561
추웠	-12.2562
▁쩍	-12.2563
▁상고	-12.2563
▁쉼	-12.2564
섰	-12.2564
▁삘	-12.2564
▁경영학	-12.2566
▁이사회	-12.2566
;	-12.2567
▁불륜	-12.2569
▁2500	-12.257
▁밀집	-12.2572
▁서장	-12.2572
^^	-12.2572
▁재판관	-12.2573
▁모세	-12.2573
▁때때로	-12.2574
▁급기야	-12.2574
▁사교육	-12.2575
ory	-12.2575
▁가태	-12.2579
▁밥집	-12.2581
닌	-12.2583
▁여러모로	-12.2584
▁🤩	-12.2584
▁더군	-12.2586
▁파고	-12.2587
▁화끈	-12.259
라구	-12.259
▁기술자	-12.259
▁연비	-12.2591
▁최저임금	-12.2594
▁얼핏	-12.2594
▁덜덜	-12.2595
▁연못	-12.2595
붙	-12.2596
▁렙	-12.2596
▁색채	-12.26
78	-12.2602
▁UN	-12.2602
▁슴다	-12.2603
▁풀렸	-12.2603
▁망한	-12.2605
▁여관	-12.2605
▁한양	-12.2605
▁판다	-12.2606
▁;;;;	-12.2608
▁긍	-12.2608
▁한약	-12.2608
▁손등	-12.261
OS	-12.2612
▁베드	-12.2612
▁서요	-12.2613
▁몸짓	-12.2613
▁기묘	-12.2614
▁쭉쭉	-12.2614
▁말린	-12.2614
▁폐업	-12.2616
▁닐	-12.2618
do	-12.2619
▁검출	-12.2619
▁위태	-12.2622
▁딱지	-12.2623
▁피드	-12.2625
▁자긴	-12.2627
▁기업인	-12.2628
▁물놀	-12.2628
▁누웠	-12.2629
41	-12.263
▁?!	-12.2632
▁서현	-12.2632
▁지면	-12.2633
▁국비	-12.2633
▁페미니즘	-12.2634
▁밤낮	-12.2635
라니	-12.2635
▁내려갈	-12.2637
gr	-12.2637
▁결집	-12.2638
있	-12.2638
▁악의	-12.264
▁오마	-12.2641
▁분주	-12.2642
▁시가	-12.2644
▁슬리퍼	-12.2644
▁퍼즐	-12.2645
▁모텔	-12.2646
▁달려갔	-12.2648
▁꼽힌다	-12.2654
▁해리포터	-12.2654
▁1920	-12.2656
▁군단	-12.2656
▁협업	-12.2656
▁애비	-12.2657
▁구르	-12.2659
▁친숙	-12.266
▁냐고요	-12.2662
▁신곡	-12.2663
▁머물렀	-12.2665
▁ᄌᄆ	-12.2665
▁무제한	-12.2665
▁엌ᄏᄏ	-12.2666
롬	-12.2666
▁쌈장	-12.2666
▁다급	-12.2667
▁유방	-12.2667
▁분장	-12.2668
▁머스	-12.2672
>	-12.2679
+	-12.268
비스	-12.268
▁찾아간	-12.268
▁당직	-12.2682
▁걸쳐서	-12.2682
▁순두부	-12.2685
▁삽입	-12.2685
▁발바닥	-12.2686
▁from	-12.2686
▁필링	-12.2687
▁한양대	-12.2688
▁소액	-12.2688
껏	-12.2688
day	-12.2689
▁사슴	-12.2691
▁군중	-12.2692
▁반짝이	-12.2692
NG	-12.2693
비치	-12.2695
ru	-12.2698
▁SF	-12.2701
▁결산	-12.2704
▁약사	-12.2705
▁오키나와	-12.2705
▁항아리	-12.2705
▁소시지	-12.2705
▁신용카드	-12.2705
▁솔솔	-12.2706
▁들으며	-12.2706
▁빈번	-12.2708
▁다채	-12.2711
▁카르	-12.2712
▁탁구	-12.2715
▁박해	-12.2715
▁탈북자	-12.2715
▁차츰	-12.2716
▁토니	-12.2716
▁an	-12.2718
▁韓	-12.2718
▁뛸	-12.2719
▁날카	-12.2719
▁룬	-12.2724
▁숙주	-12.2725
▁태권	-12.2727
▁라던가	-12.2728
▁세차	-12.2729
▁잡채	-12.2729
같	-12.273
▁풀릴	-12.2733
▁메디	-12.2735
윈	-12.2736
▁어긋나	-12.2736
▁언뜻	-12.2736
ain	-12.2738
▁현존	-12.2738
▁la	-12.2739
▁애착	-12.274
▁앜ᄏᄏᄏᄏᄏᄏ	-12.2741
▁결재	-12.2742
83	-12.2744
▁Me	-12.2745
야마	-12.2746
▁카리스마	-12.2746
▁경희대	-12.2747
▁수퍼	-12.2749
▁후딱	-12.2752
▁love	-12.2754
▁단연	-12.2755
▁솥	-12.2755
▁로스	-12.2757
▁효도	-12.276
▁억지	-12.2761
▁부드러워	-12.2763
▁휩쓸	-12.2763
▁여길	-12.2764
▁철판	-12.2764
▁미녀	-12.2771
▁필사	-12.2774
▁빨대	-12.2775
95	-12.2775
▁무상급식	-12.2777
▁줄줄	-12.2777
▁화력	-12.2782
▁창원시	-12.2785
▁갈리	-12.2786
▁붕어빵	-12.2787
▁윤곽	-12.2787
▁水	-12.2792
다니까	-12.2794
▁당선자	-12.2794
▁南	-12.2795
▁오져	-12.2795
▁잠겨	-12.2796
▁투성이	-12.2797
▁왁	-12.2799
▁인디언	-12.2799
▁저택	-12.2803
▁회의실	-12.2804
▁선교사	-12.2804
▁분위	-12.2805
▁보낸다	-12.2806
▁아마추어	-12.2808
▁망원경	-12.2809
▁that	-12.2809
▁코어	-12.281
▁도우미	-12.2811
▁쿠바	-12.2814
▁도라	-12.2816
▁전승	-12.2817
▁University	-12.2818
럽	-12.282
▁끊임없	-12.2822
▁자수	-12.2822
▁잠수	-12.2825
ish	-12.2826
DA	-12.2828
▁😱	-12.2828
▁흐흑	-12.2828
거든	-12.283
▁성대	-12.2833
뜩	-12.2836
▁계통	-12.2837
▁조류	-12.2838
▁라지	-12.2839
▁일괄	-12.284
▁소용없	-12.284
▁일회용	-12.2842
▁우파	-12.2846
▁로망	-12.2847
▁항암	-12.2851
▁비관	-12.2851
▁인척	-12.2852
▁름	-12.2853
▁소인	-12.2853
???	-12.2858
▁냅	-12.2859
▁깨어나	-12.2859
▁훠궈	-12.2859
▁쇠고기	-12.2859
▁단짠	-12.2859
▁농축	-12.2861
▁고운	-12.2862
▁논평	-12.2862
▁지금껏	-12.2862
▁텀	-12.2864
▁대피	-12.2864
▁금강	-12.2864
▁배그	-12.2864
▁어려워서	-12.2864
▁독스	-12.2867
▁방구	-12.2869
▁neko	-12.287
59	-12.2875
▁남음	-12.2877
▁순조	-12.2879
▁本	-12.288
▁관절염	-12.2881
▁수평	-12.2881
▁詩	-12.2888
▁유무	-12.289
▁암흑	-12.2891
▁벌어질	-12.2891
▁친했	-12.2891
▁혼내	-12.2896
▁접할	-12.2896
▁min	-12.2898
▁증명서	-12.2899
▁컨테이너	-12.2901
▁중얼거렸	-12.2901
▁총각	-12.2901
▁마카오	-12.2902
▁구워서	-12.2902
▁스메	-12.2902
▁드론	-12.2903
TS	-12.2904
▁뜯어	-12.2904
화기	-12.2906
▁온다는	-12.2906
▁결실	-12.2907
▁신재	-12.2907
▁두어	-12.2908
▁이색	-12.2909
▁나경원	-12.2911
▁부결	-12.2912
▁뻘	-12.2912
▁주상	-12.2914
▁들릴	-12.2919
▁민국	-12.2921
▁포지션	-12.2922
▁다룰	-12.2925
47	-12.2925
▁루비	-12.2928
▁낄	-12.2932
▁yummy	-12.2932
▁안마	-12.2933
▁파전	-12.2934
▁젓	-12.2935
▁원치	-12.2936
▁였었	-12.2937
▁몸통	-12.2938
▁망해	-12.2938
괴	-12.2941
어맞	-12.2942
▁행렬	-12.2944
▁특색	-12.2945
▁병신	-12.2945
▁농약	-12.2945
▁학창	-12.2948
▁무얼	-12.2948
▁야죠	-12.2948
▁-_-	-12.2948
▁끝냈	-12.2951
▁는커녕	-12.2953
▁됫	-12.2954
▁클리	-12.2954
▁상용	-12.2954
▁신분증	-12.2955
63	-12.2956
▁안건	-12.2957
▁반값	-12.2958
택하	-12.2958
▁에릭	-12.2958
닫	-12.2959
▁안타까워	-12.2959
▁계파	-12.2964
▁한답니다	-12.2964
▁나이키	-12.2965
▁파랑	-12.2966
▁질려	-12.2966
▁Se	-12.2968
▁올라와서	-12.2972
▁그려진	-12.2972
믄	-12.2973
▁長	-12.2974
▁켠	-12.2976
▁포위	-12.2978
▁장자	-12.2978
▁승려	-12.2982
▁할리우드	-12.2984
SA	-12.2986
▁쪘	-12.2988
▁○○	-12.2988
▁바구니	-12.2988
▁시그	-12.299
넘	-12.299
▁듦	-12.2992
▁동산	-12.2992
▁는지요	-12.2994
▁서브웨이	-12.2995
▁종강	-12.2995
▁따스	-12.2996
▁권총	-12.2997
▁오디오	-12.2998
▁무단	-12.2998
▁세븐	-12.2998
▁고양시	-12.3
젓	-12.3001
▁신림	-12.3001
▁가축	-12.3003
▁잃어버렸	-12.3005
▁할로윈	-12.3005
▁쪽지	-12.3005
▁코스트코	-12.3005
▁GDP	-12.3005
ust	-12.3005
▁담화	-12.3008
▁시합	-12.3008
▁텍스	-12.3009
▁보건소	-12.301
000	-12.3012
▁건져	-12.3013
▁총액	-12.3013
▁ᄊ	-12.3014
▁풍속	-12.3018
▁무식	-12.302
▁지탱	-12.302
land	-12.3021
▁뜻대로	-12.3022
山	-12.3023
道	-12.3023
▁장로	-12.3023
▁봣어	-12.3023
놀이	-12.3024
▁폼페이	-12.3026
대교	-12.3028
▁짜릿	-12.3029
▁오빤	-12.3029
▁장애물	-12.3031
▁좋아한다	-12.3033
ub	-12.3033
▁냐구요	-12.3033
▁려고요	-12.3034
미암	-12.3035
▁승계	-12.3036
▁돌이켜	-12.3037
▁꿀잼	-12.3037
▁박계	-12.3037
▁프랑	-12.3038
▁전교	-12.3038
▁양재	-12.304
▁家	-12.304
▁사업가	-12.304
▁실래요	-12.3041
▁김형	-12.3042
▁어야죠	-12.3042
▁요동	-12.3043
▁함대	-12.3043
멜	-12.3044
▁관리비	-12.3047
▁과하	-12.3047
▁스무디	-12.305
▁리라는	-12.3051
hy	-12.3053
센터	-12.3056
▁투썸	-12.3058
▁○.	-12.3058
▁해지	-12.3059
▁매실	-12.306
▁구한	-12.306
▁기네	-12.3062
▁토막	-12.3063
▁화목	-12.3064
▁서랍	-12.3064
벤	-12.3065
프트	-12.3066
▁스며들	-12.3069
▁쒸	-12.307
▁LH	-12.3072
ite	-12.3074
▁피아	-12.3074
▁멋져	-12.3076
▁마스	-12.3077
▁공판	-12.3078
▁쓰러졌	-12.3079
▁cat	-12.3079
▁레이팅	-12.3079
▁적힌	-12.308
▁간절히	-12.3082
▁내심	-12.3084
▁소릴	-12.3086
▁선제	-12.3088
▁백종원	-12.309
▁튜버	-12.309
▁연안	-12.3091
▁350	-12.3091
▁수표	-12.3092
라스	-12.3096
▁풀렸으면	-12.31
▁반말	-12.3101
▁대수	-12.3102
보내	-12.3103
▁사직	-12.3103
앤	-12.3104
▁會	-12.3107
▁준다면	-12.3108
▁이슬	-12.3109
bs	-12.311
▁포르투갈	-12.3111
▁금고	-12.3112
컬	-12.3116
▁안면	-12.3119
▁연초	-12.3121
▁치료비	-12.3125
▁닷컴	-12.3129
▁자리매김	-12.3132
▁넘어선	-12.3132
▁퉁	-12.3133
에스	-12.3135
▁법학	-12.3136
▁이스트	-12.3137
stagram	-12.314
▁술잔	-12.3142
가스	-12.3143
▁넘어섰	-12.3143
▁성도	-12.3143
@	-12.3143
▁스타트업	-12.3143
▁버거킹	-12.3143
▁🎶	-12.3143
▁손발	-12.3143
▁담요	-12.3148
▁후보자	-12.3149
▁걸치	-12.3149
▁귀하	-12.3149
▁의외로	-12.315
▁친분	-12.3152
▁브레	-12.3152
▁주세요	-12.3153
▁비둘기	-12.3153
▁좆같	-12.3153
▁모음	-12.3156
▁연일	-12.3157
▁귀여워서	-12.3158
▁조선인	-12.3158
▁동물원	-12.316
▁사다리	-12.3161
▁참전	-12.3161
▁상회	-12.3163
▁문정	-12.3164
▁저소득층	-12.3164
▁귀여	-12.3167
ide	-12.3167
▁끝없이	-12.3169
02	-12.317
79	-12.3171
▁강진	-12.3171
▁물기	-12.3172
▁오션	-12.3172
▁깨물	-12.3174
▁눙	-12.3177
go	-12.3179
▁마틴	-12.318
▁김경수	-12.3181
▁心	-12.3183
▁복학	-12.3184
▁롯데마트	-12.3185
▁전장	-12.3185
ence	-12.3188
▁추산	-12.3189
▁젊음	-12.3189
▁강국	-12.3191
▁가마	-12.3192
업자	-12.3192
▁종사자	-12.3192
▁괘	-12.3196
▁파고들	-12.3197
▁공명	-12.3197
▁기업가	-12.3197
▁나용	-12.3198
▁승자	-12.3199
▁빨강	-12.32
▁사만	-12.3202
▁대가리	-12.3203
▁인센티브	-12.3207
▁중심지	-12.3209
▁묜	-12.3209
▁흉기	-12.321
▁양손	-12.321
64	-12.3213
빗	-12.3213
dy	-12.3217
▁이온	-12.3217
▁리서치	-12.3217
▁스미스	-12.3217
▁【	-12.3217
▁공범	-12.3218
▁끓인	-12.3219
▁프로이트	-12.322
▁례	-12.322
ue	-12.322
▁협동	-12.3223
▁돌려받	-12.3223
▁니라	-12.3223
▁평점	-12.3225
🏼	-12.3228
▁눈가	-12.3228
▁봉쇄	-12.3228
ni	-12.3229
▁Tr	-12.3229
▁힌트	-12.3229
▁〰	-12.323
▁"......	-12.3231
▁360	-12.3231
▁시일	-12.3236
▁대용량	-12.324
ik	-12.324
▁성가	-12.324
▁오라	-12.324
ock	-12.3241
▁太	-12.3241
▁비장	-12.3246
▁발동	-12.3246
▁유서	-12.3247
곰	-12.3247
▁실세	-12.3248
텔	-12.325
▁중기	-12.325
▁법제	-12.3251
▁속상한	-12.3252
▁상반	-12.3252
▁킬로	-12.3253
▁연소	-12.3258
▁합격자	-12.3258
▁AD	-12.3259
▁요로	-12.3261
▁단말기	-12.3262
▁라인업	-12.3264
▁골반	-12.3267
▁치고	-12.3269
▁트라우마	-12.3271
▁파프리카	-12.3271
................	-12.3272
▁라이스	-12.3273
▁흑백	-12.3274
▁뎃	-12.3276
▁cu	-12.3279
▁한국은행	-12.3279
▁협동조합	-12.3282
▁활기	-12.3282
▁슬로건	-12.3282
▁~~~~~~	-12.3282
▁도요타	-12.3282
▁발톱	-12.3283
▁Al	-12.3283
▁전대	-12.3284
▁기념품	-12.3284
▁전념	-12.3285
▁반점	-12.3288
▁유부	-12.3289
▁정글	-12.3291
▁평안	-12.3291
▁유수	-12.3292
▁살릴	-12.3292
▁덴마크	-12.3293
▁연구실	-12.3295
▁그려져	-12.3296
▁댄다	-12.3296
▁중력	-12.3296
▁시당	-12.33
▁젼	-12.3301
▁빌린	-12.3301
밑	-12.3301
▁四	-12.3302
▁모토	-12.3307
▁💙	-12.3307
▁정형	-12.3309
▁수여	-12.3309
▁박성	-12.3311
▁암기	-12.3311
▁넘긴	-12.3313
▁대감	-12.3313
▁눈높이	-12.3314
▁서포터	-12.3314
▁퍽	-12.3314
▁】	-12.3315
▁피시방	-12.3315
▁자루	-12.3318
▁친화	-12.3319
가지	-12.3319
▁의대	-12.3319
▁여행자	-12.332
▁잣대	-12.332
▁뀨	-12.3321
▁社	-12.3322
▁소상	-12.3323
▁나온다는	-12.3323
▁방사	-12.3324
▁경복궁	-12.3325
▁흐뭇	-12.3325
▁앞세워	-12.3325
▁꿀잠	-12.3326
▁부임	-12.3327
마니	-12.3328
▁퇴임	-12.3328
▁나타낸다	-12.3329
▁교통부	-12.3329
▁뜨거워	-12.3332
▁간다면	-12.3333
▁머지	-12.3335
▁트라	-12.3335
▁외형	-12.3336
▁원동력	-12.3336
▁빽	-12.3336
트리	-12.3337
▁자책	-12.3338
▁이루어져야	-12.3339
▁아마존	-12.3341
▁저분	-12.3345
▁연두	-12.3346
▁스킨케어	-12.3347
▁긱	-12.3347
▁바를	-12.335
▁연신	-12.335
▁내용물	-12.335
▁떨려	-12.3353
▁박힌	-12.3354
▁식스	-12.3356
文	-12.3356
▁숯	-12.3358
▁노폐물	-12.3358
▁임차인	-12.3359
▁무신	-12.3363
zz	-12.3363
▁라임	-12.3363
▁西	-12.3366
▁전차	-12.3367
▁대위	-12.3367
▁금품	-12.3368
AN	-12.3368
▁제때	-12.3369
▁스팀	-12.337
▁비염	-12.337
▁디젤	-12.3371
▁불판	-12.3372
버린	-12.3372
▁오케	-12.3372
▁각성	-12.3378
▁올려다	-12.3378
▁깍두기	-12.338
▁쏠쏠	-12.338
▁생명력	-12.3383
▁쓰였	-12.3385
▁경전	-12.3385
▁미러	-12.3387
▁중위	-12.339
▁갑시다	-12.3392
▁번영	-12.3392
깨	-12.3395
▁스러워서	-12.3397
▁평온	-12.3397
▁책장	-12.34
▁puppy	-12.3401
力	-12.3401
▁광어	-12.3402
▁차차	-12.3403
▁퇴진	-12.3403
▁나열	-12.3405
▁세끼	-12.3406
▁약품	-12.3406
▁연필	-12.3407
▁아름	-12.3408
깔	-12.3412
▁장시간	-12.3412
▁찜질방	-12.3413
▁스티브	-12.3414
▁김연아	-12.3414
▁론가	-12.3414
▁떠오른	-12.3415
▁꾸리	-12.3419
▁일리	-12.342
▁볼링	-12.3421
▁김주	-12.3421
min	-12.3423
а	-12.3423
▁페스	-12.3424
▁한가득	-12.3424
▁픽업	-12.3424
▁정계	-12.3431
▁부흥	-12.3436
▁공교육	-12.3436
▁故	-12.344
▁만끽	-12.3441
▁멀미	-12.3442
▁배드민턴	-12.3445
▁화랑	-12.3446
▁모니터링	-12.3446
▁실증	-12.3447
▁중개	-12.345
▁기껏	-12.3451
▁아메	-12.3453
av	-12.3453
▁중형	-12.3458
▁칼칼	-12.3458
▁사범	-12.3459
▁민법	-12.346
▁생수	-12.3461
▁시행령	-12.3461
엄두	-12.3462
▁분화	-12.3462
▁신다는	-12.3465
▁월간	-12.3466
▁씨유	-12.3467
▁돼지갈비	-12.3467
▁텃밭	-12.3467
▁칙칙	-12.3467
▁꼰대	-12.3468
춤	-12.3469
up	-12.347
▁ᅲᅳᅲ	-12.3473
▁성산	-12.3474
▁탈색	-12.3476
밖	-12.3476
『	-12.3477
▁초콜렛	-12.3478
▁1978	-12.3479
▁크루	-12.3479
▁수상자	-12.3479
▁줄래	-12.3479
▁본다는	-12.348
▁씨름	-12.3481
▁펠	-12.3485
▁놨다	-12.3487
▁출발점	-12.3487
▁건성	-12.3488
▁여간	-12.3488
▁뿅	-12.3489
▁켈	-12.349
▁도끼	-12.349
▁더러워	-12.3491
▁끈다	-12.3492
▁단기간	-12.3493
▁감량	-12.3493
▁뭉쳐	-12.3496
▁MC	-12.3497
▁척도	-12.3498
▁마요네즈	-12.35
앴	-12.35
▁고마움	-12.3501
▁넉	-12.3501
갑니다	-12.3502
▁긴밀	-12.3503
는지	-12.3505
▁섬기	-12.3505
no	-12.3506
▁타율	-12.3508
▁합니다만	-12.3508
▁그쳐	-12.3509
댄	-12.351
▁모스크바	-12.3511
▁미생물	-12.3512
▁틸	-12.3512
▁순례	-12.3512
▁일찌감치	-12.3515
▁김병	-12.3515
▁달아나	-12.3516
▁워낙에	-12.3519
즙	-12.3519
곡동	-12.352
▁$	-12.352
▁인지도	-12.3521
▁가디건	-12.3522
▁별미	-12.3523
▁보여줘	-12.3523
▁혼돈	-12.3524
▁대역	-12.3526
▁아이콘	-12.3528
▁스티	-12.3529
tra	-12.3533
▁걸어갔	-12.3533
▁뚝배기	-12.3533
▁대주주	-12.3535
▁한다거나	-12.3535
▁타코	-12.3535
▁십쇼	-12.3536
▁여운	-12.3536
▁리본	-12.3537
ook	-12.354
▁바라볼	-12.354
▁상시	-12.3541
▁dailylook	-12.3544
▁해두	-12.3545
▁1945	-12.3545
▁우뚝	-12.3545
▁숨진	-12.3547
학자	-12.3547
42	-12.3548
진다는	-12.3549
▁발탁	-12.355
nn	-12.3551
▁마니아	-12.3555
▁테이	-12.3555
▁스페이스	-12.3555
▁티라미수	-12.3555
▁호불호	-12.3555
▁완결	-12.3558
▁얼만데	-12.3558
▁폴리스	-12.3558
▁텔레	-12.3562
쓰다듬	-12.3563
▁당나라	-12.3564
▁재화	-12.3566
석기	-12.3571
▁껏	-12.3572
▁요고	-12.3572
▁맡겼	-12.3572
▁공로	-12.3573
▁드만	-12.3574
▁수제비	-12.3574
▁자손	-12.3575
▁화산	-12.3578
▁훈훈	-12.3579
▁지름	-12.3579
▁클렌	-12.3579
▁팔려	-12.3579
가리	-12.358
▁악당	-12.358
▁킷	-12.358
▁사회생활	-12.3581
▁만료	-12.3583
▁주둔	-12.3583
▁체조	-12.3584
▁물러서	-12.3584
▁챙겨서	-12.3587
▁손학규	-12.3589
▁비아	-12.359
▁어딘데	-12.3592
sch	-12.3593
▁릴리	-12.3594
▁양지	-12.3594
▁체면	-12.3595
▁합계	-12.3596
▁자백	-12.36
▁CCTV	-12.36
▁대교	-12.36
▁ᄐᄏᄏ	-12.36
ten	-12.36
▁토양	-12.3601
▁보궐	-12.3601
▁계몽	-12.3603
▁육박	-12.3604
▁창업자	-12.3606
▁국채	-12.3606
▁방북	-12.3609
▁렀	-12.3609
밀히	-12.361
똥	-12.361
▁반품	-12.3611
▁매뉴얼	-12.3611
▁instagram	-12.3612
▁표적	-12.3614
▁망각	-12.3615
▁만능	-12.3618
사람	-12.362
▁콜드	-12.3622
▁꼭꼭	-12.3622
▁체지방	-12.3623
▁외신	-12.3623
▁외계인	-12.3624
▁노을	-12.3628
▁수중	-12.3629
▁커져	-12.3629
▁견고	-12.363
▁나치	-12.363
▁기엽	-12.3631
▁정석	-12.3632
▁빌려서	-12.3632
62	-12.3633
▁감칠맛	-12.3633
▁나폴레옹	-12.3633
▁머그	-12.3634
▁밝혀진	-12.3634
▁했어도	-12.3634
▁교통비	-12.3638
▁라우	-12.3638
▁삼국	-12.364
▁대리인	-12.364
▁세척	-12.364
다든지	-12.3641
▁박탈	-12.3643
▁작사	-12.3645
▁토토	-12.3647
▁갖가지	-12.3648
▁태어날	-12.3656
▁일러스트	-12.3656
bi	-12.366
▁오산	-12.3661
▁변론	-12.3662
▁들판	-12.3663
▁화법	-12.3667
▁맨투맨	-12.3667
▁끼니	-12.3667
▁선보인	-12.367
▁한인	-12.3672
▁위헌	-12.3675
켜	-12.3675
▁김대	-12.3676
▁접근성	-12.3678
▁줄께	-12.368
▁농성	-12.3681
▁발산	-12.3684
또	-12.3684
▁끌려가	-12.3685
▁자석	-12.3688
▁받쳐	-12.3695
▁1975	-12.3697
▁점장	-12.3699
▁무화과	-12.3701
▁방사능	-12.3701
▁시크릿	-12.3701
▁양호	-12.3701
73	-12.3701
▁셔틀	-12.3702
▁수녀	-12.3703
▁앜	-12.3703
▁키위	-12.3704
지만	-12.3704
▁숩	-12.3706
▁돌아간	-12.3707
▁패스트	-12.3709
▁정유	-12.371
▁깜놀	-12.3712
▁KTX	-12.3712
▁직선	-12.3713
▁적립금	-12.3714
▁지부	-12.3715
▁할매	-12.3716
▁못한다는	-12.3718
▁이러면	-12.3718
▁급진	-12.3719
▁줄줄이	-12.3719
모토	-12.3719
▁담담	-12.372
▁문경	-12.372
▁출근길	-12.3721
▁체코	-12.3722
▁밧	-12.3725
▁상임위	-12.3725
▁구형	-12.3725
▁벽화	-12.3726
▁흩어져	-12.3728
▁불로	-12.3729
▁경리	-12.373
▁공황	-12.373
산동	-12.3732
▁쳐도	-12.3732
▁첸	-12.3733
▁환호	-12.3733
▁반격	-12.3734
▁늬	-12.3734
▁여름휴가	-12.3735
▁울엄마	-12.3735
▁내시경	-12.3735
▁세라	-12.3737
▁강정	-12.374
▁걸어야	-12.3741
▁천문학	-12.3744
▁아크	-12.3745
▁복부	-12.3745
▁의구심	-12.3746
▁장차	-12.3752
▁딧	-12.3752
▁예견	-12.3754
아나	-12.3754
▁하단	-12.3756
▁타점	-12.3757
▁John	-12.3757
▁정선	-12.3758
ga	-12.3759
▁아랫	-12.376
▁나들이	-12.3762
▁공용	-12.3763
▁・	-12.3765
▁상이	-12.3766
▁놓쳤	-12.3768
▁짱나	-12.3768
▁돼도	-12.3768
▁단련	-12.3768
▁과태료	-12.3769
▁좋아했	-12.3769
▁박지성	-12.3769
▁선수단	-12.3769
▁於	-12.3771
▁보여집니다	-12.3772
▁숙명	-12.3772
▁나감	-12.3774
▁습기	-12.3774
▁분홍	-12.3774
▁相	-12.3775
▁흐리	-12.3776
▁써니	-12.3778
▁북방	-12.3779
▁산부인과	-12.378
▁세젤예	-12.378
▁속마음	-12.378
▁오프닝	-12.378
▁😎	-12.378
▁좇	-12.378
▁조별	-12.378
▁써야지	-12.3781
▁소라	-12.3781
▁對	-12.3781
▁곰팡이	-12.3782
▁~~!!	-12.3783
▁노니	-12.3783
▁감찰	-12.3783
▁포천	-12.3784
▁본데	-12.3786
▁신난다	-12.3786
▁항산	-12.3787
▁야구장	-12.3787
▁각광	-12.3794
▁🙆	-12.3795
▁눈뜨	-12.3799
▁재우	-12.3799
▁창설	-12.38
mon	-12.38
▁생각난다	-12.3801
▁천둥	-12.3801
▁나이다	-12.3802
▁CGV	-12.3803
▁모모	-12.3803
▁LTE	-12.3803
▁카지노	-12.3803
▁다가와	-12.3805
▁으셔	-12.3806
▁직책	-12.3807
끈	-12.3807
자나	-12.3809
▁재선	-12.3811
▁안희정	-12.3814
▁걸림돌	-12.3814
▁포근	-12.3817
얻어먹	-12.3817
▁신작	-12.3818
▁☆	-12.382
bl	-12.3822
▁강인	-12.3823
▁Mar	-12.3823
▁법규	-12.3824
▁뾰족	-12.3825
▁흑임자	-12.3825
▁재래	-12.3825
▁퀘	-12.3826
▁예고편	-12.3826
▁네트	-12.3829
▁쫓겨	-12.3829
봐야	-12.383
▁머릿결	-12.3837
▁1973	-12.3837
스코	-12.3838
▁루프	-12.3838
▁순삭	-12.3839
▁살빼	-12.3839
▁정품	-12.3839
▁환급	-12.384
▁홍성	-12.3841
▁1200	-12.3841
▁무명	-12.3843
les	-12.3843
▁소이	-12.3846
▁입소문	-12.3848
tic	-12.3848
▁아아아아	-12.3849
▁사학	-12.3849
▁五	-12.385
▁올림	-12.3855
▁얕	-12.386
▁맏	-12.386
▁거룩	-12.3861
▁이럼	-12.3862
gu	-12.3863
냄	-12.3864
▁상체	-12.3865
돌아서	-12.3868
▁녕	-12.3869
▁blog	-12.3871
▁빅뱅	-12.3871
▁굴리	-12.3872
▁노원	-12.3873
▁녹여	-12.3875
▁미숙	-12.3875
알아주	-12.3876
▁우측	-12.3876
PA	-12.3878
▁존슨	-12.3878
▁베테랑	-12.3882
▁뒤덮	-12.3883
▁김희	-12.3883
▁걸림	-12.3883
▁갖췄	-12.3886
▁통학	-12.3888
▁명란	-12.3889
▁主	-12.3892
▁새기	-12.3892
▁동이	-12.3893
▁티브이	-12.3894
▁아퍼	-12.3894
▁거니와	-12.3895
▁바쁠	-12.3895
▁재계	-12.3895
▁변혁	-12.3896
▁장병	-12.3896
▁음향	-12.3896
▁골목길	-12.3897
▁돌봐	-12.3897
▁미약	-12.3898
▁Ex	-12.3899
▁경이	-12.3901
▁속담	-12.3903
▁mg	-12.3905
▁치맥	-12.3906
者	-12.3907
▁쫓기	-12.3907
▁대리점	-12.3909
▁식기	-12.391
▁으래	-12.3911
▁엌	-12.3912
▁성범죄	-12.3917
▁다운로드	-12.3917
▁To	-12.3917
▁부르주아	-12.3917
▁받아들	-12.3918
▁Ar	-12.3921
▁허나	-12.3921
▁큼직	-12.3929
▁힌	-12.393
▁...?	-12.3931
▁접한	-12.3932
▁송파	-12.3934
▁성적표	-12.3936
▁존속	-12.3938
▁안드로이드	-12.394
▁불독	-12.394
▁신한은행	-12.394
▁쓴다고	-12.3941
▁왕후	-12.3942
▁양고기	-12.3942
▁창의력	-12.3943
▁계신가	-12.3946
▁김학	-12.3948
▁카츠	-12.3948
▁비위	-12.3949
▁빠뜨	-12.3949
▁!!!!!!!!!	-12.395
▁오래오래	-12.3951
▁긴데	-12.3951
▁발부	-12.3956
머무르	-12.3956
▁박종	-12.3956
▁뻔한	-12.3956
▁상응	-12.3961
▁세종시	-12.3962
▁입장료	-12.3962
르트	-12.3963
▁기울였	-12.3964
▁여력	-12.3967
▁反	-12.3968
ー	-12.3975
100	-12.3975
▁잠수함	-12.3975
▁벤츠	-12.3976
▁흩어	-12.398
▁성원	-12.3981
▁교부	-12.3981
▁훈장	-12.3981
▁불매	-12.3985
사리	-12.3985
▁내세운	-12.3986
▁심야	-12.3986
▁배꼽	-12.3987
ost	-12.399
▁방대	-12.3992
▁총알	-12.3993
▁검열	-12.3994
▁프렌즈	-12.3998
▁시멘트	-12.3998
▁멈췄	-12.3998
▁🙏🏻	-12.3998
▁치료제	-12.3998
▁하소연	-12.3999
으니까	-12.3999
기업	-12.4001
▁초고	-12.4002
ho	-12.4002
줌	-12.4003
▁임마	-12.4003
▁스치	-12.4004
▁하노이	-12.4012
ord	-12.4013
▁장학	-12.4013
▁und	-12.4016
ud	-12.4021
▁만난다	-12.4021
▁모을	-12.4022
그래	-12.4022
▁흉터	-12.4022
▁피워	-12.4025
▁무너진	-12.4025
▁퍼스트	-12.4026
▁좋아해서	-12.4028
▁해장	-12.4028
▁바야	-12.4031
▁머글	-12.4032
▁서울특별시	-12.4033
▁사은품	-12.4033
▁외워	-12.4033
▁내분	-12.4036
ᄏᄏᄏᄏᄏᄏᄏᄏᄏᄏ	-12.4036
▁방출	-12.4038
어져	-12.404
▁귀차	-12.4041
▁콰	-12.4042
▁수질	-12.4044
▁라운지	-12.4044
▁밉	-12.4045
▁낙담	-12.4046
▁時	-12.4047
sion	-12.4047
▁外	-12.405
low	-12.405
▁내방	-12.4051
▁수료	-12.4052
▁세세	-12.4053
▁이뤘	-12.4055
▁비빔	-12.4056
é	-12.4056
▁음주운전	-12.4056
▁습격	-12.4056
▁한다구	-12.4058
▁특급	-12.4058
▁이뤄질	-12.4059
▁이태리	-12.4063
▁넘버	-12.4063
재현	-12.4064
▁최영	-12.4065
▁히로	-12.4066
▁니체	-12.4066
▁ᄎ	-12.4067
▁드레싱	-12.4068
▁재킷	-12.4069
뵙	-12.407
씹히	-12.4071
▁늪	-12.4072
▁채운	-12.4072
▁한옥	-12.4073
▁어떤가	-12.4073
▁코노	-12.4074
▁조문	-12.4075
▁단결	-12.4075
▁행적	-12.4075
▁쫑	-12.4076
▁근사	-12.4078
▁암것도	-12.4079
중간	-12.4079
▁강호	-12.408
시장	-12.408
▁호위	-12.408
▁명작	-12.408
▁달인	-12.408
▁글귀	-12.4081
▁태세	-12.4082
▁거쳐서	-12.4082
▁曰	-12.4082
룬	-12.409
▁멜로디	-12.4091
▁뜨끈	-12.4092
心	-12.4093
▁환산	-12.4093
▁살펴본	-12.4098
▁관직	-12.4101
▁앎	-12.4103
▁매트리스	-12.4103
▁內	-12.4104
▁딛	-12.4105
▁기특	-12.4105
▁시벌	-12.4106
회의	-12.4107
▁훈제	-12.4108
다구	-12.4108
▁깨워	-12.4109
▁`,	-12.411
▁쿼터	-12.4115
▁만화책	-12.4116
▁견지	-12.4118
▁동반자	-12.4119
▁오너	-12.4119
▁기색	-12.412
▁현타	-12.4122
ᄒᄒ	-12.4122
▁~!!!	-12.4123
슬펐	-12.4123
▁해경	-12.4124
▁캐시	-12.4124
어냈	-12.4124
▁궤	-12.4125
▁에디션	-12.4126
▁실크	-12.4128
▁넘길	-12.4128
▁담가	-12.4128
▁잠잠	-12.4129
▁핸들	-12.4129
▁피츠	-12.4129
ber	-12.4129
▁계셔	-12.4134
▁ed	-12.414
▁팔뚝	-12.414
▁엑스포	-12.4141
▁습니	-12.4142
▁방한	-12.4144
▁보인다고	-12.4146
iz	-12.4146
▁직종	-12.4147
▁수현	-12.4148
▁관상	-12.4148
▁어벤져스	-12.415
난다	-12.415
▁신디	-12.4151
▁욕조	-12.4156
▁미투	-12.4157
▁웜	-12.4162
▁두르	-12.4162
▁속해	-12.4166
▁미친다	-12.4166
▁짜잔	-12.4166
▁튀기	-12.4169
리안	-12.4171
AC	-12.4172
▁언닌	-12.4174
▁켰	-12.4176
▁베라	-12.4176
▁이견	-12.4178
RE	-12.4179
▁올드	-12.4183
생활	-12.4183
▁취해서	-12.4183
ny	-12.4184
▁그라운드	-12.4185
▁다면은	-12.4187
▁중얼거	-12.4187
▁365	-12.4187
▁하얀색	-12.4187
룸	-12.419
져다주	-12.419
▁발랐	-12.4191
▁전학	-12.4192
▁종자	-12.4193
▁白	-12.4193
▁트루	-12.4193
▁독립운동	-12.4194
52	-12.4195
▁형평	-12.4196
▁마십시오	-12.4197
▁걸루	-12.4198
▁레슨	-12.4201
bu	-12.4202
▁질질	-12.4204
▁나인	-12.4204
▁둑	-12.4205
▁속한다	-12.4207
▁완치	-12.4208
▁극우	-12.4208
▁안녕히	-12.4208
▁봅	-12.4208
▁selca	-12.4209
▁소정	-12.421
▁넬	-12.421
▁퇴출	-12.421
▁成	-12.421
▁⭐	-12.4212
▁태산	-12.4216
▁지나갈	-12.4217
▁제인	-12.4217
▁동동	-12.4219
▁식민	-12.4219
▁짭짤	-12.4221
▁반감	-12.4222
겟	-12.4223
▁예쁨	-12.4224
air	-12.4228
▁자재	-12.4228
▁엎드려	-12.4231
▁배고픈	-12.4231
▁지롱	-12.4232
▁리버	-12.4232
▁루터	-12.4232
▁어저께	-12.4232
▁낙엽	-12.4233
▁사와	-12.4234
cy	-12.4235
▁성품	-12.4235
ound	-12.4239
▁사온	-12.424
▁뭔가요	-12.424
▁자연히	-12.424
▁..........	-12.4242
▁가닥	-12.4242
▁왕십리	-12.4244
▁카라멜	-12.4244
▁朴	-12.4245
▁툴	-12.4249
▁국고	-12.4253
들려주	-12.4255
▁콤플렉스	-12.4256
▁섭외	-12.4257
▁원소	-12.4257
▁손수	-12.4259
IS	-12.426
nt	-12.4261
▁토해	-12.4262
▁보냄	-12.4264
▁경직	-12.4265
▁무례	-12.4267
▁정가	-12.4268
▁부치	-12.4268
▁초창기	-12.4268
▁😌	-12.4269
▁건조기	-12.4271
▁당당히	-12.4276
따르	-12.4278
▁생식	-12.4279
▁치즈케이크	-12.428
▁껄껄	-12.428
▁유희	-12.4281
▁105	-12.4281
▁딕	-12.4281
▁색소	-12.4283
▁속속	-12.4285
▁물리치	-12.4286
▁전망대	-12.4286
겨져	-12.4287
▁다가올	-12.4289
▁▼	-12.4289
▁천황	-12.429
▁조연	-12.429
▁레깅스	-12.4292
▁옆구리	-12.4292
▁라이벌	-12.4293
▁쪄서	-12.4294
▁수사관	-12.4294
▁파이프	-12.4295
▁거덩	-12.4295
▁모찌	-12.4296
▁출세	-12.4298
▁어우러져	-12.4299
▁씨방	-12.4303
▁아연	-12.4303
▁instadog	-12.4304
▁단무지	-12.4304
▁>.<	-12.4304
▁dietfood	-12.4304
▁주식회사	-12.4304
▁더라는	-12.4305
▁씽	-12.4306
▁룡	-12.4306
뚫	-12.4307
ᄃ	-12.4309
▁시킨다는	-12.4312
첼	-12.4316
▁커피숍	-12.4316
▁?????	-12.4319
▁할께	-12.4321
▁몰르	-12.4324
▁던디	-12.4327
▁유화	-12.4327
▁양평	-12.4328
▁들어갑니다	-12.4328
▁움켜	-12.4328
▁Pro	-12.4328
▁재편	-12.4329
▁부츠	-12.4329
▁날아오	-12.433
▁갈증	-12.4333
▁야마	-12.4334
▁지망	-12.4337
▁번거	-12.4338
▁제비	-12.4339
▁기왕	-12.434
tion	-12.4341
▁누님	-12.4342
텍	-12.4344
▁홍합	-12.4344
▁징후	-12.4346
▁덧붙여	-12.4348
▁쌌	-12.4348
▁무안	-12.4351
▁정인	-12.4352
▁바이올린	-12.4352
♂	-12.4352
▁변할	-12.4354
▁농림	-12.4357
▁잉글랜드	-12.4358
▁배급	-12.4362
700	-12.4363
▁dessert	-12.4364
▁앞날	-12.4366
밋	-12.4368
▁당과	-12.4368
▁태아	-12.437
거지	-12.437
▁기념관	-12.4371
▁제정신	-12.4373
▁부산대	-12.4373
▁갈망	-12.4374
▁다른데	-12.4374
▁세밀	-12.4375
▁쓰인	-12.4376
▁호로록	-12.4376
▁Com	-12.4377
▁손꼽	-12.4377
▁관철	-12.4378
▁조현	-12.4378
비아	-12.4381
▁절친	-12.4381
app	-12.4382
▁ᅧ	-12.4386
▁함양	-12.4387
е	-12.4388
▁후계자	-12.4388
▁리포터	-12.4388
▁드러낸	-12.439
덜	-12.439
gi	-12.4397
▁택지	-12.4398
▁블라	-12.4399
이면	-12.4399
▁랄까요	-12.4401
▁후다닥	-12.4401
SS	-12.4402
▁파탄	-12.4403
▁임박	-12.4404
▁갈려	-12.4405
▁무모	-12.4409
▁꽝	-12.441
▁사죄	-12.4411
▁아미	-12.4411
▁그래프	-12.4411
▁옷차림	-12.4412
▁시리얼	-12.4412
▁비린내	-12.4412
▁싱어	-12.4413
▁관통	-12.4415
▁둥근	-12.4415
▁황사	-12.4416
▁법인세	-12.4419
▁불렸	-12.4422
▁형법	-12.4422
▁모유	-12.4422
▁럭	-12.4422
▁희한	-12.4423
▁터트	-12.4424
▁시즈	-12.4424
▁베베	-12.4424
▁등장인물	-12.4424
▁줭	-12.4425
려앉	-12.4425
▁당겨	-12.4425
▁불쑥	-12.4426
▁알려준	-12.4426
▁약관	-12.4427
▁모지	-12.4428
▁직결	-12.4429
▁골치	-12.443
▁표결	-12.4432
▁배열	-12.4432
▁실까	-12.4435
▁끌어올리	-12.4436
▁갯벌	-12.4437
▁소바	-12.444
▁살균	-12.4441
▁엌ᄏᄏᄏᄏᄏ	-12.4441
▁잔액	-12.4442
▁당사	-12.4446
▁비안	-12.4447
▁sp	-12.4447
▁푸들	-12.4448
▁잖습니까	-12.4448
▁속보	-12.4449
▁도치	-12.4455
▁부담감	-12.4457
▁그럴까요	-12.4458
▁공강	-12.4458
▁돌아간다	-12.4459
▁수원시	-12.446
▁할당	-12.446
▁시조	-12.446
▁이튿날	-12.446
▁뒤통수	-12.446
▁플라톤	-12.4461
▁흥원	-12.4461
▁스윗	-12.4461
▁에스케이	-12.4461
▁둥글	-12.4462
▁복싱	-12.4462
▁물씬	-12.4462
▁바비	-12.4466
▁왕창	-12.4466
▁꺼리	-12.4467
▁자택	-12.4469
▁동성애	-12.4469
▁안무	-12.447
▁복판	-12.447
맣	-12.4471
▁👏🏻	-12.4473
▁젓갈	-12.4473
▁납작	-12.4473
▁붙일	-12.4474
큼	-12.4474
▁무의식	-12.4475
▁점심때	-12.4476
▁힘차	-12.4477
▁발병	-12.4479
▁헌데	-12.448
▁귀가	-12.4482
레인	-12.4483
▁호흡기	-12.4484
▁까다로운	-12.4485
▁블랙홀	-12.4485
▁올라간다	-12.4487
▁산악	-12.4487
▁경연	-12.4489
▁둔화	-12.449
▁콜라보	-12.4491
▁천상	-12.4494
ther	-12.4495
▁셨었	-12.4495
▁리코	-12.4496
▁쏙쏙	-12.4497
▁아녜요	-12.4497
뚤	-12.4497
▁스파이더맨	-12.4497
▁부쩍	-12.4502
이크	-12.4504
▁채울	-12.4505
칩니다	-12.4508
▁텍사스	-12.4509
▁방패	-12.451
▁선선	-12.4512
▁주축	-12.4512
▁통지	-12.4512
▁웨이트	-12.4513
▁영재	-12.4515
▁댕기	-12.4518
SE	-12.4519
▁재건	-12.4519
▁국기	-12.452
▁울림	-12.4522
▁웨이브	-12.4522
▁상습	-12.4523
▁안다고	-12.4524
▁소량	-12.4529
▁급변	-12.453
▁사부	-12.453
red	-12.453
▁아까워서	-12.453
▁거래량	-12.4531
엠	-12.4531
▁가두	-12.4533
▁반짝반짝	-12.4534
▁컬렉션	-12.4534
▁터뜨렸	-12.4534
▁공표	-12.4536
▁심경	-12.4538
▁삼가	-12.4539
▁교제	-12.454
▁어떨지	-12.4543
▁노비	-12.4544
▁넛	-12.4545
▁전례	-12.4545
▁1974	-12.4547
▁총기	-12.455
▁러스	-12.4551
▁정보원	-12.4553
󰡔	-12.4558
▁존엄	-12.4558
▁채권자	-12.4558
▁맞물려	-12.456
▁슈팅	-12.456
♥	-12.4562
▁Sch	-12.4564
▁으냐	-12.4564
▁다이아	-12.4564
▁유리창	-12.4565
▁가진다	-12.4566
▁틀려	-12.4568
끄	-12.4568
답니다	-12.4568
▁애플리케이션	-12.457
▁환절기	-12.457
報	-12.457
▁전성기	-12.4571
▁떨쳐	-12.4573
▁동무	-12.4573
su	-12.4573
▁시속	-12.4573
▁그물	-12.4575
▁반기	-12.4577
▁감행	-12.4581
우리	-12.4581
▁흐트러	-12.4583
▁을껄	-12.4585
▁딸아이	-12.4585
▁ᄏᄃ	-12.4591
▁당첨자	-12.4592
▁요지	-12.4594
▁🍴	-12.4595
▁탱탱	-12.4595
▁우익	-12.4595
▁잔혹	-12.4597
▁한다니	-12.4598
▁지겹	-12.4599
▁등교	-12.4599
▁미달	-12.46
are	-12.46
▁케미	-12.4602
▁구장	-12.4603
▁타파	-12.4603
▁봄날	-12.4604
▁추종	-12.4604
▁보좌	-12.4605
▁헝가리	-12.4607
▁래도	-12.4609
▁외박	-12.4609
▁po	-12.4611
▁본회의	-12.4611
▁불문	-12.4611
▁강철	-12.4612
pl	-12.4613
▁그래서인지	-12.4614
▁한상	-12.4616
▁잠든	-12.4617
▁회생	-12.4617
▁슈가	-12.4618
▁리조	-12.462
인데	-12.462
▁😉	-12.462
▁는구만	-12.4621
▁택했	-12.4622
▁왠만	-12.4625
▁막혔	-12.4627
▁관용	-12.4628
▁할려	-12.463
▁原	-12.4631
▁항생제	-12.4632
▁문화유산	-12.4632
▁청국장	-12.4633
▁산재	-12.4633
▁귀환	-12.4634
▁브레드	-12.4634
▁담날	-12.4634
!!!!!!!!!!!!!!!!	-12.4634
▁분실	-12.4635
▁코딩	-12.4635
▁일탈	-12.4637
▁꺼려	-12.4637
生	-12.4637
▁보행	-12.4642
납니다	-12.4643
카드	-12.4644
▁뮬	-12.4644
▁심문	-12.4645
▁二	-12.4647
▁못난	-12.465
▁지음	-12.4653
▁근간	-12.4656
▁방통	-12.4656
컫	-12.4657
▁다시마	-12.4659
▁편향	-12.4661
▁바랐	-12.4668
▁골짜기	-12.4669
▁꽁꽁	-12.4669
▁광채	-12.4674
ple	-12.4674
▁엿보	-12.4679
사랑	-12.4681
▁시간대	-12.4682
▁악용	-12.4682
▁수거	-12.4684
▁박자	-12.4691
▁낚	-12.4691
▁외할머니	-12.4694
▁생산자	-12.4695
▁데드	-12.4695
▁위함	-12.4696
▁계획서	-12.4696
ET	-12.4696
▁됴	-12.47
▁순종	-12.47
▁직위	-12.4705
▁선관위	-12.4706
포트	-12.4709
▁중성	-12.471
ec	-12.471
앉	-12.4711
▁행장	-12.4712
▁예보	-12.4713
▁독려	-12.4713
▁부사	-12.4714
▁미나리	-12.4714
▁物	-12.4715
▁시리	-12.4718
▁오른다	-12.4718
▁캐주얼	-12.4719
▁떳	-12.4719
▁의거	-12.4719
▁나아갈	-12.4719
▁깜박	-12.4719
▁not	-12.4721
▁뿌린	-12.4721
▁저승	-12.4724
pr	-12.4724
▁오더	-12.4725
▁연체	-12.4725
▁쳐야	-12.4727
▁政	-12.4728
▁부름	-12.4729
▁교구	-12.4729
ᅲᅲᅲ	-12.473
▁BMW	-12.4731
▁나뭇가지	-12.4731
▁농어촌	-12.4731
▁악순환	-12.4731
▁1976	-12.4732
▁가부장	-12.4733
▁우도	-12.4733
▁규율	-12.4733
▁중임	-12.4734
▁폭락	-12.4736
▁학비	-12.474
구석	-12.474
▁타로	-12.4741
▁이터	-12.4743
▁한바탕	-12.4744
▁반바지	-12.4745
▁변태	-12.4746
▁찾아다니	-12.4747
▁For	-12.4747
▁라마	-12.4747
▁흐려	-12.4748
▁내림	-12.4748
yo	-12.4748
▁한전	-12.4749
▁동남	-12.475
▁충실히	-12.4751
▁제작사	-12.4753
▁영성	-12.4755
▁LCD	-12.4756
▁성희롱	-12.4756
▁콘셉트	-12.4756
▁펼칠	-12.4756
▁쿨링	-12.4757
▁겨자	-12.476
터뜨리	-12.4761
▁엣	-12.4764
▁입건	-12.4764
▁왕성	-12.4768
ECD	-12.4768
▁맞대	-12.4768
▁퍽퍽	-12.4769
▁중간고사	-12.4769
▁.!!	-12.4769
ju	-12.4769
끄럽	-12.4769
▁함박	-12.4771
▁급속히	-12.4772
▁이해찬	-12.4773
▁변환	-12.4774
▁MB	-12.4774
▁보호법	-12.4774
▁봉기	-12.4775
▁We	-12.4775
▁사셨	-12.4776
▁베스	-12.4777
▁集	-12.4779
▁칙	-12.478
▁파르	-12.4781
▁댕겨	-12.4781
▁우량	-12.4781
▁여하튼	-12.4781
▁쓰러진	-12.4782
▁복습	-12.4784
AR	-12.4785
▁기다린	-12.4787
▁르네상스	-12.4794
▁까르보	-12.4794
▁살펴봤	-12.4794
▁공안	-12.4794
진짜	-12.4795
확	-12.4795
▁스탠드	-12.4795
▁성수기	-12.4799
▁루머	-12.48
▁준비물	-12.48
▁주원	-12.4801
▁회차	-12.4802
▁고칠	-12.4802
▁했으면	-12.4803
▁義	-12.4805
▁명나라	-12.4806
▁승차	-12.4806
▁수성	-12.481
▁혜화	-12.4815
▁모아야	-12.4815
▁영지	-12.4816
오프	-12.4817
▁미움	-12.4818
▁네모	-12.4818
▁주지	-12.4819
▁스케일	-12.4819
▁이쁨	-12.4819
▁웰빙	-12.4819
▁따를	-12.482
▁플랜트	-12.4821
▁양양	-12.4821
▁산모	-12.4823
▁계셔서	-12.4823
▁국감	-12.4824
▁찬반	-12.4825
▁버드	-12.4825
▁이룬다	-12.4827
?!	-12.4828
▁품위	-12.4828
▁기밀	-12.483
▁보살	-12.483
▁펙	-12.4831
▁제작비	-12.4831
▁아테네	-12.4832
rit	-12.4832
문화	-12.4834
톨	-12.4838
▁도울	-12.4839
▁🙋	-12.4839
▁경쟁사	-12.484
▁더우	-12.484
▁초음파	-12.4844
▁후라이드	-12.4844
▁백두산	-12.4844
▁코앞	-12.4844
▁반문	-12.4844
▁다든지	-12.4845
▁!!!!!!!!	-12.4846
▁터득	-12.4847
▁기다	-12.4848
▁임대차	-12.4849
▁비에스	-12.485
▁계약직	-12.4852
시스	-12.4852
▁남양주	-12.4854
▁농지	-12.4854
▁리브	-12.4855
▁행사장	-12.4856
業	-12.4857
▁육개장	-12.4857
▁멈출	-12.4857
▁듀얼	-12.4857
▁역대급	-12.4858
▁장이	-12.4859
▁보라	-12.486
▁연산	-12.4861
▁세액	-12.4863
▁소아	-12.4864
▁궁중	-12.4865
▁리틀	-12.4866
▁Br	-12.4867
▁일쑤	-12.4868
▁아삭	-12.4868
▁아르헨티나	-12.4869
▁페인트	-12.4869
▁ᄋᄆᄋ	-12.4869
동욱	-12.4871
▁으휴	-12.4871
▁古	-12.4872
▁근절	-12.4874
▁존예	-12.4876
ger	-12.488
▁꼬박꼬박	-12.4882
▁시흥	-12.4885
덤	-12.4885
▁사악	-12.4888
▁생사	-12.4888
▁성남시	-12.4889
▁pa	-12.4893
▁부응	-12.4894
▁중국집	-12.4894
▁벨기에	-12.4895
ON	-12.4895
▁1977	-12.4896
▁헤쳐	-12.4897
▁후우	-12.49
▁준거	-12.4906
▁꽃다발	-12.4907
▁트레이너	-12.4908
▁역점	-12.4908
▁런닝	-12.4908
▁바쳐	-12.4909
시오	-12.4911
▁홍차	-12.4911
▁떠올려	-12.4912
콩	-12.4912
▁엽서	-12.4913
br	-12.4913
▁줄여야	-12.4914
▁平	-12.4915
▁박영	-12.4915
렴	-12.4916
▁타일	-12.4917
▁찍혀	-12.4917
▁부피	-12.492
▁훑	-12.492
▁포켓몬	-12.492
▁조끼	-12.492
▁코레	-12.4921
▁형벌	-12.4922
▁증서	-12.4923
▁낙태	-12.4924
▁여진	-12.4926
▁외고	-12.4927
▁웨어	-12.4928
▁조커	-12.4929
▁변모	-12.493
▁구인	-12.4932
▁객관적으로	-12.4933
▁칼라	-12.4933
다듬	-12.4933
▁유라	-12.4934
대요	-12.4937
▁과격	-12.4939
日	-12.494
▁''	-12.4941
▁청각	-12.4941
▁是	-12.4941
act	-12.4943
려받	-12.4944
▁괜	-12.4944
▁군자	-12.4945
▁상소	-12.4945
▁불참	-12.4945
트리트	-12.4946
왔다갔다	-12.4946
▁레인	-12.4946
▁ma	-12.4946
▁스톱	-12.4947
▁1968	-12.4947
king	-12.4947
▁스토	-12.4947
▁망원동	-12.4947
▁국외	-12.4949
ii	-12.4949
▁메탈	-12.4949
▁기점	-12.4954
▁et	-12.4954
▁슈즈	-12.4956
▁강점기	-12.4958
с	-12.4958
▁배고픔	-12.4958
▁펑펑	-12.4958
ous	-12.4959
▁✌	-12.4961
▁헤어질	-12.4961
자연스레	-12.4962
▁뭇	-12.4965
▁청담	-12.4966
▁표창	-12.497
▁u	-12.4971
▁권익	-12.4971
▁낱말	-12.4971
▁뗄	-12.4972
▁생겨났	-12.4972
ms	-12.4973
▁계명	-12.4973
▁선상	-12.4974
▁치부	-12.4975
벅	-12.4975
▁둥지	-12.4976
▁진솔	-12.4976
▁후문	-12.4977
:	-12.4979
▁돌린	-12.498
▁SM	-12.4981
▁외교관	-12.4981
▁엄니	-12.4983
▁프린터	-12.4984
▁유심히	-12.4986
쟁	-12.4987
▁떤	-12.4988
에이	-12.4988
▁수축	-12.4989
천동	-12.4989
▁이뤄지지	-12.4989
▁주된	-12.499
ase	-12.4991
▁드릴까요	-12.4993
▁승마	-12.4993
ve	-12.4993
ei	-12.4994
▁스테	-12.4994
▁내륙	-12.4995
▁멍하니	-12.4997
▁넥타이	-12.4997
▁현수막	-12.4997
▁싸늘	-12.4998
▁이산화	-12.4998
▁쟁여	-12.4999
▁한다니까	-12.4999
▁로울	-12.4999
▁강수	-12.5
▁황소	-12.5002
▁공손	-12.5006
▁허기	-12.5009
̈	-12.501
▁스태프	-12.501
▁권역	-12.501
▁깔깔	-12.501
▁무림	-12.5015
▁엄중	-12.5016
▁사랑니	-12.5018
▁평정	-12.5019
og	-12.502
▁선점	-12.5021
▁외삼촌	-12.5022
▁살라	-12.5024
▁정갈	-12.5024
rt	-12.5025
▁각별	-12.5026
▁변함	-12.5026
▁여객	-12.503
▁팔렸	-12.503
▁망상	-12.5031
▁"'	-12.5031
▁삼키	-12.5031
▁패권	-12.5032
▁침공	-12.5032
▁맡길	-12.5036
▁ᄌᄉ	-12.5036
---	-12.5036
▁연기자	-12.5036
ich	-12.5037
▁레고	-12.5038
PP	-12.5038
▁거액	-12.5038
▁채웠	-12.5038
▁터짐	-12.5039
▁소다	-12.5039
▁경산	-12.504
▁시사회	-12.504
▁고뇌	-12.5041
▁착오	-12.5043
▁자작	-12.5043
▁des	-12.5044
▁찬란	-12.5044
▁냉장	-12.5047
▁후반부	-12.5047
▁全	-12.5047
▁주춤	-12.5047
▁예루살렘	-12.5048
▁몸부림	-12.5048
▁붙여서	-12.5048
▁헛소리	-12.5049
▁계십니까	-12.5049
▁교묘	-12.5049
루스	-12.505
▁매니아	-12.505
▁중고차	-12.5051
▁줄였	-12.506
▁소크라테스	-12.5061
▁구해야	-12.5061
▁쾌감	-12.5062
▁즤	-12.5064
▁조그마	-12.5064
▁별장	-12.5064
▁포차	-12.5067
▁목장	-12.5067
ail	-12.5068
▁소생	-12.5068
▁택한	-12.507
▁조망	-12.507
wa	-12.5071
▁투구	-12.5072
▁본토	-12.5072
▁말랐	-12.5074
▁보드게임	-12.5074
▁쏟아졌	-12.5074
▁원산지	-12.5074
▁까맣	-12.5075
▁상거래	-12.5076
픔	-12.5076
▁능가	-12.5078
▁극찬	-12.5078
▁淸	-12.5079
▁非	-12.5081
▁데모	-12.5081
▁외침	-12.5082
▁리처드	-12.5087
▁쫄깃쫄깃	-12.5087
▁화석	-12.5087
케이	-12.5087
끌	-12.5089
▁비어	-12.5089
ight	-12.5089
▁파급	-12.5089
▁짭	-12.5091
▁'-	-12.5094
▁개수	-12.5096
▁독해	-12.5097
노스	-12.5099
▁맞벌이	-12.51
▁미라	-12.5101
▁황홀	-12.5101
▁으다	-12.5101
▁전임	-12.5102
▁어조	-12.5103
▁임종	-12.5103
▁IC	-12.5108
륙	-12.511
촉	-12.5111
▁뎈ᄏᄏᄏ	-12.5112
▁도라지	-12.5112
▁김남	-12.5113
▁콘크리트	-12.5113
▁거쳐야	-12.5115
▁심혈	-12.5116
본다	-12.5117
MI	-12.5119
▁쁠	-12.5119
▁이따금	-12.512
▁회사원	-12.5121
▁일명	-12.5122
겨야	-12.5122
▁담장	-12.5122
▁사색	-12.5124
▁태극	-12.5124
▁괴로우	-12.5126
▁트리플	-12.5126
▁아바타	-12.5127
▁몀	-12.5127
▁해줌	-12.5128
▁포부	-12.5128
느리	-12.5129
탱	-12.5129
▁산학	-12.5129
▁줄서	-12.5131
댕	-12.5134
▁곸ᄏᄏᄏ	-12.5136
▁노스	-12.5136
▁정할	-12.5136
▁경청	-12.5137
sta	-12.5139
▁밑바닥	-12.5139
▁떠올렸	-12.5141
▁오크	-12.5141
▁들깨	-12.5143
▁아늑	-12.5144
▁케이티	-12.5144
▁동태	-12.5145
▁어울린다	-12.5145
올라	-12.5146
▁타결	-12.5151
▁핀란드	-12.5152
▁하이라이트	-12.5152
▁정연	-12.5153
▁관대	-12.5154
▁찍힌	-12.516
▁VR	-12.5163
▁성직자	-12.5165
▁탐욕	-12.5165
▁與	-12.5166
▁봣는데	-12.5166
▁독소	-12.5169
▁악취	-12.5169
▁학식	-12.5169
▁퇴근길	-12.5175
▁항일	-12.5175
▁모녀	-12.5176
▁태평	-12.5177
▁나뭇잎	-12.5178
▁💖	-12.5179
ring	-12.5179
▁정진	-12.518
▁헤어져	-12.5181
▁코난	-12.5182
▁🧡	-12.5182
▁사려	-12.5184
▁속내	-12.5184
▁동학	-12.5186
▁감독원	-12.5189
▁망신	-12.519
▁1972	-12.5191
56	-12.5192
▁무진	-12.5192
써	-12.5194
tor	-12.5194
▁차명	-12.5197
▁다닌다	-12.5197
▁배불러서	-12.5198
▁서산	-12.5198
▁뜬다	-12.5202
스턴	-12.5202
ps	-12.5204
▁생각난	-12.5205
▁성벽	-12.5205
▁왜냐하면은	-12.5206
▁놓칠	-12.5208
▁마중	-12.5209
▁氣	-12.5212
▁잉크	-12.5213
▁휠	-12.5215
▁불사	-12.5217
▁하천	-12.5217
▁😀	-12.5217
▁ᄐᄏᄏᄏ	-12.5218
▁이완	-12.5219
▁아함	-12.522
▁반쪽	-12.5222
▁방화	-12.5223
▁사교	-12.5225
▁치료법	-12.5227
▁강력히	-12.5228
▁궁궐	-12.523
ᅳ	-12.523
고기	-12.5231
▁환갑	-12.5232
▁일전	-12.5233
▁고심	-12.5234
▁평면	-12.5234
old	-12.5234
▁에이드	-12.5237
▁추후	-12.5237
▁김천	-12.5239
▁대표단	-12.524
▁음악회	-12.5241
▁일부분	-12.5242
▁기량	-12.5243
▁💦	-12.5244
▁혹독	-12.5244
ft	-12.5245
▁공무	-12.5247
▁요트	-12.5247
ath	-12.5247
▁흘린	-12.5247
▁방문객	-12.5248
훔치	-12.5248
▁동질	-12.5249
▁처먹	-12.525
▁버디	-12.5252
▁끝장	-12.5253
▁입가	-12.5253
▁비평가	-12.5254
갓	-12.5256
▁meow	-12.5257
▁쇠퇴	-12.5257
▁하체	-12.5259
▁들려서	-12.5259
▁배워서	-12.5264
▁커진	-12.5264
▁아여	-12.5266
▁흥국	-12.5266
家	-12.5266
▁칸트	-12.5266
▁후면	-12.5266
▁복근	-12.5267
▁고선	-12.5269
▁기프티콘	-12.5269
▁브로콜리	-12.5269
▁반가워	-12.527
▁퍼부	-12.5271
▁으리	-12.5274
gen	-12.5275
▁배기	-12.5275
▁누락	-12.5276
▁산맥	-12.5279
▁漢	-12.5279
▁만한	-12.528
ou	-12.5281
▁빨리빨리	-12.5283
▁납입	-12.5283
▁청렴	-12.5283
CC	-12.5284
▁통찰	-12.5284
▁했어야	-12.5284
▁옌	-12.5285
▁서식	-12.5285
넨	-12.5287
▁전문의	-12.5288
▁쳐다	-12.5288
cr	-12.529
▁래퍼	-12.529
▁식전	-12.5291
▁약탈	-12.5292
▁라미	-12.5294
▁차돌박이	-12.5296
#@	-12.5296
▁김창	-12.5299
▁맞춰야	-12.5299
▁주범	-12.5301
▁이양	-12.5301
▁서울역	-12.5302
▁간략	-12.5303
chi	-12.5303
턱	-12.5304
ᄑ	-12.5305
▁매스	-12.5307
덩	-12.5309
▁풀린	-12.531
▁혼났	-12.5311
▁달라져	-12.5311
▁비쌀	-12.5313
▁중원	-12.5314
▁강북	-12.5316
▁are	-12.5319
權	-12.5319
▁반년	-12.5319
▁뒹굴	-12.5322
▁뮤지션	-12.5322
▁체인점	-12.5323
▁원한다면	-12.5324
버그	-12.5325
▁치른	-12.5327
▁서인	-12.533
▁하찮	-12.533
▁도랏	-12.5331
뚱	-12.5331
’	-12.5332
▁얌전	-12.5334
▁띄우	-12.5335
▁아슬아슬	-12.5336
▁휠체어	-12.5336
▁미리미리	-12.5336
▁장바구니	-12.5337
▁더라구여	-12.534
▁늘릴	-12.5343
▁동북	-12.5344
▁파헤	-12.5345
▁띤	-12.5345
▁센트	-12.5345
RO	-12.5346
티스	-12.5346
du	-12.5347
▁아인슈타인	-12.5349
▁좌익	-12.5351
▁자처	-12.5353
res	-12.5354
able	-12.5354
▁이당	-12.5355
셔야	-12.5356
어질	-12.5356
▁유배	-12.5357
▁可	-12.5361
▁레이디	-12.5361
▁한결같이	-12.5362
▁어짜피	-12.5362
▁블라우스	-12.5362
▁114	-12.5363
▁DJ	-12.5364
▁스테이	-12.5364
▁마포구	-12.5365
▁각하	-12.5365
▁안부	-12.5366
▁킬러	-12.5367
▁발색	-12.5371
▁감금	-12.5371
광수	-12.5372
데스	-12.5373
리나	-12.5374
▁III	-12.5376
건설	-12.5376
▁돌봄	-12.5377
▁第	-12.5378
▁소방관	-12.5378
▁메카	-12.5381
▁살래	-12.5382
▁라나	-12.5382
▁CC	-12.5385
스티	-12.5385
▁op	-12.5386
▁깝	-12.5387
▁元	-12.5388
▁해봄	-12.5389
▁eatclean	-12.5389
▁새콤달콤	-12.5389
▁주파수	-12.5389
▁때메	-12.5389
▁쭈욱	-12.5389
▁출혈	-12.5389
▁익힌	-12.539
▁길드	-12.5391
▁언스	-12.5393
ran	-12.5393
▁우기	-12.5398
▁김명	-12.5398
▁카피	-12.5399
▁맬	-12.5399
▁수줍	-12.54
▁위드	-12.54
▁자의	-12.5401
▁아리스토텔레스	-12.5402
▁업로드	-12.5402
▁초상화	-12.5403
▁토종	-12.5403
▁따라잡	-12.5403
▁di	-12.5406
▁못한다면	-12.5407
▁부동	-12.5409
▁man	-12.541
▁볼트	-12.5413
▁시식	-12.5414
▁비준	-12.5415
▁딜레마	-12.5415
▁보라카이	-12.5415
▁😳	-12.5415
ix	-12.5416
▁걱	-12.5417
▁내려야	-12.5419
던지	-12.5419
▁ᆞ중	-12.542
▁쓰레기통	-12.542
▁장안	-12.5421
▁시시	-12.5424
켰	-12.5424
▁계집	-12.5425
▁공수	-12.5425
▁역세	-12.5427
▁책방	-12.5428
▁펼쳐진다	-12.5428
▁금기	-12.5428
▁식습관	-12.5429
▁아메리칸	-12.5429
▁스마일	-12.5429
▁항소심	-12.543
▁기다림	-12.543
▁좁혀	-12.543
▁경악	-12.5435
▁완주	-12.5435
▁.^^	-12.5436
▁일본식	-12.5436
▁번식	-12.5437
▁의례	-12.5438
▁깨뜨	-12.5439
▁전시관	-12.544
▁급락	-12.544
랭이	-12.544
▁쇼파	-12.544
▁팔꿈치	-12.5442
▁사계절	-12.5442
▁산화	-12.5444
▁송정	-12.5444
▁관문	-12.5448
▁올게요	-12.545
▁분말	-12.5452
픈	-12.5453
▁여행객	-12.5455
▁술안주	-12.5456
▁울컥	-12.5456
▁공채	-12.5457
▁전투기	-12.5457
▁미수	-12.5458
▁매화	-12.5458
▁한중	-12.546
▁❗	-12.546
▁전할	-12.5461
mb	-12.5462
▁가출	-12.5468
▁싹싹	-12.5469
▁내정	-12.5469
▁꼼수	-12.5471
▁쉐프	-12.5472
▁구애	-12.5472
▁세분	-12.5473
▁필수품	-12.5473
▁호평	-12.5473
▁쳇	-12.5475
▁나올지	-12.5475
▁광역시	-12.5476
▁사돈	-12.5478
▁허술	-12.5479
▁공소	-12.5479
▁단면	-12.548
▁아서요	-12.5482
▁괴로운	-12.5483
바라	-12.5483
▁민영화	-12.5484
▁긍데	-12.5484
▁쁘	-12.5484
▁HD	-12.5484
▁블랑	-12.5489
▁쌔	-12.5489
▁으리라고	-12.5489
▁장단	-12.5492
▁전향	-12.5492
▁앨	-12.5492
▁궁리	-12.5493
▁모씨	-12.5493
▁친일	-12.5495
▁아련	-12.5495
▁병아리	-12.5496
연대	-12.5496
▁일어남	-12.5497
▁드라이버	-12.5497
▁쿼트	-12.5497
▁깨진	-12.5498
빨	-12.5498
▁닥쳐	-12.5498
▁시상	-12.5499
▁매워	-12.55
▁소동	-12.5504
▁날까	-12.5507
구나	-12.5507
▁이래저래	-12.5509
▁취향저격	-12.5509
▁내세웠	-12.5509
▁캡틴	-12.551
▁123	-12.5511
▁물어	-12.5512
▁다네요	-12.5513
▁仁	-12.5514
ans	-12.5514
▁집요	-12.5515
▁약세	-12.5516
the	-12.5517
理	-12.5521
봅니다	-12.5521
레이션	-12.5521
해야겠다	-12.5522
▁장모	-12.5522
▁다길래	-12.5522
▁갑작스런	-12.5523
▁까다롭	-12.5523
▁피크닉	-12.5523
▁實	-12.5523
▁한라산	-12.5524
▁감초	-12.5524
▁1948	-12.5524
▁치중	-12.5525
▁엘베	-12.5525
▁태조	-12.5526
▁아시	-12.5527
und	-12.5527
▁미시	-12.5528
행위	-12.5529
둘렀	-12.5529
oll	-12.5531
體	-12.5534
ᅣ	-12.5534
▁인심	-12.5535
▁원더	-12.5535
▁되돌려	-12.5535
▁남길	-12.5535
▁대의	-12.5536
ial	-12.5536
▁귀리	-12.5538
▁다죠	-12.5538
▁꽃잎	-12.5538
▁홈즈	-12.5539
▁기일	-12.5539
SI	-12.554
오리	-12.554
▁김영철	-12.5541
가웠	-12.5542
▁그랴	-12.5542
▁논증	-12.5542
▁한진	-12.5543
▁하청	-12.5545
ort	-12.5545
▁부렸	-12.5548
▁참신	-12.5548
▁짓밟	-12.555
▁네이처	-12.555
▁다국적	-12.555
▁ne	-12.5551
▁꼈	-12.5553
토스	-12.5554
▁시아	-12.5555
▁올지	-12.5557
DI	-12.5558
▁짤라	-12.5558
▁聖	-12.5559
▁토마스	-12.5563
▁빼로	-12.5564
▁향긋	-12.5565
▁아아아아아	-12.5567
브라	-12.5567
▁노자	-12.5568
▁청나라	-12.5568
ture	-12.5569
▁시크	-12.5571
▁보약	-12.5573
▁---------	-12.5573
▁君	-12.5573
▁평판	-12.5574
▁테두리	-12.5577
▁neco	-12.5577
▁장모님	-12.5577
▁손수건	-12.5577
▁한적	-12.5578
▁롸	-12.5578
▁페이퍼	-12.5578
▁공법	-12.5579
▁앨리스	-12.5579
▁ᄋᄂ	-12.558
▁찾아봐	-12.5581
닭	-12.5582
▁으셔도	-12.5582
▁칼날	-12.5583
▁초원	-12.5584
▁도주	-12.5584
넷	-12.5585
▁비통	-12.559
▁노르웨이	-12.5591
▁이토록	-12.5591
▁각본	-12.5591
▁の	-12.5591
▁이디야	-12.5592
▁개맛	-12.5592
▁돠	-12.5593
q	-12.5595
▁과감히	-12.5596
▁배틀	-12.5598
▁영동	-12.56
▁잉여	-12.56
▁금년	-12.5601
▁도톰	-12.5602
▁국지	-12.5603
▁도보	-12.5603
▁새우튀김	-12.5604
▁느닷없이	-12.5605
▁전과	-12.5607
▁길가	-12.5607
▁질의	-12.561
▁교육비	-12.561
▁께선	-12.5611
▁효용	-12.5611
▁포도주	-12.5612
▁품종	-12.5613
▁빼내	-12.5613
▁아찔	-12.5613
▁특보	-12.5616
▁스리	-12.5617
▁전쟁터	-12.5618
▁전동	-12.562
▁균열	-12.562
▁펌프	-12.562
ere	-12.562
▁워치	-12.5622
겠	-12.5623
▁즉흥	-12.5623
▁세율	-12.5627
▁무어	-12.5629
▁데워	-12.5631
н	-12.5631
▁건넸	-12.5631
▁해병대	-12.5632
▁그리스도인	-12.5633
▁답사	-12.5633
▁당위	-12.5633
▁영조	-12.5634
▁기름기	-12.5636
▁소울	-12.5636
ES	-12.5638
▁동점	-12.5638
▁두통	-12.5642
▁김광	-12.5642
▁善	-12.5643
▁실검	-12.5643
▁순차	-12.5644
▁제니	-12.5644
EA	-12.5645
▁진급	-12.5645
▁몽땅	-12.5645
▁스프레이	-12.5645
▁공차	-12.5648
▁대군	-12.565
▁쓸모없	-12.5651
▁불의	-12.5651
▁어려운데	-12.5651
400	-12.5654
▁내린다	-12.5654
▁성전	-12.5655
▁240	-12.5655
▁분별	-12.5657
▁불화	-12.5657
흑	-12.5658
▁장대	-12.5659
▁신생	-12.566
▁친밀	-12.5663
▁힣	-12.5664
▁통풍	-12.5666
▁찮	-12.5667
▁캔디	-12.567
다구요	-12.5671
▁사라진다	-12.5671
▁고위급	-12.5673
▁편집자	-12.5674
로운	-12.5675
▁요시	-12.5676
▁돌이	-12.5676
life	-12.5676
▁프레스	-12.5676
▁피력	-12.5677
▁보류	-12.568
▁김우	-12.5682
▁버그	-12.5683
▁칼리	-12.5685
▁트로트	-12.5686
벌레	-12.5687
▁디지	-12.5687
▁good	-12.5687
▁뎀	-12.5689
▁한정판	-12.569
OM	-12.5692
ler	-12.5694
▁신났	-12.5694
▁어학	-12.5696
승점	-12.5697
▁산단	-12.5698
▁김연	-12.5698
▁컨벤션	-12.57
▁짰	-12.5702
▁남학생	-12.5702
▁차렸	-12.5702
▁남대	-12.5703
도록	-12.5703
▁이뻐서	-12.5703
개발	-12.5704
▁we	-12.5705
▁대창	-12.5705
▁단언	-12.5706
▁수레	-12.5706
▁물자	-12.5706
▁성장세	-12.5707
▁석류	-12.5708
▁방역	-12.5708
▁치켜	-12.5709
▁도련	-12.571
▁예뿌	-12.5712
▁일조	-12.5713
▁海	-12.5713
▁VIP	-12.5713
▁떡갈비	-12.5714
▁스폰서	-12.5714
▁전자레인지	-12.5714
▁세워야	-12.5715
▁꽈	-12.5717
▁디비	-12.5717
▁곡식	-12.5718
▁미르	-12.5718
▁굴복	-12.572
▁돌연	-12.572
we	-12.5722
드러지	-12.5724
▁생겨난	-12.5725
▁katze	-12.5727
▁해바라기	-12.5728
▁가르쳤	-12.5728
▁꺅	-12.5731
▁불어	-12.5732
▁퓨전	-12.5732
▁잘랐	-12.5735
SP	-12.5736
▁성수	-12.5738
갱	-12.5738
▁올린다	-12.5738
▁헤르	-12.5741
▁빨갱이	-12.5741
▁이산가족	-12.5741
▁쫀쫀	-12.5741
▁큽니다	-12.5741
▁낄낄	-12.5741
▁들어옴	-12.5741
▁툭툭	-12.5741
▁괴로움	-12.5741
▁일어섰	-12.5741
▁짱구	-12.5742
▁무비	-12.5743
▁서늘	-12.5743
▁타이거	-12.5744
▁한남동	-12.5744
▁문학상	-12.5747
sp	-12.5748
▁간디	-12.5748
▁실비	-12.5749
▁동래	-12.575
▁장아찌	-12.5754
▁*_*	-12.5755
▁메커니즘	-12.5755
▁아웃도어	-12.5755
▁가리킨다	-12.5755
▁껐	-12.5755
▁손짓	-12.5755
▁국화	-12.5757
▁부적	-12.5757
▁~!!	-12.5759
▁편도	-12.5764
▁오르내	-12.5764
▁개량	-12.5765
▁예시	-12.5765
定	-12.5768
▁연달	-12.5769
▁메트로	-12.5769
▁춰	-12.5769
▁레닌	-12.577
▁홉	-12.577
▁기만	-12.577
▁펼쳐진	-12.5771
▁이드	-12.5771
▁앞장	-12.5772
▁뒤처	-12.5772
▁요즈음	-12.5772
▁거둘	-12.5773
▁드니	-12.5774
▁스노	-12.5777
▁늦추	-12.5778
▁양수	-12.5778
▁軍	-12.5779
▁주교	-12.5779
▁delicious	-12.5783
▁가실	-12.5783
▁끈적	-12.5783
▁악재	-12.5784
▁촉발	-12.5784
off	-12.5784
▁ICT	-12.5785
▁블러	-12.5788
IT	-12.5789
▁간행	-12.579
제품	-12.5792
▁퍼졌	-12.5793
▁파울	-12.5795
▁바닷물	-12.5797
▁컴퍼니	-12.5797
▁깰	-12.5798
을지도	-12.5798
▁멸종	-12.5798
▁매몰	-12.5799
▁意	-12.5799
▁일구	-12.58
▁남측	-12.58
▁플레인	-12.58
나물	-12.5803
싼	-12.5803
▁집사람	-12.5809
ise	-12.581
▁주니어	-12.5811
▁쓸데없이	-12.5811
송이	-12.5813
▁리포트	-12.5813
▁-!	-12.5813
▁통사	-12.5814
▁끝낸	-12.5818
▁문제집	-12.5819
▁력사	-12.582
▁켓	-12.5823
웃	-12.5824
▁시뮬레이션	-12.5824
▁노른자	-12.5824
▁어버이날	-12.5825
▁수요자	-12.5827
▁상했	-12.5832
▁ᄒᄋ	-12.5832
▁건디	-12.5833
▁up	-12.5834
▁강동	-12.5835
▁종신	-12.5837
▁그저께	-12.584
▁섹	-12.584
▁블링	-12.5841
▁經	-12.5841
ire	-12.5844
▁터져서	-12.5845
▁중딩	-12.5845
▁디오	-12.585
▁글서	-12.5851
▁건축가	-12.5852
▁후진	-12.5852
▁보글보글	-12.5852
▁센텀	-12.5852
▁튀긴	-12.5853
▁무적	-12.5853
▁서빙	-12.5854
ST	-12.5854
▁저널	-12.5857
▁상어	-12.5857
▁요걸	-12.5857
▁이쁜데	-12.5858
▁실업자	-12.5859
▁傳	-12.586
▁오피스	-12.5865
▁기관지	-12.5866
▁̊̈	-12.5866
▁깜깜	-12.5866
▁빠져들	-12.5866
▁어엉	-12.5868
무실	-12.5868
▁💜	-12.5869
▁나날	-12.5869
▁헤지	-12.587
▁추궁	-12.5871
▁휴양지	-12.5872
▁폭식	-12.5873
▁비료	-12.5874
▁질량	-12.5878
▁태안	-12.5878
▁연구회	-12.5878
▁라던지	-12.5879
▁장문	-12.5879
뱅	-12.588
▁뉘앙스	-12.588
▁패러디	-12.588
期	-12.588
▁가즈아	-12.5881
▁피크	-12.5882
▁다낭	-12.5882
▁이케아	-12.5882
ull	-12.5883
▁통계청	-12.5883
▁침범	-12.5885
▁못합니다	-12.5885
▁한몫	-12.5885
▁펀치	-12.5885
▁명백히	-12.5886
▁다녀올	-12.5889
▁였으니	-12.589
ov	-12.5892
▁下	-12.5893
▁교단	-12.5894
▁핸드크림	-12.5894
▁헉헉	-12.5894
▁선의	-12.5895
▁들어감	-12.5895
ood	-12.5895
▁막장	-12.5896
▁경인	-12.5897
▁en	-12.5897
▁담양	-12.5898
스톤	-12.5899
▁김규	-12.59
▁견인	-12.5901
▁비방	-12.5903
▁아득	-12.5903
▁찬사	-12.5903
▁꺼낸	-12.5905
▁온수	-12.5905
▁거들	-12.5906
▁적시	-12.5907
oon	-12.5907
▁영위	-12.5907
▁선입견	-12.5908
▁시베리아	-12.5908
▁임진왜란	-12.5908
▁빈티지	-12.5908
▁독수리	-12.5908
▁벡	-12.591
ym	-12.591
▁착해	-12.591
▁ᄀᄉ	-12.5913
▁갈대	-12.5915
▁알아차	-12.5916
▁새로이	-12.5917
▁가락	-12.5917
▁건너가	-12.5917
food	-12.5919
정희	-12.5919
푼	-12.592
▁무너졌	-12.5923
▁ᅡᅡ	-12.5923
▁룽	-12.5925
▁우짜	-12.5927
▁원한다	-12.5927
▁지울	-12.593
하라	-12.5931
▁채무자	-12.5933
마르	-12.5933
▁강의실	-12.5933
▁선천	-12.5934
▁떳떳	-12.5936
▁팔레스타인	-12.5936
챘	-12.5936
▁안티	-12.5936
▁트랩	-12.5937
▁아셨	-12.5938
▁으믄	-12.5938
▁행해	-12.5938
▁강성	-12.5938
▁언냐	-12.5939
▁田	-12.594
▁더냐	-12.5941
▁지휘관	-12.5941
▁관례	-12.5941
지마	-12.5944
▁武	-12.5945
▁회귀	-12.5948
▁투스	-12.595
▁설렘	-12.5951
▁능숙	-12.5953
▁러지	-12.5954
▁호오	-12.5955
▁지에스	-12.5956
이라	-12.5957
▁am	-12.5958
ning	-12.5958
▁까치	-12.5959
▁커트	-12.5961
려보	-12.5961
▁교인	-12.5961
▁오래가	-12.5963
▁파손	-12.5964
▁사이언스	-12.5965
▁스위트	-12.5965
▁향신료	-12.5965
▁전염병	-12.5965
AL	-12.5965
▁철폐	-12.5966
▁염원	-12.5967
▁그땐	-12.5967
▁오구	-12.5967
ier	-12.5969
▁행정관	-12.597
페이	-12.5971
▁나사	-12.5971
▁배럴	-12.5971
▁주당	-12.5971
▁영양사	-12.5974
▁세습	-12.5977
▁나위	-12.5977
▁외투	-12.5978
▁미월	-12.5978
▁레전드	-12.5979
▁장단점	-12.5979
▁셔야죠	-12.598
▁새싹	-12.598
▁힘겹	-12.598
▁der	-12.5981
▁문턱	-12.5981
▁안감	-12.5982
▁경구	-12.5984
IC	-12.5985
▁롤러	-12.5987
▁수락	-12.5988
▁일과	-12.5989
po	-12.599
▁수도원	-12.599
▁무도	-12.5993
▁단숨에	-12.5993
▁궐	-12.5994
▁바뀐다	-12.5995
▁유심	-12.5996
▁어쩐	-12.6001
▁하향	-12.6003
▁편식	-12.6003
▁코르	-12.6004
▁가져간	-12.6005
▁방탄소년단	-12.6007
▁최일구	-12.6007
▁로스쿨	-12.6007
▁퀘스트	-12.6007
化	-12.6007
▁구제역	-12.601
▁퍼스	-12.601
▁우우	-12.6013
▁퓨어	-12.6014
▁더웠	-12.6015
▁중추	-12.6016
▁동맥	-12.6017
▁공예	-12.6021
▁피고	-12.6024
▁그리스도교	-12.6024
▁재차	-12.6026
▁남방	-12.6027
▁마셔서	-12.6027
▁열일	-12.6027
ᅮᅮ	-12.6028
▁가져와서	-12.6028
▁後	-12.603
▁개발자	-12.6034
▁보금자리	-12.6035
옇	-12.6035
▁사귈	-12.6036
▁내정자	-12.604
▁국익	-12.6042
의식	-12.6047
▁서두	-12.6049
▁다저스	-12.605
▁벽면	-12.6051
▁지겨워	-12.6051
▁얼려	-12.6051
▁연주자	-12.6051
▁un	-12.6051
▁일류	-12.6052
▁예뻐요	-12.6054
더스	-12.6056
▁다녀와서	-12.6056
▁상급	-12.6056
▁조르	-12.606
▁앜ᄏᄏᄏᄏᄏᄏᄏ	-12.6062
▁필립	-12.6064
▁골뱅이	-12.6064
▁북유럽	-12.6064
▁유년	-12.6066
▁수만	-12.6069
▁무르	-12.6069
▁과열	-12.607
▁서초	-12.6073
▁작물	-12.6076
바다	-12.6076
▁지으	-12.6078
▁엔지니어	-12.6078
▁재작년	-12.6078
▁릴레이	-12.6078
ae	-12.6079
▁맡긴	-12.6079
▁애썼	-12.608
▁발작	-12.608
▁방사선	-12.6081
▁힘껏	-12.6081
ern	-12.6081
▁명명	-12.6083
▁올래	-12.6084
▁항소	-12.6084
▁야만	-12.6085
▁착륙	-12.6086
oy	-12.6087
▁요미	-12.6088
자원	-12.6089
▁수용소	-12.609
▁쿠나	-12.609
MS	-12.609
▁공교	-12.6091
▁상부	-12.6094
▁밀어내	-12.6095
▁쫓겨나	-12.6095
▁테크노	-12.6096
▁靑	-12.6096
▁바지락	-12.6096
▁사채	-12.6096
▁의료진	-12.6098
▁탄산수	-12.6098
▁경제력	-12.6098
▁찰나	-12.61
▁미혼	-12.6101
▁스러	-12.6105
▁불러야	-12.6106
▁삼성물산	-12.6107
▁강대국	-12.6108
▁크다	-12.6108
▁다스	-12.6109
gre	-12.6111
▁재량	-12.6111
▁강압	-12.6114
▁제작자	-12.6114
▁작업실	-12.6115
▁위례	-12.6116
ron	-12.6119
amp	-12.612
▁초장	-12.612
▁신의	-12.6121
▁달팽이	-12.6121
▁눈부신	-12.6121
▁하원	-12.6122
▁군사력	-12.6122
▁글램	-12.6122
義	-12.6122
▁난처	-12.6122
▁사뭇	-12.6125
▁풍토	-12.6127
공업	-12.6128
▁원자재	-12.6129
▁인출	-12.6131
▁잖니	-12.6131
▁재임	-12.6131
▁실험실	-12.6132
▁나잇	-12.6132
▁배타	-12.6134
▁수수께끼	-12.6135
▁seoul	-12.6135
▁뚝뚝	-12.6135
▁벗기	-12.6136
ᅦ	-12.6136
츄	-12.6137
▁제물	-12.6137
▁모션	-12.6139
▁정해서	-12.6141
▁아임	-12.6141
▁티슈	-12.6142
▁상법	-12.6144
▁예언자	-12.6144
지사	-12.6144
OR	-12.6145
▁패티	-12.6146
▁허버	-12.6147
▁사나	-12.6148
▁야시장	-12.6149
▁개연	-12.615
▁뽐내	-12.615
▁김성태	-12.6152
▁폐암	-12.6152
▁판소리	-12.6152
▁벙	-12.6156
▁더니만	-12.6156
▁눌러서	-12.6157
프리	-12.6157
▁창단	-12.6157
▁에엥	-12.6158
ank	-12.6159
늘	-12.6159
첨	-12.6161
▁열중	-12.6162
▁catsoninstagram	-12.6164
▁얽혀	-12.6164
의원	-12.6166
▁시설물	-12.6167
ting	-12.6168
▁선우	-12.617
▁자생	-12.6173
▁성신	-12.6173
▁쇼크	-12.6174
▁식비	-12.6177
▁1971	-12.6179
▁특구	-12.6179
▁지평	-12.6179
▁매끈	-12.618
▁함축	-12.618
킬	-12.6181
▁래쉬	-12.6184
▁호가	-12.6186
정부	-12.6187
▁자퇴	-12.6188
▁핥	-12.6188
▁누군데	-12.6189
▁무니	-12.6192
▁부끄러움	-12.6193
▁수감	-12.6194
▁성문	-12.6194
▁미성년자	-12.6194
▁축축	-12.6195
▁민폐	-12.6195
▁대공	-12.6195
▁아파요	-12.6196
▁후원금	-12.6197
▁미덕	-12.6199
▁쳐먹	-12.6199
▁공덕	-12.6199
▁나약	-12.6199
▁조타	-12.6201
시마	-12.6201
▁치렀	-12.6202
르크	-12.6205
퀴	-12.6206
▁한탄	-12.6207
議	-12.6207
▁목도리	-12.6208
▁청계천	-12.6208
▁요구르트	-12.6209
▁정사	-12.6211
▁정치가	-12.6213
▁450	-12.6214
▁뛰어가	-12.6214
▁로웠	-12.6215
▁220	-12.6215
▁간결	-12.6217
▁떵	-12.6217
▁소양	-12.6217
▁年	-12.6218
▁토르	-12.622
▁운전사	-12.6222
▁도널드	-12.6222
ᄌ	-12.6223
「	-12.6224
▁절묘	-12.6225
▁벌려	-12.6226
▁다가온	-12.6228
▁직영	-12.6233
▁목격자	-12.6233
▁사극	-12.6233
▁경색	-12.6235
▁아날로그	-12.6236
▁멈춘	-12.6237
▁쬐	-12.6237
랙	-12.6237
무시무시	-12.6237
▁반주	-12.6237
▁빠진다	-12.6238
▁안달	-12.6238
▁빠짐	-12.6239
▁한대요	-12.6239
▁소중히	-12.6241
▁넼ᄏᄏᄏ	-12.6243
ness	-12.6243
▁내성	-12.6245
▁돌돌	-12.6245
▁우즈	-12.6246
깐	-12.6247
▁웅장	-12.6248
▁변질	-12.6248
▁자부	-12.6249
▁막차	-12.6249
▁대도	-12.625
▁기다린다	-12.625
▁매듭	-12.6251
▁다이빙	-12.6251
▁인내심	-12.6253
▁험한	-12.6253
▁立	-12.6255
▁자락	-12.6256
▁후지	-12.6257
▁^-^	-12.6257
▁ᄐᄏᄏᄏᄏ	-12.6257
▁인대	-12.6261
▁느껴져서	-12.6262
▁도매	-12.6263
▁광기	-12.6264
▁나트륨	-12.6265
▁펭귄	-12.6265
▁띈다	-12.6266
wi	-12.6266
핵	-12.6267
▁기상청	-12.6267
主	-12.6267
▁All	-12.6268
▁권위주의	-12.6269
▁훗	-12.6271
▁명랑	-12.6272
▁즉위	-12.6277
▁틀어	-12.6279
▁겠어요	-12.6279
▁어리둥절	-12.628
▁마일리지	-12.628
▁워크숍	-12.628
▁아름다워	-12.628
▁갇	-12.628
▁헥	-12.628
▁섀도우	-12.628
▁맴돌	-12.6281
▁샤넬	-12.6281
▁키워야	-12.6281
▁푸딩	-12.6281
▁소이다	-12.6284
▁당권	-12.6284
▁전생	-12.6286
▁들으니	-12.6286
▁놓친	-12.6287
▁순하	-12.6287
▁진수	-12.6287
▁뷔	-12.6289
백만	-12.6289
▁작별	-12.629
▁아바	-12.6292
▁용사	-12.6295
▁성화	-12.6295
▁좌측	-12.6295
▁멋대로	-12.6296
▁겠지	-12.6296
▁Un	-12.6297
▁Ba	-12.6298
▁들이대	-12.6298
▁피싱	-12.63
tt	-12.63
CO	-12.6302
▁흐른	-12.6303
▁이건희	-12.6304
꿨	-12.6305
▁혼동	-12.6308
▁목금	-12.6309
▁그럭저럭	-12.6309
▁플래시	-12.6309
▁RPG	-12.6309
▁가이드라인	-12.6309
▁시연	-12.6309
▁언젠간	-12.631
▁재심	-12.631
▁경멸	-12.6311
▁종래	-12.6312
▁민간인	-12.6312
승호	-12.6314
▁연한	-12.6314
▁책자	-12.6315
▁하튼	-12.6315
▁바이어	-12.632
ef	-12.6321
▁소리야	-12.6322
▁포수	-12.6323
▁리얼리즘	-12.6324
▁어어어어	-12.6324
▁인슐린	-12.6324
ris	-12.6324
▁마신다	-12.6324
▁렐라	-12.6325
▁맘껏	-12.6326
▁동일시	-12.6326
▁상류	-12.6331
▁지뢰	-12.6331
▁어스	-12.6332
▁리즈	-12.6332
▁戰	-12.6333
▁침구	-12.6334
ition	-12.6334
▁각서	-12.6336
▁마진	-12.6336
▁루나	-12.6337
▁매기	-12.6338
▁유니클로	-12.6338
▁프리미어	-12.6338
▁플리	-12.6339
▁EBS	-12.6339
▁블레	-12.634
▁조원	-12.634
▁느슨	-12.6343
▁또렷	-12.6345
▁물놀이	-12.6347
▁개업	-12.6348
▁민세	-12.6348
▁측은	-12.6349
▁!?	-12.6349
▁찍히	-12.6351
▁왜지	-12.6351
▁가뜩이나	-12.6353
▁돌아다녔	-12.6353
▁바르셀로나	-12.6353
▁신명	-12.6353
▁독성	-12.6355
地	-12.6356
▁습도	-12.6356
▁속편	-12.6356
▁NO	-12.6356
▁빌미	-12.6357
▁보스턴	-12.6359
▁내몰	-12.6359
▁通	-12.636
▁강령	-12.6362
▁萬	-12.6362
▁구천	-12.6363
▁육신	-12.6365
▁투사	-12.6365
----------------	-12.6368
▁피라미드	-12.6368
▁바깥쪽	-12.6368
▁1967	-12.6369
▁벽지	-12.6369
▁규격	-12.637
▁재워	-12.6371
▁송구	-12.6372
▁발짝	-12.6373
▁학생회	-12.6378
▁세워진	-12.638
븐	-12.638
▁군포	-12.638
▁성의	-12.6381
▁물감	-12.6382
▁오니	-12.6382
▁쇄	-12.6382
▁오버워치	-12.6383
▁캄보디아	-12.6383
▁사우나	-12.6383
▁##@	-12.6384
▁몰려들	-12.6386
▁효성	-12.6387
▁형량	-12.6387
▁율법	-12.6388
▁사각	-12.6388
form	-12.639
▁끝낼	-12.639
▁비친	-12.6391
▁So	-12.6392
▁광교	-12.6392
▁시들	-12.6396
오르	-12.6397
▁포토샵	-12.6397
▁베이글	-12.6398
▁우째	-12.6399
▁두드려	-12.64
▁증식	-12.64
▁쉬웠	-12.6401
ME	-12.6401
▁나쁠	-12.6401
▁분권	-12.6402
▁언행	-12.6403
▁수컷	-12.6404
▁달릴	-12.6405
▁미남	-12.6405
▁유린	-12.6407
▁봉봉	-12.6407
▁정우	-12.6408
▁산불	-12.6409
▁생체	-12.6412
▁어뜨케	-12.6412
▁찰칵	-12.6412
▁유니크	-12.6413
릇	-12.6414
▁꼬꼬	-12.6414
툰	-12.6415
▁톡톡히	-12.6417
▁씌워	-12.6418
▁거림	-12.6418
▁노무	-12.6419
2(	-12.642
▁할땐	-12.6421
▁받아들여야	-12.6423
▁낙서	-12.6424
▁크라	-12.6424
▁중진	-12.6424
쌀	-12.6424
▁무드	-12.6426
▁이곳저곳	-12.6427
▁돌아다녀	-12.6427
▁지중해	-12.6427
▁케잌	-12.6427
▁시공사	-12.6428
▁부러운	-12.6429
▁외무	-12.6429
▁챙긴	-12.6429
pa	-12.643
▁음음음	-12.643
▁강당	-12.6431
▁명쾌	-12.6432
cat	-12.6432
▁움직인다	-12.6432
▁망원	-12.6432
▁한다는데	-12.6433
▁내년도	-12.6434
▁해줘	-12.6435
▁상차림	-12.6442
▁통합진보당	-12.6442
▁깜찍	-12.6442
ᄊ	-12.6443
▁쟁반	-12.6443
▁뒤따라	-12.6443
▁반대쪽	-12.6444
픽	-12.6445
▁코칭	-12.6447
짱	-12.6448
▁선곡	-12.645
▁수프	-12.645
▁요래	-12.6451
▁수목	-12.6451
▁이끈	-12.6455
▁엘프	-12.6455
▁발발	-12.6456
▁레이더	-12.6456
▁요오	-12.6457
▁플레	-12.6458
웰	-12.6459
ual	-12.646
▁태백	-12.6461
▁女	-12.6462
▁선한	-12.6463
▁복면	-12.6463
▁청량	-12.6463
▁정열	-12.6463
ys	-12.6466
pt	-12.6467
낙	-12.6468
▁보훈	-12.6469
ake	-12.647
▁백숙	-12.647
▁얽힌	-12.6471
▁체크카드	-12.6472
▁중앙일보	-12.6473
[...]
