[PAD]	0
[UNK]	0
[BOS]	0
[EOS]	0
[unused0]	0
[unused1]	0
[unused2]	0
[unused3]	0
[unused4]	0
[unused5]	0
[unused6]	0
[unused7]	0
[unused8]	0
[unused9]	0
[SEP]	0
[SEPT]	0
[MASK]	0
.	-3.25816
▁	-3.94462
의	-4.17636
이	-4.24973
을	-4.25309
,	-4.37338
에	-4.43218
는	-4.49877
가	-4.65609
를	-4.79436
은	-4.80428
도	-5.03306
고	-5.09807
▁그	-5.23695
한	-5.26714
지	-5.27729
▁이	-5.35914
로	-5.3793
▁수	-5.3952
과	-5.54195
에서	-5.61258
기	-5.67503
으로	-5.70306
다	-5.71309
?	-5.72755
)	-5.75374
▁"	-5.78646
하는	-5.82191
(	-5.84138
인	-5.89294
와	-5.9085
하고	-5.93572
~	-5.95076
어	-5.97834
서	-5.99769
▁한	-6.00687
▁있는	-6.00722
자	-6.08944
할	-6.1045
만	-6.13127
해	-6.13478
▁있다	-6.14173
적	-6.14506
사	-6.16459
리	-6.19237
나	-6.20749
요	-6.26499
게	-6.27996
면	-6.33024
라	-6.33091
'	-6.3474
일	-6.35661
아	-6.37361
시	-6.39127
▁'	-6.40025
▁아	-6.40569
▁안	-6.4406
하게	-6.46497
▁어	-6.47427
▁거	-6.48689
."	-6.51759
▁것이다	-6.53349
야	-6.53391
적인	-6.53643
▁일	-6.54263
▁내	-6.55488
수	-6.57013
대	-6.60048
년	-6.60228
주	-6.62363
▁다	-6.63331
상	-6.63355
▁가	-6.63397
▁사	-6.65153
▁전	-6.65381
▁때	-6.66279
정	-6.66967
▁뭐	-6.67393
들이	-6.68188
▁것이	-6.68503
성	-6.68694
스	-6.68807
구	-6.69001
하	-6.69241
▁대	-6.70636
▁지	-6.70863
이다	-6.71475
▁자	-6.73339
부	-6.74077
장	-6.75014
▁것	-6.77281
원	-6.781
▁더	-6.78386
했다	-6.7843
▁주	-6.7849
들	-6.7896
▁하는	-6.79028
▁할	-6.7992
▁또	-6.80251
▁그런	-6.8103
화	-6.81701
▁이런	-6.8343
▁제	-6.85336
▁부	-6.8543
▁유	-6.85469
신	-6.85685
▁나	-6.87095
▁두	-6.87241
▁그리고	-6.87503
소	-6.88008
▁이제	-6.88068
▁정	-6.88729
전	-6.89659
에게	-6.89703
▁오	-6.90582
진	-6.9086
▁해	-6.92461
▁고	-6.92514
▁저	-6.92664
적으로	-6.92781
▁말	-6.93291
▁대한	-6.93777
▁보	-6.94781
치	-6.95273
보	-6.955
된	-6.96572
조	-6.96727
▁비	-6.96846
▁것은	-6.97035
▁지금	-6.97111
라고	-6.98182
▁한다	-6.99058
▁좀	-6.99813
▁우리	-6.99958
니	-6.99975
▁예	-7.00023
▁있었다	-7.00037
하지	-7.01246
▁기	-7.01392
▁이렇게	-7.01887
까지	-7.02772
▁시	-7.02797
▁같은	-7.02806
▁하	-7.03434
마	-7.03755
동	-7.04605
!	-7.05096
▁잘	-7.05357
세	-7.06114
▁중	-7.0669
▁신	-7.07203
선	-7.07227
오	-7.07486
하여	-7.077
제	-7.08548
비	-7.09031
여	-7.09731
히	-7.09898
던	-7.1003
▁때문에	-7.11005
르	-7.11612
단	-7.11713
라는	-7.11851
▁하고	-7.11855
드	-7.12077
한다	-7.12575
▁1	-7.13112
▁무	-7.13576
▁네	-7.15122
▁소	-7.1573
▁어떤	-7.15809
며	-7.16103
이나	-7.1612
하기	-7.16894
▁다른	-7.17261
▁나는	-7.17368
▁그래서	-7.17986
당	-7.18014
려	-7.18972
트	-7.19075
▁마	-7.20672
산	-7.20723
▁게	-7.20994
무	-7.21198
미	-7.21932
▁원	-7.22331
▁그러나	-7.2311
▁것을	-7.23893
러	-7.25482
관	-7.26156
들은	-7.26191
우	-7.26735
▁세	-7.27947
실	-7.28459
물	-7.29454
질	-7.29467
?"	-7.30138
▁공	-7.31133
국	-7.31882
문	-7.3294
는데	-7.33219
▁불	-7.334
네	-7.33582
ᆞ	-7.33619
었다	-7.3372
▁성	-7.3386
에는	-7.34229
▁모	-7.34568
위	-7.35007
▁내가	-7.35519
▁구	-7.35584
들을	-7.3581
명	-7.35811
▁상	-7.36024
▁동	-7.36709
거	-7.36871
▁장	-7.37234
▁조	-7.37799
방	-7.38024
호	-7.38432
차	-7.38708
경	-7.38833
용	-7.38965
▁강	-7.38993
▁2	-7.39528
분	-7.39877
중	-7.40421
▁인	-7.40537
식	-7.40773
▁없는	-7.41575
▁서	-7.41866
e	-7.42218
유	-7.42413
▁아니라	-7.42444
공	-7.43157
법	-7.44393
▁다시	-7.44629
연	-7.44767
▁미	-7.44979
▁등	-7.45319
재	-7.46279
계	-7.46292
행	-7.47211
체	-7.47508
모	-7.47611
▁3	-7.47635
▁많이	-7.47643
▁어떻게	-7.47649
이었다	-7.47753
▁후	-7.48036
면서	-7.48114
▁데	-7.48248
▁바	-7.48493
데	-7.48833
죠	-7.48964
"	-7.49043
입니다	-7.49208
란	-7.49559
▁아니	-7.49925
안	-7.49947
월	-7.50001
▁연	-7.50082
▁했다	-7.50481
▁김	-7.50758
권	-7.50829
▁못	-7.50939
▁그렇게	-7.5099
▁그는	-7.51263
처럼	-7.51592
내	-7.52249
▁배	-7.52324
두	-7.5252
▁여	-7.52589
▁선	-7.52824
금	-7.52909
-	-7.52957
그	-7.53334
운	-7.53756
해서	-7.54426
▁될	-7.54465
▁반	-7.54641
▁번	-7.54665
▁명	-7.54845
▁분	-7.55149
▁모든	-7.55665
s	-7.55784
였다	-7.56715
▁입	-7.57265
학	-7.57338
▁양	-7.57383
형	-7.5741
▁가지	-7.57754
▁19	-7.58556
▁살	-7.58557
▁건	-7.58696
린	-7.58725
간	-7.59149
▁우	-7.59238
파	-7.59496
▁가장	-7.59665
▁남	-7.59925
해야	-7.60003
회	-7.60698
음	-7.60968
▁알	-7.61123
▁그런데	-7.61371
▁많은	-7.61585
▁재	-7.61595
개	-7.61675
되는	-7.61893
이라는	-7.62054
▁개	-7.62933
▁발	-7.62978
영	-7.63488
심	-7.63886
▁당	-7.63917
▁된다	-7.64046
▁하지만	-7.64479
▁단	-7.64682
워	-7.64885
▁피	-7.65175
▁있을	-7.65312
이라고	-7.65845
▁진	-7.65924
▁없다	-7.66076
군	-7.66136
▁경	-7.66804
▁위	-7.6688
▁날	-7.67034
▁자기	-7.67051
론	-7.67112
력	-7.67872
감	-7.68029
부터	-7.68554
▁위해	-7.6872
▁간	-7.69359
▁큰	-7.69535
에서는	-7.69684
▁사람이	-7.69945
▁차	-7.70052
종	-7.70148
▁왜	-7.7045
크	-7.70601
민	-7.70775
지만	-7.7082
▁걸	-7.70949
▁되는	-7.7096
▁실	-7.70994
▁있습니다	-7.71001
▁물	-7.71053
▁막	-7.71321
하다	-7.71357
▁도	-7.71731
▁생각	-7.7203
▁바로	-7.72292
교	-7.72651
▁하나	-7.73092
▁줄	-7.73531
작	-7.73583
생	-7.73612
되어	-7.73778
보다	-7.74612
발	-7.75362
▁함께	-7.75557
▁사람	-7.76137
레	-7.76164
습니다	-7.773
▁방	-7.77526
▁사실	-7.7761
▁너무	-7.77826
▁근데	-7.7854
▁열	-7.78708
▁정도	-7.7889
집	-7.78918
속	-7.79042
천	-7.79171
들의	-7.79328
▁삼	-7.79476
▁파	-7.7979
▁되	-7.8062
▁볼	-7.81526
▁산	-7.82628
▁감	-7.82705
▁자신의	-7.82728
래	-7.82784
하면	-7.83345
▁노	-7.83641
건	-7.84395
▁「	-7.84424
▁따라	-7.84517
주의	-7.84611
양	-7.84772
타	-7.85066
▁들	-7.85162
▁이러한	-7.8535
석	-7.85359
▁화	-7.85432
▁인제	-7.85589
▁천	-7.85932
▁적	-7.86447
:	-7.86497
프	-7.86843
증	-7.86889
직	-7.87172
▁이상	-7.87441
▁심	-7.87593
루	-7.87883
▁가지고	-7.88356
2	-7.8839
약	-7.88647
t	-7.88799
▁정말	-7.89308
▁들어	-7.89353
▁『	-7.89857
▁참	-7.90386
▁난	-7.90521
▁외	-7.90539
▁사회	-7.90919
님	-7.91173
▁영	-7.91381
▁집	-7.91461
▁문	-7.91745
▁모두	-7.91878
▁얘기	-7.92014
▁뒤	-7.92029
▁제가	-7.92334
▁그의	-7.92387
랑	-7.92728
포	-7.92753
▁4	-7.93376
▁속	-7.93394
▁채	-7.93521
▁스	-7.93603
▁한국	-7.93605
설	-7.93723
▁세계	-7.9375
▁치	-7.93908
▁교	-7.94084
o	-7.94436
▁경우	-7.94724
▁않고	-7.94852
▁우리가	-7.95368
현	-7.95762
역	-7.96241
▁문제	-7.96313
▁일이	-7.96448
저	-7.96648
▁매	-7.96675
기를	-7.96714
▁손	-7.96838
▁있고	-7.97034
▁초	-7.97147
디	-7.97313
각	-7.97493
태	-7.97627
>	-7.98133
어요	-7.98163
▁변	-7.98219
▁5	-7.98288
▁어느	-7.98348
통	-7.9837
지는	-7.98375
된다	-7.98529
▁같이	-7.98555
령	-7.98692
▁애	-7.99243
」	-7.99521
▁보면	-7.9955
▁여러	-7.99684
▁달	-7.9974
▁없	-7.99744
▁본	-7.99868
▁미국	-7.999
▁있	-7.9992
병	-7.99981
▁관	-8.00049
하였다	-8.00079
▁것으로	-8.00129
▁좋은	-8.0025
▁국	-8.00381
▁박	-8.00383
난	-8.00489
바	-8.00725
반	-8.00757
1	-8.0079
색	-8.00791
절	-8.00928
출	-8.01264
임	-8.01353
▁이게	-8.01385
든	-8.02013
▁몇	-8.02015
n	-8.02382
매	-8.0241
▁오늘	-8.02434
▁법	-8.02503
▁타	-8.02508
▁시작	-8.0252
박	-8.02601
카	-8.02762
니까	-8.03011
▁보고	-8.03139
y	-8.03144
▁말을	-8.03166
▁포	-8.03319
토	-8.03753
급	-8.03824
▁않았다	-8.03962
▁온	-8.03971
▁점	-8.04149
길	-8.04964
으면	-8.05867
▁없었다	-8.05939
▁된	-8.06137
▁즉	-8.06454
거나	-8.06557
▁때문이다	-8.06664
a	-8.06684
배	-8.06834
▁생	-8.07098
긴	-8.07219
후	-8.07319
백	-8.07342
▁그냥	-8.0759
▁맞	-8.07886
▁계속	-8.0817
▁또한	-8.08173
▁만	-8.08416
▁호	-8.08435
업	-8.08564
았다	-8.08628
▁동안	-8.08694
피	-8.0884
▁수도	-8.08841
까	-8.08936
티	-8.09093
▁씨	-8.09128
져	-8.09209
복	-8.095
성을	-8.09568
』	-8.099
▁것도	-8.10001
▁사용	-8.10562
▁편	-8.10759
점	-8.10783
▁시간	-8.10984
▁왕	-8.11187
▁이야기	-8.11663
냐	-8.11785
▁백	-8.11891
▁대해	-8.12045
▁<	-8.12164
▁저는	-8.12228
▁요	-8.12322
▁해서	-8.12615
되고	-8.12796
▁위한	-8.12849
하며	-8.12976
자가	-8.13283
▁약	-8.13326
▁계	-8.13418
▁일본	-8.13459
▁않는	-8.13901
▁최	-8.13915
했던	-8.14337
될	-8.14434
결	-8.14445
r	-8.14658
터	-8.15019
날	-8.15183
▁정치	-8.15199
입	-8.15294
온	-8.15358
울	-8.16126
▁국가	-8.16278
3	-8.16457
강	-8.16516
▁길	-8.16559
판	-8.1679
▁그때	-8.16876
▁아이	-8.16967
▁새로운	-8.16976
▁통해	-8.17033
등	-8.17434
남	-8.1747
거든요	-8.17497
달	-8.17568
말	-8.17764
준	-8.17836
▁우리는	-8.17896
▁무슨	-8.18004
쪽	-8.18059
▁않은	-8.18215
▁복	-8.18242
료	-8.18268
격	-8.18334
하면서	-8.18544
▁아주	-8.18552
▁하면	-8.18657
목	-8.18692
▁이미	-8.18855
청	-8.18855
노	-8.19071
▁추	-8.19219
류	-8.19228
▁책	-8.19367
▁중국	-8.19374
▁연구	-8.1982
들에게	-8.19824
표	-8.19874
림	-8.19889
),	-8.19949
▁갈	-8.19981
▁다음	-8.1999
▁있다는	-8.20068
▁없이	-8.20317
▁사람들이	-8.20372
▁하지	-8.20413
이라	-8.20626
다고	-8.20811
▁그러니까	-8.21166
잖아요	-8.2117
락	-8.21267
▁너	-8.21312
▁따라서	-8.21484
인데	-8.21691
▁쓰	-8.22155
▁및	-8.22757
l	-8.22953
i	-8.2315
언	-8.2318
▁물론	-8.23233
▁허	-8.2337
▁있는데	-8.23904
▁되었다	-8.23971
▁있어	-8.24095
▁사랑	-8.24325
▁이해	-8.24395
▁해야	-8.25169
▁각	-8.25248
살	-8.25366
▁음	-8.25501
▁중요한	-8.25516
▁인간	-8.2558
다는	-8.25639
▁교육	-8.25792
량	-8.25836
▁새	-8.25991
▁되어	-8.26022
름	-8.26029
▁말했다	-8.26186
▁10	-8.26209
평	-8.26297
▁조금	-8.26316
▁청	-8.26408
▁통	-8.26454
되었다	-8.26467
한테	-8.26605
▁알고	-8.26623
▁않는다	-8.26775
▁찾아	-8.26837
▁현	-8.27108
다가	-8.27221
에도	-8.2726
릴	-8.27265
’	-8.27637
환	-8.27704
▁특히	-8.27747
▁지역	-8.27889
처	-8.27939
▁만들어	-8.27976
▁죽	-8.29097
했	-8.29482
!"	-8.29706
기도	-8.2972
▁존재	-8.29906
▁경제	-8.30297
▁총	-8.30515
독	-8.30641
▁(	-8.30865
▁팔	-8.30903
▁종	-8.31047
▁‘	-8.31076
즈	-8.31148
▁귀	-8.3118
립	-8.31419
으	-8.3152
합	-8.31667
▁했	-8.32054
▁합니다	-8.32367
h	-8.32386
근	-8.3252
졌다	-8.32866
왕	-8.33013
▁먼저	-8.33016
▁살아	-8.33413
▁거예요	-8.33498
▁그러면	-8.33838
창	-8.33898
▁군	-8.3393
▁그러	-8.34088
▁야	-8.34304
▁6	-8.34581
▁또는	-8.34666
▁정신	-8.34691
g	-8.3479
▁먹	-8.34875
갈	-8.34888
렸다	-8.35099
항	-8.35223
▁돌	-8.35334
▁목	-8.35378
씨	-8.35551
k	-8.35642
▁대해서	-8.35814
▁사람은	-8.35905
▁문화	-8.36041
예	-8.36247
▁역사	-8.36291
열	-8.36736
쳐	-8.36759
▁병	-8.3676
▁굉장히	-8.37043
품	-8.37051
▁취	-8.37056
▁결정	-8.37113
▁서로	-8.37212
친	-8.3728
▁주장	-8.38156
▁출	-8.38536
......	-8.38742
담	-8.38788
▁일을	-8.38939
합니다	-8.39039
초	-8.39118
엔	-8.39214
er	-8.39215
d	-8.39603
▁있어서	-8.39828
▁그것은	-8.3998
이란	-8.40054
▁금	-8.40069
편	-8.40086
▁결과	-8.40281
술	-8.40298
▁좋아	-8.40442
▁설명	-8.40451
더	-8.40752
본	-8.40779
희	-8.40862
▁회사	-8.41475
▁결국	-8.41704
▁거야	-8.41719
▁아니다	-8.4189
버	-8.41903
▁그게	-8.41958
추	-8.41984
지도	-8.42027
리는	-8.42056
▁전에	-8.42199
▁말이	-8.42201
함	-8.42371
▁마음	-8.42784
▁관계	-8.42881
▁십	-8.42952
▁“	-8.42953
▁않았	-8.42961
▁잡	-8.42985
▁되고	-8.43137
▁현재	-8.43198
▁필요	-8.4331
망	-8.4342
m	-8.43442
▁역시	-8.43465
너	-8.43542
▁여자	-8.43606
▁눈	-8.43669
이고	-8.43743
도록	-8.4376
▁북한	-8.43914
▁년	-8.44055
▁표현	-8.44116
▁만나	-8.44206
u	-8.44587
기가	-8.44651
%	-8.44657
▁태	-8.44763
▁있다고	-8.44842
▁현실	-8.45085
코	-8.45242
▁나라	-8.45477
투	-8.45552
으며	-8.45595
겨	-8.45606
▁소리	-8.45859
▁않	-8.45887
족	-8.4593
▁있었	-8.4627
세요	-8.4637
▁몸	-8.46452
▁코	-8.46614
지를	-8.46855
▁임	-8.46884
▁수가	-8.46954
▁한번	-8.47365
불	-8.47413
▁대통령	-8.47803
▁의미	-8.48044
승	-8.48126
▁들어가	-8.48139
더니	-8.48693
▁여성	-8.48707
자는	-8.48889
대로	-8.49291
▁직접	-8.49292
▁순	-8.49501
▁카	-8.49611
네요	-8.49633
층	-8.49821
▁진짜	-8.49996
▁영화	-8.50115
▁이용	-8.50139
A	-8.50164
▁잠	-8.50191
키	-8.50384
▁A	-8.50464
▁당시	-8.50648
▁더욱	-8.51096
줄	-8.51131
p	-8.51215
▁듯	-8.51235
케	-8.51559
▁생각이	-8.51861
자의	-8.51888
▁거죠	-8.52195
al	-8.52268
▁기업	-8.52396
▁뜻	-8.52441
혀	-8.52453
▁사람들	-8.52566
▁C	-8.52607
록	-8.52999
되	-8.53007
▁S	-8.53153
이며	-8.53185
율	-8.53194
▁어디	-8.53299
성이	-8.53454
외	-8.53508
▁서울	-8.53618
▁앞	-8.53646
▁P	-8.53743
▁별	-8.53849
▁떠	-8.53873
▁속에서	-8.53948
었	-8.54171
▁회	-8.54172
▁사건	-8.54378
▁리	-8.54408
▁기억	-8.54438
칠	-8.54601
▁있기	-8.54618
▁있던	-8.54761
▁친	-8.54807
애	-8.54852
▁위해서	-8.5496
▁얼마나	-8.55032
▁자유	-8.55137
or	-8.55171
▁토	-8.55188
▁메	-8.55224
▁민	-8.55237
▁시장	-8.55308
려고	-8.55506
▁벌	-8.55607
삼	-8.5562
른	-8.55657
▁그럼	-8.56012
▁대표	-8.5606
▁운동	-8.56186
▁거의	-8.56246
▁성공	-8.56335
▁때는	-8.56374
았	-8.56466
▁남자	-8.56636
▁생각을	-8.56694
스트	-8.56704
▁학	-8.56777
▁이거	-8.56786
▁내려	-8.56971
▁있지	-8.56979
▁처음	-8.57
▁식	-8.57384
례	-8.57548
라도	-8.57789
▁밤	-8.57874
▁창	-8.58063
▁그가	-8.58248
▁기술	-8.583
들과	-8.58563
▁되면	-8.5859
C	-8.58848
▁변화	-8.58858
습	-8.59082
▁처	-8.59096
겠	-8.5914
어서	-8.59173
기에	-8.59181
▁자연	-8.59294
▁20	-8.59306
▁체	-8.59308
on	-8.59579
황	-8.59688
올	-8.59689
▁자신이	-8.59705
구요	-8.59739
▁베	-8.59749
▁누구	-8.59959
순	-8.6004
없이	-8.60323
▁넘	-8.60362
▁설	-8.60379
▁돈	-8.60443
▁:	-8.60487
in	-8.60526
변	-8.60805
▁절	-8.6081
▁개인	-8.60981
▁향	-8.61098
▁용	-8.61198
▁여기	-8.61266
▁순간	-8.61291
▁곧	-8.61391
▁일단	-8.61479
▁결	-8.61533
▁7	-8.6196
▁힘	-8.62207
▁엄마	-8.62219
en	-8.62242
움	-8.62257
▁돼	-8.62283
▁사람들은	-8.62527
▁급	-8.62535
익	-8.62586
▁표	-8.6263
▁학교	-8.62817
▁M	-8.62903
▁합	-8.62983
▁담	-8.63157
▁보내	-8.63435
번	-8.63504
탄	-8.63606
▁있어요	-8.63687
▁울	-8.63829
▁드	-8.63902
▁악	-8.6391
▁작품	-8.63986
▁않을	-8.64138
채	-8.64165
별	-8.64313
▁갖고	-8.6436
사를	-8.6452
▁누	-8.64596
▁아닌	-8.64656
▁스스로	-8.64743
범	-8.64953
ar	-8.65079
▁이후	-8.65137
▁내용	-8.65284
▁글	-8.65291
c	-8.65369
에서도	-8.65425
▁조직	-8.65489
볼	-8.65627
▁것입니다	-8.6572
▁상태	-8.66084
▁속에	-8.66116
브	-8.66117
▁전체	-8.66156
능	-8.66193
▁황	-8.66227
였	-8.66243
규	-8.66346
▁대학	-8.66405
기는	-8.66476
▁관련	-8.66602
지요	-8.66658
▁땅	-8.66663
▁말씀	-8.66754
니다	-8.66901
▁그녀는	-8.66992
▁생활	-8.6705
되지	-8.67059
송	-8.67194
▁투자	-8.67303
향	-8.67365
인지	-8.67482
▁조선	-8.67625
▁그래	-8.67633
▁해도	-8.67722
지고	-8.6806
▁알아	-8.68119
로부터	-8.68129
S	-8.68205
▁아직	-8.68261
▁질	-8.68303
▁정보	-8.68324
▁올	-8.68372
보다는	-8.68757
▁번째	-8.68785
▁결혼	-8.68928
▁나오	-8.68944
▁꼭	-8.68961
졌	-8.6908
▁첫	-8.6921
▁형	-8.69239
▁과	-8.69247
찰	-8.69323
▁나가	-8.69327
▁아버지	-8.69337
▁역	-8.69346
▁없어	-8.69541
책	-8.69642
▁터	-8.69681
▁정부	-8.69684
▁행	-8.69763
▁것처럼	-8.69972
▁사업	-8.70066
▁준비	-8.70091
I	-8.70091
▁버	-8.70138
▁같다	-8.70237
an	-8.70352
▁친구	-8.70413
▁뿐	-8.70568
막	-8.70599
▁승	-8.70643
구나	-8.70814
▁겁니다	-8.70857
▁문제가	-8.70963
▁평가	-8.71057
▁광	-8.71084
▁매우	-8.71162
▁오히려	-8.71209
▁받아	-8.71384
▁요구	-8.71482
▁의해	-8.71487
▁-	-8.71617
시켜	-8.71679
▁선생님	-8.71802
▁관한	-8.71895
▁그들은	-8.7193
▁행동	-8.71961
▁지나	-8.72005
▁자신	-8.72264
▁선택	-8.72339
▁구성	-8.72417
테	-8.72426
▁발전	-8.725
왔다	-8.73062
손	-8.73082
리를	-8.7326
▁확인	-8.73294
축	-8.73406
▁발생	-8.73871
▁8	-8.73975
▁앞으로	-8.74076
▁나를	-8.74248
렸	-8.74254
▁가운데	-8.74283
▁읽	-8.74426
/	-8.74457
악	-8.74843
▁증	-8.74892
있	-8.74951
억	-8.75033
▁지난	-8.75176
▁B	-8.75191
▁발견	-8.75354
했습니다	-8.75359
▁전혀	-8.75449
▁작은	-8.75633
▁환	-8.75931
▁하루	-8.75953
▁풍	-8.76182
봉	-8.76298
철	-8.76743
▁평	-8.76802
북	-8.76955
▁크게	-8.76991
련	-8.77231
로서	-8.77301
▁그것을	-8.77351
▁곳	-8.77356
▁방송	-8.77485
▁특	-8.77665
어야	-8.78067
▁놓	-8.78239
T	-8.78463
장을	-8.78498
▁따	-8.78813
▁그거	-8.78827
▁육	-8.78906
▁전쟁	-8.78918
▁인정	-8.78961
▁그것이	-8.79015
먹	-8.79089
▁그대로	-8.79403
▁해결	-8.79561
자를	-8.79694
▁독	-8.79699
▁이를	-8.79756
거리	-8.79812
▁항	-8.79869
▁약간	-8.79937
▁의원	-8.80003
▁경험	-8.80099
장이	-8.80121
▁남편	-8.80377
▁같	-8.80389
광	-8.80474
갔다	-8.80792
▁북	-8.80915
▁그랬	-8.80928
▁관리	-8.81009
]	-8.81052
숙	-8.81147
곡	-8.81157
▁직	-8.81164
▁늘	-8.81256
까요	-8.81552
P	-8.81802
▁왔	-8.81935
▁여기서	-8.81939
▁머리	-8.81993
▁그니까	-8.82027
▁가는	-8.82048
리고	-8.82152
5	-8.82199
하거나	-8.82234
글	-8.82276
▁국민	-8.82304
▁세상	-8.82478
▁개념	-8.82501
▁돌아	-8.82528
▁노력	-8.8265
▁이야기를	-8.82656
▁작	-8.82682
▁수밖에	-8.8273
▁등을	-8.82844
▁것이었다	-8.82977
▁당신	-8.8302
▁암	-8.83067
▁가서	-8.83109
▁권	-8.83113
▁상황	-8.83626
▁놀	-8.83664
돌	-8.83866
▁모습	-8.83875
밀	-8.8397
인이	-8.83982
귀	-8.84001
▁아니면	-8.8411
▁인식	-8.84111
력을	-8.84193
▁가족	-8.84198
녀	-8.84224
▁사고	-8.84299
느냐	-8.8441
▁마치	-8.84508
▁끝	-8.84512
▁활동	-8.8504
▁이름	-8.85187
▁술	-8.85279
▁둘	-8.85363
▁어머니	-8.85382
▁생산	-8.85499
▁됐	-8.85526
▁있었던	-8.86003
▁보는	-8.86154
▁가져	-8.86222
다면	-8.86233
▁분석	-8.8624
▁나서	-8.86243
▁논	-8.8631
▁철	-8.86436
▁얘기를	-8.86462
▁깨	-8.86535
육	-8.86591
▁않다	-8.86657
▁일어나	-8.86866
▁하는데	-8.86908
▁정책	-8.8704
사회	-8.87161
▁조사	-8.87331
▁판단	-8.87358
필	-8.87619
▁쪽	-8.87803
▁환경	-8.87843
▁시간이	-8.87974
액	-8.88116
ic	-8.88132
셨	-8.88185
으니	-8.88208
▁망	-8.88424
▁우리나라	-8.88586
▁사실은	-8.8872
년대	-8.88916
▁9	-8.89023
▁응	-8.89071
b	-8.89072
▁면	-8.8908
▁경우에는	-8.8919
▁아내	-8.89494
▁폭	-8.89501
▁와	-8.89707
새	-8.8972
주는	-8.89779
라면	-8.89787
▁봐	-8.8997
든지	-8.89982
세기	-8.90015
▁정도로	-8.9006
▁아마	-8.90098
▁혹은	-8.90198
▁잔	-8.90327
기로	-8.90345
들도	-8.90371
ch	-8.90385
▁이것은	-8.90464
걸	-8.905
re	-8.90501
▁농	-8.90581
▁기대	-8.90612
곤	-8.90636
▁되지	-8.90661
▁풀	-8.90691
침	-8.90693
▁침	-8.90719
관계	-8.9076
▁포함	-8.90765
고요	-8.90805
▁아무	-8.90853
▁진행	-8.91007
▁가치	-8.91014
▁지식	-8.91036
▁우선	-8.91416
▁있게	-8.91544
▁삶	-8.91636
4	-8.91703
▁구조	-8.91715
▁걱정	-8.91721
사가	-8.91726
▁아래	-8.9173
왔	-8.91798
▁사람을	-8.91799
▁사실을	-8.91899
▁판	-8.92124
M	-8.92206
▁잃	-8.92214
▁시작했다	-8.92223
▁기록	-8.92335
▁패	-8.92499
▁유지	-8.92617
▁갑자기	-8.92647
▁예를	-8.9265
잖아	-8.92725
치는	-8.92755
때	-8.92999
▁민족	-8.93003
▁18	-8.93216
▁하늘	-8.93256
es	-8.93329
년에	-8.93414
▁문학	-8.93546
씩	-8.93732
▁투	-8.93777
▁건강	-8.9401
벌	-8.9412
▁중에	-8.9421
▁of	-8.94219
▁꿈	-8.94229
▁행위	-8.94316
▁자체	-8.94462
▁딸	-8.94464
▁오래	-8.94527
레이	-8.9455
▁위험	-8.94582
하라	-8.94654
▁시대	-8.94814
▁제대로	-8.94885
▁행복	-8.94893
▁부분	-8.9492
▁학생	-8.94927
마다	-8.94995
충	-8.9514
▁상대	-8.95274
▁대신	-8.95419
▁뭔가	-8.95439
허	-8.95631
께	-8.95661
▁됩니다	-8.95669
D	-8.95812
▁맡	-8.95866
▁이어	-8.95899
▁레	-8.9593
▁봤	-8.96036
▁죄	-8.96054
▁항상	-8.96065
▁그걸	-8.96212
it	-8.96268
▁못한	-8.96294
▁계획	-8.96496
─	-8.965
▁아들	-8.965
쯤	-8.96633
▁짓	-8.96653
▁크	-8.96782
▁사람의	-8.96798
시키는	-8.96874
▁의식	-8.96925
▁그림	-8.96981
▁나와	-8.96986
▁인물	-8.96996
인가	-8.96999
션	-8.97034
▁고객	-8.97039
▁실제로	-8.97058
▁감정	-8.97073
한다는	-8.97109
▁주는	-8.97175
으니까	-8.97232
6	-8.97238
▁일반	-8.97245
▁묻	-8.97315
▁과학	-8.97341
▁가진	-8.9736
▁D	-8.97485
▁없을	-8.97569
었습니다	-8.97569
ing	-8.97667
▁높은	-8.97674
▁도시	-8.97692
▁극	-8.97734
is	-8.97798
▁딱	-8.97958
었는데	-8.98084
▁소설	-8.98142
▁인생	-8.98164
▁그녀의	-8.9819
▁그래도	-8.98395
▁있지만	-8.98467
▁있으며	-8.98473
▁필요한	-8.98476
리가	-8.98568
듯	-8.98622
으로서	-8.9874
▁방법	-8.98823
▁사이	-8.99046
▁잘못	-8.99084
▁몸을	-8.99141
▁그럴	-8.99256
f	-8.99335
득	-8.99379
쟁	-8.99597
힌	-8.99598
▁다양한	-8.99715
▁앉아	-8.99733
훈	-8.99864
나라	-8.99897
▁과정	-8.99926
팔	-9.00066
▁홍	-9.00069
▁요즘	-9.00129
서는	-9.00192
▁하나의	-9.00222
▁개발	-9.00243
음을	-9.00244
▁준	-9.00279
▁국제	-9.00497
진다	-9.00896
▁우리의	-9.00897
▁그들의	-9.00923
메	-9.00958
▁보여	-9.00959
▁송	-9.00979
셔	-9.00997
▁그것	-9.01009
▁돈을	-9.01058
이야	-9.01079
▁규정	-9.01148
▁했는데	-9.01181
▁달리	-9.01199
▁모습을	-9.012
▁그리	-9.01221
▁헤	-9.01303
▁보니까	-9.01319
슬	-9.01346
효	-9.01527
상을	-9.01557
겠습니다	-9.01761
▁경찰	-9.01823
▁분명	-9.01838
▁못하고	-9.01866
E	-9.01895
▁하면서	-9.01939
▁앞에	-9.02018
▁올라	-9.02044
▁지방	-9.02331
하자	-9.02338
▁웃	-9.02463
헌	-9.02477
▁제공	-9.02487
▁12	-9.02497
▁나의	-9.02516
▁이루	-9.02522
▁목적	-9.02525
▁통해서	-9.02578
▁완	-9.02671
▁언어	-9.02702
찬	-9.02763
▁접	-9.02803
▁위에	-9.03028
듯이	-9.0313
▁달라	-9.03137
▁적이	-9.03254
▁고려	-9.03256
▁비판	-9.03347
▁쉽게	-9.0335
▁빛	-9.03381
▁근	-9.03386
▁하기	-9.03458
▁싶은	-9.03466
▁일부	-9.03561
▁생명	-9.03562
가지고	-9.03601
▁아까	-9.03624
▁동시에	-9.03636
수를	-9.03642
▁눈을	-9.03662
▁고개를	-9.03816
▁등의	-9.0395
함으로써	-9.0396
▁폐	-9.04054
▁인간의	-9.0406
▁얼마	-9.04073
욕	-9.04143
▁손을	-9.04146
▁영향을	-9.04276
▁함	-9.04394
염	-9.04397
▁테	-9.04443
▁성격	-9.04517
이라도	-9.04519
극	-9.04587
▁아니고	-9.04693
▁싶어	-9.0472
▁종교	-9.0476
▁있으면	-9.04795
쳤다	-9.04827
......."	-9.04887
▁많	-9.05016
▁탈	-9.05191
▁축	-9.05254
▁숙	-9.0529
▁언제	-9.0532
하지만	-9.05325
R	-9.05384
었던	-9.05446
이에요	-9.05447
▁현상	-9.05469
덕	-9.05481
▁칼	-9.0549
▁밀	-9.05544
▁전략	-9.05549
했고	-9.05558
▁충	-9.05564
하도록	-9.05587
▁이번	-9.0562
(19	-9.05627
▁부모	-9.05706
▁생각해	-9.0572
▁빈	-9.05815
▁키	-9.05837
▁자신을	-9.05936
▁없었	-9.06049
▁공부	-9.06126
▁훨씬	-9.06283
하던	-9.06372
▁I	-9.06376
험	-9.06466
▁나무	-9.06547
뿐	-9.06681
▁없고	-9.06735
칭	-9.0679
▁저희	-9.06831
▁거기	-9.0702
▁떠나	-9.07059
▁한다는	-9.07141
▁참여	-9.07164
으로부터	-9.07253
▁반대	-9.0735
탈	-9.0738
▁여행	-9.07435
▁교회	-9.07447
▁써	-9.07472
▁죽음	-9.07512
풍	-9.07529
봐	-9.07586
▁E	-9.07623
▁사이에	-9.07675
취	-9.07714
▁혼	-9.07786
▁만큼	-9.07871
총	-9.07902
▁커	-9.08002
▁문제를	-9.08098
▁나도	-9.08241
▁노래	-9.08324
▁다음과	-9.08343
▁경영	-9.08605
▁누가	-9.08747
▁성장	-9.08854
시간	-9.08865
나는	-9.08897
▁전화	-9.08937
▁마음을	-9.0895
률	-9.09207
▁언론	-9.09237
▁이론	-9.09265
▁수준	-9.09329
ol	-9.0936
▁작가	-9.09563
▁맛	-9.09607
운동	-9.09651
▁석	-9.09692
▁대부분	-9.09761
베	-9.09812
at	-9.10047
틀	-9.10106
벽	-9.10275
겠다	-9.10314
력이	-9.10366
▁마지막	-9.10485
들에	-9.10566
▁빨리	-9.1061
▁돌아가	-9.10645
▁만들	-9.10647
골	-9.1071
▁윤	-9.10962
▁제시	-9.10965
누	-9.11015
▁높	-9.11027
▁보통	-9.11049
▁공격	-9.11142
▁사진	-9.11145
▁잠시	-9.11169
▁과거	-9.11185
견	-9.11225
▁의사	-9.11336
▁주변	-9.11386
소리	-9.1139
▁밥	-9.1161
▁인사	-9.11666
▁안에	-9.11713
▁the	-9.11784
밖에	-9.11832
▁필	-9.11847
▁되었	-9.11854
▁그건	-9.11862
▁형성	-9.11884
▁마련	-9.12522
퍼	-9.12615
▁위해서는	-9.1265
▁지원	-9.12683
했을	-9.12757
▁미래	-9.12834
머	-9.12858
▁가정	-9.12863
▁않으면	-9.12869
츠	-9.12948
▁찬	-9.12972
수가	-9.12981
▁절대	-9.12993
▁골	-9.13018
▁프로그램	-9.13143
▁공간	-9.13162
▁30	-9.13228
춘	-9.13242
십	-9.13278
▁전통	-9.13279
000	-9.13341
;	-9.13382
▁음악	-9.13469
▁떨	-9.13482
▁반드시	-9.13502
▁H	-9.13873
착	-9.14068
더라도	-9.14145
▁꽃	-9.14156
▁먹고	-9.14174
▁책임	-9.14183
▁라	-9.14225
▁영국	-9.14244
▁가슴	-9.14287
▁프로	-9.1437
인의	-9.14374
▁강조	-9.14441
▁두고	-9.14448
것	-9.14477
▁바람	-9.14545
▁L	-9.1467
▁대답	-9.14867
▁집에	-9.14925
▁중심	-9.15045
▁여러분	-9.15086
▁말한다	-9.15156
▁혼자	-9.15178
▁아닌가	-9.15197
▁싶	-9.15269
▁배우	-9.15502
습니까	-9.15553
▁협	-9.15669
le	-9.15732
ed	-9.1575
▁들고	-9.15766
▁신문	-9.15827
▁그러한	-9.16074
▁완전히	-9.16215
▁받고	-9.16239
▁격	-9.1629
.”	-9.16292
O	-9.16476
▁페	-9.16576
▁지배	-9.16735
▁경쟁	-9.16747
▁보이는	-9.16835
▁보다	-9.16843
혹	-9.1687
▁시기	-9.16884
▁사는	-9.16928
▁끼	-9.17133
만큼	-9.17291
▁봉	-9.17344
▁방식	-9.17422
▁태도	-9.17435
럽	-9.17443
▁원래	-9.17456
▁같습니다	-9.17471
▁좋다	-9.17471
▁빠져	-9.17498
▁노동	-9.17589
▁싸	-9.17751
▁것과	-9.1779
▁현대	-9.17814
▁밝	-9.17842
▁역할을	-9.17862
▁앞에서	-9.17891
▁기사	-9.18035
▁해석	-9.1804
로운	-9.18051
▁사회적	-9.181
군요	-9.18152
협	-9.18191
존	-9.1824
▁했던	-9.18275
▁검	-9.18333
▁왔다	-9.18366
▁부족	-9.18392
▁G	-9.18457
▁그렇지	-9.18502
검	-9.18533
께서	-9.18573
▁마음이	-9.18652
리아	-9.18672
▁중요	-9.18673
.......	-9.18704
섭	-9.18718
▁품	-9.18768
▁고통	-9.18819
▁T	-9.18863
▁달려	-9.18875
▁교수	-9.18951
▁뒤에	-9.18966
▁낮	-9.18996
는데요	-9.19048
탕	-9.1908
▁선거	-9.19082
돼	-9.19137
▁힘들	-9.19178
화를	-9.19184
균	-9.19191
권을	-9.19194
▁작업	-9.1924
▁p	-9.19278
N	-9.19282
▁바라보	-9.19294
▁얼굴	-9.1931
▁않아	-9.19353
▁상당히	-9.19372
감을	-9.19384
탁	-9.19501
00	-9.19567
▁붙	-9.19783
는지	-9.19876
▁아침	-9.199
적이고	-9.20011
▁듣고	-9.20043
▁아무리	-9.20057
념	-9.20066
플	-9.20145
▁갔	-9.20167
▁해당	-9.20175
▁쓸	-9.20203
▁아이들	-9.20231
▁궁	-9.20248
느	-9.20381
▁질문	-9.20534
▁있어야	-9.20628
▁후보	-9.20713
자들이	-9.20723
▁뛰어	-9.20732
▁이는	-9.20739
▁이십	-9.21001
▁나오는	-9.21063
▁연결	-9.21106
린다	-9.21329
옥	-9.21452
▁단계	-9.21468
▁후에	-9.21551
▁느끼	-9.21585
▁휴	-9.21659
▁발표	-9.21795
▁주식	-9.21848
▁등이	-9.21892
예요	-9.2205
▁소개	-9.22055
수록	-9.22074
▁말고	-9.22126
났다	-9.22206
▁밑	-9.22295
▁신경	-9.22371
▁N	-9.22371
▁제도	-9.22383
원이	-9.22459
궁	-9.22483
낼	-9.22546
st	-9.22594
▁타고	-9.22597
잡	-9.22686
▁자료	-9.22871
▁쓴	-9.22932
늘	-9.22937
▁군사	-9.23008
▁남아	-9.23032
▁일은	-9.23126
▁모른다	-9.23179
▁이곳	-9.23184
상의	-9.23203
▁산업	-9.23238
생활	-9.2327
▁예술	-9.23344
커	-9.23521
▁하였다	-9.23525
▁이와	-9.23622
▁하며	-9.23674
▁부인	-9.23786
▁젊은	-9.23803
받	-9.23807
▁목표	-9.23901
▁권력	-9.23977
▁F	-9.24
치고	-9.24073
▁상품	-9.2415
▁해주	-9.24213
v	-9.24237
▁다니	-9.24259
▁제일	-9.24283
▁지적	-9.24306
▁했습니다	-9.24402
▁광고	-9.24419
▁믿	-9.24566
둥	-9.24617
▁나이	-9.24654
▁활용	-9.24714
▁많다	-9.24716
조차	-9.24733
▁경우가	-9.24751
성과	-9.24788
물을	-9.24789
▁지금까지	-9.24796
▁필요가	-9.24908
▁되는데	-9.24928
▁왜냐하면	-9.24999
▁정리	-9.25025
▁시간을	-9.25041
사의	-9.25064
▁적용	-9.25172
▁불구하고	-9.25196
▁눈에	-9.25205
as	-9.25269
▁것인가	-9.25345
▁나왔	-9.2535
▁틀	-9.25449
▁분야	-9.25497
▁이때	-9.25598
ation	-9.256
▁갔다	-9.25652
▁있도록	-9.25669
▁문제는	-9.2575
▁괜찮	-9.25772
▁대로	-9.25791
문학	-9.25815
▁자주	-9.25902
▁제품	-9.25978
▁향해	-9.26039
▁보기	-9.26219
김	-9.26261
▁형태	-9.26268
▁나온	-9.26314
척	-9.26338
▁쉬	-9.2635
▁and	-9.2642
▁어려운	-9.26428
▁거리	-9.26493
문화	-9.26564
오는	-9.26626
B	-9.26677
▁조건	-9.26685
▁알려	-9.26747
▁클	-9.26775
함을	-9.26892
▁11	-9.26986
짓	-9.27001
버리	-9.27053
▁등장	-9.2708
▁가격	-9.27089
▁트	-9.27172
▁파악	-9.27256
▁서비스	-9.2729
▁몰	-9.27295
널	-9.27303
▁말하는	-9.27366
▁받은	-9.27557
▁독일	-9.2761
낸	-9.27636
패	-9.27646
죽	-9.27659
th	-9.27679
▁책을	-9.27684
▁철학	-9.27699
스는	-9.27704
▁말해	-9.27727
▁인터넷	-9.27877
▁하여	-9.27899
▁국내	-9.27945
▁부르	-9.28012
▁그렇습니다	-9.28016
▁비교	-9.28098
▁보니	-9.28115
응	-9.2823
얼	-9.2826
▁프랑스	-9.28272
택	-9.28357
▁시절	-9.28411
▁것이라고	-9.28467
▁상황이	-9.28586
▁의한	-9.28607
》	-9.28621
_	-9.28641
▁기본	-9.28649
▁요소	-9.28656
▁걸어	-9.28691
▁15	-9.28783
▁경우에	-9.28845
▁여기에	-9.28984
▁W	-9.29015
▁위치	-9.29252
▁숨	-9.29272
참	-9.29273
▁생기	-9.29532
되기	-9.29584
▁전문	-9.29661
▁실제	-9.29755
스러운	-9.29812
▁나중에	-9.29819
끼	-9.29834
하려는	-9.29837
▁대해서는	-9.29852
▁한편	-9.29854
교육	-9.29908
▁효과	-9.29955
▁낙	-9.30113
▁만든	-9.30136
으나	-9.30167
▁이것이	-9.30191
▁있겠	-9.30253
▁보호	-9.30279
▁없습니다	-9.30281
▁유럽	-9.3041
▁퍼	-9.30417
해주	-9.30459
되어야	-9.3051
▁여전히	-9.30711
이었	-9.30727
▁집단	-9.30748
엄	-9.30784
슨	-9.30831
하기도	-9.30834
나무	-9.30868
us	-9.30904
▁거기에	-9.30908
▁같아요	-9.31174
▁루	-9.31266
으로써	-9.31279
만이	-9.31294
▁월	-9.3135
el	-9.3137
들어	-9.31419
▁아빠	-9.31532
▁저녁	-9.31557
▁불안	-9.31575
자들은	-9.31589
▁이들	-9.31634
▁차이	-9.31637
▁되게	-9.31705
▁만드는	-9.31774
놓고	-9.31806
갑	-9.31976
▁집중	-9.31991
시는	-9.32022
암	-9.3205
런	-9.32057
▁프	-9.32141
et	-9.32157
위원회	-9.32157
▁못하는	-9.32162
▁정당	-9.32179
▁힘을	-9.32219
▁없다는	-9.32232
빈	-9.32265
▁대하여	-9.32512
▁넣	-9.32533
▁어린	-9.32623
▁수행	-9.3264
▁못했다	-9.32706
▁사상	-9.32871
촌	-9.32975
하려고	-9.33034
▁운	-9.33131
알	-9.33172
▁치료	-9.3318
하시	-9.33201
놓	-9.33224
냈다	-9.33314
▁희	-9.33323
▁있다면	-9.3352
따	-9.33579
▁분위기	-9.33667
학교	-9.33691
▁아니었다	-9.3371
렌	-9.33733
자들	-9.33899
▁불러	-9.33905
▁그곳	-9.33985
▁음식	-9.34035
▁정치적	-9.34059
▁섬	-9.34061
멸	-9.34106
▁증가	-9.34124
▁그렇다면	-9.34139
▁만한	-9.34188
성의	-9.34247
죄	-9.34259
▁듣	-9.34305
그래	-9.34312
▁찍	-9.34509
▁어찌	-9.34516
▁결코	-9.34539
▁만약	-9.34619
▁운영	-9.34619
원을	-9.34684
폐	-9.34708
▁과연	-9.34761
▁중에서	-9.34841
돈	-9.34842
▁나타나	-9.34958
겠지만	-9.35032
적이	-9.35035
▁학생들	-9.35083
혼	-9.35103
▁길을	-9.35218
클	-9.35241
짝	-9.35325
람	-9.35389
압	-9.35419
▁이유	-9.35422
▁끝나	-9.35432
시장	-9.35495
임을	-9.35528
▁같은데	-9.35578
정을	-9.35726
▁원인	-9.3584
▁녹	-9.35893
▁위하여	-9.35922
▁잡아	-9.3596
▁꾸	-9.36045
▁물었다	-9.36118
▁열심히	-9.36163
▁탄	-9.36201
페	-9.36297
▁기자	-9.36354
▁통일	-9.36444
▁반응	-9.36467
▁대상	-9.36553
갔	-9.36662
▁살펴보	-9.36684
▁와서	-9.36794
▁하나님	-9.36899
▁이건	-9.3708
▁옷	-9.37096
즘	-9.37218
▁병원	-9.37268
○	-9.37292
빛	-9.37328
했는데	-9.37407
▁독립	-9.37522
봤	-9.37542
데요	-9.37547
▁다만	-9.37679
웠다	-9.37693
▁다음에	-9.37829
▁긴	-9.37833
▁눈물	-9.38053
지가	-9.38093
식을	-9.38171
▁휘	-9.38189
드는	-9.38285
앙	-9.38345
▁씨가	-9.38352
▁느낌	-9.38458
om	-9.38486
▁R	-9.38523
해요	-9.38527
▁경우는	-9.38528
▁주고	-9.38662
▁빼	-9.38669
▁최고	-9.38802
▁실패	-9.38818
듬	-9.3885
▁디	-9.38904
▁지지	-9.38958
▁약속	-9.38981
잔	-9.39032
▁기능	-9.39037
▁받	-9.39046
▁얼굴을	-9.3906
벨	-9.39069
▁고민	-9.39103
▁입장	-9.39171
켜	-9.39386
▁놓고	-9.39399
▁K	-9.39437
▁기간	-9.39556
▁쌓	-9.39738
하는데	-9.39757
▁것에	-9.39856
시키	-9.39861
▁슬	-9.39896
윤	-9.40066
센	-9.40092
▁모르는	-9.40177
▁핵심	-9.40191
십시오	-9.40338
▁이러	-9.40402
사는	-9.40599
▁관심을	-9.40602
19	-9.40604
쉬	-9.40792
▁물건	-9.40816
같이	-9.40905
▁잊	-9.41038
7	-9.41185
▁칠	-9.412
▁대중	-9.41236
▁넘어	-9.41312
있는	-9.41315
▁혹시	-9.41318
▁원칙	-9.41358
▁모양	-9.41426
▁싶다	-9.4145
▁기준	-9.41692
▁근거	-9.41704
굴	-9.41833
맹	-9.41841
▁많아	-9.41877
▁부정	-9.41884
▁저도	-9.41917
랐	-9.41956
▁그들이	-9.42017
위를	-9.42066
▁이것	-9.42164
▁겪	-9.42199
▁견	-9.42222
▁사람들의	-9.42258
르는	-9.42263
▁《	-9.42303
▁마을	-9.42394
▁식으로	-9.42407
으면서	-9.42525
L	-9.42541
▁같았다	-9.42545
▁그다음에	-9.42565
▁창조	-9.42654
▁보였다	-9.42687
인은	-9.42743
▁빌	-9.42761
x	-9.4283
ur	-9.42907
접	-9.42991
▁특징	-9.43028
▁소유	-9.43086
▁경기	-9.43093
▁능력	-9.431
▁활	-9.43182
명을	-9.43199
우리	-9.43207
▁주제	-9.43225
▁그를	-9.43347
나요	-9.43351
▁이유는	-9.43384
물이	-9.43415
▁옆	-9.43435
▁한다고	-9.43536
▁그러므로	-9.43613
▁모르	-9.43653
▁범	-9.43686
▁가능성	-9.43718
▁그렇죠	-9.43721
이라면	-9.43751
▁말이다	-9.43812
▁효	-9.4385
이지만	-9.43871
▁영역	-9.43903
▁남성	-9.44038
▁접근	-9.44063
▁알았	-9.44063
었어요	-9.44156
▁의지	-9.4419
▁점점	-9.44221
점을	-9.44234
▁때까지	-9.44237
머니	-9.44301
▁논의	-9.44408
한다고	-9.44417
w	-9.44593
쓰	-9.44605
▁충분히	-9.44614
▁예수	-9.44619
▁냉	-9.44757
장은	-9.44778
▁플	-9.44813
▁지금은	-9.44856
▁하시	-9.44892
▁자식	-9.44947
▁관련된	-9.44959
하다고	-9.45124
10	-9.45157
▁목소리	-9.45211
▁자리	-9.45235
▁말은	-9.45268
▁뭘	-9.45276
▁업무	-9.45304
▁인해	-9.45317
▁찾	-9.45321
▁보인다	-9.45342
문을	-9.45343
보고	-9.45379
▁벽	-9.4538
▁어제	-9.45464
▁건데	-9.45487
▁모르겠	-9.45567
▁안에서	-9.45618
▁생각하는	-9.45756
폭	-9.458
▁브	-9.45914
링	-9.45931
▁몰라	-9.45936
▁별로	-9.45946
▁필요하다	-9.45959
객	-9.4596
▁내리	-9.46044
▁ᆞ	-9.46063
▁보이지	-9.46083
경제	-9.46085
▁들었다	-9.46094
웠	-9.46155
▁논리	-9.46273
▁중앙	-9.46305
▁생각하	-9.4635
▁놈	-9.46397
▁자체가	-9.46413
▁옛날	-9.46454
▁엄	-9.46493
▁환자	-9.46564
▁소리를	-9.46722
▁당신이	-9.46742
▁자세	-9.46828
되었	-9.46903
거든	-9.46905
▁좋	-9.4693
▁주로	-9.47021
▁하다	-9.4709
겁	-9.47091
님이	-9.47095
우스	-9.47102
▁있었고	-9.47132
했지만	-9.47163
▁살고	-9.47167
▁권리	-9.47226
▁어쨌든	-9.47231
▁보이	-9.47255
없는	-9.47281
·	-9.47347
한다면	-9.47381
이면	-9.47389
퇴	-9.47457
▁아는	-9.47457
▁괴	-9.47512
렬	-9.47603
▁행정	-9.4764
▁평화	-9.47644
▁[	-9.47658
에게는	-9.4771
▁특정	-9.47734
▁바다	-9.47801
을까	-9.47826
▁삶의	-9.47852
▁착	-9.47994
쳤	-9.48014
놈	-9.4817
▁않습니까	-9.48189
▁말할	-9.48203
치를	-9.48237
▁바꾸	-9.48413
0	-9.48525
▁머	-9.48617
)'	-9.48668
▁과정에서	-9.48676
측	-9.48774
▁주요	-9.48865
▁국회	-9.48888
▁인도	-9.48947
이기	-9.48964
人	-9.48985
▁피해	-9.49011
▁작용	-9.49025
▁이미지	-9.49066
▁가능	-9.49087
▁점에서	-9.49094
줘	-9.49103
▁꼬	-9.49165
▁낳	-9.49199
내는	-9.49219
▁어렵	-9.49269
혈	-9.4927
답	-9.49277
』,	-9.49279
▁그녀가	-9.49291
9	-9.49317
개월	-9.49349
스가	-9.49357
▁대화	-9.49405
대를	-9.49537
▁까	-9.49545
8	-9.49595
▁가능성이	-9.49703
▁뇌	-9.49704
세를	-9.49731
시킬	-9.49771
짐	-9.49891
▁말에	-9.49926
▁판매	-9.49998
제를	-9.50059
장님	-9.50249
▁반면	-9.503
짜	-9.50594
▁거래	-9.50621
▁깊은	-9.50654
▁들어서	-9.5067
됐	-9.50785
▁강화	-9.50794
G	-9.50834
▁관계를	-9.50857
먼	-9.5087
▁받았	-9.50922
▁굴	-9.50952
겠지	-9.50967
▁가득	-9.5102
▁건물	-9.51022
비를	-9.51161
▁답	-9.51166
▁s	-9.51213
싸	-9.51225
▁분들	-9.51265
▁처리	-9.51286
▁있었는데	-9.51296
▁정상	-9.51393
꾼	-9.51421
▁존	-9.51442
▁뉴스	-9.51469
▁받는	-9.51673
▁않을까	-9.51703
회사	-9.51774
▁팀	-9.51819
▁형식	-9.51873
▁벌어	-9.51911
▁바라	-9.51957
▁희망	-9.51996
▁멀	-9.52002
원의	-9.52031
▁흔들	-9.52031
턴	-9.5205
▁보도	-9.52083
▁먹는	-9.52122
▁행사	-9.52151
▁동물	-9.52173
기관	-9.522
▁텐데	-9.52202
z	-9.52232
▁따른	-9.52279
었지만	-9.5232
▁분명히	-9.5233
▁있는지	-9.52346
째	-9.52371
▁곡	-9.52386
하다는	-9.52524
▁이르	-9.52538
▁in	-9.52575
▁바뀌	-9.52577
▁비용	-9.52616
▁되기	-9.52714
자로	-9.52732
서를	-9.52746
▁지키	-9.52753
빠	-9.52754
▁수는	-9.52803
▁다섯	-9.52864
춤	-9.52948
▁움직이	-9.52994
”	-9.53084
▁끌어	-9.531
▁게임	-9.53217
▁삶을	-9.53271
▁하자	-9.53309
[	-9.53313
려는	-9.53334
▁본다	-9.53343
▁사례	-9.53371
▁내부	-9.53456
국의	-9.53514
▁마찬가지	-9.53707
블	-9.53758
▁갈등	-9.53803
▁니	-9.53831
▁안전	-9.53867
떡	-9.53891
▁자기가	-9.53911
▁있을까	-9.53921
▁누군가	-9.53971
랄	-9.54019
▁단지	-9.5406
▁도착	-9.54064
했다고	-9.5413
▁돼요	-9.54136
간의	-9.54186
▁받을	-9.54262
버린	-9.5432
흥	-9.54418
▁당연히	-9.54564
스의	-9.5458
났	-9.54625
▁엘	-9.54646
▁밖에	-9.54674
▁외국	-9.54785
렁	-9.54854
▁없다고	-9.54858
▁내게	-9.54879
▁갖	-9.54908
▁감사	-9.54913
닥	-9.54922
시대	-9.5494
하니	-9.54966
▁들어오	-9.54968
금을	-9.5507
▁부담	-9.55112
▁유리	-9.55124
▁내용을	-9.55142
▁방문	-9.55145
▁구분	-9.55165
시키고	-9.55202
▁했지만	-9.55214
▁상호	-9.55244
▁미국의	-9.55327
▁하게	-9.55331
었고	-9.55339
▁보험	-9.5534
▁세력	-9.55359
▁의미를	-9.55365
▁주인	-9.55368
뿐만	-9.55402
▁아직도	-9.5551
▁기초	-9.55672
성에	-9.55706
당한	-9.55741
략	-9.55812
▁특성	-9.55854
▁앞서	-9.55872
였던	-9.55886
자와	-9.55958
▁혈	-9.56053
▁시민	-9.56109
▁포기	-9.56113
▁언제나	-9.56139
▁불과	-9.56149
▁쓰는	-9.56187
▁오늘날	-9.56242
▁최근	-9.56288
▁알게	-9.56342
▁예상	-9.56351
성은	-9.56425
▁부분이	-9.56426
▁근대	-9.56454
▁수익	-9.56509
▁개혁	-9.56531
▁맛있	-9.56611
▁척	-9.56693
▁관심	-9.56709
더라	-9.56709
▁컴퓨터	-9.56721
il	-9.56752
▁지구	-9.56815
▁차지	-9.56939
완	-9.56944
▁앉	-9.56956
혜	-9.57005
▁name	-9.57053
스를	-9.57111
하신	-9.57129
▁퇴	-9.57134
▁중심으로	-9.57154
▁위로	-9.57177
▁상징	-9.57231
▁걷	-9.57334
ac	-9.57489
▁때마다	-9.57565
▁주체	-9.57566
▁너무나	-9.5762
▁친구들	-9.57692
▁역할	-9.57715
F	-9.5773
하였	-9.57769
쾌	-9.57772
▁떨어지	-9.57795
▁옆에	-9.57827
▁그래요	-9.57924
▁시각	-9.57936
만을	-9.5794
십니까	-9.57971
▁가리	-9.57981
▁그것도	-9.58019
▁곳이	-9.58083
다니	-9.58249
▁소리가	-9.58305
▁있었습니다	-9.58347
▁것만	-9.58352
▁계약	-9.58378
▁자동차	-9.58417
▁이름을	-9.58527
▁안정	-9.58535
▁언급	-9.58626
▁만족	-9.5863
▁입을	-9.5864
▁전달	-9.58668
세계	-9.58717
▁맨	-9.58809
▁것이고	-9.58835
▁그날	-9.58927
없	-9.58969
▁맺	-9.58979
▁이걸	-9.59053
▁상상	-9.59113
▁정의	-9.59267
▁일상	-9.59274
▁벌써	-9.5928
▁영어	-9.59356
▁하더라도	-9.59363
드리	-9.59391
▁듯한	-9.59396
▁익	-9.59445
▁방향	-9.59452
사람	-9.59615
주세요	-9.59625
ri	-9.59678
▁그동안	-9.59706
▁들었	-9.59885
이기도	-9.59919
뜨	-9.60019
▁가능한	-9.60095
▁내일	-9.60109
정책	-9.60158
컨	-9.60235
▁100	-9.60254
▁혁명	-9.60262
▁마리	-9.60264
▁시도	-9.60407
인들이	-9.60416
▁아프	-9.60448
좌	-9.6045
▁도움이	-9.60485
였습니다	-9.6059
▁명의	-9.60614
▁기분	-9.60684
▁수많은	-9.60726
▁높이	-9.60726
▁소식	-9.60777
▁회의	-9.60781
▁17	-9.60793
▁웃음	-9.60814
▁다리	-9.60819
▁되겠	-9.60849
▁혜	-9.60864
▁뜨	-9.60953
▁현장	-9.6101
▁노인	-9.61019
▁둘째	-9.61024
▁할머니	-9.61033
▁놀라	-9.61078
▁방법을	-9.61164
쇄	-9.61243
ter	-9.61285
▁개의	-9.61287
▁각각	-9.61321
▁보았다	-9.61389
▁벗어나	-9.61434
중에	-9.61436
▁우주	-9.61523
▁들려	-9.61668
▁저희가	-9.61708
학생	-9.61794
▁금융	-9.6182
▁먹어	-9.61829
▁위기	-9.61852
▁방법이	-9.61928
감이	-9.62021
▁확대	-9.6203
▁부탁	-9.62044
줬	-9.62057
했다는	-9.6206
주고	-9.62102
그러	-9.62159
▁이동	-9.62215
▁시스템	-9.62303
▁해요	-9.62333
장에	-9.62403
겼다	-9.62412
▁지도	-9.62415
폴	-9.62507
▁이에	-9.62513
▁자꾸	-9.62567
▁얼	-9.62568
▁모습이	-9.62642
▁그러다	-9.62689
▁언니	-9.6269
나가	-9.62707
제도	-9.62715
▁쪽으로	-9.62719
▁종류	-9.62727
▁실천	-9.62735
▁16	-9.62813
▁제기	-9.62825
▁은행	-9.62966
▁뿐만	-9.63038
냈	-9.63056
▁이번에	-9.63089
▁오빠	-9.63097
웨	-9.63132
하시는	-9.63155
▁직업	-9.63261
▁것인지	-9.63293
▁추구	-9.63306
法	-9.63334
전을	-9.63493
H	-9.63548
▁전문가	-9.63638
▁러시아	-9.63644
롭	-9.63732
▁체계	-9.63733
▁50	-9.63767
▁흘러	-9.63814
▁재산	-9.63887
▁J	-9.63927
지지	-9.64007
▁먼	-9.64013
▁미리	-9.64033
▁선수	-9.64055
▁아파트	-9.64082
▁길이	-9.64083
▁무엇이	-9.64089
▁뒷	-9.6416
이지	-9.64194
▁매일	-9.64214
▁그만	-9.64214
▁국민들	-9.64227
겠다고	-9.64232
ro	-9.64258
맞	-9.64308
업체	-9.64431
▁힘이	-9.64433
▁머리를	-9.64436
▁곳에	-9.64475
▁늦	-9.64512
소를	-9.64516
자리	-9.64543
맥	-9.64546
겠죠	-9.64658
▁대통령이	-9.64668
정부	-9.64709
▁정보를	-9.64709
▁나누	-9.64746
▁옥	-9.64748
▁상황에서	-9.64761
∼	-9.6479
▁맞는	-9.64797
▁선물	-9.64832
간다	-9.64845
▁시험	-9.64897
▁늘어	-9.64918
▁직장	-9.64986
▁이유가	-9.65069
▁출신	-9.65173
▁잠깐	-9.65176
활동	-9.65177
am	-9.65227
▁때문이	-9.65339
▁보자	-9.65395
▁점을	-9.65428
▁진실	-9.65462
▁불가능	-9.65495
▁시선	-9.65539
▁출발	-9.65614
▁가고	-9.6562
문제	-9.65744
스크	-9.65772
▁증거	-9.65783
▁훈련	-9.65855
▁일이다	-9.65917
▁분이	-9.65962
▁수용	-9.65975
▁것들이	-9.66038
그렇	-9.66065
▁뿐이다	-9.66205
▁변호사	-9.6622
회의	-9.66261
▁거는	-9.66279
▁그저	-9.66295
▁갖는	-9.66299
▁녀석	-9.66308
우는	-9.66432
▁부부	-9.66484
분이	-9.66496
▁의심	-9.66514
▁수사	-9.66536
▁빨	-9.66583
▁상처	-9.66613
▁핵	-9.66621
50	-9.66631
▁쓰고	-9.66649
▁좌	-9.6665
▁기독교	-9.66653
▁보여주	-9.66664
▁본질	-9.66672
트를	-9.66759
▁넣어	-9.66816
▁재판	-9.66835
▁나아가	-9.66949
▁덕	-9.66997
▁나머지	-9.67073
▁세상에	-9.67164
▁이루어지	-9.67192
▁반복	-9.67204
제가	-9.67216
확	-9.67284
▁상대방	-9.67286
▁기울	-9.67287
▁갑	-9.6729
▁봄	-9.67298
겠어요	-9.67347
▁사장	-9.6741
▁확보	-9.67454
▁탐	-9.67583
▁퍼센트	-9.67609
▁흑	-9.67723
▁아무런	-9.67882
전에	-9.6789
▁비록	-9.67909
학자	-9.67938
▁장소	-9.68018
▁사람들을	-9.68032
▁의도	-9.68133
▁받았다	-9.6816
겠다는	-9.68166
▁집안	-9.68211
▁장면	-9.68229
▁않게	-9.68234
▁보아	-9.68271
풀	-9.68337
수는	-9.68345
▁공개	-9.68415
▁완전	-9.68443
▁있죠	-9.68507
▁없어요	-9.68539
▁준다	-9.68549
▁올라가	-9.68559
▁흐	-9.68565
려면	-9.68574
▁정권	-9.686
▁공동	-9.68626
아니	-9.68714
=	-9.68722
▁검찰	-9.68736
▁등에	-9.68741
아야	-9.68772
▁쥐	-9.68791
▁지속	-9.68798
▁비해	-9.68815
▁임금	-9.68836
▁그리스도	-9.68845
▁체제	-9.68871
▁사람에게	-9.68945
쿠	-9.6908
혁	-9.69115
▁조정	-9.69154
▁회장	-9.69167
▁꺼	-9.6918
▁생각하고	-9.69255
▁그에게	-9.69277
▁오르	-9.69301
▁맥	-9.69409
▁담당	-9.69412
칙	-9.69491
화가	-9.69498
하겠다	-9.69503
더라고요	-9.69515
▁학습	-9.69519
▁올리	-9.69589
▁추진	-9.69705
화된	-9.69756
▁제작	-9.69782
ul	-9.6981
▁첫째	-9.69831
▁하나는	-9.69896
준다	-9.69901
▁계산	-9.69976
....	-9.70096
▁무엇을	-9.70156
▁물질	-9.70168
하고자	-9.70221
之	-9.70301
▁본인	-9.70342
▁속으로	-9.70385
18	-9.70419
▁못할	-9.7045
▁멀리	-9.70464
으로는	-9.70479
과정	-9.70493
▁박사	-9.70512
▁어깨	-9.70606
▁이전	-9.70695
200	-9.70733
▁생긴	-9.70753
▁가면	-9.70777
▁자리를	-9.70922
▁그렇	-9.70978
면은	-9.70982
▁자네	-9.71039
▁염	-9.71045
▁삼십	-9.71068
웃	-9.71137
▁못한다	-9.71161
▁에너지	-9.71179
하려	-9.71237
▁거기서	-9.7131
푸	-9.7133
▁확실	-9.71337
▁당신은	-9.71338
부가	-9.71346
▁군대	-9.71358
▁마음에	-9.71359
▁지켜	-9.71367
기업	-9.71371
▁주위	-9.71376
▁색	-9.71445
▁전부	-9.71478
▁신뢰	-9.71485
▁소비자	-9.71518
▁거부	-9.7155
쩍	-9.71577
스터	-9.71733
▁남북	-9.71787
부를	-9.71796
▁명이	-9.71803
▁기관	-9.71831
▁차례	-9.71832
렀	-9.71853
▁자녀	-9.71989
▁미치	-9.72039
▁압	-9.72085
▁보수	-9.72091
둔	-9.72188
킨	-9.72222
大	-9.72268
▁된다는	-9.72281
자들의	-9.7229
몽	-9.72299
▁싫	-9.72326
▁마시	-9.72372
▁선생	-9.72414
▁다루	-9.72479
▁올려	-9.72547
▁그러고	-9.72559
점이	-9.72589
▁초기	-9.72668
―	-9.72704
▁따르면	-9.72769
껏	-9.72789
▁측	-9.72841
학적	-9.72893
▁결론	-9.72949
가지	-9.73027
▁때도	-9.73055
▁돌려	-9.7309
▁강한	-9.73119
▁뿌리	-9.7315
▁비슷한	-9.7316
▁근본	-9.73184
▁겨울	-9.7327
▁홀	-9.73282
숭	-9.73289
▁둔	-9.734
20	-9.73448
▁청년	-9.73508
둘	-9.73554
▁징	-9.73563
▁거지	-9.73564
▁드리	-9.73571
장에서	-9.73608
▁있음을	-9.73698
▁장기	-9.73716
▁몰랐	-9.73739
▁여름	-9.73796
어진	-9.7386
▁아름다운	-9.73865
▁좋을	-9.73888
▁브랜드	-9.7392
▁실험	-9.73975
▁이처럼	-9.74042
법을	-9.74057
시다	-9.74089
▁사람들에게	-9.74103
▁계시	-9.74166
이죠	-9.74195
튼	-9.74213
꽃	-9.74229
▁헌	-9.74289
▁아이가	-9.74295
▁부동산	-9.74399
▁그러자	-9.74408
▁원하는	-9.7441
눈	-9.74449
흔	-9.74468
▁주목	-9.74469
으므로	-9.74493
묘	-9.74539
▁싫어	-9.74547
잉	-9.74641
▁중간	-9.74651
▁때문	-9.74665
▁법률	-9.74832
▁차이가	-9.7486
▁중요하다	-9.74883
▁눈이	-9.74888
▁글을	-9.74894
장의	-9.74898
콘	-9.74904
▁당장	-9.75
▁대체	-9.75071
냥	-9.75077
▁검사	-9.75096
벤	-9.75143
▁그들	-9.75175
▁무엇인가	-9.75232
관리	-9.75251
▁확	-9.75268
▁범죄	-9.75364
▁납	-9.75366
▁무시	-9.75409
▁새로	-9.75488
스럽	-9.75603
▁한계	-9.75611
▁규모	-9.75696
비가	-9.75732
자에게	-9.75793
▁대부분의	-9.75795
힐	-9.75834
▁비밀	-9.75842
심을	-9.75848
▁긴장	-9.75876
▁단어	-9.75882
홍	-9.75998
스럽게	-9.76015
▁게다가	-9.76077
▁주었다	-9.76123
▁아무도	-9.76316
▁엄청난	-9.76376
겐	-9.76462
▁저기	-9.76554
지게	-9.76603
▁부여	-9.76606
삭	-9.76614
▁감독	-9.76635
▁독자	-9.76642
논	-9.76719
▁해보	-9.76736
리스	-9.7678
▁싸움	-9.76812
▁빠	-9.76923
▁O	-9.77103
엘	-9.77116
수의	-9.77155
▁실현	-9.77189
ᄏ	-9.77208
시아	-9.77249
▁전국	-9.77292
▁마찬가지로	-9.77331
▁죽은	-9.77334
▁돈이	-9.77347
대한	-9.7741
▁깊이	-9.7743
해보	-9.77441
기만	-9.7746
▁나에게	-9.7751
함이	-9.77517
▁경우도	-9.77557
▁집에서	-9.77587
▁통합	-9.77604
인데요	-9.77618
▁인상	-9.77628
▁어떠한	-9.77642
▁의견	-9.77691
▁제한	-9.77746
國	-9.77747
▁아닙니다	-9.77749
▁여인	-9.77764
렀다	-9.77828
룩	-9.77833
▁다르	-9.77873
게요	-9.77876
▁얼굴이	-9.77893
▁명령	-9.77922
ra	-9.77934
▁완성	-9.77972
▁젖	-9.7798
▁오는	-9.78106
▁사내	-9.78163
▁풀어	-9.78176
선을	-9.782
사업	-9.78211
명이	-9.78367
▁맞아	-9.78398
▁아무것도	-9.78492
▁했고	-9.78497
▁떼	-9.78533
▁상승	-9.78584
▁14	-9.78599
▁좋아하는	-9.78606
▁그렇다고	-9.78641
대가	-9.78683
▁실시	-9.78722
▁동생	-9.78761
▁냄새	-9.78813
▁기다리	-9.78842
▁해외	-9.78846
으려	-9.78859
학년	-9.78906
▁운전	-9.78909
▁건설	-9.78976
▁하셨	-9.78986
id	-9.79003
▁만일	-9.79052
▁않습니다	-9.79105
▁낭	-9.79134
▁말이야	-9.79139
▁상황을	-9.79188
되면서	-9.79219
었을	-9.79254
▁심지어	-9.79269
▁전환	-9.79315
▁보장	-9.79397
▁못했	-9.79457
▁자본	-9.79528
▁맹	-9.79641
겠습니까	-9.79662
킬	-9.79675
식이	-9.79764
셨다	-9.79767
▁이제는	-9.79774
▁거라고	-9.7979
어져	-9.79835
▁들면	-9.79882
▁집을	-9.79887
▁통제	-9.79905
▁밝혀	-9.79906
이었던	-9.7992
▁자리에	-9.80032
▁더불어	-9.80093
▁그렇지만	-9.80115
▁당신의	-9.80142
했기	-9.80174
▁말씀을	-9.80228
▁●	-9.80237
▁일찍	-9.80326
▁생각했다	-9.80331
▁커다란	-9.8044
▁이익	-9.80456
▁생각한다	-9.80492
▁쳐	-9.80499
내가	-9.80511
▁뒤로	-9.80532
▁가까이	-9.8064
▁성적	-9.80645
▁버리	-9.80664
▁말았다	-9.80699
▁넓	-9.80709
밭	-9.8071
▁연락	-9.80796
▁특별한	-9.80856
▁아니에요	-9.80899
▁전개	-9.80916
▁돌아오	-9.81072
▁이것을	-9.8113
▁인간이	-9.81226
▁이후에	-9.81258
V	-9.81262
▁보시	-9.81273
▁충분	-9.81351
▁식사	-9.81403
▁가야	-9.81527
해진	-9.81554
▁나왔다	-9.81588
▁속도	-9.81588
▁하나가	-9.8171
▁세상을	-9.81713
▁의해서	-9.81759
▁학문	-9.81788
▁느껴	-9.818
▁몽	-9.81801
▁과정을	-9.81809
▁나쁜	-9.81879
▁가끔	-9.81992
대의	-9.8207
▁나올	-9.82072
▁좋겠	-9.82104
▁문을	-9.82171
▁느	-9.82196
▁이상의	-9.82202
▁수단	-9.8221
▁반영	-9.82296
▁성과	-9.82307
▁전자	-9.82419
▁밖으로	-9.82517
투자	-9.82566
팅	-9.8259
un	-9.82593
▁덜	-9.82603
▁13	-9.82633
잎	-9.82662
▁않겠	-9.82683
시죠	-9.827
▁손에	-9.82704
▁먹을	-9.82761
▁대응	-9.82777
▁된다고	-9.82854
▁표정	-9.82912
옵니다	-9.82929
▁측면	-9.8295
행위	-9.82967
os	-9.82998
▁푸	-9.83029
꾸	-9.83093
엽	-9.83148
▁외부	-9.8315
▁종합	-9.83161
▁그녀	-9.83175
▁세월	-9.83176
▁몸이	-9.83189
▁이들은	-9.83197
▁손님	-9.83252
▁하나님의	-9.83269
▁능	-9.83325
특	-9.83342
징	-9.83364
▁이래	-9.83401
입니까	-9.83404
▁설치	-9.83455
▁유형	-9.83463
▁운명	-9.8363
▁수입	-9.83632
▁마침내	-9.83793
셨어요	-9.83815
하여야	-9.83845
▁봐야	-9.83886
주를	-9.83899
▁무리	-9.83925
인들은	-9.8399
▁날아	-9.84017
▁달러	-9.84097
▁합의	-9.84104
▁모여	-9.84139
▁사람도	-9.84139
▁주인공	-9.84151
해도	-9.84174
▁바닥	-9.84208
▁건너	-9.84378
낸다	-9.84631
지역	-9.84649
▁깔	-9.84689
긋	-9.84692
▁굳	-9.84755
활	-9.84859
ent	-9.85013
융	-9.85013
▁직원	-9.85024
▁○	-9.85077
되면	-9.8508
▁한마디	-9.85305
▁시작한	-9.85307
▁개선	-9.85316
▁벗	-9.85364
30	-9.85454
▁같아	-9.85494
70	-9.85584
인을	-9.85605
▁로마	-9.85666
▁공급	-9.85673
▁정도의	-9.85676
▁의무	-9.85678
▁지닌	-9.857
관이	-9.85755
즐	-9.85794
▁케이	-9.85845
▁흐름	-9.8587
세가	-9.85964
랍	-9.86027
▁장애	-9.86042
▁한다면	-9.86062
▁장관	-9.86111
▁하겠다	-9.86229
▁제안	-9.86242
마저	-9.86263
첩	-9.86298
▁결과를	-9.86329
▁다양	-9.86331
▁옳	-9.8639
▁요인	-9.86397
끄러	-9.8641
보면	-9.86413
▁생겨	-9.86443
기술	-9.86472
▁극복	-9.86476
▁충격	-9.86546
▁그만큼	-9.86568
▁설정	-9.8665
끔	-9.86659
▁흔히	-9.86666
▁느낌이	-9.86667
▁40	-9.86677
쁜	-9.86693
▁아무래도	-9.86723
구조	-9.86742
▁비롯	-9.86751
▁소비	-9.86777
▁발달	-9.86827
정치	-9.86864
▁그러면서	-9.86866
▁인류	-9.86905
▁단체	-9.86913
▁요리	-9.87017
또	-9.8707
▁히	-9.87124
몬	-9.87142
▁얻어	-9.87236
▁가까운	-9.87251
▁의하여	-9.87276
▁높아	-9.87319
▁언	-9.87395
왜	-9.87412
▁가게	-9.8751
▁제외	-9.87537
▁힘든	-9.87566
바닥	-9.87616
▁물어	-9.87668
▁일에	-9.87804
▁도망	-9.87805
不	-9.87818
se	-9.87981
▁씨는	-9.87991
면서도	-9.88004
▁승리	-9.88032
▁때에는	-9.88065
▁우리에게	-9.8813
▁황제	-9.88182
▁티	-9.88214
▁아닙니까	-9.88304
▁작성	-9.88309
▁그녀를	-9.88353
거리는	-9.88388
▁욕망	-9.88391
▁모델	-9.88406
▁ᄏᄏᄏ	-9.88426
▁꺼내	-9.88476
됨	-9.88523
틴	-9.88576
끌	-9.88668
▁것들	-9.88818
▁c	-9.88826
농	-9.88828
▁말도	-9.88831
밥	-9.88837
했으며	-9.88886
▁부분에	-9.88889
▁회복	-9.89031
▁경제적	-9.89066
롱	-9.89071
▁사망	-9.89137
▁물리	-9.8918
▁문자	-9.89281
▁아예	-9.89293
ut	-9.89401
▁며칠	-9.89492
▁아닐까	-9.89506
▁사정	-9.89531
▁쳐다보	-9.89543
▁노동자	-9.89589
▁세대	-9.8966
▁따르	-9.8967
시켰다	-9.89724
▁헌법	-9.89729
대학교	-9.89737
뚝	-9.89757
▁끊	-9.89816
15	-9.89829
부의	-9.89832
▁평소	-9.89835
▁내용이	-9.89905
▁사이의	-9.89918
▁도대체	-9.89943
▁배경	-9.89969
원은	-9.89994
▁갖추	-9.9002
▁평균	-9.90136
▁쏟아	-9.90137
▁주택	-9.90191
▁교사	-9.9025
▁기계	-9.90261
치가	-9.90292
대는	-9.90403
▁만약에	-9.90418
맨	-9.9043
주었다	-9.90467
▁으	-9.90532
트는	-9.90565
▁문재인	-9.90649
▁숲	-9.90671
대학	-9.90675
▁미안	-9.9072
▁분들이	-9.90737
▁영혼	-9.90815
▁자극	-9.90816
붙	-9.90862
룡	-9.90961
▁전투	-9.90995
▁엔	-9.91025
▁따로	-9.9111
▁진정한	-9.91114
▁맞추	-9.91157
▁보지	-9.91176
되었고	-9.91183
았던	-9.9122
▁있잖아요	-9.9122
▁감사합니다	-9.91246
▁기회	-9.91263
▁오랜	-9.91296
이든	-9.91314
▁유명한	-9.9142
▁불리	-9.91436
▁화가	-9.91483
▁드러	-9.91485
▁최근에	-9.91513
▁잡고	-9.91549
텔	-9.91585
▁물러	-9.91602
▁했어요	-9.91749
▁전화를	-9.91763
▁찌	-9.9186
▁어쩔	-9.91934
▁재미있	-9.91956
국가	-9.91959
▁오늘은	-9.9196
▁문장	-9.91962
벼	-9.91968
12	-9.91972
▁도입	-9.91985
몰	-9.91993
과는	-9.92059
▁묘	-9.92198
▁각종	-9.92236
」,	-9.92239
ᄒ	-9.92293
▁견해	-9.92306
▁고향	-9.92326
▁세우	-9.92357
▁V	-9.92367
끼리	-9.92374
▁얘	-9.92387
명의	-9.92393
▁관찰	-9.92398
ad	-9.92432
▁상담	-9.92451
▁나오고	-9.92475
▁담배	-9.92493
▁사항	-9.92537
▁전제	-9.92598
▁떨어져	-9.92598
▁도전	-9.92644
시킨	-9.92724
▁협상	-9.9275
▁죽어	-9.92823
님께서	-9.92842
맛	-9.92926
▁기회를	-9.92942
op	-9.9295
팽	-9.92965
튀	-9.92973
▁지내	-9.9299
▁덮	-9.93024
▁문제에	-9.93042
▁도움을	-9.93049
▁신앙	-9.93084
았습니다	-9.93139
▁일정	-9.9317
▁대비	-9.93197
덩	-9.93232
▁평생	-9.93273
▁어렵다	-9.9331
im	-9.93319
▁전해	-9.93336
▁좀더	-9.93353
▁꽤	-9.93354
▁받아들이	-9.93397
닐	-9.93405
▁때가	-9.93414
간에	-9.9345
에게서	-9.93455
▁욕	-9.93469
▁좋지	-9.93474
섰다	-9.9349
▁시인	-9.9351
렇	-9.9366
▁묵	-9.93689
▁일반적으로	-9.93708
슈	-9.93716
셨습니다	-9.93729
머리	-9.93741
봐야	-9.93773
▁것이며	-9.938
셔야	-9.93855
▁흘	-9.93867
▁해방	-9.93898
깃	-9.93933
▁대한민국	-9.93983
▁받으	-9.94035
▁슈	-9.94046
▁파괴	-9.94063
▁적극	-9.94084
▁2.	-9.94094
ew	-9.94103
연구	-9.94114
▁말로	-9.94121
em	-9.94234
욱	-9.94245
▁오십	-9.94246
▁신체	-9.94257
▁집으로	-9.94305
▁설득	-9.94319
▁기도	-9.94333
▁읽어	-9.94341
▁원리	-9.94458
내고	-9.94485
▁탓	-9.94516
▁The	-9.94541
▁짜	-9.94548
로서의	-9.94635
90	-9.9467
겼	-9.94706
▁능력을	-9.94721
버려	-9.94745
▁움	-9.9477
년간	-9.94784
들었다	-9.9481
▁엄마가	-9.94817
▁주시	-9.94884
랜드	-9.9491
▁그렇기	-9.9493
버렸	-9.94954
▁보면은	-9.95022
▁토론	-9.95041
▁있으	-9.9508
▁통하여	-9.95144
▁생각할	-9.95185
▁행동을	-9.95235
▁흐르	-9.95284
▁똑같	-9.95333
▁섞	-9.95417
잘	-9.95443
▁곳에서	-9.95449
이었습니다	-9.95463
▁새벽	-9.95465
옮	-9.95487
▁졸업	-9.95531
▁결합	-9.95553
릿	-9.95561
마는	-9.95586
▁역사적	-9.95656
▁흥미	-9.95674
▁요청	-9.95752
K	-9.95765
라든가	-9.95811
▁만났	-9.9595
▁듯이	-9.96
▁통한	-9.96092
▁했을	-9.96093
흐	-9.96107
▁스포츠	-9.96126
다른	-9.96146
▁아마도	-9.96178
od	-9.96189
▁옷을	-9.96217
▁인구	-9.96237
▁경계	-9.96322
미터	-9.96381
▁안녕하세요	-9.96483
▁밖	-9.96502
▁위협	-9.9653
만한	-9.96535
들로	-9.96576
▁검은	-9.96583
▁지시	-9.96583
▁마주	-9.96584
ir	-9.96614
▁관계가	-9.96652
▁공동체	-9.96708
▁만에	-9.96717
릭	-9.96737
ow	-9.9674
▁같애요	-9.96741
▁생겼	-9.96811
▁짐	-9.96843
▁여자가	-9.96871
+	-9.96877
▁영업	-9.96922
▁할아버지	-9.96927
퀴	-9.96941
▁누구나	-9.97049
했어요	-9.97128
▁커피	-9.97141
줘야	-9.9719
였는데	-9.97252
뉴	-9.97253
▁아니냐	-9.97348
▁있으니까	-9.97377
▁수업	-9.97382
▁세워	-9.97427
▁보면서	-9.97438
▁자금	-9.975
▁기분이	-9.97507
▁폭력	-9.97529
▁a	-9.97563
▁청와대	-9.9757
▁값	-9.97626
놓은	-9.97643
군의	-9.97697
닌	-9.97786
▁저항	-9.97858
▁표시	-9.97884
▁나타내	-9.97925
▁천천히	-9.97927
▁네가	-9.98045
탑	-9.98059
▁외교	-9.98072
▁적어도	-9.9808
▁아이를	-9.98115
꼬	-9.98161
▁당시에	-9.98292
▁시점	-9.98292
▁최고의	-9.98292
▁마케팅	-9.983
▁공식	-9.98326
一	-9.98327
▁w	-9.98371
딜	-9.98451
▁하겠습니다	-9.98482
▁똑같은	-9.98515
▁흉	-9.98539
▁습관	-9.98582
▁말하고	-9.9865
▁데리고	-9.98666
者	-9.98667
▁캐	-9.98708
셀	-9.98758
산업	-9.98834
▁무렵	-9.98836
▁사회의	-9.98838
뇌	-9.98921
▁시간에	-9.98987
멍	-9.99041
곱	-9.99044
▁규	-9.99052
▁있는가	-9.99086
▁블	-9.99102
ie	-9.99114
▁드러내	-9.99133
▁아니야	-9.9916
▁주도	-9.99169
▁대상으로	-9.99194
럭	-9.99243
▁것들을	-9.99272
몸	-9.99345
▁물을	-9.99382
▁공장	-9.99406
▁공포	-9.9942
▁그까	-9.99451
▁활동을	-9.99469
▁전형	-9.99502
▁참고	-9.99508
▁희생	-9.99535
▁멋	-9.9954
▁하니까	-9.99575
▁공공	-9.99585
11	-9.99671
▁쉽지	-9.99791
▁빠지	-9.99806
ment	-9.99836
▁겨우	-9.99859
텐	-9.99873
▁지급	-9.99885
W	-9.99933
▁영향	-9.99937
▁이천십	-10.0003
좁	-10.0007
▁일본의	-10.0008
셔서	-10.0012
▁쫌	-10.0016
인들의	-10.0016
▁이른바	-10.0018
▁b	-10.0024
▁사실이	-10.0025
▁생각합니다	-10.0026
▁감각	-10.0029
▁기반	-10.003
▁보았	-10.0032
▁시행	-10.0035
ᄏᄏᄏᄏᄏ	-10.0036
▁틈	-10.0038
렴	-10.0038
뿌	-10.004
같은	-10.004
됐다	-10.0046
▁제국	-10.0046
▁발휘	-10.0053
늙	-10.0056
체제	-10.0062
▁끓	-10.0066
뭔	-10.0067
▁한참	-10.0068
▁의미가	-10.0069
▁건축	-10.0069
▁믿음	-10.007
▁이거는	-10.0072
화의	-10.0072
쉽	-10.0074
킹	-10.0074
▁체험	-10.0077
▁정부가	-10.008
▁만난	-10.0085
▁위에서	-10.0086
▁부모님	-10.0087
▁그려	-10.0092
▁것보다	-10.0093
월에	-10.0096
적이다	-10.0099
▁살펴	-10.0102
롭게	-10.0112
▁어쩌면	-10.0119
▁메시지	-10.0123
▁박근혜	-10.0131
까지도	-10.0131
▁영상	-10.0138
▁추가	-10.014
▁찾는	-10.0148
▁훌륭한	-10.0152
▁것이라는	-10.0169
▁소년	-10.0174
▁21	-10.0177
▁자리에서	-10.0183
려서	-10.0184
▁아이들이	-10.0187
▁TV	-10.019
的	-10.0194
▁겸	-10.0195
▁기업의	-10.0198
▁입장에서	-10.0199
▁공연	-10.02
▁없었던	-10.0211
▁참조	-10.0214
야말로	-10.0216
로는	-10.0216
▁오랫동안	-10.0219
▁분노	-10.0221
▁특수	-10.023
▁아버지가	-10.0232
▁의하면	-10.0232
딩	-10.0234
하나	-10.0235
▁제목	-10.0238
엠	-10.0247
&	-10.0248
▁소득	-10.0253
개발	-10.0261
▁너희	-10.0265
▁윤리	-10.028
▁몸에	-10.0281
느라	-10.0286
흡	-10.0292
핀	-10.0295
▁한국의	-10.0306
▁끝에	-10.0308
▁신청	-10.031
▁주지	-10.0313
방송	-10.0316
멘	-10.0317
▁받지	-10.0328
『	-10.0329
▁입고	-10.0333
룬	-10.0339
▁연기	-10.0342
자마자	-10.0344
했는지	-10.0347
▁아닐	-10.0348
▁사랑을	-10.0354
▁애들	-10.036
▁있거든요	-10.036
▁같고	-10.0361
그럼	-10.0361
▁질서	-10.0365
▁뛰	-10.0365
▁한쪽	-10.0367
▁오후	-10.0372
▁태양	-10.0373
▁다녀	-10.0374
핑	-10.0374
▁토지	-10.0376
방법	-10.0376
▁계속해서	-10.0376
하실	-10.0376
님은	-10.0377
▁걸음	-10.0381
▁모아	-10.0382
▁열어	-10.0387
▁발언	-10.0388
▁어디서	-10.0392
▁숫자	-10.0392
보다도	-10.0395
▁간에	-10.0395
혔다	-10.0399
▁근무	-10.0399
▁변화를	-10.0401
▁주의	-10.0408
학과	-10.0408
▁확신	-10.0411
▁용어	-10.0411
▁삼성	-10.0413
럼	-10.0416
▁가입	-10.042
▁싶지	-10.0425
▁d	-10.043
하세요	-10.043
▁단순히	-10.0433
▁이루어진	-10.0437
보험	-10.0439
▁아저씨	-10.0441
▁이름이	-10.0445
▁편지	-10.0454
▁크기	-10.0465
▁동료	-10.0467
▁범위	-10.0468
▁모르고	-10.0469
▁그룹	-10.0476
▁낮은	-10.048
이랑	-10.0484
▁일어난	-10.0495
▁지혜	-10.0496
▁얘기가	-10.0497
놀	-10.0497
▁조심	-10.0497
▁지금도	-10.0498
기간	-10.0502
하기로	-10.0507
▁불편	-10.051
▁알겠습니다	-10.0514
▁적은	-10.052
▁부분을	-10.0523
27	-10.0523
▁든	-10.0527
값	-10.0531
▁민주주의	-10.0531
≫	-10.0531
▁거쳐	-10.0532
▁자아	-10.0533
▁그러니	-10.0538
▁오직	-10.0545
文	-10.0547
▁흰	-10.0548
개의	-10.0548
▁띄	-10.0549
ot	-10.0554
▁쿠	-10.0555
▁비난	-10.0562
뭐	-10.0564
▁0	-10.0565
▁묶	-10.0567
▁눈치	-10.0568
주의적	-10.0569
썩	-10.0578
섯	-10.0578
▁모두가	-10.0583
▁과제	-10.0588
▁순수	-10.0588
▁생활을	-10.0591
▁사태	-10.0593
▁비슷	-10.0593
▁떨어진	-10.0598
ist	-10.06
▁않기	-10.0601
▁무기	-10.0602
▁피부	-10.0603
꿀	-10.0606
▁말하면	-10.0612
te	-10.0613
▁어린이	-10.0614
▁여유	-10.0617
▁방식으로	-10.0626
28	-10.0634
으로서의	-10.0638
▁동네	-10.0638
조선	-10.0638
▁검토	-10.0638
▁가치를	-10.064
▁여론	-10.0641
▁말한	-10.0642
▁틀림없	-10.0651
▁일종의	-10.0651
▁다르다	-10.0654
▁공통	-10.0656
하셨	-10.0659
▁싸우	-10.0663
혔	-10.0665
▁욕구	-10.0666
▁제거	-10.0667
▁자랑	-10.0672
?”	-10.0675
ᄏᄏ	-10.0684
젠	-10.0686
▁기타	-10.0687
찌	-10.0695
▁옮겨	-10.0705
▁사건이	-10.0707
▁간다	-10.0708
▁끝내	-10.0713
휴	-10.0724
해졌다	-10.0727
웅	-10.0732
▁지도자	-10.0737
▁처음으로	-10.0739
스런	-10.0739
드라	-10.0741
▁됐다	-10.0749
촉	-10.0752
▁서양	-10.0754
시킨다	-10.0755
26	-10.0756
버렸다	-10.0762
16	-10.0763
▁관심이	-10.0766
▁탁	-10.0766
▁사라지	-10.0768
ᄏᄏᄏ	-10.0775
▁들어보	-10.0775
▁최대	-10.0779
▁것일까	-10.0781
子	-10.0783
▁to	-10.0786
스타	-10.0792
▁차별	-10.0792
▁기획	-10.0792
방식	-10.0792
▁때부터	-10.0797
랜	-10.0799
턱	-10.08
▁m	-10.0804
▁털	-10.0807
li	-10.081
▁있는데요	-10.0813
▁에이	-10.0816
▁만들고	-10.0824
▁예측	-10.0825
▁방법은	-10.0826
▁호텔	-10.0827
▁꿈을	-10.0833
▁명확	-10.0836
pr	-10.084
▁했었	-10.0841
▁U	-10.0841
으시	-10.0841
▁진정	-10.0851
▁결국은	-10.0853
▁실수	-10.0858
▁이천	-10.0859
▁선언	-10.086
▁미디어	-10.0862
▁뜻을	-10.0867
▁이번에는	-10.087
소설	-10.0871
▁혼란	-10.0872
▁거대한	-10.0873
▁선배	-10.0874
▁개인의	-10.0874
델	-10.088
▁뻔	-10.0882
이므로	-10.0884
▁구체적인	-10.0888
▁봅니다	-10.0888
되며	-10.0889
▁방법으로	-10.089
▁번역	-10.0893
▁못해	-10.0902
뭇	-10.0903
▁벗어	-10.0905
▁야당	-10.0906
▁고대	-10.091
겠는가	-10.0911
▁도로	-10.0912
▁사물	-10.0918
▁대립	-10.0919
▁손으로	-10.0921
일까	-10.0927
▁있었기	-10.0934
▁사용하는	-10.0934
녕	-10.0936
▁수학	-10.0937
군이	-10.094
보겠습니다	-10.0946
겹	-10.0946
눌	-10.0948
▁강력한	-10.095
▁걸쳐	-10.0951
올랐다	-10.0958
17	-10.0958
▁2000	-10.0965
Y	-10.0969
져서	-10.0972
좋	-10.0975
▁알아보	-10.0976
▁특별	-10.0976
자인	-10.0977
싼	-10.0981
▁동의	-10.0985
괄	-10.0986
▁상태에서	-10.099
▁그들을	-10.0991
▁깨끗	-10.0993
하면서도	-10.0995
▁진리	-10.1008
왔던	-10.1009
톤	-10.101
칼	-10.1012
oc	-10.1019
▁이상한	-10.1025
▁사랑하는	-10.103
▁절차	-10.1034
▁묘사	-10.1035
▁손가락	-10.1036
▁관광	-10.1036
하듯	-10.1038
▁단순한	-10.1039
▁분류	-10.104
▁이유로	-10.1042
▁측면에서	-10.1044
▁라이	-10.1045
단체	-10.1045
▁동일	-10.105
?」	-10.1052
▁드라마	-10.1053
꺼	-10.1053
▁인간은	-10.1054
이자	-10.1054
▁사실상	-10.1054
▁자신에게	-10.1056
▁어려움	-10.1058
▁낼	-10.1067
▁하여금	-10.1067
▁점이다	-10.107
▁자본주의	-10.1072
었어	-10.1082
팀	-10.1085
▁술을	-10.1095
▁거짓말	-10.1101
▁났	-10.1107
▁아이디어	-10.1111
▁기운	-10.1115
U	-10.1121
롤	-10.1122
ia	-10.1123
▁상황에	-10.1124
▁버스	-10.1125
▁때문이었다	-10.1126
▁엄청	-10.1128
▁몰아	-10.1129
▁사유	-10.113
▁의미한다	-10.1133
하였고	-10.1139
뢰	-10.1144
싹	-10.1146
▁없기	-10.1154
ig	-10.1156
별로	-10.1159
거래	-10.1164
납	-10.1165
▁f	-10.1169
▁민주	-10.1175
▁얻을	-10.1177
▁조치	-10.1187
▁어둠	-10.1188
▁저렇게	-10.1191
▁의문	-10.1201
▁멈추	-10.1205
權	-10.121
▁이해할	-10.1211
▁세금	-10.1211
쏘	-10.1216
▁부산	-10.1217
▁무릎	-10.122
▁인기	-10.1222
▁이념	-10.1222
▁머물	-10.1223
▁형제	-10.1231
▁걸로	-10.1238
▁텔레비전	-10.1245
▁그렇다	-10.1247
▁불교	-10.1252
정보	-10.1252
▁심장	-10.1259
▁일제	-10.1259
▁끊임없이	-10.126
▁≪	-10.1261
▁여섯	-10.1265
베르	-10.1267
로써	-10.1271
였고	-10.1273
▁소문	-10.1275
▁듣는	-10.1279
▁닫	-10.1279
▁닦	-10.1281
▁그와	-10.1288
▁손해	-10.1289
▁차원	-10.1295
▁우려	-10.1295
▁움직임	-10.1296
▁액	-10.1299
받는	-10.1299
29	-10.13
▁들어와	-10.13
▁권위	-10.1305
▁의존	-10.1308
▁쇠	-10.131
▁차를	-10.1311
▁일이었다	-10.1313
▁말라	-10.1314
▁옛	-10.1326
▁점이	-10.1326
레스	-10.1327
곳	-10.1328
▁등으로	-10.1328
▁이혼	-10.1332
▁육체	-10.1336
냐고	-10.1338
▁있었지만	-10.1339
▁졸	-10.1342
▁내지	-10.1343
▁이성	-10.1344
끈	-10.1358
▁여부	-10.1362
um	-10.1363
▁전반	-10.1367
▁분리	-10.1372
▁본인이	-10.1372
▁썼	-10.1375
▁시대에	-10.1375
▁예전에	-10.1376
▁입장을	-10.1378
▁많았	-10.1379
▁허리	-10.1382
▁고생	-10.1383
못	-10.1383
▁유명	-10.1384
▁스트레스	-10.1386
해져	-10.1389
▁대상이	-10.1398
닷	-10.14
퍼센트	-10.1404
▁25	-10.1407
부장	-10.1409
▁차원에서	-10.1414
▁샤	-10.1415
▁무조건	-10.1417
▁효과를	-10.1424
▁민주당	-10.1425
▁쌍	-10.1425
▁생각은	-10.143
▁밝히	-10.1432
땅	-10.1441
▁협력	-10.1453
▁점차	-10.1458
▁투쟁	-10.1459
▁처음에는	-10.146
▁처벌	-10.1465
▁즐기	-10.1466
▁알지	-10.1468
거리며	-10.1476
▁빚	-10.1479
ᅲᅲ	-10.148
▁균형	-10.1485
▁Re	-10.1488
조사	-10.149
▁종이	-10.1494
▁소위	-10.15
▁교통	-10.1502
앤	-10.1504
▁책임을	-10.1505
량이	-10.1508
▁*	-10.1516
놓았다	-10.1518
▁살았	-10.1519
▁간의	-10.1521
▁외에	-10.1523
▁대표적인	-10.1529
홀	-10.1538
▁비로소	-10.1539
시키기	-10.1544
▁마지막으로	-10.1555
▁갖게	-10.1556
▁좋았	-10.1561
▁설립	-10.1563
▁보낸	-10.1567
▁진보	-10.1568
▁교수님	-10.1569
한국	-10.1575
▁그럼에도	-10.1576
▁발행	-10.1576
▁내면	-10.1576
▁구축	-10.158
▁짧은	-10.1584
되었던	-10.1591
▁구별	-10.1591
▁비율	-10.1597
▁장군	-10.1598
▁나누어	-10.16
▁수술	-10.1601
▁질문을	-10.1602
▁기존	-10.1611
달라고	-10.1615
벅	-10.1616
▁안으로	-10.162
▁어쩌	-10.162
▁믿고	-10.162
▁펼쳐	-10.1626
▁신화	-10.1626
▁통과	-10.1626
ne	-10.1628
콜	-10.1632
▁혁신	-10.1638
▁있나	-10.164
그런	-10.1649
▁증명	-10.1651
▁첨	-10.1652
▁대개	-10.1653
▁아니었	-10.1653
사상	-10.1656
▁신고	-10.1656
▁매달	-10.1656
▁없지	-10.1656
▁정확히	-10.1659
▁수출	-10.1661
▁갖다	-10.1661
▁죽이	-10.1666
획	-10.1666
▁논문	-10.1681
▁사전	-10.1685
잠	-10.169
▁나타났다	-10.1693
▁사과	-10.1696
▁남은	-10.1699
▁같애	-10.1699
했으나	-10.1708
▁위원장	-10.1708
▁감소	-10.1712
▁연관	-10.1713
▁보이고	-10.1718
계획	-10.1719
▁넌	-10.1722
he	-10.1731
함에	-10.1746
▁근처	-10.1751
받은	-10.1751
▁셋째	-10.1759
14	-10.176
▁기쁨	-10.1767
▁불행	-10.1769
▁확실히	-10.1775
▁장난	-10.1779
뚱	-10.1793
▁전망	-10.1795
이었고	-10.1797
▁침대	-10.1801
▁케	-10.1803
붕	-10.1807
▁주어	-10.181
전쟁	-10.1812
▁이야기가	-10.1816
▁고정	-10.1817
ity	-10.182
▁느낄	-10.1823
▁드러나	-10.1826
▁규칙	-10.1827
▁모양이	-10.183
▁걸려	-10.1837
▁문명	-10.1839
단계	-10.184
▁지위	-10.184
▁바꿔	-10.1841
▁나면	-10.1847
▁금방	-10.1848
▁판결	-10.1851
▁자원	-10.1852
시오	-10.186
깨	-10.1864
▁일으키	-10.1869
▁웅	-10.187
▁관점	-10.1872
▁사람과	-10.1873
하려면	-10.1874
▁억	-10.1874
뜨리	-10.1881
▁영향력	-10.1886
▁대답했다	-10.1886
▁흥	-10.1888
당신	-10.1888
▁낫	-10.1888
▁없어서	-10.189
▁구속	-10.1891
▁적극적으로	-10.1894
▁아버지는	-10.1901
▁라고	-10.1904
▁뽑	-10.1908
ci	-10.1911
▁실행	-10.1916
짜리	-10.1918
▁신학	-10.1918
▁주문	-10.1918
▁추천	-10.1921
▁지니고	-10.1927
▁뚫	-10.1933
▁구체적으로	-10.1936
헤	-10.1937
딪	-10.194
▁소녀	-10.1944
▁겁	-10.1947
답니다	-10.1949
▁무엇	-10.1951
뇨	-10.1952
▁펀드	-10.1953
▁조금씩	-10.1954
짚	-10.1956
學	-10.196
▁자격	-10.1963
해지는	-10.1964
▁그리하여	-10.1969
▁걸리	-10.197
▁강제	-10.197
▁재미	-10.1977
▁60	-10.1978
▁ᄏᄏ	-10.1981
▁시대의	-10.1982
▁돌리	-10.1982
▁무척	-10.1989
폰	-10.1989
▁규제	-10.199
▁잘못된	-10.1991
45	-10.2
▁버린	-10.2
▁맑	-10.2005
▁부분은	-10.2008
▁편집	-10.2011
능력	-10.2015
▁조각	-10.2017
▁미친	-10.2019
▁정확하게	-10.2021
잖	-10.2027
▁뭐라고	-10.2028
솔	-10.2029
▁달성	-10.2031
▁재밌	-10.2032
▁전기	-10.2035
교회	-10.2043
▁카드	-10.2044
쎄	-10.2045
▁지향	-10.2051
▁동기	-10.2052
and	-10.2053
▁굳이	-10.2057
▁효과가	-10.2059
닝	-10.2072
▁능력이	-10.2073
▁쉬운	-10.2075
▁부자	-10.2075
▁용기	-10.2076
▁넘어가	-10.2076
▁피해자	-10.2076
▁없게	-10.2078
▁태어나	-10.2083
▁감동	-10.2087
짧	-10.2092
▁자산	-10.2093
렉	-10.2096
▁필자	-10.2097
▁눈으로	-10.2099
▁그리스	-10.2102
▁인터뷰	-10.2111
▁금지	-10.2114
▁의미에서	-10.2114
▁키워	-10.2115
▁입술	-10.2116
더라고	-10.2119
▁남자가	-10.212
▁신분	-10.2123
▁나타나는	-10.2126
X	-10.2129
▁마법	-10.213
▁오른	-10.213
ess	-10.2132
▁나름대로	-10.2135
▁끝까지	-10.2135
▁편안	-10.2136
▁헤어	-10.2138
▁시설	-10.214
센터	-10.2145
▁이분	-10.2148
▁콜	-10.2151
▁열정	-10.2154
니아	-10.2154
▁재정	-10.2156
흠	-10.2161
▁닿	-10.2164
▁개별	-10.2167
▁사십	-10.217
▁살짝	-10.217
버릴	-10.2175
▁택	-10.218
릇	-10.2183
tion	-10.2183
▁연습	-10.2195
▁매력	-10.22
▁모자	-10.22
▁정부의	-10.2201
▁공부를	-10.2202
▁깜짝	-10.2204
정신	-10.2204
▁형태로	-10.2206
▁관점에서	-10.2206
▁일치	-10.2209
▁않아도	-10.2212
▁한반도	-10.2215
백만	-10.2225
▁고용	-10.2227
▁심각한	-10.2228
프라	-10.2228
▁여자는	-10.224
▁서구	-10.2249
▁라디오	-10.2256
해지고	-10.2258
▁않아요	-10.2265
▁나라의	-10.2265
▁매출	-10.2265
▁법원	-10.2272
▁아우	-10.2277
▁엉	-10.2278
과학	-10.2284
▁않았던	-10.2285
▁민중	-10.2285
×	-10.2288
▁워낙	-10.2295
▁익숙	-10.2298
▁민간	-10.2298
▁|	-10.2299
▁있으니	-10.2303
스키	-10.2305
▁사무실	-10.2307
▁생존	-10.2314
밤	-10.2319
▁칭찬	-10.2319
▁붉은	-10.2332
▁지나가	-10.2333
놔	-10.2337
▁없지만	-10.2346
▁국민의	-10.2348
거렸다	-10.2349
냐면	-10.2352
▁참석	-10.2352
▁계급	-10.2352
500	-10.2358
』(	-10.2362
펜	-10.2364
▁신용	-10.2365
▁확장	-10.2368
89	-10.2368
▁목소리가	-10.2371
▁이웃	-10.2372
▁고구려	-10.2375
▁측정	-10.2379
▁가능하다	-10.2381
▁가만히	-10.2381
金	-10.2382
25	-10.2382
▁세계를	-10.2384
▁스타	-10.2387
▁곤	-10.2387
▁빼앗	-10.2391
la	-10.2394
▁처음부터	-10.2397
▁만들었다	-10.2401
▁도와	-10.2402
겠어	-10.2407
▁키우	-10.2408
▁기능을	-10.2412
▁이전에	-10.2416
▁통신	-10.2418
▁도덕	-10.242
13	-10.2421
▁팬	-10.2422
▁상관	-10.2422
▁올해	-10.2428
▁씻	-10.2428
▁어머니가	-10.243
J	-10.2434
▁맞춰	-10.2441
▁목표를	-10.2451
▁어머니는	-10.2456
ᄀ	-10.2456
▁탄생	-10.2457
▁사무	-10.2458
▁않도록	-10.246
▁하던	-10.2469
체계	-10.247
본다	-10.2471
▁동원	-10.2475
事	-10.2476
컴	-10.2487
▁매체	-10.2497
▁일정한	-10.2507
▁반대로	-10.2509
▁나타난	-10.251
▁보상	-10.251
▁연합	-10.2525
▁심리	-10.2525
▁자세히	-10.2525
▁불만	-10.2527
▁직원들	-10.2527
▁노력을	-10.2528
▁논쟁	-10.253
40	-10.2531
▁쌀	-10.2531
▁어디에	-10.2531
▁/	-10.2533
▁이익을	-10.2536
혁명	-10.254
▁나가는	-10.254
져야	-10.2545
▁지켜보	-10.2547
▁유일한	-10.2555
▁저런	-10.2556
▁멍	-10.2567
▁방안	-10.2571
로서는	-10.2572
「	-10.2576
▁말하자면	-10.2579
▁두려움	-10.2579
▁어른	-10.258
톡	-10.2581
▁구입	-10.2585
▁믿는	-10.2586
에서부터	-10.2597
▁짐작	-10.2599
▁구원	-10.26
▁성립	-10.26
▁용서	-10.2602
빙	-10.2611
▁때문입니다	-10.2613
▁촉	-10.2615
▁In	-10.2615
▁동일한	-10.2621
▁무대	-10.2623
行	-10.2626
▁얼굴에	-10.2628
▁기존의	-10.2628
▁출판	-10.263
민족	-10.263
하느냐	-10.2632
▁점심	-10.2635
▁사이에서	-10.2638
▁법칙	-10.2639
▁누워	-10.264
▁면에서	-10.2641
▁들어갔다	-10.265
▁이내	-10.2651
▁끈	-10.2653
옹	-10.2654
▁파리	-10.2656
▁아침에	-10.266
▁웬	-10.2665
▁준비를	-10.2666
끄	-10.2666
▁친구가	-10.267
▁St	-10.2671
31	-10.2671
▁사회주의	-10.2682
꼽	-10.2683
끝	-10.2692
▁생각에	-10.2694
▁커뮤니케이션	-10.2696
▁보유	-10.2699
붓	-10.27
춰	-10.2702
▁살인	-10.2704
▁겉	-10.2705
▁죽을	-10.2706
▁헬	-10.2708
▁쪼	-10.2712
▁소련	-10.2714
세대	-10.2715
▁내놓	-10.2722
ap	-10.2728
▁바람에	-10.2732
▁어서	-10.2734
▁위대한	-10.274
번째	-10.2744
년부터	-10.2745
▁다소	-10.2747
▁넣고	-10.2748
▁잠재	-10.2761
▁나눠	-10.2761
▁예산	-10.2763
▁고맙습니다	-10.2765
▁온갖	-10.2768
天	-10.2778
▁그거는	-10.2782
▁개입	-10.2782
▁무역	-10.2786
▁찾을	-10.2789
셋	-10.279
집니다	-10.2791
▁보게	-10.2791
▁비롯한	-10.2792
▁선정	-10.2794
ay	-10.2794
룰	-10.2796
▁말인가	-10.2797
▁나온다	-10.2806
▁목소리로	-10.2807
▁바탕으로	-10.2808
▁있으나	-10.2811
▁모르게	-10.2821
▁뛰어난	-10.2821
▁채권	-10.2833
▁않으	-10.284
▁들여	-10.2841
옵	-10.2844
▁아이들은	-10.2844
▁까닭	-10.2845
▁봐요	-10.2851
컬	-10.2852
했어	-10.2854
년에는	-10.2859
▁의견을	-10.286
▁인한	-10.286
▁경험을	-10.2868
▁단순	-10.2871
▁버리고	-10.2873
▁기다리고	-10.2873
옷	-10.2881
▁공유	-10.2883
▁권한	-10.2884
▁사실이다	-10.2885
▁싶었	-10.2888
▁여겨	-10.289
▁방향으로	-10.2892
▁할까	-10.2892
▁물어보	-10.2896
▁각자	-10.2897
▁금액	-10.2904
▁공감	-10.291
▁숨을	-10.2911
▁예정	-10.2917
▁알리	-10.2918
므로	-10.2925
無	-10.2925
▁허용	-10.2931
▁두려워	-10.2938
山	-10.2942
▁도구	-10.2943
▁땀	-10.2949
앗	-10.2949
▁최종	-10.2955
▁대화를	-10.2961
휘	-10.2966
ha	-10.297
▁구매	-10.2973
딱	-10.2974
▁스타일	-10.2979
▁들어간	-10.2988
▁등급	-10.299
▁경향	-10.2993
▁자신들의	-10.2995
中	-10.3001
슴	-10.3006
▁버렸다	-10.3007
▁띠	-10.3009
털	-10.3014
▁복잡	-10.3014
▁상당한	-10.3014
읍	-10.3015
▁새롭게	-10.3019
▁리더	-10.3024
▁가시	-10.3031
▁뉴	-10.3031
랫	-10.3036
▁통치	-10.3043
▁음식을	-10.3044
▁이슈	-10.3047
▁들리	-10.3049
드릴	-10.3052
con	-10.3056
▁김정은	-10.3059
▁하느님	-10.3071
▁드는	-10.3072
천만	-10.3073
▁생물	-10.3073
▁겨	-10.3075
▁아시아	-10.3075
man	-10.3078
▁대안	-10.3078
▁외국인	-10.3079
쑥	-10.3081
▁여기에서	-10.3081
▁향상	-10.3086
었는지	-10.3086
▁실력	-10.3087
땐	-10.3087
하니까	-10.3088
99	-10.309
▁단위	-10.31
아리	-10.3101
업자	-10.3101
칸	-10.3105
▁24	-10.3106
▁읽고	-10.3107
▁말씀하신	-10.3122
▁생각하면	-10.3127
▁빠른	-10.3134
최	-10.3136
▁펴	-10.3137
▁스님	-10.3138
▁의료	-10.3139
▁객	-10.3145
▁_	-10.3147
▁겁니까	-10.3147
▁조용히	-10.3149
▁때로는	-10.315
분석	-10.3152
▁나한테	-10.3157
▁계신	-10.3157
▁하다가	-10.3158
▁과거에	-10.316
환경	-10.3171
▁콩	-10.3173
▁(1)	-10.3178
▁나갔다	-10.3183
▁좋겠다	-10.319
조직	-10.3191
▁최소한	-10.3194
▁디지털	-10.3197
른다	-10.3198
곽	-10.3198
vi	-10.3203
▁달아	-10.3204
▁가르치	-10.3204
ver	-10.3205
램	-10.3208
▁객관적	-10.3212
▁결심	-10.3217
▁고등학교	-10.322
▁잇	-10.3221
▁언젠가	-10.3223
▁가르쳐	-10.3225
▁대리	-10.3228
▁농민	-10.3229
▁1990	-10.3236
뻗	-10.3236
▁놓은	-10.3237
▁상실	-10.324
삐	-10.3241
▁따위	-10.3246
▁타인	-10.325
해진다	-10.3255
▁낸	-10.3256
▁연주	-10.3259
▁느끼는	-10.3261
▁뼈	-10.3267
▁당황	-10.3273
▁생각했	-10.3275
▁보며	-10.3288
▁안내	-10.3291
돕	-10.3299
엇	-10.3302
▁어떻	-10.3308
理	-10.3308
댁	-10.331
▁붙어	-10.3313
▁Ch	-10.3321
▁pp	-10.3329
▁통화	-10.333
j	-10.3338
덜	-10.3342
▁참으로	-10.3348
▁시원	-10.3352
▁나타난다	-10.3355
▁상당	-10.3356
▁방해	-10.3356
→	-10.3357
會	-10.3361
쇼	-10.3361
▁없는데	-10.3371
▁침묵	-10.3371
-1	-10.3371
▁나이가	-10.3374
▁넓은	-10.3388
▁생각하지	-10.3393
▁미술	-10.3399
▁몰려	-10.3406
▁장점	-10.3407
으리라	-10.341
▁불법	-10.3411
▁보여주는	-10.3413
▁찾아가	-10.3416
▁의자	-10.3417
▁(2)	-10.3422
섰	-10.3424
35	-10.3425
▁거절	-10.3425
ab	-10.3425
性	-10.3441
▁절대로	-10.3441
▁이끌어	-10.3441
하러	-10.3443
덤	-10.345
▁허락	-10.3451
▁청소년	-10.3451
▁기름	-10.3452
▁둥	-10.3455
▁일곱	-10.3455
▁없으면	-10.3456
랬	-10.3459
▁높다	-10.3461
▁인용	-10.3465
▁소송	-10.3468
▁대단히	-10.347
▁밟	-10.3471
돋	-10.3474
▁나갈	-10.3478
ve	-10.3479
▁느낀	-10.348
▁아냐	-10.3487
▁존재하는	-10.3488
ers	-10.349
윈	-10.3491
▁빗	-10.3495
▁청구	-10.3497
▁밀어	-10.3498
▁무언가	-10.3501
▁싶었다	-10.3505
▁이럴	-10.3508
▁부르는	-10.351
떨	-10.3513
찔	-10.3514
▁de	-10.3518
▁가질	-10.352
니까요	-10.3521
88	-10.3525
놨	-10.3528
▁남녀	-10.3528
▁디자인	-10.3533
▁여성들	-10.3533
▁특별히	-10.3534
▁회원	-10.3534
der	-10.3536
▁적절한	-10.3538
▁독서	-10.3539
▁■	-10.3539
▁선교	-10.3542
▁문제점	-10.3559
▁만날	-10.3567
샘	-10.3575
▁바라보았다	-10.3578
義	-10.3579
▁공사	-10.3581
▁받게	-10.3588
▁지휘	-10.3589
▁공기	-10.3595
니깐	-10.36
▁재료	-10.3612
않	-10.3616
그림	-10.3617
▁곳으로	-10.362
ff	-10.3624
▁서서	-10.3628
▁본래	-10.3628
▁같지	-10.3628
▁차라리	-10.3629
▁최초의	-10.3635
▁서술	-10.3638
▁데서	-10.3642
▁좌우	-10.3643
▁형사	-10.3646
▁그렇고	-10.3647
▁근육	-10.365
▁신라	-10.3654
▁거두	-10.3656
▁모순	-10.3658
▁한국인	-10.366
▁눈빛	-10.3671
▁마음으로	-10.3673
▁노래를	-10.3675
▁기여	-10.3675
십니다	-10.3683
ive	-10.3684
친다	-10.3685
▁당사자	-10.3685
▁솔	-10.3689
▁먹었	-10.3694
李	-10.3698
道	-10.3708
▁자연스럽게	-10.3711
▁꼴	-10.3716
▁식당	-10.3717
뭉	-10.3717
▁비행기	-10.3724
▁종종	-10.3724
▁미소를	-10.3726
▁소재	-10.3727
▁2002	-10.3727
▁이유를	-10.3732
▁무엇인지	-10.3733
▁화면	-10.3746
깊	-10.3749
넘	-10.375
▁많고	-10.3751
▁잡지	-10.3757
▁합리적	-10.3759
▁흙	-10.3764
▁80	-10.3768
▁상관없	-10.3769
▁진술	-10.3772
핏	-10.3774
▁니가	-10.3779
書	-10.378
시켰	-10.378
▁닭	-10.379
▁영양	-10.379
▁편지를	-10.3792
▁마라	-10.3793
▁흥분	-10.3799
▁설계	-10.38
▁빙	-10.3802
▁명예	-10.3802
og	-10.3805
▁새끼	-10.3807
▁가슴이	-10.3808
상태	-10.3809
▁테니까	-10.3811
신문	-10.3812
▁싱	-10.3814
▁집행	-10.3819
써	-10.3828
앉	-10.3835
▁만들기	-10.3837
▁무엇보다	-10.3839
▁관념	-10.384
▁귀족	-10.3844
시설	-10.3845
▁바르	-10.3847
▁필수	-10.3854
▁사회에서	-10.3858
릉	-10.386
▁마디	-10.3861
▁표정을	-10.3861
▁바깥	-10.3866
▁질병	-10.3867
께서는	-10.3872
▁인민	-10.3872
▁추정	-10.3877
▁얼굴로	-10.3878
▁놓여	-10.3878
▁말입니다	-10.3879
탱	-10.388
▁맘	-10.388
▁솔직히	-10.3881
▁형상	-10.3883
▁도달	-10.3884
▁드디어	-10.389
소득	-10.3896
▁존경	-10.3897
▁네네	-10.3903
▁그야말로	-10.3906
헐	-10.3908
▁적응	-10.3913
▁칸	-10.3921
ard	-10.3927
▁공정	-10.3927
▁먹으면	-10.3929
였지만	-10.3934
▁끌	-10.3942
스테	-10.3945
뤄	-10.3949
▁거듭	-10.3956
횡	-10.3957
▁흔적	-10.3961
▁정확한	-10.3968
▁고유	-10.3973
▁빵	-10.3976
▁제출	-10.3983
▁비교적	-10.3984
▁양식	-10.3985
▁배치	-10.3987
퉁	-10.3987
87	-10.3988
갓	-10.399
▁성취	-10.3994
픈	-10.4003
▁빌려	-10.401
콩	-10.401
▁공무원	-10.4013
▁적합	-10.4015
▁그릇	-10.4019
▁있습니까	-10.402
륙	-10.402
빌	-10.402
▁아니지만	-10.4023
▁기회가	-10.4026
me	-10.4028
▁만남	-10.4028
만원	-10.4028
▁신비	-10.4038
럴	-10.4038
▁지나지	-10.4048
사건	-10.4048
▁주민	-10.4053
댄	-10.4057
▁숨어	-10.4061
▁하락	-10.4062
▁일주일	-10.4063
▁어차피	-10.4066
▁목사	-10.4071
비용	-10.4072
▁몇몇	-10.4072
▁부대	-10.408
85	-10.4083
싶	-10.4085
▁프로젝트	-10.4086
자로서	-10.4093
쥐	-10.4095
▁심각	-10.4101
▁기준으로	-10.4103
ate	-10.4104
▁조화	-10.4106
▁못하게	-10.4108
▁모임	-10.4109
▁마르	-10.4126
▁썼다	-10.4128
흘	-10.413
▁들어온	-10.413
멜	-10.4131
com	-10.4134
▁지나치게	-10.4136
렸습니다	-10.4145
영화	-10.4154
됩니다	-10.4164
깝	-10.4168
▁알려져	-10.4169
랭	-10.4176
▁기본적으로	-10.4186
▁날씨	-10.419
받고	-10.4192
▁깨어	-10.4193
▁셈이다	-10.4196
▁일반적인	-10.4197
▁서류	-10.4199
ell	-10.4204
었으며	-10.4208
홈	-10.421
▁환상	-10.4213
▁조용	-10.4214
▁등록	-10.4214
▁도와주	-10.4215
▁지점	-10.4217
▁없애	-10.4218
던데	-10.4218
셨는데	-10.4221
▁구경	-10.4223
▁수십	-10.4224
▁증상	-10.4225
톱	-10.4225
샤	-10.4228
▁대사	-10.4229
▁쓰지	-10.423
▁열린	-10.4233
ᄋ	-10.4235
▁가르	-10.4242
5%	-10.4245
▁되니까	-10.4247
▁얼른	-10.4248
▁자신감	-10.4249
▁목숨을	-10.426
앨	-10.4266
▁있고요	-10.4266
di	-10.427
日	-10.4279
▁최대한	-10.428
▁끝난	-10.4283
▁경향이	-10.4283
▁있었어요	-10.4285
▁무관	-10.4286
ᅲ	-10.4286
▁열었다	-10.429
둑	-10.4291
▁평양	-10.4292
▁내밀	-10.4295
▁알아야	-10.4309
▁머릿속	-10.4309
▁표정으로	-10.4314
▁남겨	-10.4337
▁간주	-10.434
▁쇼	-10.4342
▁넘어서	-10.4351
▁말이에요	-10.4354
▁자살	-10.4367
▁장사	-10.4372
▁입장에서는	-10.4372
하긴	-10.438
▁기념	-10.4381
▁취재	-10.4381
▁이스라엘	-10.4385
▁인권	-10.439
개혁	-10.4392
▁붙여	-10.4393
▁데이터	-10.4399
닉	-10.4403
▁대책	-10.4403
켓	-10.4404
생산	-10.4405
▁백성들	-10.4409
▁관련해서	-10.4411
▁당연한	-10.4416
콤	-10.4417
▁마시고	-10.4425
▁1980	-10.4433
▁성질	-10.4435
긍	-10.4438
▁즉시	-10.444
▁현금	-10.4441
▁회담	-10.4445
民	-10.4446
▁보고서	-10.4447
▁대변	-10.445
젤	-10.4453
^	-10.4462
엿	-10.4463
노동	-10.4463
▁않지만	-10.4464
有	-10.4467
▁홍보	-10.4473
▁비평	-10.4474
었으나	-10.4474
▁순서	-10.4479
▁젊	-10.4485
▁소속	-10.4486
계약	-10.4487
하므로	-10.4489
▁네트워크	-10.449
▁적절	-10.4491
덴	-10.4492
〉	-10.4494
윗	-10.4494
art	-10.4494
▁마무리	-10.4495
▁싶습니다	-10.45
▁주민들	-10.4501
▁만든다	-10.4501
▁의혹	-10.4509
▁돌아보	-10.4511
▁노예	-10.4511
전략	-10.4512
▁2003	-10.4513
▁돼서	-10.4519
▁뉴욕	-10.4524
▁있음	-10.4526
▁텍스트	-10.4526
▁몹시	-10.4527
▁예방	-10.4531
켰	-10.4541
바람	-10.4544
▁둘러	-10.4555
33	-10.4556
▁색깔	-10.456
볶	-10.4566
▁미소	-10.4566
〈	-10.457
▁헛	-10.4572
主	-10.4573
▁신호	-10.4576
▁것인데	-10.4581
75	-10.4581
▁임명	-10.4581
▁크다	-10.4582
▁쭉	-10.4587
co	-10.4589
▁왜냐면	-10.4594
▁조국	-10.4599
ber	-10.46
▁2001	-10.4603
▁당연	-10.4608
60	-10.461
▁맞아요	-10.461
릅니다	-10.4611
▁그래야	-10.4615
86	-10.4621
生	-10.4633
<	-10.4635
▁소수	-10.4635
▁하얀	-10.4638
협회	-10.4641
▁인재	-10.4641
▁에스	-10.4648
▁풍경	-10.4648
▁좋고	-10.4652
▁아름답	-10.4652
오르	-10.4653
▁유행	-10.4659
쌍	-10.466
연구소	-10.4668
▁봉사	-10.4679
▁늘어나	-10.4682
▁유통	-10.4684
▁영웅	-10.4685
▁흘리	-10.4688
▁바위	-10.4689
▁이탈리아	-10.469
스토	-10.4695
▁개방	-10.4704
▁후반	-10.4705
▁취급	-10.4705
▁시골	-10.4712
▁전부터	-10.4715
칫	-10.4717
경영	-10.4717
▁도저히	-10.4718
▁대체로	-10.4727
▁곰	-10.4728
▁성향	-10.4728
▁임대	-10.4731
쫓	-10.4732
쓸	-10.4734
▁붙잡	-10.4738
▁자율	-10.4739
▁욕심	-10.474
▁딴	-10.4741
▁초대	-10.4744
낙	-10.4744
▁떠오르	-10.4746
▁맞습니다	-10.4749
▁연대	-10.475
▁뭐냐	-10.4757
▁리더십	-10.476
싱	-10.4762
▁존중	-10.4762
王	-10.4763
80	-10.4766
38	-10.4772
36	-10.4775
똥	-10.4777
▁받아들여	-10.4779
▁대출	-10.4783
▁억압	-10.479
▁식민지	-10.4791
▁느껴지	-10.4796
리스트	-10.4796
▁왼쪽	-10.4799
하겠습니다	-10.4801
▁끄	-10.4801
통신	-10.4807
▁끌고	-10.4809
▁슬픔	-10.4826
▁동양	-10.4838
ub	-10.484
▁기다려	-10.4845
32	-10.4856
▁절망	-10.4856
▁통계	-10.4858
▁프리	-10.4862
▁얻은	-10.4863
▁덕분에	-10.4869
▁어울리	-10.4873
▁눈길	-10.4874
▁브라	-10.4883
▁굽	-10.4884
▁1997	-10.4887
자본	-10.489
▁대장	-10.4897
▁만들어진	-10.49
▁곁에	-10.49
▁누나	-10.4901
다시피	-10.4902
▁연속	-10.4915
딘	-10.4918
▁예예	-10.4919
▁택시	-10.4922
▁무엇보다도	-10.4925
▁했어	-10.4927
▁여자들	-10.4928
▁재능	-10.4935
爲	-10.4937
었죠	-10.4937
줌	-10.4942
▁1999	-10.4942
▁더구나	-10.4944
▁조절	-10.4947
▁빠르게	-10.495
▁축구	-10.4951
▁과장	-10.4956
갱	-10.496
넣	-10.4961
▁답답	-10.4964
三	-10.4966
▁널리	-10.4973
▁푸른	-10.4978
▁거울	-10.4978
갚	-10.4981
▁개정	-10.4985
▁바랍니다	-10.4985
Q	-10.4989
▁바보	-10.4989
뜻	-10.4989
▁웃었다	-10.4996
졸	-10.5001
▁책상	-10.5012
▁항공	-10.5019
▁맥락	-10.5025
▁표준	-10.5027
▁식물	-10.5028
▁걔	-10.5032
▁많았다	-10.5034
▁많지	-10.5038
상품	-10.5046
▁쫓아	-10.5048
▁소통	-10.505
ill	-10.505
▁있느냐	-10.5051
트리	-10.5052
▁시청	-10.5053
48	-10.5054
▁오른쪽	-10.5054
神	-10.5055
▁진출	-10.506
▁대형	-10.5062
ex	-10.5062
▁인격	-10.5063
봅	-10.5071
ect	-10.5076
▁그녀에게	-10.5081
아버지	-10.5084
▁중요성	-10.5086
▁사로잡	-10.5091
▁있으므로	-10.5096
▁빠진	-10.5099
▁엄격	-10.5101
▁살려	-10.5105
륜	-10.5117
▁목적으로	-10.5117
▁돌아온	-10.5118
밍	-10.5122
▁스승	-10.5123
▁투표	-10.5149
ph	-10.5149
▁알았다	-10.5149
上	-10.5151
all	-10.516
uc	-10.5161
qu	-10.5161
▁돌아와	-10.5166
▁형님	-10.5167
▁열리	-10.5174
21	-10.5176
▁유학	-10.5179
▁대처	-10.518
▁백성	-10.5184
▁밀려	-10.5196
▁예컨대	-10.5207
빨	-10.521
▁작년	-10.5219
▁바른	-10.5225
65	-10.5229
▁배려	-10.5233
▁알려진	-10.5235
84	-10.5243
▁육십	-10.5246
▁다르게	-10.5246
쁘	-10.525
▁대단한	-10.5252
▁나와서	-10.5254
▁작전	-10.5255
▁변경	-10.5267
▁접촉	-10.5268
▁받는다	-10.527
▁초등학교	-10.528
▁떨어졌	-10.5282
▁느꼈다	-10.5285
▁1998	-10.529
▁xx	-10.5295
▁기본적인	-10.5299
▁폭발	-10.5311
▁주말	-10.5313
▁교환	-10.5316
...."	-10.5325
▁들여다보	-10.5329
괴	-10.5333
▁매수	-10.5334
37	-10.5354
찮	-10.5355
▁배제	-10.5357
▁아픈	-10.536
▁남쪽	-10.5362
음에도	-10.5364
껴	-10.5367
▁말이죠	-10.5369
▁후회	-10.5386
▁확산	-10.5386
▁가족들	-10.5392
▁끝났	-10.5392
▁연극	-10.5392
▁아가씨	-10.5395
▁정체성	-10.5406
▁예외	-10.5406
age	-10.5406
▁국방	-10.5407
公	-10.541
주택	-10.5413
▁태어난	-10.5418
▁아무튼	-10.5426
깜	-10.5429
▁장치	-10.543
▁잊지	-10.543
▁복잡한	-10.5432
▁뚜렷	-10.544
▁창업	-10.5443
빅	-10.5444
▁않았습니다	-10.5445
▁충족	-10.5445
▁피곤	-10.546
▁만화	-10.5462
조건	-10.5466
▁비즈니스	-10.5475
푼	-10.5475
▁뜨거운	-10.5476
per	-10.5489
▁얻는	-10.5494
같	-10.5496
세력	-10.5499
▁혐의	-10.5504
▁선호	-10.5509
ine	-10.551
▁이데올로기	-10.5516
▁이젠	-10.5517
앞	-10.552
졌습니다	-10.552
▁방금	-10.552
▁나간	-10.5529
집단	-10.553
▁충실	-10.5534
▁검색	-10.5535
▁문득	-10.5535
▁실체	-10.5541
▁주먹	-10.5541
本	-10.5541
▁줄어들	-10.5553
東	-10.5557
▁무서운	-10.5558
▁창출	-10.557
▁시청자	-10.5572
웹	-10.5575
▁말씀하셨	-10.5587
▁초월	-10.5588
▁임무	-10.559
▁미군	-10.5591
▁멋진	-10.5593
제품	-10.5596
▁시집	-10.5606
▁이외에	-10.5609
드리겠습니다	-10.5612
▁트럼프	-10.5614
▁상대적으로	-10.5621
▁여러분들	-10.5627
▁시작했	-10.5632
▁위반	-10.5639
▁호흡	-10.5647
▁도덕적	-10.5648
son	-10.5649
▁확정	-10.5654
▁요새	-10.5657
▁공중	-10.5659
▁평등	-10.566
▁차량	-10.5665
▁김영	-10.5671
▁던지	-10.5675
▁계단	-10.5684
▁아닌데	-10.5686
The	-10.5691
ich	-10.5691
▁만들었	-10.5693
▁또다시	-10.5698
▁주어진	-10.5704
▁여기까지	-10.5706
▁따뜻한	-10.5706
34	-10.5713
▁혼자서	-10.5719
주시면	-10.5726
▁놀라운	-10.5726
▁상업	-10.5726
論	-10.5727
갑니다	-10.5741
▁들어갈	-10.5742
▁던져	-10.5744
▁생각해보	-10.5745
삽	-10.5746
▁놀랐	-10.5748
▁비극	-10.575
▁채택	-10.5751
07	-10.5753
▁초래	-10.5754
▁총리	-10.5757
짖	-10.5761
▁절반	-10.5766
▁떠난	-10.5766
▁나쁘	-10.5768
뉘	-10.5769
▁고양이	-10.5769
▁힘들어	-10.577
하시면	-10.5775
▁독특한	-10.5786
▁촬영	-10.579
ag	-10.5791
▁출연	-10.5793
철학	-10.5796
est	-10.5807
▁소금	-10.5808
▁2004	-10.5808
▁고백	-10.5811
스러워	-10.5815
家	-10.5816
큐	-10.5819
▁보편적	-10.5821
드립니다	-10.5827
헨	-10.5837
▁창문	-10.5842
봤습니다	-10.5847
▁진단	-10.5847
▁국회의원	-10.5865
▁곧바로	-10.5869
하였으며	-10.5876
▁지불	-10.5877
▁화장실	-10.5878
낯	-10.5878
▁내렸다	-10.589
더라구요	-10.5894
▁양쪽	-10.5895
▁극단	-10.5906
▁같아서	-10.5908
섬	-10.5909
▁카메라	-10.591
▁구름	-10.5912
▁식품	-10.5915
▁실망	-10.5918
솟	-10.5919
뱉	-10.5925
39	-10.5941
▁덧붙	-10.5942
뒤	-10.5952
▁테니	-10.596
▁그림자	-10.597
▁아직까지	-10.5973
und	-10.5974
▁영원히	-10.5975
▁궁극적	-10.5979
달러	-10.5981
82	-10.5991
몫	-10.5993
ec	-10.5999
▁광주	-10.6015
95	-10.6017
▁투자자	-10.6022
▁일부러	-10.6022
숨	-10.6026
▁챙겨	-10.6029
첨	-10.6036
▁학원	-10.6036
▁걸린	-10.6038
▁연애	-10.6043
iv	-10.6044
묵	-10.6045
뱃	-10.605
▁입증	-10.6051
더군요	-10.6054
뱀	-10.6056
넷	-10.6074
而	-10.6126
랴	-10.6129
地	-10.6145
궤	-10.6166
自	-10.6172
톨	-10.6216
펠	-10.624
닫	-10.6255
꽂	-10.6272
쇠	-10.6308
멈	-10.6311
궐	-10.6323
잇	-10.6324
젓	-10.6351
뱅	-10.6382
컷	-10.6412
곁	-10.6415
썰	-10.6453
닮	-10.6461
픽	-10.6505
짱	-10.6506
컸	-10.6537
캠	-10.6543
큼	-10.6556
뜬	-10.6578
깎	-10.6611
社	-10.668
얽	-10.6809
史	-10.6832
씌	-10.6878
굶	-10.6893
셈	-10.6905
붉	-10.6936
밖	-10.697
낭	-10.7034
푹	-10.7048
튜	-10.7049
엑	-10.7072
說	-10.7081
흑	-10.7082
꺾	-10.7098
心	-10.7098
以	-10.7144
둬	-10.7172
앵	-10.7179
잣	-10.7185
컵	-10.7234
팩	-10.7236
|	-10.7247
앓	-10.7251
얹	-10.7293
政	-10.7295
펀	-10.7324
롬	-10.7351
힘	-10.7387
렵	-10.7413
正	-10.7464
낱	-10.7541
큰	-10.7634
꿈	-10.7655
씹	-10.7676
냄	-10.7765
겔	-10.779
콧	-10.7828
꽉	-10.7864
定	-10.7864
폼	-10.7907
깔	-10.7917
캔	-10.7921
덧	-10.7955
팡	-10.7955
뵙	-10.7999
템	-10.8008
낚	-10.8031
캐	-10.8031
핵	-10.804
툭	-10.8049
찍	-10.8061
샀	-10.8104
셉	-10.8106
代	-10.8117
意	-10.8205
也	-10.8262
뜰	-10.8272
同	-10.8302
빡	-10.8321
註	-10.8329
뻐	-10.8394
롯	-10.8409
녔	-10.8415
핍	-10.8416
明	-10.8454
쿨	-10.8469
쉴	-10.8479
엉	-10.8487
쑤	-10.8561
펄	-10.8563
밴	-10.8571
뿜	-10.8572
짙	-10.8603
物	-10.8617
룸	-10.8644
時	-10.8651
│	-10.8665
틱	-10.8673
ᄂ	-10.8715
틸	-10.8726
▶	-10.8741
넌	-10.8755
왼	-10.8775
캄	-10.8782
所	-10.8807
낮	-10.8819
相	-10.8837
知	-10.8881
商	-10.8883
핸	-10.8929
其	-10.8941
氣	-10.8953
즌	-10.9018
얀	-10.903
經	-10.9057
즉	-10.9093
뮤	-10.9108
엎	-10.9125
Z	-10.918
꾀	-10.9249
成	-10.926
新	-10.9277
□	-10.9326
딸	-10.9456
判	-10.9538
制	-10.9543
텍	-10.9545
늬	-10.9579
웰	-10.9619
갖	-10.9645
뿔	-10.9696
化	-10.9698
ᅮ	-10.9698
水	-10.9724
떠	-10.9725
굿	-10.9749
깐	-10.9769
껄	-10.9774
탔	-10.9777
랗	-10.9812
듣	-10.9818
믄	-10.982
굵	-10.9856
씬	-10.9875
툼	-10.9878
텅	-10.9911
뚜	-10.9911
깡	-10.9914
꽁	-10.9915
朝	-10.993
땡	-10.9938
年	-10.9946
記	-10.9962
長	-11.0011
떴	-11.0012
憲	-11.0034
띠	-11.0055
下	-11.0064
봇	-11.0117
훌	-11.0166
탐	-11.0173
務	-11.0183
敎	-11.0192
햇	-11.0243
꿇	-11.0254
넬	-11.0299
겸	-11.0312
팍	-11.0334
괜	-11.0356
븐	-11.0368
韓	-11.038
얻	-11.0393
뜸	-11.0433
풋	-11.0531
봄	-11.0566
뜩	-11.057
훔	-11.0573
셰	-11.0573
高	-11.0576
렛	-11.0598
南	-11.0612
體	-11.0627
世	-11.0644
о	-11.066
集	-11.0679
옴	-11.0684
뀐	-11.0707
쩐	-11.0708
챙	-11.071
듀	-11.0711
쨌	-11.0712
빵	-11.0716
펼	-11.073
小	-11.0814
핫	-11.0817
곧	-11.0839
뷔	-11.0869
깁	-11.0886
햄	-11.0892
保	-11.0895
륵	-11.0946
쌀	-11.0955
뽀	-11.0962
實	-11.0989
긁	-11.101
슐	-11.1012
샌	-11.1057
갯	-11.1059
쉰	-11.1068
쩌	-11.11
잭	-11.1127
겟	-11.1136
냅	-11.1143
떤	-11.1174
늑	-11.1186
ᅳ	-11.1252
넓	-11.128
쥬	-11.1325
쿄	-11.1331
엮	-11.1361
췄	-11.1368
떼	-11.1387
꼭	-11.1421
쭈	-11.1452
海	-11.1468
二	-11.1496
찜	-11.1507
利	-11.1522
폈	-11.1528
言	-11.1529
윌	-11.155
칩	-11.1562
用	-11.1564
뜯	-11.1569
名	-11.1617
켈	-11.1637
安	-11.1675
西	-11.1684
껍	-11.1735
軍	-11.1742
벙	-11.175
傳	-11.1756
듭	-11.1845
方	-11.1866
쿵	-11.1878
뺨	-11.1901
分	-11.1922
릅	-11.1925
德	-11.1926
五	-11.1943
홉	-11.1943
詩	-11.1961
四	-11.1981
랩	-11.2035
싣	-11.2096
宗	-11.2117
內	-11.2144
츰	-11.2158
탠	-11.2165
셜	-11.2167
州	-11.2169
틈	-11.2183
펑	-11.2215
君	-11.2215
官	-11.2248
則	-11.2266
力	-11.2272
治	-11.2291
出	-11.2305
얇	-11.2309
쏠	-11.233
낌	-11.2348
랙	-11.2369
動	-11.2371
컥	-11.2378
쵸	-11.2393
於	-11.2398
外	-11.24
굽	-11.2407
쩡	-11.2417
샐	-11.2481
씀	-11.2512
平	-11.2518
빤	-11.2526
렐	-11.257
城	-11.2574
뤼	-11.2591
곰	-11.2597
톰	-11.2637
댕	-11.2663
짤	-11.2672
얗	-11.2684
月	-11.2712
덥	-11.2713
걀	-11.2714
많	-11.2739
넨	-11.2768
좀	-11.2771
白	-11.2777
묻	-11.283
킴	-11.2835
後	-11.2843
立	-11.2872
눕	-11.2914
原	-11.2915
合	-11.2934
前	-11.2934
北	-11.296
맙	-11.2985
*	-11.2993
쏟	-11.3001
關	-11.3013
и	-11.3077
섹	-11.3106
元	-11.3158
任	-11.3181
훼	-11.3183
팠	-11.3188
낀	-11.3201
古	-11.3262
曰	-11.3279
門	-11.3293
業	-11.3296
《	-11.3311
禮	-11.3323
뺏	-11.3337
•	-11.3339
켄	-11.3341
쭉	-11.3342
잦	-11.3347
뼈	-11.3348
맡	-11.3352
使	-11.3373
е	-11.3374
思	-11.3379
議	-11.3395
ᄐ	-11.3405
聖	-11.3409
十	-11.3424
훑	-11.3436
善	-11.3436
땜	-11.3438
士	-11.3445
쓴	-11.3455
씁	-11.3484
뎌	-11.3486
걱	-11.3512
太	-11.3524
󰡕	-11.3531
󰡔	-11.3534
얘	-11.3548
命	-11.3548
漢	-11.3556
썹	-11.3565
귓	-11.357
툴	-11.3579
田	-11.3597
通	-11.3607
可	-11.3625
ᄅ	-11.3634
作	-11.3642
믹	-11.3658
띤	-11.3675
在	-11.37
높	-11.3702
윽	-11.3704
約	-11.3708
뒀	-11.3709
찼	-11.3755
갸	-11.3767
줍	-11.3804
全	-11.3839
ᄃ	-11.3855
是	-11.3862
잤	-11.3882
짠	-11.3887
훤	-11.3942
휩	-11.3942
쓱	-11.3946
헝	-11.3948
對	-11.3969
앱	-11.4053
겄	-11.4056
팬	-11.4062
왈	-11.4184
펙	-11.4184
ᄉ	-11.4205
둡	-11.4264
陽	-11.4275
늠	-11.428
렘	-11.4286
和	-11.4314
넥	-11.4314
☞	-11.4339
夫	-11.4359
붐	-11.4398
仁	-11.4437
맣	-11.4447
흙	-11.4452
뷰	-11.4464
間	-11.4467
즙	-11.4468
찻	-11.4482
퓨	-11.4489
石	-11.449
第	-11.4493
員	-11.4503
а	-11.4508
썼	-11.4565
뛰	-11.4571
部	-11.4615
댔	-11.4636
넋	-11.4682
꾹	-11.4691
武	-11.4715
裁	-11.4734
퍽	-11.4735
얌	-11.4753
끗	-11.4835
벗	-11.4835
發	-11.4837
能	-11.4844
鮮	-11.4845
情	-11.4846
報	-11.4849
괘	-11.485
팝	-11.4863
뵈	-11.4877
非	-11.4884
덮	-11.4892
院	-11.4918
헉	-11.4922
딛	-11.4925
쭤	-11.4928
춥	-11.4941
떳	-11.4946
【	-11.4978
깍	-11.498
京	-11.498
럿	-11.4986
戰	-11.4986
語	-11.4986
債	-11.4987
횟	-11.4999
龍	-11.5025
淸	-11.5029
鄭	-11.5031
】	-11.5042
냉	-11.5059
信	-11.506
땠	-11.5071
똘	-11.5072
삿	-11.5084
反	-11.5089
맴	-11.5134
先	-11.5136
帝	-11.5165
솥	-11.5177
댈	-11.5203
슘	-11.5271
솜	-11.5315
然	-11.5332
밸	-11.5344
━	-11.5345
得	-11.5346
選	-11.5346
눅	-11.5348
찡	-11.5359
臣	-11.5371
샵	-11.5374
늦	-11.5419
갇	-11.5436
萬	-11.5442
빽	-11.5465
얄	-11.5479
숫	-11.5491
馬	-11.5508
첼	-11.5511
툰	-11.5534
쥔	-11.555
解	-11.5567
딴	-11.5585
늄	-11.5597
死	-11.563
觀	-11.5677
見	-11.5726
퐁	-11.5742
륨	-11.5765
府	-11.5784
身	-11.5786
녁	-11.5794
風	-11.5795
윙	-11.5796
꿨	-11.5803
찢	-11.5811
똑	-11.5845
江	-11.5856
如	-11.5859
光	-11.5874
뻘	-11.5896
女	-11.5924
멀	-11.5962
숟	-11.5984
與	-11.6001
н	-11.6047
期	-11.6052
с	-11.6068
꺽	-11.6106
要	-11.6131
の	-11.6155
産	-11.6186
來	-11.623
뀔	-11.6244
錄	-11.6247
故	-11.6267
멋	-11.6282
썬	-11.6313
좇	-11.6324
▲	-11.6326
딕	-11.6369
쫙	-11.6374
求	-11.6402
숍	-11.642
쿼	-11.6438
式	-11.6453
녘	-11.6461
밑	-11.648
읊	-11.6496
튿	-11.6562
濟	-11.6579
맵	-11.6591
形	-11.6598
쟤	-11.66
條	-11.662
뒹	-11.662
眞	-11.665
林	-11.665
我	-11.6653
基	-11.6658
美	-11.6661
뾰	-11.6681
닙	-11.6723
뻑	-11.6726
덟	-11.6734
樂	-11.6741
佛	-11.6763
{	-11.6792
司	-11.6839
흉	-11.6867
숲	-11.6881
字	-11.6885
當	-11.6885
썽	-11.6892
擧	-11.6911
寺	-11.6924
밧	-11.6963
쌈	-11.6972
숱	-11.6991
렷	-11.7019
木	-11.7049
샅	-11.7054
섞	-11.7056
므	-11.7081
걍	-11.7116
川	-11.7119
株	-11.7142
꼴	-11.7149
쾅	-11.7161
콕	-11.7168
갤	-11.7184
師	-11.7192
開	-11.7208
例	-11.7212
쁠	-11.7246
뭣	-11.7252
칵	-11.7267
族	-11.7268
뻔	-11.7269
度	-11.7274
將	-11.7307
왓	-11.7309
周	-11.7353
컫	-11.7368
꿰	-11.737
땀	-11.739
빴	-11.7415
圖	-11.7423
表	-11.7435
팥	-11.7455
췌	-11.747
重	-11.7508
뻣	-11.7512
證	-11.7525
都	-11.7529
●	-11.753
춧	-11.7547
빼	-11.7556
귤	-11.7562
老	-11.7578
녹	-11.7588
р	-11.7602
눔	-11.763
受	-11.7637
밋	-11.7641
問	-11.7647
處	-11.765
닿	-11.768
팎	-11.771
찐	-11.7715
낄	-11.7723
딨	-11.7737
궂	-11.7741
律	-11.7742
氏	-11.7765
花	-11.7771
華	-11.7775
運	-11.7787
댓	-11.7808
냇	-11.7822
究	-11.7827
꽝	-11.783
밟	-11.7839
т	-11.7851
兵	-11.7865
未	-11.7866
數	-11.789
入	-11.7912
契	-11.7925
륭	-11.7938
九	-11.7945
헷	-11.7985
祖	-11.8004
朴	-11.8009
뽕	-11.8025
빗	-11.8026
資	-11.8028
土	-11.8033
쩜	-11.805
節	-11.8085
쏙	-11.8089
é	-11.8091
春	-11.8093
六	-11.8105
統	-11.812
엣	-11.8159
싯	-11.8173
多	-11.8202
異	-11.8213
궈	-11.8242
此	-11.8242
機	-11.825
엥	-11.8254
黃	-11.8255
張	-11.8264
쩔	-11.8304
맘	-11.8327
堂	-11.8349
〔	-11.8363
}	-11.8367
支	-11.8374
界	-11.8393
캉	-11.84
・	-11.8412
規	-11.8412
私	-11.8433
共	-11.8486
쯧	-11.8491
決	-11.8505
쉐	-11.8517
굉	-11.8537
벳	-11.8554
火	-11.8558
뎅	-11.8562
쯔	-11.8584
效	-11.8606
現	-11.8615
〕	-11.8619
志	-11.8637
늪	-11.8645
甲	-11.865
콰	-11.8667
硏	-11.8682
雲	-11.8691
ᄇ	-11.8697
퀸	-11.8702
令	-11.8716
手	-11.8724
짊	-11.8743
八	-11.8753
#	-11.876
想	-11.8762
촘	-11.8805
章	-11.8812
킥	-11.8858
請	-11.8931
멧	-11.8975
돔	-11.8982
쫄	-11.899
過	-11.9008
뻤	-11.9038
쏜	-11.9039
空	-11.9044
킷	-11.9044
°	-11.9046
룻	-11.9078
쌌	-11.9089
캡	-11.9089
百	-11.9105
告	-11.9119
몇	-11.9177
댐	-11.918
限	-11.9186
別	-11.9186
至	-11.9189
뺀	-11.9197
랏	-11.92
쿡	-11.922
常	-11.9222
靑	-11.9284
얕	-11.93
由	-11.9317
歌	-11.9364
靈	-11.9384
섣	-11.9397
돗	-11.9431
샷	-11.9449
챘	-11.9453
껌	-11.9493
뮬	-11.95
害	-11.9509
혐	-11.9512
넸	-11.9536
갛	-11.9545
流	-11.9595
빔	-11.9619
헬	-11.9648
何	-11.9672
河	-11.9681
펴	-11.9684
멩	-11.9688
★	-11.969
ᄆ	-11.9706
끙	-11.9732
責	-11.974
샴	-11.9759
己	-11.9776
잿	-11.9817
七	-11.982
趙	-11.9841
孫	-11.9894
낡	-11.9901
典	-11.9952
父	-11.9966
픔	-11.9973
訴	-11.9977
申	-11.998
獨	-11.9986
닭	-11.9992
꼿	-11.9994
₩	-11.9997
⋅	-12.0007
в	-12.0007
面	-12.0016
읽	-12.0031
市	-12.0056
修	-12.0085
힙	-12.0111
싫	-12.0142
宮	-12.0149
崔	-12.0157
쟈	-12.017
뻥	-12.0173
位	-12.0177
휙	-12.0189
슭	-12.0193
變	-12.0198
휠	-12.0217
첸	-12.0222
總	-12.0281
맏	-12.0306
件	-12.0306
귄	-12.0326
짬	-12.0327
類	-12.035
샹	-12.0361
險	-12.0389
ᄌ	-12.0401
目	-12.0414
맷	-12.0414
쌤	-12.0416
諸	-12.0416
益	-12.0421
吉	-12.0427
今	-12.044
녜	-12.045
옛	-12.0463
볍	-12.0466
容	-12.0478
◆	-12.0486
갠	-12.0491
福	-12.0509
팟	-12.053
펌	-12.0566
웬	-12.0571
財	-12.0606
母	-12.0607
親	-12.0609
꿔	-12.0627
失	-12.065
엾	-12.0659
챈	-12.0665
뭄	-12.0667
聞	-12.0689
象	-12.0699
興	-12.0702
늉	-12.0709
進	-12.0715
깬	-12.073
к	-12.0734
惡	-12.0744
팁	-12.0752
퀘	-12.0767
格	-12.0784
玉	-12.0787
챔	-12.0796
野	-12.0802
숯	-12.0816
續	-12.0819
黨	-12.0821
젖	-12.0874
委	-12.0879
宋	-12.0899
因	-12.0924
밉	-12.0979
벡	-12.0984
永	-12.1001
質	-12.1001
셸	-12.1003
島	-12.1008
닛	-12.1045
次	-12.1048
從	-12.1053
忠	-12.1072
縣	-12.1076
쉼	-12.1076
튕	-12.1084
村	-12.1088
꿋	-12.1089
羅	-12.1105
펫	-12.1109
$	-12.1115
省	-12.114
易	-12.1154
口	-12.1175
罪	-12.1226
補	-12.1231
頭	-12.1293
@	-12.1305
千	-12.1312
※	-12.1314
食	-12.1331
禪	-12.1348
볕	-12.136
л	-12.1372
話	-12.1378
音	-12.1408
色	-12.1415
멎	-12.1422
精	-12.1428
ᅡ	-12.1429
必	-12.1433
取	-12.1451
係	-12.1469
끓	-12.1483
場	-12.1496
若	-12.1503
廣	-12.1514
콥	-12.1536
起	-12.1547
里	-12.1556
題	-12.1567
唐	-12.1609
덫	-12.1609
닳	-12.1616
캘	-12.1631
郞	-12.1686
直	-12.1686
調	-12.1695
造	-12.1697
示	-12.1713
陰	-12.1719
눴	-12.1761
交	-12.1769
。	-12.178
識	-12.1787
特	-12.1815
茶	-12.1819
딤	-12.1834
뤘	-12.1868
極	-12.1875
居	-12.19
켠	-12.1905
皇	-12.1924
齊	-12.1928
路	-12.1943
術	-12.1952
뭘	-12.1957
號	-12.1964
텨	-12.1964
뿍	-12.1979
遺	-12.1982
삶	-12.2005
乙	-12.2053
去	-12.2085
찾	-12.2093
§	-12.2106
團	-12.2116
承	-12.2126
촐	-12.2139
愛	-12.2141
儒	-12.2158
꼈	-12.2181
良	-12.2189
끽	-12.2197
벚	-12.2205
矣	-12.2211
큭	-12.2214
英	-12.223
孝	-12.2236
加	-12.2246
麗	-12.2251
뮌	-12.2257
富	-12.2263
洞	-12.2285
給	-12.2314
刑	-12.2316
꼼	-12.2322
松	-12.2333
秦	-12.2339
改	-12.2349
船	-12.2373
等	-12.2375
쏴	-12.2391
洪	-12.242
둠	-12.2422
슷	-12.2434
앎	-12.2452
믿	-12.2459
쪄	-12.247
管	-12.247
텁	-12.2486
源	-12.2488
功	-12.2514
念	-12.252
守	-12.2522
計	-12.2524
흩	-12.256
近	-12.257
存	-12.2572
컹	-12.2572
草	-12.2576
止	-12.2584
핥	-12.2586
쿤	-12.2594
┃	-12.261
考	-12.2612
쬐	-12.263
謂	-12.2642
編	-12.2669
兩	-12.2697
亂	-12.2701
局	-12.2724
轉	-12.2732
郡	-12.276
～	-12.2771
科	-12.2779
齋	-12.2789
星	-12.2832
營	-12.2837
뚤	-12.2849
욜	-12.2853
q	-12.2853
朱	-12.2874
虛	-12.2874
꿍	-12.2878
‘	-12.2893
工	-12.2903
쪼	-12.2916
넉	-12.2944
酒	-12.2945
돛	-12.297
感	-12.2988
킵	-12.2993
監	-12.3014
祭	-12.3016
텀	-12.3032
옌	-12.3043
멱	-12.3064
탤	-12.3073
景	-12.3089
웁	-12.3092
鄕	-12.3094
版	-12.3094
잼	-12.3113
序	-12.3115
앰	-12.3121
應	-12.3128
賢	-12.3136
結	-12.3151
秋	-12.3194
뮈	-12.3226
엷	-12.3234
丁	-12.3241
쳇	-12.3252
歸	-12.3252
像	-12.3258
强	-12.3273
復	-12.3288
聲	-12.329
農	-12.3316
샬	-12.3364
텝	-12.3384
順	-12.3388
亦	-12.3419
智	-12.3427
職	-12.343
뺐	-12.3434
넹	-12.3522
尹	-12.3533
領	-12.3562
器	-12.3573
잽	-12.3586
紀	-12.3593
種	-12.3595
찹	-12.3597
建	-12.3615
훗	-12.362
仙	-12.362
果	-12.3631
룽	-12.364
儀	-12.3682
宣	-12.3703
敬	-12.3707
旨	-12.3712
뼛	-12.3732
폄	-12.3759
始	-12.3759
柳	-12.3766
뉜	-12.377
谷	-12.3777
致	-12.3779
뗄	-12.3798
派	-12.3816
횃	-12.382
젊	-12.3832
넛	-12.3834
慶	-12.3841
價	-12.3893
슥	-12.3893
井	-12.3912
옆	-12.3931
臺	-12.3935
遠	-12.3946
딧	-12.3953
達	-12.4009
吳	-12.4053
引	-12.4067
許	-12.4076
吾	-12.4081
△	-12.4088
`	-12.4095
乎	-12.4095
엊	-12.4107
줏	-12.4109
첫	-12.4136
샛	-12.414
初	-12.4149
훅	-12.4166
昌	-12.4166
根	-12.4175
認	-12.4177
好	-12.4182
텃	-12.4194
깼	-12.4215
뺑	-12.4234
畵	-12.4239
壽	-12.4244
首	-12.4253
養	-12.4298
뛸	-12.4349
客	-12.4351
少	-12.437
徐	-12.437
쫑	-12.4373
卷	-12.438
欲	-12.4421
寶	-12.4423
歷	-12.4426
案	-12.444
護	-12.4448
⊙	-12.4469
츄	-12.4472
■	-12.4479
禁	-12.4501
策	-12.4504
쭐	-12.4508
設	-12.4523
옇	-12.4533
香	-12.4535
參	-12.4538
句	-12.4538
尙	-12.4562
足	-12.457
뽐	-12.4599
品	-12.4611
뀌	-12.4643
滿	-12.4643
印	-12.4651
辭	-12.4673
덱	-12.4676
俗	-12.4678
탬	-12.4678
겋	-12.4683
훨	-12.4688
衛	-12.4693
償	-12.47
被	-12.4725
큽	-12.4733
提	-12.474
舊	-12.4765
半	-12.479
劉	-12.4793
卽	-12.4795
д	-12.4798
탉	-12.4843
病	-12.4874
껑	-12.4929
陳	-12.4947
м	-12.4947
程	-12.5042
梁	-12.5045
校	-12.5045
∙	-12.5073
勝	-12.5076
活	-12.5104
젝	-12.5106
빳	-12.5112
맬	-12.5164
犯	-12.519
絶	-12.5192
連	-12.5205
送	-12.5216
回	-12.5221
難	-12.5224
殺	-12.5245
뺄	-12.525
딥	-12.5255
랠	-12.5268
範	-12.5268
ᅵ	-12.5274
消	-12.5284
衆	-12.5284
藏	-12.5308
及	-12.5324
戶	-12.5342
챠	-12.5358
깅	-12.5364
視	-12.5366
指	-12.5369
曲	-12.5372
魏	-12.5374
찧	-12.5374
玄	-12.538
狀	-12.538
뻬	-12.5382
왁	-12.5382
と	-12.5436
깻	-12.5444
쌩	-12.5462
査	-12.5476
貴	-12.5487
館	-12.5492
鎭	-12.5495
奇	-12.55
點	-12.5516
他	-12.554
멕	-12.5559
띈	-12.5565
ü	-12.5568
渡	-12.557
탭	-12.5576
區	-12.5589
登	-12.56
審	-12.5603
背	-12.5671
靜	-12.5682
夏	-12.5693
項	-12.5704
離	-12.571
爭	-12.5737
핌	-12.5765
衣	-12.579
左	-12.5806
持	-12.5815
向	-12.5823
핼	-12.5829
皆	-12.5837
覺	-12.584
챌	-12.5842
뵐	-12.5859
再	-12.5887
蘇	-12.589
맺	-12.5899
殿	-12.5912
찝	-12.5912
勢	-12.5921
곶	-12.5952
팜	-12.5989
ᅦ	-12.5991
配	-12.6003
斷	-12.6003
雄	-12.6017
構	-12.6037
房	-12.6042
投	-12.6051
흰	-12.6063
誠	-12.6079
哲	-12.6079
젯	-12.6114
略	-12.6117
낫	-12.6121
헥	-12.6145
車	-12.6148
寧	-12.616
損	-12.6183
釋	-12.6186
넝	-12.6191
室	-12.6206
헹	-12.622
짢	-12.6243
큘	-12.6243
쇳	-12.6261
雜	-12.6275
泰	-12.6284
湖	-12.6293
쥘	-12.6299
遊	-12.6313
溪	-12.6316
育	-12.6325
系	-12.6328
電	-12.6346
ᅥ	-12.6348
男	-12.6351
于	-12.6354
夷	-12.6354
尊	-12.6378
뫼	-12.639
組	-12.6398
맸	-12.6401
券	-12.6407
準	-12.6425
莊	-12.6431
夢	-12.6446
勞	-12.6449
п	-12.6461
訟	-12.6466
苦	-12.6502
察	-12.6505
賣	-12.6535
役	-12.6535
팸	-12.6607
씽	-12.6613
還	-12.6625
孔	-12.6649
植	-12.6658
屬	-12.6661
服	-12.6664
藝	-12.6664
票	-12.6701
냔	-12.6704
겅	-12.6725
藤	-12.674
\	-12.6749
굼	-12.6765
仲	-12.678
終	-12.6783
談	-12.6798
僧	-12.6804
갭	-12.6814
휼	-12.6832
血	-12.6844
꿩	-12.686
캬	-12.686
洋	-12.6869
갗	-12.6872
御	-12.6878
素	-12.6906
詞	-12.6912
散	-12.6915
짭	-12.6922
閣	-12.6931
餘	-12.694
夜	-12.6962
黑	-12.6965
쨍	-12.6984
境	-12.6984
잰	-12.7012
丙	-12.7018
移	-12.7028
몹	-12.7037
違	-12.7056
各	-12.7059
線	-12.7091
쐬	-12.7097
才	-12.7116
婦	-12.7126
放	-12.7173
孟	-12.718
望	-12.718
滅	-12.7183
附	-12.7186
伯	-12.7189
著	-12.7211
맑	-12.7219
틋	-12.7231
뛴	-12.7247
陵	-12.7292
꽈	-12.7295
촬	-12.7305
紅	-12.7311
쌔	-12.7314
料	-12.7337
願	-12.7337
置	-12.7353
亭	-12.7363
씸	-12.7363
땄	-12.7386
除	-12.7408
у	-12.7421
辰	-12.7448
듦	-12.7464
施	-12.7464
布	-12.7474
鐵	-12.7487
兒	-12.75
侯	-12.7523
讀	-12.755
執	-12.755
쁨	-12.755
末	-12.756
留	-12.7579
友	-12.7583
竹	-12.7589
嚴	-12.7593
雨	-12.7599
熙	-12.7606
▷	-12.7609
醫	-12.7613
й	-12.7656
喜	-12.7659
깽	-12.7659
貞	-12.7693
邊	-12.7706
に	-12.7706
量	-12.7726
列	-12.773
喪	-12.7737
梅	-12.7743
接	-12.7757
楚	-12.776
右	-12.7767
篇	-12.7787
已	-12.7787
숀	-12.7794
破	-12.7804
옅	-12.7807
믈	-12.7818
習	-12.7828
澤	-12.7859
博	-12.7876
康	-12.7896
讓	-12.7896
更	-12.7896
榮	-12.7906
落	-12.7906
奉	-12.792
收	-12.792
ᄎ	-12.7923
革	-12.7934
端	-12.7941
雪	-12.7948
乃	-12.7961
옐	-12.7985
舍	-12.7996
最	-12.8006
켤	-12.8044
推	-12.8044
긔	-12.8062
味	-12.8062
態	-12.8072
又	-12.8072
波	-12.8079
깟	-12.8097
聯	-12.8135
秀	-12.8153
뇽	-12.8163
適	-12.8167
型	-12.817
엌	-12.8177
魯	-12.8177
寒	-12.8188
買	-12.8188
胡	-12.8191
昭	-12.8198
午	-12.8202
辛	-12.8209
劍	-12.8213
載	-12.8216
弘	-12.823
쩝	-12.823
述	-12.8248
♣	-12.8273
隱	-12.8273
亡	-12.828
◎	-12.8283
둣	-12.8287
я	-12.8287
備	-12.8294
園	-12.8298
淵	-12.8301
柱	-12.8305
協	-12.8333
比	-12.8333
沙	-12.834
낑	-12.8344
具	-12.8358
숴	-12.8405
盡	-12.8405
筆	-12.8445
밈	-12.8459
및	-12.8459
阿	-12.847
댑	-12.8477
曹	-12.8521
땔	-12.8532
助	-12.8547
楊	-12.8558
姓	-12.858
≪	-12.8589
域	-12.8609
樹	-12.8616
退	-12.8616
否	-12.8627
魚	-12.8635
個	-12.8638
借	-12.8646
圓	-12.8649
옳	-12.8657
펭	-12.8675
抗	-12.8727
講	-12.8735
볐	-12.8753
藥	-12.8757
辨	-12.8772
評	-12.8787
틔	-12.8791
킁	-12.8798
얏	-12.881
深	-12.8824
伊	-12.8836
る	-12.8836
邪	-12.8847
헛	-12.8855
팻	-12.8858
봣	-12.8896
牛	-12.8907
寅	-12.8911
젭	-12.8923
恩	-12.8938
逆	-12.8949
왠	-12.8956
泉	-12.8957
燕	-12.8957
銀	-12.8964
惠	-12.8972
單	-12.8991
稅	-12.8999
벵	-12.9014
注	-12.9018
흄	-12.9025
꿉	-12.9025
몄	-12.9045
敵	-12.9048
깰	-12.9064
后	-12.9068
秘	-12.9072
延	-12.9079
沈	-12.9079
純	-12.9087
密	-12.9091
虎	-12.9102
괭	-12.9114
完	-12.9126
β	-12.9141
擔	-12.9141
펐	-12.916
臨	-12.9161
욥	-12.9176
試	-12.9223
뼉	-12.9223
젼	-12.9227
丹	-12.9231
퓰	-12.9235
歲	-12.9242
吏	-12.9242
住	-12.9262
릏	-12.9262
樓	-12.9266
α	-12.9274
額	-12.9309
橋	-12.9313
戒	-12.9317
徒	-12.9345
陸	-12.9361
顯	-12.9372
防	-12.9404
낍	-12.9428
멤	-12.9436
갉	-12.9444
홱	-12.9444
費	-12.9464
飛	-12.9476
婚	-12.9484
슛	-12.9504
假	-12.9532
앜	-12.9553
譯	-12.9557
씰	-12.9557
쾨	-12.9561
鬼	-12.9573
껐	-12.9589
鳥	-12.9597
칡	-12.9597
般	-12.9601
앴	-12.9613
띵	-12.9617
換	-12.965
넜	-12.9658
封	-12.9679
錢	-12.9683
냘	-12.9683
耳	-12.9695
警	-12.9707
影	-12.9732
г	-12.9732
壬	-12.974
뎀	-12.9744
干	-12.9761
越	-12.9765
侍	-12.9765
眼	-12.9769
썸	-12.9781
렙	-12.9835
ä	-12.9856
赤	-12.986
緣	-12.9881
遂	-12.989
좆	-12.9906
履	-12.9915
—	-12.9931
い	-12.994
救	-12.9944
奴	-12.9973
骨	-12.9978
焉	-12.9978
葉	-12.999
群	-13.0011
際	-13.0016
♥	-13.005
籍	-13.0058
ы	-13.0062
算	-13.0067
놋	-13.0084
뗀	-13.0092
訓	-13.0092
童	-13.0101
云	-13.0101
傷	-13.0135
꺄	-13.0169
팰	-13.0169
韻	-13.0178
積	-13.0191
辯	-13.0216
啓	-13.0229
魔	-13.0242
津	-13.0255
隊	-13.0255
乘	-13.0255
肉	-13.026
뎠	-13.0273
帶	-13.0277
꼰	-13.0286
疏	-13.0286
晉	-13.0307
쫀	-13.0316
莫	-13.0321
弟	-13.0325
☆	-13.0325
뗏	-13.0386
鳳	-13.0391
副	-13.0391
角	-13.0408
곯	-13.0413
湯	-13.0426
付	-13.043
督	-13.0474
普	-13.0519
넙	-13.0532
웍	-13.0532
或	-13.0532
깄	-13.0599
雖	-13.0608
쑨	-13.0613
홧	-13.0617
妻	-13.0649
脫	-13.0658
쐐	-13.0658
技	-13.0662
亞	-13.068
浦	-13.0721
멓	-13.0739
追	-13.0762
섀	-13.0767
危	-13.0785
댜	-13.0794
ь	-13.0799
岩	-13.0803
旣	-13.0808
삯	-13.0812
邦	-13.0831
섶	-13.0849
宇	-13.0854
久	-13.0881
獻	-13.0886
稱	-13.089
욘	-13.0891
錫	-13.09
鍾	-13.09
槪	-13.0914
台	-13.0918
쟝	-13.0918
豫	-13.0928
촛	-13.0937
照	-13.0955
廟	-13.0955
坐	-13.0965
隨	-13.0969
烈	-13.0983
卿	-13.0983
切	-13.1011
콸	-13.1025
便	-13.104
固	-13.1063
뗐	-13.1068
紙	-13.1077
免	-13.1086
超	-13.1091
候	-13.1091
껀	-13.1096
舞	-13.1129
姜	-13.1148
專	-13.1167
蘭	-13.1167
듈	-13.1172
짰	-13.1205
し	-13.121
헴	-13.1224
逸	-13.1229
授	-13.1243
鑑	-13.1243
賊	-13.1248
牧	-13.1253
企	-13.1267
演	-13.1277
淨	-13.1281
刀	-13.1301
款	-13.1301
創	-13.1315
賦	-13.1315
盛	-13.1378
繼	-13.1383
귈	-13.1392
誌	-13.1397
庚	-13.1412
蒙	-13.1412
答	-13.1417
禍	-13.1426
惟	-13.1451
庫	-13.1451
뽑	-13.1477
즁	-13.1505
託	-13.1549
닻	-13.1554
斯	-13.1559
妙	-13.1559
僞	-13.1569
毛	-13.1589
乾	-13.1598
텼	-13.1688
負	-13.1723
귐	-13.1733
池	-13.1738
峰	-13.1753
샨	-13.1758
步	-13.1758
ö	-13.1763
待	-13.1763
熱	-13.1768
誤	-13.1774
威	-13.1804
혓	-13.1824
微	-13.1824
졍	-13.1824
綱	-13.1839
뒷	-13.1842
凡	-13.1844
碑	-13.1844
巫	-13.1854
聽	-13.1865
魂	-13.1885
貸	-13.19
펩	-13.19
숄	-13.1911
浮	-13.1921
檢	-13.1926
쭙	-13.1931
均	-13.1941
볏	-13.1957
閔	-13.1962
兄	-13.1993
急	-13.1993
홋	-13.1998
俊	-13.2003
◀	-13.2008
캅	-13.2008
됩	-13.2017
貨	-13.2024
差	-13.2039
店	-13.2055
織	-13.2055
占	-13.2055
剛	-13.206
嶺	-13.2065
冠	-13.207
戊	-13.207
ᄁ	-13.2112
環	-13.2117
з	-13.2117
倫	-13.2128
謀	-13.2164
桓	-13.217
斗	-13.2201
維	-13.2201
庵	-13.2206
廳	-13.2217
쁩	-13.2217
콱	-13.2222
佐	-13.2233
崇	-13.2238
숏	-13.2243
뭍	-13.2307
疑	-13.2334
캥	-13.2339
꽥	-13.2344
б	-13.2344
往	-13.235
띔	-13.236
쏭	-13.236
퓌	-13.236
彦	-13.2366
卯	-13.2371
唯	-13.2376
봬	-13.2387
溫	-13.2387
展	-13.2387
잃	-13.2396
露	-13.2398
導	-13.2479
÷	-13.2484
욤	-13.249
햐	-13.249
셧	-13.2506
엡	-13.2506
攻	-13.2522
製	-13.2538
겊	-13.2544
쐈	-13.2555
厚	-13.2577
呂	-13.2582
앳	-13.2588
倭	-13.2599
닦	-13.2599
寫	-13.2631
鶴	-13.2631
て	-13.2637
믐	-13.2648
ᅩ	-13.2659
亥	-13.267
細	-13.2692
邑	-13.2698
笑	-13.2703
酉	-13.2709
쌉	-13.2709
휑	-13.2787
쩨	-13.2798
墓	-13.2803
괌	-13.282
哀	-13.2826
洲	-13.2837
巳	-13.2843
供	-13.2854
窮	-13.2859
悲	-13.2871
愚	-13.2871
障	-13.2876
庭	-13.2876
賃	-13.2882
克	-13.2882
孤	-13.2887
숩	-13.2888
爾	-13.2899
毒	-13.2904
잊	-13.291
猶	-13.2916
렝	-13.2927
か	-13.2927
“	-13.2929
巖	-13.2938
幸	-13.295
웜	-13.2955
檀	-13.2961
確	-13.2972
納	-13.2972
雙	-13.2972
⇒	-13.2978
介	-13.299
癸	-13.3007
珠	-13.3058
μ	-13.3058
蔡	-13.3064
葬	-13.307
旗	-13.3075
劇	-13.3081
퀀	-13.3093
贈	-13.3104
座	-13.3116
彼	-13.3116
段	-13.3145
◇	-13.315
豊	-13.3173
米	-13.3197
浩	-13.3203
壇	-13.3208
射	-13.3238
似	-13.3243
遼	-13.3243
丑	-13.3249
輕	-13.3249
罰	-13.3296
恨	-13.3308
烏	-13.3314
橫	-13.332
宜	-13.3325
叔	-13.3331
央	-13.3337
慈	-13.3361
쪘	-13.3361
屋	-13.3361
ā	-13.3367
賠	-13.3373
率	-13.3379
拜	-13.3396
標	-13.3396
丘	-13.3444
た	-13.345
依	-13.3468
ᅢ	-13.3486
奎	-13.3498
割	-13.351
뼘	-13.3522
陶	-13.3528
恒	-13.3552
增	-13.3564
署	-13.357
息	-13.3582
첵	-13.3594
퀄	-13.3594
叢	-13.3606
顔	-13.3631
쉿	-13.3643
到	-13.3673
懷	-13.3673
狂	-13.3679
왑	-13.3691
那	-13.3716
ч	-13.3734
據	-13.3734
츨	-13.374
戌	-13.3753
墨	-13.3771
匠	-13.379
刊	-13.3808
뵌	-13.3808
띄	-13.3809
貢	-13.3821
쉘	-13.3821
優	-13.3827
嘉	-13.3833
勿	-13.3833
蓮	-13.3864
晋	-13.387
떵	-13.3933
雅	-13.3933
晩	-13.3977
셩	-13.3995
◈	-13.3995
且	-13.4015
侵	-13.4027
▣	-13.4033
쎈	-13.4052
汝	-13.4059
徵	-13.4122
쿰	-13.4122
伏	-13.4122
妃	-13.4135
慧	-13.4135
̊	-13.4135
劃	-13.4154
憂	-13.4154
郭	-13.4161
洙	-13.4167
밝	-13.418
曾	-13.4186
季	-13.4186
ᅣ	-13.4193
倉	-13.4199
巨	-13.4206
陣	-13.4212
튈	-13.4218
材	-13.4244
衡	-13.4257
着	-13.4289
尾	-13.4289
甘	-13.4296
宰	-13.4316
걷	-13.432
̄	-13.4348
翼	-13.4355
셌	-13.4355
哉	-13.4355
悟	-13.4355
覽	-13.4368
班	-13.4381
揚	-13.4387
箕	-13.4394
盧	-13.4394
降	-13.44
–	-13.4407
顧	-13.4427
就	-13.4427
岡	-13.444
勇	-13.4446
隆	-13.446
솝	-13.4466
꿎	-13.4486
短	-13.4493
쌓	-13.4498
龜	-13.4506
愼	-13.4506
須	-13.4513
띨	-13.4532
勤	-13.4546
階	-13.4546
廢	-13.4566
賤	-13.4572
洛	-13.4579
淳	-13.4586
′	-13.4606
獄	-13.4613
休	-13.4619
뎃	-13.4619
恭	-13.4639
켐	-13.4639
廷	-13.4646
翁	-13.4646
う	-13.4646
殷	-13.466
픕	-13.4687
脈	-13.4693
宿	-13.47
♡	-13.47
錦	-13.47
甚	-13.47
ː	-13.4734
윅	-13.4741
톈	-13.4741
包	-13.4741
忘	-13.4761
軒	-13.4775
卒	-13.4782
壁	-13.4795
遷	-13.4802
寂	-13.4816
な	-13.4829
ᄑ	-13.4836
討	-13.4857
允	-13.4857
┬	-13.4864
쇤	-13.4864
弱	-13.487
빕	-13.4877
飮	-13.4884
宅	-13.4884
を	-13.4891
ᅭ	-13.4919
甫	-13.4974
С	-13.4974
騎	-13.4981
蓋	-13.4981
荷	-13.4981
紫	-13.4988
빻	-13.4995
看	-13.5002
禹	-13.5002
冊	-13.5065
鳴	-13.5065
겉	-13.5091
庸	-13.5107
希	-13.5114
祥	-13.5114
묽	-13.5114
홑	-13.5135
庶	-13.5142
弓	-13.5149
敗	-13.5149
舜	-13.5156
뮐	-13.5163
힝	-13.5171
充	-13.5171
症	-13.5178
秉	-13.5185
х	-13.5199
杜	-13.5199
幻	-13.5206
譜	-13.5213
健	-13.5242
賞	-13.5263
整	-13.5263
뷸	-13.527
탯	-13.527
麻	-13.527
棄	-13.5277
扶	-13.5277
貧	-13.5285
튤	-13.5292
擊	-13.5292
了	-13.5299
盟	-13.5299
岳	-13.5313
尺	-13.532
盜	-13.532
툇	-13.5328
肅	-13.5328
캣	-13.5335
윳	-13.5364
輪	-13.5371
刻	-13.5378
옻	-13.5378
瑞	-13.54
簡	-13.54
뺌	-13.5407
羽	-13.5414
震	-13.5443
は	-13.5451
곪	-13.5473
征	-13.548
圍	-13.548
놉	-13.548
秩	-13.5495
ᄊ	-13.5531
幽	-13.5531
띌	-13.5539
́	-13.5575
땋	-13.5575
넴	-13.5583
稿	-13.5612
遇	-13.5672
桂	-13.5679
停	-13.5679
얍	-13.5694
ᆡ	-13.5717
潮	-13.5717
謙	-13.5717
鏡	-13.5724
煥	-13.5731
잴	-13.5739
席	-13.5746
윷	-13.5762
値	-13.5777
災	-13.5792
룹	-13.5794
謝	-13.5799
塔	-13.5807
綠	-13.5807
旅	-13.5814
暴	-13.5822
彌	-13.5829
燈	-13.5829
束	-13.5845
♤	-13.5867
皮	-13.589
뵀	-13.5898
伐	-13.5913
板	-13.5944
戱	-13.5951
避	-13.5951
曆	-13.5951
球	-13.5959
끊	-13.5966
鴻	-13.5982
祿	-13.6013
銘	-13.602
閑	-13.602
層	-13.6051
走	-13.6059
符	-13.6075
넵	-13.6082
樣	-13.609
冬	-13.609
겡	-13.6145
殘	-13.6152
殊	-13.616
嘗	-13.616
옭	-13.6184
겜	-13.6184
獸	-13.6199
냑	-13.6199
ц	-13.6199
巡	-13.6207
兼	-13.6215
떫	-13.6223
빚	-13.6227
닼	-13.6239
只	-13.6254
り	-13.6255
却	-13.6262
씻	-13.6268
諫	-13.6278
盤	-13.6286
忍	-13.6286
톳	-13.631
穴	-13.6318
片	-13.6326
뎁	-13.6334
굳	-13.6346
擇	-13.635
怒	-13.635
羊	-13.6366
競	-13.6374
掌	-13.6374
壯	-13.6414
尉	-13.6414
훠	-13.6414
每	-13.643
敢	-13.6438
呼	-13.6446
咸	-13.6454
豈	-13.647
亨	-13.6478
蛇	-13.6494
卦	-13.6494
疾	-13.6502
舟	-13.6518
賜	-13.6518
岸	-13.6535
̈	-13.6544
ン	-13.6559
胎	-13.6567
敦	-13.6567
텄	-13.6567
훙	-13.6575
減	-13.6575
贊	-13.66
琴	-13.6608
è	-13.6616
倂	-13.6616
級	-13.6649
暗	-13.6657
炳	-13.6665
幕	-13.6674
셍	-13.669
患	-13.6699
批	-13.6715
닢	-13.6715
す	-13.6715
課	-13.6756
뿅	-13.6756
긿	-13.6781
穀	-13.6798
賀	-13.6806
퀼	-13.6815
模	-13.6815
街	-13.6823
、	-13.6832
넼	-13.6848
뎈	-13.6848
港	-13.6864
鬪	-13.6865
召	-13.6865
慾	-13.6873
圭	-13.6873
簿	-13.689
鼓	-13.6899
但	-13.6907
錯	-13.6916
桃	-13.6932
某	-13.6941
町	-13.6949
幾	-13.6949
融	-13.7
丈	-13.7017
唱	-13.7026
怨	-13.7026
豪	-13.7034
❶	-13.7043
왤	-13.7043
痛	-13.7043
쥴	-13.706
況	-13.706
ん	-13.7094
驛	-13.7103
祀	-13.7103
잌	-13.712
坤	-13.7138
寄	-13.718
뜀	-13.718
茂	-13.7189
곸	-13.7198
丸	-13.7215
堯	-13.7215
淑	-13.7215
삑	-13.7215
퀵	-13.7232
潤	-13.7241
❷	-13.725
摩	-13.7311
떻	-13.7313
裝	-13.732
淫	-13.7346
鷄	-13.7346
枝	-13.7355
早	-13.7373
졋	-13.7382
仰	-13.7382
弼	-13.739
롄	-13.739
歐	-13.7435
寡	-13.747
⁄	-13.7488
耶	-13.7489
菩	-13.7497
鼎	-13.7506
珍	-13.7515
葛	-13.7524
耕	-13.7533
떄	-13.7533
怪	-13.7551
排	-13.7551
뢴	-13.7551
튬	-13.7578
卑	-13.7596
互	-13.7596
混	-13.7605
폿	-13.7605
碧	-13.7632
妄	-13.7641
ら	-13.765
鐘	-13.7659
퉤	-13.7659
驗	-13.7659
좦	-13.7668
輔	-13.7678
き	-13.7678
佳	-13.7705
薄	-13.7714
뙤	-13.7732
좥	-13.7732
振	-13.7742
←	-13.7751
욧	-13.7751
銅	-13.7778
雷	-13.7787
눗	-13.7806
複	-13.7806
奏	-13.7824
탓	-13.7834
薩	-13.7861
쳉	-13.7861
折	-13.7871
崎	-13.7871
芳	-13.7899
沒	-13.7917
촤	-13.7917
쾰	-13.7917
勳	-13.7926
ア	-13.7936
婢	-13.7936
敍	-13.7945
∷	-13.7973
偏	-13.7973
ж	-13.8001
藩	-13.8011
恐	-13.802
お	-13.803
ス	-13.8058
浪	-13.8058
敏	-13.8067
く	-13.8067
벧	-13.8077
σ	-13.8096
凶	-13.8096
궜	-13.8096
퉈	-13.8105
が	-13.8124
灣	-13.8143
涉	-13.8172
麟	-13.8182
穆	-13.8191
П	-13.823
홰	-13.8249
余	-13.8249
걔	-13.8287
映	-13.8288
힉	-13.8297
寬	-13.8297
뀜	-13.8297
輿	-13.8307
셴	-13.8336
訥	-13.8336
頌	-13.8346
祠	-13.8356
け	-13.8356
昇	-13.8375
泳	-13.8375
夕	-13.8404
〃	-13.8424
웩	-13.8463
揭	-13.8473
操	-13.8483
慣	-13.8483
靖	-13.8493
〓	-13.8493
覇	-13.8513
堅	-13.8513
峯	-13.8522
꽹	-13.8523
抵	-13.8542
輯	-13.8542
젬	-13.8542
ル	-13.8542
迷	-13.8552
걘	-13.8562
慕	-13.8572
兮	-13.8572
貫	-13.8582
휀	-13.8612
뒈	-13.8632
곗	-13.8652
つ	-13.8662
К	-13.8672
諾	-13.8672
も	-13.8672
塵	-13.8692
鹿	-13.8702
腹	-13.8733
鉉	-13.8733
妓	-13.8733
遡	-13.8733
겻	-13.8743
슌	-13.8794
油	-13.8804
擬	-13.8804
祝	-13.8824
尼	-13.8834
森	-13.8865
뮨	-13.8906
援	-13.8916
賓	-13.8948
얔	-13.8958
廉	-13.8968
刺	-13.8968
虞	-13.8979
샜	-13.902
◐	-13.903
숑	-13.903
뽈	-13.9041
拒	-13.9051
翰	-13.9051
兪	-13.9062
窓	-13.9062
忽	-13.9083
촨	-13.9083
舶	-13.9083
れ	-13.9093
狗	-13.9104
낵	-13.9104
랖	-13.9104
潭	-13.9125
賈	-13.9125
忌	-13.9135
柔	-13.9135
깥	-13.9172
蜀	-13.9188
勸	-13.9199
뀝	-13.9199
졔	-13.9209
荒	-13.9209
貿	-13.923
❸	-13.9241
ο	-13.9252
彈	-13.9252
삥	-13.9252
慮	-13.9252
緊	-13.9252
갰	-13.9348
쳔	-13.9348
鎬	-13.937
熊	-13.937
裏	-13.937
屈	-13.9391
租	-13.9391
傾	-13.9391
迎	-13.9413
姬	-13.9413
漸	-13.9434
打	-13.9435
±	-13.9445
犬	-13.9467
低	-13.9467
衰	-13.9489
ま	-13.95
淮	-13.9511
尋	-13.9522
默	-13.9544
낳	-13.9546
斥	-13.9555
招	-13.9566
튄	-13.9566
冷	-13.9588
λ	-13.9599
坊	-13.9599
塞	-13.9599
漁	-13.9599
底	-13.961
朔	-13.9621
索	-13.9632
芝	-13.9632
熟	-13.9643
奈	-13.9654
В	-13.9687
欺	-13.9687
갬	-13.9698
幼	-13.9721
倒	-13.9721
郎	-13.9732
쉭	-13.9754
速	-13.9766
짹	-13.9777
栗	-13.9799
播	-13.9822
稷	-13.9822
杖	-13.9833
床	-13.9856
듐	-13.9878
낏	-13.989
캤	-13.989
潛	-13.989
휜	-13.9901
缺	-13.9901
曉	-13.9913
蒼	-13.9924
헙	-13.9935
燮	-13.9935
返	-13.9947
틉	-13.9947
꽤	-14.0192
릎	-14.0922
눠	-14.231
밌	-14.3005
묶	-14.3613
뚫	-14.6652
뭡	-14.7233
쫌	-15.0322
겪	-16.0458
󰋼	-16.0458
